#version: 0.2 - Trained by `huggingface/tokenizers`
a a
aa aa
0 0
A A
A aaaa
aa a
00 00
Ġ Aaaaa
Ġ aaaa
AA AA
A aa
A aaa
Ġ 00
AA A
Aaaaa a
aaaa a
" "
ĠAaaaa a
Aaaaa aa
Ġ aa
00 0
Ġ aaa
ĠAaaaa aa
Ġ Aaaa
Aaaaa aaa
Ġ 0000
Aaaaa aaaa
Ġaaaa aaaa
Ġ 0
Ġ AAAA
Ġ A
Ġaaaa a
ĠAaaaa aaa
Ġ AA
Ġ Aaa
ĠAaaaa aaaa
Ġaaaa aaa
Ġaaaa aa
Ġ AAA
Ġ (
Ġaaaa aaaaa
Aaaaa aaaaa
aaaa aa
ĠAAAA AAAA
ĠA a
Ġ a
aaaa aaaa
Ġ -
ĠAaaaa aaaaa
AAAA AAAA
A a
Ġaaaaaaaa aa
0000 00
Aaaaaaaaa aa
AAAA A
. "
ĠAAAA A
ĠAAAA AA
aaaa aaa
Ġaaaaaaaa aaa
0000 0
AAAA AA
ĠAaaaaaaaa aa
ĠAAAA AAA
Ġ00 0
AAAA AAA
aaaa aaaaa
Aaaaaaaaa aaa
Ġaaaaaaaa aaaa
Ġaaaaaaaa aaaaa
ĠAAAAAAAA A
aaaaaaaa aaa
Ġ &
. .
ĠAAAAAAAA AA
AAAAAAAA A
Ġ0000 0000
) "
ĠAaaaaaaaa aaa
0000 0000
0000 000000
Ġ0000 0
aaaa aaaaaa
Aaaaaaaaa aaaa
AAAAAAAA AA
ĠAaaaaaaaa aaaa
Ġ /
ĠAAAAAAAA AAA
. ;
. ,
Ġ0000 000000
- -
) ,
.. .
Ġ [
ĠAaaaaaaaa aaaaa
aaaaaaaa aaaa
) .
Aaaaaaaaa aaaaa
Ġ *
Ġ #
Ġaaaaaaaa aaaaaa
Aaa Aaaa
* *
0000 000
Ġ ,
Aaaa Aaaa
AAAAAAAA AAA
ĠAAAAAAAA AAAA
Ġ* "
aaaaaaaa aaaaa
Aaa Aaa
Ġa A
Ġ :
Ġ +
? ?
Aa Aaaa
** )
ĠAaa Aaaa
ĠAa Aaaaaa
.. ."
ĠAAAAAAAA AAAAA
AA a
Aa Aaaaa
. )
ĠAa Aaaaa
Ġ >
Ġaaaaaaaa aaaaaaa
Ġ $
ĠAa Aaaa
Aa Aa
Aaaaaaaaa aaaaaa
ĠAaaaaaaaa aaaaaa
Aaaa Aaaaa
ĠAaaAaaa AA
Aa Aaaaaa
aaaaaaaa aaaaaa
, "
Aaaaa Aaaa
) )
Aaaaaa Aaaa
ĠAAA a
Aa A
AA aaaa
Aaa Aaaaaa
ĠAaaa Aaaaa
Aaaaa Aaaaa
ĠAA a
Aaaa Aaaaaa
" -
AAAAAAAA AAAA
aaaaaaaa aaaaaaa
AAAA a
-- -
Ġ0000 00
: /
Aaaaaa Aaaaa
Aa Aaa
) ;
ĠAa A
Aaaaaa Aaaaaa
ĠAa Aaaaaaa
AA aaa
00000000 0000
Ġ0000 00000
a Aa
Aaa Aaaaa
:/ /
) :
a A
ĠAAAAAAAA AAAAAA
Aaaaaaaa Aaaaaa
Aaaa Aaa
Ġ =
AAAAAAAA AAAAA
Ġ .
_ _
Aaaaaa Aa
Ġ @
" $
Ġ |
Aaaaa Aaa
aaaaaaaa aaaaaaaa
Aaaaaaa Aaaa
Aaaaaa Aaa
AAA a
) ."
0000 00000
Ġaaaaaaaa aaaaaaaa
Ġ0000 000
Aaa Aa
a Aaaaaaaa
Aaaaa Aaaaaa
AA aa
AAAA aaaaa
Aaaa Aaaaaaa
+ )
Aaaaaaaa Aaaa
Ġ %
Ġaaaa AAAAa
ĠAa Aaa
aaaaaaaa aaaaaaaaaaa
% )
Ġaaaa AaaaaaAa
Aaaaa A
ĠAaa Aaaaaa
" (
ĠAA aaa
Aa Aaaaaaa
Ġ ?
Aaaaa Aaaaaaaa
: (
Ġ ...
Aaaa A
ĠAaaaa Aaaaa
] "
+ **
ĠAaaa Aaaa
ĠAAAA a
Aaaaaa Aaaaaaa
Aaa A
( )
| -
Ġaaaaaaaa aaaaaaaaa
ĠaaaaAAAAa AaaaaaAaaa
ĠAaa Aaaaa
Aaaaaaaa Aaaaa
Ġ )
ĠAaaa Aaaaaa
ĠAa Aaaaaaaa
. )"
( +)
\ ""
.. ..
Aaaaaaa Aaaaaaaa
. -
$ $
, ..."
Aaaaa Aaaaaaa
Aaaaaaaaa aaaaaaa
) -
aaaaaaaa aaaaaaaaa
Aaaaaaa Aaaaaaa
Aaaa Aaaaaaaa
ĠAa Aa
AA Aaaa
00000000 00000
aa AA
ĠAaaaa Aaaa
00000000 000
a AA
|- |-
? )
Aaaaaaa Aaaaa
Aaaaaa A
ĠAA aaaa
Aaaaaaaa Aaaaaaa
Ġa AAA
Aaaaaa Aaaaaaaa
Aaaaaaa Aaaaaa
Ġ !
Aaaaaaaa Aaa
ĠAaaaaaaaa aaaaaaaaa
= =
Aaa Aaaaaaa
! !
... @
AAAAaaaaa Aaaaaa
ĠAaaaa Aaa
Aaa AAa
ĠAaa Aa
aaaa Aaaaaa
ĠAA Aaaaaa
?? ?
ĠAaa Aaa
Aaa AA
Ġ> >
Ġ {
ĠAaa A
AAAA aa
AA aaaaa
AAAAAAAA AAAAAA
ĠAaaaaaaaa aaaaaaa
ĠAA Aaaaa
ĠAA Aaaa
Aaaaaaaaa aaaaaaaa
AA Aaaaa
Ġa Aaa
a Aaaaa
** *
Ġa Aaaaa
Ġ>> >
a AAA
AaaAaaa Aaaa
Ġ- -
Aaaaaaaaa AaaAaaa
: :
Ġaaaaaaaaaaaa aaaaaa
Aa AA
__ __
Ġ ~
Aaaaaaaa Aaaaaaaa
+ +
ĠAaaaaaa Aaaaa
ĠAA Aaaaaaa
Ġ00000000 00000
ĠAAAAAAAA AAAAAAA
AaaaAaaa Aaaa
ĠAaaaaa Aaaaaa
Aa Aaaaaaaa
Aaa Aaaaaaaa
+ /
AAAA Aaaaa
ĠAaaaaaa Aaaa
-- --
ĠAA aaaaa
ĠAaaaaa Aaaa
! "
ĠAA aa
Ġ( %)
" \""
\"" "
"\"" \"""
... )
Aaaa Aa
Aaaaa Aaaaaaaaa
Aaaaaaa Aaa
AAAA aaaaAaaaaa
aaaaaaaa aaaaaaaaaa
Aaaaa AAA
Aa AAA
Ġaaaa Aaaaaa
Ġ ..
AA Aaaaaa
ĠAaa Aaaaaaa
ĠAaaaa AAAAAaaaa
Aaa AAA
AaAaaaaa Aaaaaa
ĠAA Aaaaaaaa
a Aaaaaa
/ )
ĠAaaa AA
Aaa Aaaaaaaaa
AAa A
) ..
ĠaaaaAaaaaa AaAaaaaaAaaaaa
Aaaaa Aa
Aaaaa AA
ĠaaaaAaaaaaAa AAAAaaaaaAaaaaa
ĠAa AA
Aaaa AA
. :
Ġ( $
a Aaa
Ġa Aaaaaa
Ġ _
ĠAaaaa Aaaaaa
AaaaaAaaa AaaAaa
aaaaa AAAA
Aaaa AAA
" ,"
ĠAaaaaaa Aaaaaaa
AAAAaa Aaaa
_ (
00000000 000000
+/ -
AaAaaa Aaa
) (
Aaaaaa Aaaaaaaaa
aaaaaa Aaa
[ ]
Ġaa AAA
? "
Aaaaaaa A
_( %)
ĠAaaa Aaa
Ġa AA
Ġ( #
" [
ĠAA Aaaaaaaaa
aaaa Aaaaa
AAAA aaa
Aaaaaaaaaa Aaaaaaa
Aaaa Aaaaaaaaa
Aaaaaaaaaaa Aaaaaaaa
aa Aaaaa
?? /
ĠAAAA aaa
ĠAAAAAAAA AAAAAAAAAA
ĠAa Aaaaaaaaa
== ==
Ġ Ġ
??? /
Aaaaaaaaaa Aaaa
AA aaaaaa
Aaaaaaaaa AaaaAaaa
: "
Aaaaaaaa Aaaaaaaaa
Ġ( ?)
AAAA aaaaaaa
& &
- $
AA Aaaaaaa
Ġ ;
ĠAaaaaaaaa aaaaaaaa
Ġ <
Ġaaaaaaaa aaaaaaaaaaa
Aaaaaa AaaaAaaaa
} }
?? ??
Aaaaaaaaaa Aaaaa
Aaaaaaaaa aaaaaaaaa
ĠAaaa Aaaaaaa
Aaaaa AaaaAaaa
Ġa Aa
Ġ( -
Aaaaaa Aaaaaaaaaa
` `
ĠaaaaAAAAaAaaaaaAaaa AAAAaaaaaAaaaaa
ĠaaaaAAAAaAaaaaaAaaa AAAAaaaaAaaaaa
AAAAAAAA AAAAAAA
" #
|-|- |-|-
Aaaaaaaaa Aaaa
Aaaaaaaa AaaaAaaa
{ {
_(%) _
Aaa Aaaaaaaaaa
- (
Ġ ]
Aaaaaaa Aa
aaa Aaaaa
aaaaaaaa aaaaaaaaaaaa
AaAaaa A
$$ $$
Aaaaaaaaaaaa Aaaaaaa
- "
. ."
Ġa Aaaa
* "
ĠAA aaaaaa
. /
. (
! )
ĠAaa AAA
Aaaaaa AaaaAaaa
ĠAA Aaa
a AAAA
? ]
AAAAAA aaaaaaa
Aaaaaaaaaaaaa Aaaaaaaa
Aaaaaaaaa Aa
+ ,
aaa Aaaa
00000000 0000000
__ _
ĠAA Aaaaaaaaaa
Ġ( )
ĠAaaaaa Aaaaa
] [
Ġaaaaaaaa AaaAaaa
a Aaaa
Ġ( ?
ĠAaaaa Aaaaaaa
Ġaaaaaaa AaaAaaa
Aaaaaaaaa Aaaaaaaa
" =
AaaaaaAaaaAaaaa Aaaaaa
Aaaaa Aaaaaaaaaa
ĠAa AAA
Ġaaaa AaaaaAaaa
ĠAaa AA
ĠaaaaAAAAaAaaaaaAaaa AAAAaaaaa
ĠaaaaAAAAa AaaaaaAaaaAaaaaAaaaaa
Ġaaaa AaaaaaaaaaaaAaaaaaa
ĠaaaaAaaaaaAa AaaaaaaAaaaaaa
ĠaaaaAaaaaaAa AAAAaaaaaaa
ĠaaaaAAAAaAaaaaaAaaa AAA
ĠaaaaAAAAaAaaaaaAaaaAAAAaaaaa AaaaaaAa
Ġaaaa AaaaaaaaaaAaaaaaa
Aaaa AaaAaaa
AAAAaaaaa AaaaaaAaaaaa
ĠaaaaAaaaaaAa AAAAaaaaAaaaaa
ĠaaaaAaaaaaAa AAAAaaaaaAaaaaaAaaaaa
ĠaaaaAaaaaaAaAaaaaaAaaaaa AAAAAAaaaaaaa
ĠAaaa AAA
Ġ ??
% ]
ĠAaa Aaaaaaaa
Ġ[ %]
Aaaaaaaaaa AaaaAaaa
. ),
a AAAa
Ġaa Aaaaaa
Ġ ..."
Aaaaaaaaa Aaaaa
Ġ( +
AA aaaaaaa
Aaaaaaa AAA
AA Aaa
Aaaaaaaaa Aaaaaa
- [
ĠAaaaaa AA
" ___
" +
Aaaaaaaaa Aaaaaaa
AAAA aaaa
Ġ- >
. *
[ ?]
aaaa Aaaa
; "
!! !
Aa Aaaaaaaaa
aaa A
). )
Ġ* **
ĠAaa Aaaaaaaaa
____ ____
" /
aaaa Aaaaaaa
Aa AAAAAA
00000000 00000000000000
Ġ- "
] ,
Aaaaaaaaa aaaaaaaaaaa
) |
ĠAaaa AAAA
ĠAAAAAAAA AAAAAAAA
Aaaaaaaaa aaaaaaaaaa
ĠAA aaaaaaa
** ***
Aaaaaaaa Aa
AaaaAaaa AaaaAaaaa
aa Aaa
? ,
00000000 0000000000000
aaaaa Aaaa
] .
Aaaaaaaa A
Aaaaaaaaa Aaa
AaAa A
ĠAaaaaaa Aaaaaa
Aaaaaaaaaaa Aaaa
Aaaaaaaaaaa AaaaAaaa
AA Aaaaaaaa
AAAAAAAA AAAAAAAA
aa Aaaaaa
Aaaaaa AA
Aaaaaaa AaaAaaa
Ġ( "
Aaaaaaaa AA
aAA aaaaaa
AAAA aaaaaa
- ..
Ġ> "
** **
ĠAAAA aa
ĠAaa AaaAaaaaa
ĠAaa AaaaAaaa
ĠAaaaaa Aaaaaaa
==== ====
AaaaaAaaaa Aaaaa
aaaaaaaa aaaaaaaaaaaaaa
ĠAAa A
Aaaaaaa AaaaAaaa
Aaaaaaaa Aaaaaaaaaa
Aaaaaaaaa AA
.... ....
Aaaaaaaaaaa Aaaaaaa
AaaAaaa AaaaAaaa
Ġaaaaaaaaa Aa
Aaaa AAAA
aaaa Aaa
Ġ/ /
- )
ĠAaaaaa Aaa
Aa AAAAA
aaaaaaa Aaaa
Ġaaaaaaaa aaaaaaaaaaaa
AAaa AA
Aaaaaaa Aaaaaaaaa
AaAa Aa
Aaaa Aaaaaaaaaa
Aaaaaaa AA
Ġ( >
= +
AaaAaa Aaa
ĠAaaaaaa AA
ĠAaaa Aaaaaaaa
. ?
Aaaaaaaaaaaaa Aa
" ,
ĠAa AAAA
aa A
AaaaaaaaAaaaa AA
Ġ(? ).
.) ;
aaaaa Aaaaa
ĠAA aaaaaaaaa
aaaaaa Aaaaaaaa
AAAA Aaaa
] ]
Aaa AaA
Ġaaaaaaaa Aa
!! !!
Aaaaaaaaa Aaaaaaaaa
/ "
Aaaaaa AAA
ĠAaaaa AAA
aaaaaa Aaaa
Aaaaaaaaaa Aaaaaa
&& &&
ĠAAaa Aaaaaaaa
# #
Aa AAAA
aaaaaaaa aaaaaaaaaaaaa
AaaaAaaaa Aaa
aaa Aaaaaa
aaaa Aaaaaaaa
Ġa AAAA
AaaaAaaaa AaaaAaaa
... ."
AaaAaaa Aaa
AaaaAaaaaa Aaaaa
aaaaaaaa Aaaa
AaaaaaaAaaaa AaaaAaaa
AA Aaaaaaaaa
Ġaaaaaa Aa
Ġaa AA
AaaaAaaa Aaaaa
~ *
Aa AaaaAaaa
... ]"
AaaaAaaaa Aaaa
ĠAaaa A
[] ,
Aaaaaaaaaa Aaa
AaAa Aaa
+ ."
# "
\ \
AAAAAAA aA
ĠAaaaaaaaa Aaaaaaa
Ġaaaaaa AaaAaaa
Aaaaaaaaa Aaaaaaaaaaaa
Ġ, (
-- _
aa AAA
( ),
AAAA Aa
> =
Ġ00000000 000000
AAaa AaaaaaaaAaaaaaa
ĠAaaaaaaaa aaaaaaaaaa
Ġ~ /
. ]
* .
+ .
, ?
aaaa Aaaaaaaaa
Ġaaaa Aaaaaaaa
AAaa Aaaaa
$$$$ $
ĠAaa Aaaaaaaaaa
- ,
Ġ( .
:// ,
aaaaaa Aaaaa
Ġ* *
Ġaaaaa AaaAaaa
Aaaaaaa Aaaaaaaaaa
Aaaaaaaaaa AaaAaaa
[ ...]"
AA aaaaaaaaa
ĠAaaaa Aaaaaaaa
Aaaaaaaaaaa Aa
, ,
Ġaa Aaaaa
Ġaaaaaaaa AAAAAAA
ĠAAAA Aaa
* ~
ĠAaaaaaa AaaaAaaa
ĠAaaaa A
AAaa AaA
AaaaaaAaaaa Aaaaaaa
aaaaaa Aaaaaa
ĠAaaaaaa AAA
) /
Ġaaa A
ĠAAAA Aaaaa
Ġ, "
? ."
Aaaaaaaaaaa Aaaaa
Aaaaaaaaaa Aaaaaaaaa
% .
( (
ĠAaaaaaaa Aaaaaaa
|-|-|-|- |-|-
ĠAaaaa AA
ĠAaaaaaaaa Aaaa
< =
] -
Aaaa AaAaaa
AaaAaaa Aaaaa
aaaaaaaaaaaaaaaa aaaaaaaa
) *
% ,
/ -
AA aaaaaaaa
- >
AAAA aaaaaaaaaaaa
Aaa AaaaaaAaaa
- %
ĠAaaaaa AaaaaAaaaaaa
Ġaaaaaaa Aa
$ )
ĠAaa AAAA
] -[
ĠAaaaaaa Aaa
a Aaaaaaa
Ġ( );
AaAaaaa AaaaaAaaaAaaa
Ġaaaaaaaaa AaaAaaa
Aa AAa
ĠAAAAAAAA AAAAAAAAA
AaaaAaaaa Aaaaa
. [
. ?"
) )"
Aaaaaaaaaaa Aaaaaaaaa
AaaaaaAaaa Aaa
Aaa AaAaaaaa
ĠAAAA aaaaa
ĠAaaaaaaa AaaaAaaa
AaAaaaa Aaaaaaa
ĠAaaaaa Aaaaaaaaa
+ ).
a AaAa
Ġaaaa AaaaaaAaa
ĠAAaaa AaaaAaaa
AAAAaa A
+ _
/ .
Ġ ???
Aaa AAAA
Aaaaaaaaaaa Aaa
Aaaaaaa Aaaaaaaaaaaa
$$ $
Aaa AaaAaaa
Ġaa Aaaa
Ġ] .
ĠAaaaaaa A
ĠAAAA Aaaa
ĠAAAAAAAA AAAAAAAAAAA
ĠAaaaaaaaaa AaaaAaaa
aaaa A
AaaaaaAaaaaaaaaa Aaa
Aaaaa AAAA
ĠAA Aaaaaaaaaaa
Ġ[ [
) ]
aaaaa A
Ġaaa Aaaaa
aaaaaaa Aaaaaaaa
a AaA
Ġ )"
Ġaaaaaaaa aaaaaaaaaaaaa
ĠAAAA Aaaaaa
? .
ĠAaaaaaaaa AaaaAaaa
Aaaaaaaaaaa Aaaaaa
aaaa Aaaaaaaaaa
Ġ `
Aaaaaaa AaaaaAaaa
ĠAaaaaaaa Aaaaaaaa
... );
- /
} "
Aaa AaaaaAaaa
AAA aA
ĠAAAA Aa
AaaaAaaa Aaaaaa
ĠĠ ĠĠ
aa AAaaa
ĠAAAA Aaaaaaa
AaAaa A
AAaa A
" *
ĠAaaaaa Aaaaaaaaaa
aaaaa Aaa
.. /
AaAaaa Aa
Ġ ."
Ġ< =
aa Aa
ĠAaaaaaaa Aaaa
aaaaaaaaaaaaa Aa
ĠaaaaAAAAa AaaaaaAaaaAaaa
ĠaaaaAAAAaAaaaaaAaaa AaaaaaAaaaaa
`` "
aaaa AA
* ,
[ [
a AAa
Aaa AaAa
Ġ( *
Aa Aaaaaaaaaaa
Aa AAaA
/ ?
aa Aaaaaaa
Aa AAAAAAA
Ġ ^
Ġaaaaaa Aaaa
ĠAaaaaaaaaa Aaaaaa
ĠAaaa AaaaAaaa
aaaaaa Aaaaaaaaa
** )"
AaaAaa Aaaaa
ĠAA aaaaaaaa
ĠAaa Aaaaaaaaaaaaa
ĠAaaaaaaaa AaaaAaaaaaa
ĠAAAA aaaa
aaaaaa A
........ ........
AaaAaa AA
Ġ ))
Aaaaa AaaAaaa
Ġaaaaaaaa aaaaaaaaaaaaaa
ĠAaa AaAaa
aaaaaaa Aaaaa
aaaaaaaaaaaa Aa
= -
ĠAaaAaaa Aaaaaaa
Aaaa AAaaaa
ĠAAAA Aaaaaaaa
ĠAA Aaaaaaaaaaaa
ĠAaaaaa Aaaaaaaa
)- "
Aaaaaa AaAa
AAaaaa AaaaaaAaaaa
AaaaAaaaaa Aaaaaaa
======== ========
+ )"
Ġaaaaa Aaaaa
Ġa AAAa
aaaaaaaa aaaaaaaaaaaaaaa
ĠAaaAaaa Aaaaaaaaaa
.) ]
aaaa AaaaaAaaa
ĠAaaaaaa Aaaaaaaaa
Ġ( +)
! )"
aaaa AaaaaAaaaa
ĠAAAA AaaaaaAaaaaaaa
____ _
aa Aaaa
Ġ> =
Ġ{ {
Ġ= =
Aaaaaaaaaa Aaaaaaaa
Ġ?? .
ĠAaaa Aaaaaaaaa
ĠAAAA AaaaaaaAaaaaa
AaaaAaaa Aaaaaaa
ĠAaaa Aa
Aa Aaaaaaaaaa
AaaAaaaaa Aaaaaa
Ġ? "
) #
: -
AAAA Aaaaaaa
Ġaaaaa Aa
AAaaaa AaaaAaaa
ĠAAAAAaaaaaaa AaaaAaaaAaaa
Aaa Aaaaaaaaaaa
Aaa AaaaaAaaaa
ĠAAAA AaaaAaaa
ĠAaa AaaAaaaaaa
aaaaaaaaaaaaaaaa aaaaaaaaaaaaa
Ġaaaa AAAA
Aaaaaa Aaaaaaaaaaa
AAAAAAAA AAAAAAAAA
= ../
aaaa AaaaaaaAaaa
ĠAAAA AaaaAaaaaAaaaAaaa
ĠAAAA AaaaaaaAaaaaAaaaAaaa
AAa Aaaaaa
AaaaaaAaaaa Aaaaaaaa
AAaa Aaaaaaaa
.... -..
________ ________
....-.. -..
Ġaaaa Aa
## ##
Aaaa AaaAaaaa
ĠAaaaaaaaa Aaaaaa
( ?)
Aaaaa AaaaAaaaa
Aaaa AaaAaa
Aaaaaaaaaaaaa Aaaa
AAa AA
aaAA Aaaaaaa
[] )"
. ).
] )"
Aaaaa AaaaaAaaa
aaaaa Aaaaaa
ĠAaaaaa A
AaaAaaaaa Aaaaa
" <
AaaaaAaaaa Aaa
Ġ ????
Ġ( (
AaAa Aaaaaa
aaaa AaaaaaAaaa
aaa Aaa
---- --
aaaa AaaaaaAaaaaaaa
aaa Aaaaaaa
Ġaaaa Aaaa
ĠAAAA aaaaaaaa
( ).)
aaa AAA
Aaaaaa AaaaaaAaaa
Aaaaaaaaa A
) ).
. ]"
aaa AA
ĠAaaaa Aaaaaaaaa
aaaaaaaaa Aaaa
Ġ \
Aa AAAAAAAA
?? .
AA AaaaAaaa
Aaa AaAaa
AaaAaaaaa AaaaAaaa
Ġaaa Aaaa
ĠAAAA aaaaaa
AaaaaaAaaa Aaaaaa
AaaAaaaa Aaaaaa
AaaaaaaAaaa Aaaaaaa
ĠAAaa Aaaaa
ĠAaa AaaaaaaaaaAaaa
AAa Aa
AaAa AA
ĠAAAAaaa Aaaaaaaa
( ).
ĠAaa AaaaaAaaa
Ġ??. ??.
< (
ĠAaaaaaaa Aaaaaaaaa
ĠAaa AaaaaaaaAaaaaa
AaAa AaA
> )
Ġaaaaaaaa aaaaaaaaaaaaaaaa
ĠAaaaaaaaaa Aaa
AaaAaaa Aaaaaa
AaaAaa Aaaaaaa
AaaaaaAaaa Aa
Aaaaa AaaAaaaa
aaaaa Aaaaaaaa
Ġaaaaaa Aaaaaaaa
aaaaaaaaaaaaaaaa aaaaaaaaa
aaaaaaaaaaaaaaaa aaaaaaaaaaaaaaa
Ġ __
Aaaaaaaaa Aaaaaaaaaa
Ġ. ."
AAAaaaa AAA
% "
a AAaaaa
ĠAaaaaaaaaa Aaaa
AaaAaaa Aaaaaaa
AaaAaaaa AaaaAaaa
!!!! !!!!
- .
Ġa AAAAA
AAAAAAAA AAAAAAAAAA
aaaa AAAAAAA
Aaaa AaAaa
AaAaaaaa A
Ġaaaaaaaaaaaaaaaa aaaaaaaaa
] :
aaaaaaaaaa Aaaa
AaaaAaaaa Aaaaaa
aAA aaaaa
* ]
aaaa AaaaaaAaaaa
Aaaaa Aaaaaaaaaaa
Aaaaaaaaa AaAaaa
., ;
Ġ[ -
AaaAaaaa Aaaaaaaa
Ġ< >
Ġaaaaa Aaaa
ĠAaaaaaaa Aaa
?? ???
AaaAaaaaa Aaaaaaa
) [
- *
. &
Ġ }
aaaa AAAA
aaaa AaaAaaaaaaaa
aaa Aa
aaaaaa Aaaaaaa
Aaaaaaaaaaaa Aaaa
AaAaaaaaa Aaa
Aaaaaaaaa aaaaaaaaaaaa
Ġ( ??
ĠAa Aaaaaaaaaa
AAaaaa Aaaaaa
aaaaaaa Aaaaaa
AaAaaaa Aaaaa
/ ,
ĠAaaaaaa AAAA
Ġa Aaaaaaa
AaaaaAaaaaa Aaaaaaaa
- ...
Aaaaa AaaaaaAaaa
Aaaa AaAa
aaaaaaaaaa AaaAaaa
-- ---
aaaaa AA
aaaa AaaaAaaa
ĠAaaaaaa Aaaaaaaa
ĠAaaaaaaaaaaaa Aaaaaaa
AAAA Aaaaaaaa
Aaa AaAaaa
AaAa AaAa
aaa Aaaaaaaaaa
ĠAaa AaaaaaAaaa
AaAaa Aaaaa
aaa Aaaaaaaa
ĠAaaaaaa Aaaaaaaaaaa
ĠAaaaaaaa Aaaaaa
ĠAaaaaaaaaa AaaaaAaa
aaaaaaa AaaAaaa
AaaaAaaa Aaa
AaaaaAaaaa Aaaaaaa
aaAA Aaaaaa
ĠAAaaaaa Aaaaaaaa
" >=
Ġ ]"
AAAA Aaaaaaaaa
ĠAaaaaa AaaaAaaa
Aaaaaaaaaa Aaaaaaaaaa
Aa AaaAaaaaa
AAAa AA
aAAaaaaaa Aaaaaa
">= $
* )
= &
AA AaaAaaa
ĠAaaaa AaaaAaaa
Aaa AaaaaaaaAaaaa
Ġaaaaaaa Aaaaaaaa
Ġ? ,
AaaaaaaAaaaaa Aaaaaaaaa
" ...
ĠAAAa A
---- ----
* +
Ġ(- )
ĠAaaaaAaaaaaa Aaaaaaaaaaaa
) _
, (
Aaaa Aaaaaaaaaaa
ĠAaaaaa AaaaaaaaaAaaaAaaa
Aaaaaaaa AaaAaaa
ĠAaa Aaaaaaaaaaaaaa
Aa AaaAaaa
Ġ[ *]
AaaAaaaa A
|-|- |-
ĠAAaaaaaaa Aaaa
&&&& &&&&
aa Aaaaaaaaa
Aa AaaAaaaAaaa
aaaaaaaaa Aaaaa
AaaAaaaaa Aaa
AaaaaaaaAaaaaaa AaaaAaaa
AaaAaaaaaaaa AA
Aaaa AaaaaaAaaa
ĠAaa AaaaaaaAaaaaaa
AAAa AAA
Ġ>> )"
- )-
ĠAaa AaaaaaaAaaaaaaa
ĠAaaaaaaaa Aaaaa
Ġa Aaaaaaaa
AaaAaaa AaaAaaaa
ĠAaaAaaaa Aaaaaaaaaaaaa
aaaaa AAA
Aaaaaaa AaaaaAaaaa
ĠAaaa AaAaaa
Aaaaaaaa Aaaaaaaaaaa
ĠAaaaaaaaa aaaaaaaaaaa
AaaaaaAaaaaa Aaaaaaa
ĠAaaAaaaa AaaaAaaa
[] )
_ -
AaaAaaaaaaaa AaaaAaaa
Ġaaa AAA
Aa AaAaaaa
AAAAAA aaaAaaa
AaAaaa Aaaaaa
Ġ% ,
AA AaaaAaa
AaaaaAaaa Aaaaaa
AaaaAaaaaa Aaa
ĠAAaaaaa AaaaaaaaAaaa
}} {{
] }}{{
Ġ }}
ĠAaa AaaaaaaaAaaa
ĠAaa AaaaAaaaAaaa
Ġaaaaaa Aaaaa
ĠAa AaAa
ĠAaaaaaaaaa Aaaaaaa
.. -
ĠAaaaaAaaaa AaaaAaaa
aAAaaaa AaaAa
, #
Ġ _____
aaaa AaaaaaAaaaaaa
Aaaaaaaaa aaaaaaaaaaaaa
ĠAaa AaaaaaaaAaaaAaaa
AaaaAaaaaaa Aaaaaaa
] ;
ĠAaaaaa AaaaAaaaAaaa
ĠAAAA aaaaaaaaaaaaaAa
ĠAaaaaaaa Aaaaa
ĠAaa AaaaaaaaAaaaaaaAaaaAaaa
Ġ00000000 000
00000000 000000000000
ĠAaaAaaa AaaaaaaaAaaaAaaa
AaAaaaaa Aa
AaAaa AaaaaaaaaAaa
ĠAaaAaaaa AaaaAaaaAaaa
ĠAAaaaa AaaaAaaa
AAAAaaa Aaaa
aaaaAaaa AaaaaaaaaaaAaaaaaaaa
ĠAaaAaaaAaaa AaaaaaaaAaaaAaaa
ĠAaaAaaaaaaaAaaaAaaa AaaaAaaa
( :
ĠAaaaa Aaaaaaaaaaaa
AAAA aaaaaaaa
AAAA AaaAaaa
AAAAAA aa
Ġ* .
AaaaaAaaaa Aaaaaa
AaaaaaAaa Aaaaaaaa
++ .
* #
a AAAAA
ĠAaaaa Aa
Ġaa A
ĠAAAAAAAA AAAAAAAAAAAA
Ġ< (
ĠAAAA Aaaaaaaaa
ĠAA aaaaaaaaaa
Ġ+ -
AaaaAaaaaa Aaaaaa
AAaaaaaa Aaaaaaa
ĠAAAAaa Aaaa
a AAAAa
Aaaa AaaaaaaAaaa
ĠAaaa Aaaaaaaaaaa
Aaaaaaaa AAA
ĠAaaaaaaa Aaaaaaaaaa
Aa Aaaaaaaaaaaa
aaaaaaaaaaa Aaaa
++ -
} .
Aaaaaa AaaaaaaAaaa
ĠAaaa Aaaaaaaaaa
Aaaaaaaaaaa AaaAaaa
aaaaaaaaa AaaaaaAaaaaaaa
AaAaaaa Aaaaaaaaa
AaaaaAaaa Aaaaaaa
)) ."
Ġ(? );
! =
+ "
Aaaaa AaAaaaa
Aaa AaAaaaa
Ġaaa Aaaaaa
AaaaaaAaaaa Aaa
.... ..
ĠaaaaAAAAaAaaaaaAaaaAAAAaaaaaAaaaaa AaaaAaaa
ĠaaaaAAAAaAaaaaaAaaaAAAAaaaaaAaaaaa AaaaAaaaa
ĠaaaaAAAAaAaaaaaAaaaAAAAaaaaAaaaaa AaaaAaaa
ĠaaaaAAAAaAaaaaaAaaaAAAAaaaaAaaaaa AaaaAaaaa
ĠAAaaaaaa Aaaaaaa
ĠaaaaAAAAaAaaaaaAaaaAaaa AaaaAaaaa
ĠaaaaAAAAaAaaaaaAaaaAaaaaaAaaaaa AaaaAaaaa
] ."
AaAaaa Aaaaa
AaaaAaaaa Aaaaaaa
AaAaaaaa AaAaaaa
AaaaaaAaaaa Aaaaaa
&&&& &
Ġaaaa AAA
Aaaaaa AaaAaaa
ĠAAAAAA a
Ġ: )
AAaaa AAaaa
Ġ... )"
] )
Aaa AaaaaaaAaaa
Ġ( *.
Ġ$ {
AAaa Aaa
, =
/ /
aaaa Aaaaaaaaaaaaaa
aaaa AaaAAa
ĠAaaaaaaa AA
Ġa Aaaaaaaaa
), "
AAaaaa AAaaa
> >
aaaa AaaaaAaaaaaaa
Aaaaaa AaaAaaaa
Aaaaaaaaa AaaAaa
Ġ( =
Ġ[ /
?? -
AaaaaaAaaaaa Aaa
AAaa Aaaa
aaaa AAA
Ġ- ---
AAAAAAAA AAAAAAAAAAA
): "
: .
Aaaa AaAaaaaaa
AaAaaaaa Aaaa
aaaa Aaaaaaaaaaa
Aaaaa Aaaaaaaaaaaa
Aaaaa AAa
ĠAaaaa AAAA
Aaa AAAaaa
Aaaaaaa AaaaaaAaa
Aaaaaaa AaaaaaAaaaaaa
ĠAaaaaaaaa Aaaaaaaaa
aaaaaaaaa A
AaaAaa AaaaaAaaaa
AaAaaaa Aaaa
???? ????
|-|-|-|- |-
" {{
[ ,
Ġaaaa Aaaaa
Aaaaaaa Aaaaaaaaaaa
Aaaaaaaaa AaaaaaAaaaa
ĠAaaaaaaaaaaa Aaaaa
AaAa AaAaAa
AAaaa Aaaaaa
AaaAaaaa AA
:// -
ĠĠĠĠ Ġ
ĠAAAAAaaaaaaAaaaaa AaaaAaaa
. ],
? ]"
AA Aaaaaaaaaa
Aaaaaaaa Aaaaaaaaaaaa
ĠAA aaAA
ĠAaaaaaaaa aaaaaaaaaaaa
Aaaaaaaaaaaa Aaa
AaaaaaaaAaaaa AaaaAaaa
AaaAaaaaaaa AaaaAaaa
Aaa AAaa
Aaaaaaaa AaaaAaa
ĠAAAA AaaaaaaaAaaa
AaaaAaaaaa Aaaaaaaaaaa
ĠAAaaa Aaaaa
ĠAAaaa Aaaaaa
================ ========
. ?)
< <
@ -
Aaaaaa AaaAaa
Ġaa Aaa
ĠAaaa AaaAaaa
ĠAAAA AaaaaAaaaAaaa
ĠAaaaaaaaa Aaaaaaaa
AaAaaaaaa AaaAaaaAaaaAaaa
ĠAAAAAaaa AaAaaaaaaAaaAaaaAaaaAaaa
Ġ_____ "
ĠAAAAAaaaaaaaAaaa AaaaaaaaaAaaaAaaa
( -
_ .
Ġ ).
ĠAaaaaa Aa
Aaaaaaaaaa A
Aa AAaaa
ĠAaaAaaa Aaaaa
AaaaaaAaaaaa Aaaaaa
aaaa AaaAaaa
AA AaaaaaaAaaa
ĠAaaaa AaaaaaaaaaaAaaaa
Aaaaaa Aaaaaaaaaaaa
aaaaa Aa
Ġaa Aaaaaaa
Ġaaaaa AAA
Ġa AaA
Ġ+ /-
AaaaaaaAaaa AaaAaaaAaaa
ĠAAaaa Aaaaaaaa
Ġ(? ))
|-|-|-|-|-|- |-
# )
- #
aa AAAA
aaa AAAA
Aaaaaa AaaaaAaaa
Ġaaa Aaaaaaa
Aaaaaaaaa AaaaaaaaAaaaAaaa
ĠAAAA AaaaaaaAa
ĠAAAA AaaAaaaAaaaAaaa
ĠAAAA AaaAaaaaAaaaAaaa
ĠAAAA AaaaaaaaAaaaaAaaaAaaa
Ġ... ])"
ĠAAAAAaa AaaaaaaAaaaaAaaaAaaa
ĠAAAAAaa AaAaaaaAaaaaAaaaAaaa
ĠAAAAAaaaa AaaaAaaaAaaa
ĠAAAAAaaaa AaAaaaaAaaaaAaaaAaaa
ĠAAAAAaaa AaAaaaaAaaaaAaaaAaaa
ĠAAAAAaaaaa AaaaaaaaaaaAaaaAaaa
ĠAAAAAaaaaa AaaaaaaAaaaAaaAaaaAaaa
ĠAAAAAaaaaaa AaaaAaaaAaaa
ĠAAAAAaaaaaAaaaaaaa AaaAaaaAaaa
ĠAAAAAaaaaaAaaaaaaa AaaaaaaaaAaaaAaaa
ĠAAAAAaaaaaaAaaaaa AaaaAaaaAaaa
ĠAAAAAaaaAaaa AaaaaaaaaAaaaaaaa
ĠAAAAAaaaAaaa AaaaaaaaaAaaaaaaaAaaaAaaa
ĠAAAAAaaaAaaaaAaaaAaaa AaaaaaaAaaaAaaa
ĠAAAAAaaaaaaaa AaaAaaaaaaaAaaaAaaa
ĠAaaaaAaaaaaaaaaaAaaaa AaaAaaaAaaaAaaa
ĠAAAAAaaaaaaAa AaaaAaaaAaaa
" ???
aaaa Aa
Aaaaa AaaaaaAaaaa
Aaaaaaa AaaAaaaaa
ĠAaaaaaa AaAaaAaaaaa
ĠAAAA AaaaaaaAaaa
Ġ( [
.. ...
.; "
AaaAaa Aaaaaa
Ġ$ [
AaaAaaaa Aaaaaaaaa
AaaaAaaaaaa Aaaaaaaaa
ĠAAaaaa Aaaaaa
? )"
| |
aaaa AaaaaaaAaaaaaa
Aaaaa AaAaa
AAAA aaaaaaaaa
Aaaa AAaa
Ġaaaaaaaa aaaaaaaaaaaaaaaaaaaaaaaa
Ġ( %
aaaaaaa Aa
aaaaaaa AAAAAAA
AaaaaAaaaaa AaaaAaaa
................ ................
% {
~ ~
Aaaa AaaAaaaaa
ĠAaaaaa AAAA
Ġaaaaaaaaa AAAAAAA
Aaaaaaaaaaaaaaaa Aa
? -
aaaa AaaaaaaaAaaaaa
Ġaaaaa Aaaaaaaa
ĠAaaaaaaa A
AaaAaaa AaaAaaa
( )"
? ))."
aaaa AaaAaaaaa
aaaa AaaAaaaaaaa
Ġaaaa Aaa
AAAA AaA
Aaa AaaaaaaAaaaaaa
ĠAaaaaa AaaaAaaaaaa
ĠAa AaAaaa
aaaaaaa A
Ġ+ ."
AaaaAaaaa Aa
AaaaaaAaa Aaaaaaa
: \
aaaa AaaaaAaaaaa
ĠAaaaa Aaaaaaaaaa
Ġaaaaaaaaa Aaaa
ĠAaaaaaaaaa AaaaaAaaa
Ġaaaaaaaaaaa Aaaa
ĠAaaAaaa Aaa
AAaaaa Aaaaaaa
AaaaaaAaaaaa A
>) >
"??? ,
- =
aaaa AaaaaaaaAaaa
Aaaaaaa AaaaAaaaa
AaaaAaa Aaaaaaa
AaaaaaAa Aaaaaaa
Ġaaaaa A
Ġa AAa
ĠAaaaaaaaaa Aaaaa
ĠAaaaaaaaaa AaaaaAaaaa
Aaaaaaaaaaa Aaaaaaaaaa
AaaaAaaa Aaaaaaaaa
AaaaAaa A
AaaaaAaa A
AaaaaaaaAaaaa Aaaaaaa
ĠAAaaaaa AA
ĠAAaa Aaaaaa
$$$$ $$$$
$$$$$$$$ $$$$$
- )"
AA AaaAaa
aaa Aaaaaaaaa
Ġaaaaaaa Aaaa
Ġaaaaaaaaaaaaa Aa
AaaAaaaa Aaaaaaa
aaaaAaaaaa Aaaaaaaaaa
ĠĠ Ġ
aAAaaaaaa Aaaaaaaa
aAAaaaaaa AaaaaaAaaaaaa
aAAaaaaaa AaaaaaAaaaaaaaa
( )."
[ :
AA AaaA
Aaaaa AaaAaaaaa
Aaaaaaaa AaAaaaa
ĠAA aaaaaaAaa
AAAAAA aaa
AaaaAaaa AaaaA
AaaAaaaaaaaa AAA
`` )"
-# :
Ġ ________
aa AAa
aaaa AaaAaa
Aaaaa AaAaaa
Ġaaaaaaaa Aaaaaaaa
aaaaaaa AaaaaAaaaa
ĠAaaaaaaaaaa AA
ĠAaaaaaaaaaa Aaaaaaa
AaaAaa AAA
AaaAaaaaa Aaaaaaaa
Ġ{ @
#### ####
! ?
Aaaa Aaaaaaaaaaaa
Aaaaaaaaaa Aa
AaaaaAaaaa AaAA
AaaAaaaaaaa AA
" <=
Aaaa AaAaaaaa
Ġaaa AAAA
Aaaaaaaaa AaaaAaaaaaa
ĠAaa AaaaaAaaaaa
Ġaaaaaa AAAAAAA
Aa AAAa
aaaaaaa Aaaaaaa
AaaaAaaa A
AaaAaaaaa Aaaaaaaaa
Ġ| |
ĠAaaaAaaa AaaaaaaaaaAaaa
AaaaaaaAaa Aaaaaaaaa
> ,
Ġ ),
Aaaaa AaaAaa
AAA aAa
Ġaaaaaa A
Ġ: :
AaaaaAaaaa Aaaaaaaaa
AAAAa A
AaaaaaAaaaa Aaaaaaaaa
Ġ?? ???
Aaa AaaaaaaAaaaa
Aaaaaa AaaaaaAaaaa
Aaaaaa AaAaa
Ġaaaaaaa Aaaaaa
Aa AaaAaa
ĠAaaaaaaaaaaa Aaaa
AaaaAaaaa Aaaaaaaa
aaaaaaaaaaaaaa Aa
ĠAaaaaaaaAaaaaaaa AaaaAaaaaAaaaAaaa
Ġ??.??. ????
< -
AAAA Aaa
Aaaaaa AaaAaaaaa
Aaaaaaaa AaaaaAaaa
ĠAAAA aaaaaaa
ĠAaa AaaaaaAaaaaa
Ġaaaaaaa Aaaaa
.) :
Ġ? )
AAaaaaa AA
$ _
. *"
a AAaa
Aaaaa AAAAAAA
Aaaaa AaAaaaaa
ĠAaaaaa AaaaaAaaa
Aaaaaaa AAaaa
Ġaa Aaaaaaaa
Ġaa Aaaaaaaaaa
ĠAaaaaaaaaa AaaaaAaaaaaa
AaaaAaaaaa Aaaaaaaaa
aaaaaaaaaaaaaaaa aaaaaaaaaaa
AaaaaAaaaaaa Aaaaaa
Ġ(* )
" --
+ -
{ }
Aaaaa AaaaaaAaaaaa
Aaaaa AaAaaaaaa
Aaaaaaa AaAaaa
Aaaaaaa AaaaaaAaaa
ĠAaa AaAaaa
ĠAaa AaaaaaaaaAaaaaaaa
Ġaaaaaa Aaaaaaa
aaaaaaaa Aaaaaa
Aa AaAaaa
AaaaaaAaaa Aaaaaaaa
AaAaa AaAaA
AaaAaaaa Aaa
ĠAaaAaaaAaaaaaaaaa AaaaaaaaaAaaaAaaa
" ?
/ ____
aaaa AaaaaaAaa
Aaaaaaa AaaAaaaa
Ġa AAAAAA
aaaaaaaa Aaaaaaa
aaaaaaaa Aa
., "
ĠAaaAaaa Aaaaaaaaa
AaaaaaAaaaaaa Aaaaaa
() -
AaaaaAaaaaaaaa AaaaAaaa
ĠAaaAaaaaaaa AaaaaAaa
) ...
- {
: +
aaaa AaaaaaaAaaaaa
AA aaaaaaaaaa
Aaaaa AaaaaaaAaaa
Aaaaaaa AaaaaAaaaaaa
ĠAaaa AaaaaaAaaa
ĠAaaa AaaaAaaaaa
ĠAaa AaaaaAaaaa
ĠAAAAAAAA AAAAAAAAAAAAA
AaaAaa Aaaaaaaaaa
AAaaaaa Aaa
-> .
" {
} ,
aaaa AaaaAaaaaaaa
AA AaaaaaAaaaa
Aaaaa AaA
Aaa Aaaaaaaaaaaa
ĠAaaaaaaa AaaaAaaaAaaa
ĠAaa AaaaaaaAaa
aaaaaaaa AaaAaaa
Aa AAaa
Aaaaaaaaaaaaaaa Aaaaaaa
AaaaaaAaaa Aaaaaaaaa
AaaaaAaaaa AaaAaaa
AaaaaaAa AaaaAaaa
ĠAaaAaaaa AaaAaaaaaAaaaAaaa
AaaaAaaaaaaa AAAAaaaAaaa
Ġ[- ]
ĠAaaaaaaAAAA AaaaAaaaaaaaAAAAaaaAaaa
. &&&&&
a AAAAAAA
aaa AaaaAaaa
ĠAaaaa AaaaaaaAaaaaa
Aaaaaaaa AaaaaaAaaaa
Aaaaaaaaa AaaaaaaaAaa
Aaaaaaaaa AaaaAaaaAaaa
Ġaaaaaaaa aaaaaaaaaaaaaaa
ĠAaa AAAAA
Aaaaaaaaaa AaaaaAaa
AaaAaa Aaaaaaaa
AaAaaaaa Aaa
ĠAaaaAaaaaa AaaaaaaaaaAaaa
AaaaaaaAaaaaaaa Aaaaaaaaa
aaaaAaaaaa Aaaaaaaaa
ĠAaaAaaaaaa Aaaaaaaaaaa
AaaAaaaaaaaa Aaaaaaaaa
???? ??
aaaaa Aaaaaaa
ĠAAAA AaaaaAaaa
ĠAaa AaaaaaaaaAa
ĠAaaaaaaaa aaaaaaaaaaaaa
ĠAaaaaaaaa AaaaAaaaaaaaa
Ġaaaaaa Aaaaaa
Ġ( @
AaaAaaa Aa
AAa AAA
AaAaaaaa Aaaaa
Ġ... ]
ĠAAAaaaaaaa AaaaAaaa
! :
? ),
_ )
aa Aaaaaaaa
Aaaaa AAaaa
Ġaa AAAA
ĠAaaaaaa AaaAaaaAaaa
ĠAaaa AaaaaaaaaaaAaaaAaaa
ĠAaaaaaaa AaaaaaaaAaaaaa
ĠAaaaaaaa AaaAaaaAaaa
ĠAaaaaaaa AaaaaaaaAaaaAaaa
ĠAaaaaaaaa AaaaAaaaAaaa
ĠAaaaaaaaa AaaaaAaaaAaaa
aaaaaaa Aaa
ĠAaaaaaaaaaa Aaaaaa
AaaAaaa Aaaaaaaa
AaaaaaaaAaaaaa Aaaaaaaa
ĠAaaAaaaa AaaAaaaaAaaaAaaa
ĠAaaAa AaaAaaaAaaa
ĠAaaAaaaaaa AaaaaaaaaAaaaAaaaAaaa
AaaAaaaaaaaa Aaaa
ĠAaaAaaaaaaa AaAaaAaaaAaaa
AaAaaaaaaaa AaaaaAaaaAaaa
ĠAaaAaaaaaaaa AaaaaAaaaaaaaaAaaaAaaa
ĠAaaaaaaaaAaaa AaaaaaaaaaaAaaaAaaa
ĠAaaAAAA AaaaaaaaAaaaAaaa
ĠAaaaaaaaaAaaaAaaaaaa AaaaaaaaaAaaaAaaa
ĠAaaaaaaaaAaaaAaaaaaa AaaaaAaaaAaaa
ĠAaaaaaaaaAaaaAaaaaaa AaaaaaaaaaaAaaaAaaa
ĠAaaAaAaa AaaaaaaaaaaAaaaAaaa
ĠAaaAaaaAaaaaaaaaa AaaAaaaaaaaaAaaaAaaa
ĠAaaAaaAaaaaaa AaaaAaaa
ĠAAAAaaaaaaaa AaaaAaaa
ĠAAAAaaaaaaaa AaaAaaaAaaaAaaa
ĠAaaAaaaaaaaAaaaaa AaAaaAaaaAaaa
Ġ(?? ?)
ĠAaaAaaaaaaAaaaaaa AaaaAaaaAaaa
ĠAaaAaaaaAaaaaaaaaaaaa AaaaaAaaaAaaa
ĠAaaAaaaaAaaaaaaaaaaaa AaaaaaAaaaAaaa
ĠAaaaAaaaaaaaaaa AaaaaaAaaaAaaa
ĠAaaAaaaaaAaaaaa AaaaAaaaAaaa
ĠAaaAaaaaaaaaAaaaaaaa AaAaaaaaaaaAaaaaAaaaAaaa
ĠAaaAaaaaaaAaaaaaaaaaa AaaaaAaaaAaaa
ĠAAAAAaaaaAaaa AaaaaaaaaaaAaaaAaaa
ĠAaaAaaaaaaaaAa AaaaaaaaaAaaaAaaa
ĠAaaaaaaaAaaaaaaaAaaaaa AaaaAaaa
" @
+ +)
= .
_ *
Ġ ____
aaaa AaaaaaAaaaaa
aaa AAAAAaaaa
Aaa AAaaa
Aaaaaa AAAA
ĠAaaaaaa Aaaaaaaaaa
ĠAAAA aaaaaaAaaaaa
ĠAaaaaaaa AaaaaaaaaaAaaaAaaa
ĠAaaaaaaaaa AaaaaAaaaaa
Aaaaaaaaaaaaa Aaaaaaa
AaaAaaa AaaaaaaaaAaaa
AAa AAa
Aaaaaaaaaaaaaaa Aa
aaaaaaaaaaaaaaaa aaaaaaaaaaaa
AaAaaaaaa AaaaAaaa
{{ #
" **
( %
/ ~
Aaa AaaaaaaaAaaaaaa
ĠAaaaaaa AaaaAaaaaaAaaaaaa
ĠAaa AaaaaaaaaAaaaAaaa
ĠAaa AaaAaaaAaa
aaaaaa AAA
ĠAa AaA
Aa AAaaA
Ġaaaaaaaaaa Aa
AaaAaa AaaAaa
Ġ> ,
ĠAaaAaaaaa AaaaaaaAaaa
AaaaaaAaaaaaa Aaaaa
AaaaaaAaaaaaa Aaaaaaaa
() ()
AaaaaaaAaaaaaa Aaaaaaaaa
Ġ! =
]}}{{ /
]}}{{ [
% %
? /
Aaaa AaaaaaaaAaaaaa
ĠAaaaaa AaaaaAaaaAaaa
ĠAaaaaa AaaaaaaaaaAaaaAaaa
ĠAaaaaaa AaaaaaaaaAaaaAaaa
Ġaaaaaaaa AA
ĠAAAA AaaaaaaaAaaaAaaa
ĠAaaaaaaa AaaaAa
ĠAaaaaaaa AaaaaAaaaAaaa
ĠAaaaaaaa AaaaaaAaaaAaaa
ĠAaaaaaaa AaaaaaaAaaaAaaa
ĠAaaaaaaa AaaaaaaaaAaaaaaaaaaaa
ĠAaaaaaaa AAAAAAaaaAaaa
ĠAaa AAAAAAaaaaaaa
ĠAaa AAAAAAaaaAaaa
ĠAaaaaaaaa AaaaaaaaAaaaAaaa
AAAAAAAA AAAAAAAAAAAA
Aa AaaaaaaaaAaaaAaaa
AaaAaaa AAAAaaaaaaa
ĠAaaAaaa AaaaaAaaaaaaa
ĠAaaAaaa AaaaaaaaaAaaaAaaa
ĠAaaAaaa AaaaaaaAa
ĠAaaAaaa AaaaaaaAaaaAaaa
ĠAaaAaaa AaaaaaaAaaaaAaaaAaaa
ĠAaaAaaa AaaaaaaAaaAaaaaaaaa
AaAaaaa AaaaAaaaAaaa
ĠAaaaAaaaa Aaa
AAAAa AAA
AaaaaaaaAaaaaa Aaaaaaa
ĠAaaAaaaaa AaaaaaaAaaaAaaa
ĠAaaAaaaa AaaaaaaaaAaaaAaaa
ĠAaaAaaaa AaaaaaaaaaAaaaAaaa
ĠAaaAaaaa AaaaAaaaaAaaaAaaa
ĠAaaAa AaaaAaaaAaaa
ĠAaaAa AaaaaaaaaAaaaaa
ĠAaaAa AaaAaaaaaAaaaAaaa
ĠAaaAaa AaaaaaaaaAaa
ĠAaaaaaaAaaaa AaaaAaaa
ĠAAaaaaa Aaaaaaaaaaa
Ġ.. ...
ĠAaaAaaaaaa AaaaAaa
ĠAaaAaaaaaa AaaaaaaaaAaaaAaaa
ĠAaaAaaaaaa AaaaaaaaaaAaaaAaaa
ĠAaaAaaaaaa AaaAaaAaaaa
ĠAaaAaaaaaa AaaAaaaAaaaaaaaaAaaa
ĠAaaAaaaaaa AaAaaaaaaaaAaaaAaaa
AaaaAA AaaaAaaa
ĠAaaaaAaaaaa AAAaaaAaaa
ĠAaaAaaaaaaa AaaaaaaaaaAaaaAaaa
ĠAaaAaaaaaaa AaAaaAaaaaaaaaAaa
ĠAaaAaaaaaaaa Aaa
ĠAaaAaaaaaaaa AaaaaaaaaAaaaAaaa
ĠAaaAaaaaaaaa AaaaaAaaaAaaa
ĠAaaAaaaaaaaa AaaaaaaaAaaaAaaa
ĠAaaAaaaaaaaa AaaaaaaaaaAaaaAaaa
ĠAaaAaaaAaaa AaaaAaaa
ĠAaaAaaaAaaa AaaaAaaaAaaa
ĠAaaAaaaaaaaaa AaAaaAaaaaaaaaAaa
ĠAAAAAaaaa AaAaaaaAaaaAaaaAaaa
ĠAaaaaaaaAaaaaaa AaaaAaaaAaaa
ĠAaaAaaaaaaaaaaaa AaaaAaaa
ĠAaaAaaaaaaaaaaaa AAAaaaAaaa
ĠAaaAaaaaaaaaaaaa AaaaAAAaaaAaaa
ĠAaaAaAaa AaaaaaaaaaaAaa
ĠAaaAaaaAaaaaaa AaaAaaaAaaa
ĠAaaAaaaAaaaaaa AaaaaaaaaAaaaAaaa
ĠAaaAaaaAaaaaaa AaaaaaaaaaAaaaAaaa
ĠAaaAaaaAaaaaaaaaa AaaaaaaaAaa
ĠAaaaaaaAaaaaaaaa AaaaaaaaaaAaaaAaaa
ĠAaaaaaaAaaaaaaaa AaaaaAaaaaaAaaaAaaa
ĠAaaAaaAaaaaaa AaaAaaaAaaa
ĠAaaAaaAaaaaaa AaaaaaaaaaAaaaaAaa
ĠAAAAaaaaaa AaaaAaaa
ĠAAAAaaaaaa AaaAaaaaaaaaAaaaAaaa
ĠAaaAaaaaAaaa AaaaaaaaAaaaAaaa
ĠAaaAaaaaAaaa AaaaaaaaaaAaaaAaaa
ĠAaaAaaaaaaaAaaaaa AaaaAaaa
ĠAaaAaaaaaAaaa AaaaaaaaaAaaaaaaaAaa
ĠAaaAaaaaaaaaaaaaa AaaaAaaa
ĠAaaAaaaaaaaaaaaaa AaaaaaAaaaAaaa
ĠAaaAaaaaaaAaaaaaa Aaa
ĠAaaAaaaaaaAaaaaaaa AaaaAaaa
ĠAaaAaaaaaaAaaaaaaa AaaaaaaaAaa
ĠAaaAaaaaaaaAaaa AaaaaaaaaaaAaaaAaaa
ĠAaaAaaaaaaaAaaa AaAaaaaaaAaa
ĠAAAAaaaaaaaaaaaaaAa AaaAaaaAaaaAaaa
ĠAAAAaaaaaaaaaaaaaAa AaaAaaaAAAAaaaaaaa
ĠAaaAaaaAaaaa AaaaAaaaaAaaaAaaa
ĠAAAAAaaaaaaAaaa AaaaaaaaaaaAaaaAaaa
ĠAaaaaaAaaaAaaaaaa AaaaaaaaaaAaaaAaaa
ĠAaaAaaaaAaaaaa AaaaaaaAaa
ĠAaaAaAaaa AaaaaaAaaaAaaa
ĠAaaAaaaAaaaaaaaa AaaaaaaaaaAaaaAaaa
ĠAaaAaaaaaaAaa AaaaaaaaaAaa
ĠAaaaaAaaaaaaAaaaaa AaaaAaaa
ĠAaaaaaaaaAaaaAaaaaaaaa AaaaAaa
ĠAaaAaaaaaAaaaaaaAaaa AaaaaaaaaaaAaa
ĠAaaaaaaaAaaaAa AaaaaaaaaaAaaaAaaa
ĠAaaaaaaaAaaaaaaaaAaaaaaaaaaaa AaaaAaaa
ĠAaaAAAAAAaaaaaaa AaaaAaaa
ĠAaaAaaaAaaaaAaaaaaaa AaaaAaaaaAaa
ĠAaaAaaaAaaaaaaAa AaaaaaaaaAaaaAaaa
ĠAaaAaaaAaaaaaaAaaAaaaaaaaa AaAaaaaaaAaa
ĠAaaAaaaaAaaaaaaaaaAaaaAaaa AaaaAaaa
ĠAaaAaAaaaaaaaaAaaaaa AaaAaaAaa
ĠAaaAaaaaaaAaaAaaAaaaa AaAaaaaaaAaaaAaaa
ĠAAAAaaaaaaaaaaaaaAaAaaAaaaAAAAaaaaaaa AaaaAaaa
? :
Aaaaaa AaaaaAaaaa
aaaaaa Aa
ĠAa AAaa
... ),
AaaaAaaa Aaaaaaaa
AAa AaaaaaaaAaaa
AaaaAaaaa Aaaaaaaaa
ĠAAa AA
AAaaa A
AaaaAaaaaaaa Aaaaaaaaa
AaaaaaaAaaaa Aaaaaaaaa
AaaAAa A
Ġ??? "
) ----
. {
aaaa AaaaaAa
aaaa AaaaaaaaAaaaaaaaa
Ġaaaa A
Aaaaaaaa AAAA
ĠAaaaaaaa AAAA
Aaaaaaaaaaaaa Aaaaaaaaa
AaaAaaa AA
AaaaaaAaaaaa Aaaaaaaaa
aaaaaaaaaaaaaaaa aaaaaaaaaa
AaaaaAaaaaa Aaaaaaa
Ġ% "
AaaaaaaAaaaaaa Aaaaaa
) ?
/ ."
= (
a AaaaAaa
aaaa AaAaaaaa
aaaa AaaAaaaaaaaaa
AA AaaaAaaaa
AAAA Aaaaaa
Aaaa AaAaaaa
Aaaaaa AaaaaaaaAaaaa
ĠAaaaaa AAA
Aaaaaaa AaaaAaa
Ġaaa AA
Ġaaa Aaaaaaaaa
Aaaaaaaaaa AA
-[ (
} ;
Ġ ``
Aaaaaaaa AaaaaaaAaaa
Ġaaaaaaaa Aaaaaaa
Ġ( ...
ĠAa AAAAA
Ġa AAaA
Aaaaaaaaaaaaa Aaaaa
AaAaaa Aaaaaaa
AaaaaAaa Aaaaaaa
ĠAAAAaaa Aaaaaaa
ĠAAaaaaaa Aaaaaa
aAAaaaaaa AaaaaAaaaaaaaa
aAAaaaaaa AaaaaaAaaaAaaa
AaaaaaaaAaaaaaaaaa Aaa
[ <
a AAAAAA
} -
aaaa AaaaAaaaa
AA AaaaAaaaaaa
Aaaaa AAaaaa
Aaaa AaaaaaaaAaaaa
Aaaaaa AaAaaaa
Aaaaaa AaaaaaaaAaaaaaa
Ġaaaaaaaa Aaaa
ĠAaaaaaaaaa Aaaaaaaa
ĠAaaaaaaaaa Aaaaaaaaa
Aaaaaaaaaaaa Aaaaaaaaa
aaaaaaaaaa Aaaaa
Ġ[ ...]"
AaaaAaaaaaa Aaaaaa
)- (
!! !!!
AaaAaaaaaaaaa Aaaaaa
! ,
! .
" ?,
+ (
, ;
. !
/ ...
^ "
a AAaaa
Ġ \\
aaaa AaaaAaaaaaa
Aaaaa Aaaaaaaaaaaaaa
ĠAaaaaaaaa Aaa
ĠAaaaaaaaa AaaAaaAaa
Aaaaaaaaaaa AAAAAAA
aaaaaaa Aaaaaaaaa
00000000 00000000000
AaaAaa A
AAaaa Aaaaa
aaaaAaaaaa AaaAaaAaaaaaaaaa
" .
, [
/ (
: ]
[ @
aa AAAAA
aaaa AaaAaaaa
Aaaaa AAaa
Aaaaa AaaaaaaaaaAaaaaaa
ĠAaaa AaaaaaAaa
ĠAaaa AaaaaaAaaaaaa
Aaaaaaaaa aaaaaaaaaaaaaa
Aaaaaaaaaa AaaaaaAaaa
aaaaaaaa AAAAAAA
AAAAAAAA AAAAAAAAAAAAAA
ĠAaaaaaaaaaaaa Aaaa
., ,
-- ]
AaaaAaaa Aa
AaAaaa Aaaaaaaaa
ĠAAAa Aaaa
AaaaAaaaaa Aaaaaaaa
AaAaa Aa
ĠAaAaaaaaa AaaaaaaaAaaaaaaaa
AaaaaaaaAaaa Aaaaaaaaa
AaAaaaaaa AaaaaaaaAaaaaaaaa
AaaaaAaaaaaaa Aaaaa
AaAA Aaa
|-|-|-|- |-|-|-|-
AAAAAAAAAAAAAAAA AAAAAAAAAAAAAAAA
**** **
* ^
- ),
; ;
a Aaaaaaaaa
} /
} -%
aa AaaaaAaaaaaa
AA AaaaaAaaaa
aaa AaaAaaa
Aaa AaaaaaaAaaaaa
Aaaaaaa AaaaaaAaaaa
Ġaaa Aaaaaaaa
ĠAaaa AaaaAaaaa
Ġaaaaaa Aaa
aaaaaaaaa Aaaaaaaa
00000000 00000000
Ġ[ ]
AaAaaaa Aa
AaaaaAaaa A
ĠAaaaAaaaa Aaaaaaaaaa
AaaAaaaaaaaa Aaaaa
AaaaaaaaAaaaaaaaa Aaaaaaaaaaa
aaaAaaa AAAAA
!!!!!!!! !!!!!!!!
}-% {
% ."
, ...
? ).
a AaaAaa
aaaa AaAaaaa
ĠAaaaa AaaAaaa
Aaaa AAaaa
ĠAaaaaaaaa aaaaaaaaaaaaaaa
Aaaaaaaaaa AAA
aaaaaa AaaaaAaaaaaa
ĠAaaaaaaaaa Aaaaaaaaaa
Ġaaaaaaaaaaaa Aa
Ġaaaaaaaaaaaaa Aaaaaaaa
Ġ/ )
AaaAaaa AaaaaAaaaaaaa
AaaaAaaaa AA
ĠAAAa Aaaaaa
); "
AAaa AAa
AaaaAaaaaaa Aaaaa
AaaaAaaaaaa Aaaaaaaa
AaaaAaaaaaaaa Aaaa
Ġ???? ??
/ *
? !
aaaa AaaaaAaaaaaaaa
aaa AaAaaaa
Aaa AaaaaaaaAaaa
Ġaaa Aaaaaaaaaa
Aaaaaaaa AaaaAaaaa
Aaaaaaaaa Aaaaaaaaaaa
Ġaaaaaaa Aaaaaaa
aaaaaaaa Aaaaaaaa
AAAAAAAA aaa
aaaaaaaaa AaaaaAaaaaaaa
Aaaaaaaaaaaa Aaaaaa
Ġ[ _
** "
AaaaaaAaaa Aaaaaaa
AaaAaaaaaaa AAA
ĠAAaaaaaa Aaaaa
aaaaAaaaaaa AaaaAaaa
ĠAAaaaaaaaaa AaaaaaAaaaaa
aAaAa AA
) !
, .
~ $
Aaaa AAAa
ĠAaaaaa AaaaaaAaaa
ĠAaaa AaaaAaaaaaa
ĠAAAA aA
ĠAaa Aaaaaaaaaaa
ĠAaa AaaAaaa
ĠAaa AaaAaa
ĠAa Aaaaaaaaaaa
aaaaaaaa Aaa
AaaaAaa Aaaaaaaa
AaaaaaaAaaaaaaa Aaaaaaa
AaaaaaAaaaaaaaa Aaaaaaaaa
aaaaAaaaaAaaa Aaaaaa
a Aaaaaaaaaa
AA AaaaaAaaaaaa
aaa AaaaAaaaaa
aaa AaaaaaaAaaa
Aaaa AAAAAAA
ĠAaaaaa Aaaaaaaaaaa
ĠAaaaaa AaaAaaaaaa
Aaaaaaa AAAAAAA
Ġaaa AaaaaaaAaaa
Aaaaaaaa AaaaaAaaaaa
Ġaaaaaa AAA
ĠAaaaaaaaaa AaaaaAaaaaaaa
aaaaaaaaa AaaAaaa
Ġ& ,
AaaAaaa AaaaAaaaa
Ġ> ]
AaAaaaaa Aaaaaaa
AaaaaAaaa Aa
AaaaaAaaa AaaaaaaAaaaaaaaaa
AaaaAaaaaa Aaaaaaaaaa
AaaAaaaa Aaaaaaaaaa
AaaaAaa Aa
ĠAaaAaaaaa Aaaaaaaa
AaaaaaaaAaaaa Aaaaaaaaa
aaAA Aaaaa
aaAA Aaaaaaaaa
aaAA Aaaaaaaaaa
aaAA Aaaaaaaaaaa
aaaaAaaaaa AaaAaaaa
AaaAaaaaaaaa A
ĠAaaaaAaaaaa Aaaaaaaaa
~* ~*
&&&&&&&& &&&&&
>)> ).)
% ;
- ]
/ #
= ."
_ ...
_ --_
a AaaA
aa AaaA
aaaa AaaaaaaAaaaaaaa
aaaa AaaaaaaaAaa
Aaa AaaaaaaaAaa
Aaaa Aaaaaaaaaaaaa
ĠAaaaaaaa AaaaaaaaaaAaaa
aaaaaaa AA
AAAAAA a
AaaaaAaaa Aaaaaaaaa
AaaaAaaaaaa A
Ġ% )
Ġ) >
AAaaaaa Aaaaaaaa
AaaAaaaaaaa Aaaaaaaaa
Ġ(# )
ĠAaaAaaaAaaa Aa
- .-
= {
a AaAaA
aaaa AAAAAAAAAAA
aaaa AaaaaaaaaAaaa
aaaa AaaaaaaaaaaaAaaa
aaa Aaaaaaaaaaa
aaa AAAaaaaaa
Aaa AaaaaaaaAaaaaa
Aaa AaaaaaaAaaaaaaa
Ġaaaaa AaaaaaAaaaaaAaaa
Aaaaaaaaaa Aaaaaaaaaaa
Aaaaaaaaaa AaaaaaaaAaaaaaa
aaaaaaaa A
aaaaaaaa Aaaaa
ĠAaaaaaaaaaa Aaaaaaaaa
aaaaaaaaa Aa
Aaaaaaaaaaaa Aaaaa
AaaAaaa AaaaaA
AaAa AaaAa
AaaaaaaAaaa Aaaaaaaaa
Ġaaaaaaaaaaaaaaaa aaaaaaaaaaaa
() )"
AaaaAaaaaaaa Aaaaaaa
AaaaaaaAaaaaa Aaaaaaaaaa
++ "
++ /
AaAAa AAaaA
_- _
# ,
( ?
+ ]
/ $
[ (
ĠAaaaa Aaaaaaaaaaa
Ġaaaa AaaAaaa
Aaaa AaA
Ġaaa Aa
Aaaaaaaa AaaaaaaaaaaAaaa
Ġ( ,
aaaaaaaa Aaaaaaaaa
Aa AaaaaaaaAaaaaaa
aaaaaaaaa AA
Ġ[ .
AaaaAaaa AA
AAa Aaa
ĠAaAaaa Aaaaaaa
AaAa AaAaA
AAaaaa AAAaaa
AaaaaaaAaaa Aaaaaaaa
AAaa AaaaAaaaa
AaaaaAaaaaaaa Aaaaaaaaa
AaaaaaaaAaaaaaa Aaaaaaaaa
____ __
AAAAaaaa Aa
ĠAAaaaaaaa Aaaaaaaa
AaaaAaAaa Aaaaaaa
Ġ(?? )
" ``
% -
% \
( $
- _-
a AAaA
a AaAaAa
aaaa AaaAaaaaaa
Aaa AAAAA
Aaaa AAAAAAAAAAAA
Aaaaaa Aaaaaaaaaaaaa
Aaaaaaa AaaaaAaaaaa
Ġaaa AaaaaaAaaaaaa
Aaaaaaaa AaaaaaAaaa
Aaaaaaaa AaaaAaaaaa
ĠAaa AaaaaaaaaAaaa
ĠAaaaaaaaa aaaaaaaaaaaaaa
Ġ( |
Ġ( )"
aaaaaaaa AA
Ġaaaaaaaaaa AaaAaaa
AAAAAA Aaaaa
aaaaaaaaa Aaa
Ġaaaaaaaaaaaa AaaAaaa
ĠAAAAAAAAAA aaaaaaaa
). )"
Ġ# ,
AaaaaAaaa Aaaaaaaa
AAaaaa Aaa
AaaaaAaaaa Aaaaaaaa
aaaaaaaaaaaaaaa AA
AAaaa AA
AAaa AaaaaaaaAaaaa
Ġ... @
AaaaaAaaaaaa Aa
AaaaaaaaAaaaaaaa Aaaaaaaaa
aaaaaaAaaaaa AAAa
________________ ________
* )"
: )
Aaa AAaaaa
Aaaaaaaa Aaaaaaaaaaaaa
Aaaaaaaa AaaaaAaaaa
Ġaaaaa Aaaaaa
ĠAA aaaaaaaaaaaAaaa
ĠAaaaaaaaa A
Ġ( /
ĠAa AAAAAA
Ġ- --
Aaaaaaaaaaa Aaaaaaaaaaa
aaaaaaa AAAA
AAAAAA Aaaa
Aaaaaaaaaaaaa Aaaaaa
... ]
Ġ[ (
Ġ: ::
AaAaaaa Aaaaaa
AAaaaa AaaaaAaaa
AAaa AAA
AaaaaaAaaaaaaa Aaaaaaaaa
AaaAaaaaaaa A
ĠAAaaaaa Aaaaaa
aaaaAaaaa AaaaaAaaa
. #
: ;
= /
^ ^
` "
aa AaaaAaaaaa
aa AAaa
aaaa AaaaaaaAa
aaaa AaaaaaaAaaaaAaaaAaaa
AA AaaaAaaaaa
Aaaaa AaaaaaaaAaaaaa
Ġaaaa AaaAaaaaaa
AAAA aaaaaaaaaa
Aaaaaa AaaaaaaaAaaa
aaaaa AAAAAAA
Ġaaa Aaa
Aaaaaaaaa AaaaaaaaAaaaaaaaa
ĠAaaaaaaa AAA
ĠAaa AAAAaaaaa
ĠAaa AaaAaaAaa
aaaaaa Aaaaaaaaaa
aaaaaaaa AAAA
ĠAaaaaaaaaaa Aaaa
ĠAaAaaa Aaaaa
AAaa Aa
AaaaaaaAaaaaaa Aaaaaaa
AaaAAa AaAaaaa
AaaaaaAaaaaaaaa Aaaa
AaaaAaaaaaaaa Aaaaaa
Ġ(? )"
######## ########
* :
/ --
: $
aaaa AaaaAaaaaa
aaaaa AAAAA
aaaaa AaaaAaaa
aaaaa AaaaaAaaaa
ĠAaaa AaaaaaaAaaaaaa
ĠAaaa AaaAaaaaaa
Aaaaaaaa AaaaaAaa
Ġaaaaa AaaaaAaaaa
Ġaaaaaaa AAAA
ĠAaaaaaaaaa AaaaaaaaaaAaaa
Aa AaaaaaaaAaaa
aaaaaaaaaaa AA
.. >
AaaAaaa Aaaaaaaaa
AaAaaaa A
ĠAaaaAaaaaa Aaaaaaaaaa
AaaaAaaaaaaa Aaaaaaaa
AAaaaaa AaaaaaaA
**** ****
) +
a AaAaa
aaaa AAAAAAAAAA
aaaa AaaaaAaa
AA AaaaaaAaa
Ġaaaa Aaaaaaa
Aaa AaaaaaaaAaaaaaaa
Aaaa AaAaaaaaaa
aaaaa Aaaaaaaaa
Aaaaaaa AaaaaaaAaaa
ĠAaaaaaa Aa
ĠAaaa AaaaaaaaAaaaaaa
ĠAaa AaaAaaaa
Ġaaaaaaaaa AAA
aaaaaa AaaaAaaa
aaaaaa AaaaAaaaaa
aaaaaaa Aaaaaaaaaaa
aaaaaaaaaaa A
Aaaaaaaaaaaaa Aaaaaaaaaa
AaaAaa Aaaaaaaaa
AAa Aaaa
Ġ$ $
AaaaaaAaaaa AA
ĠAAaaa Aaaa
Ġ-- "
____ /____
aaaaAaaaaaa Aaaaaaaaaa
aAAAAa A
ĠAaAAaa AaAA
/-- /
____/____ /____
+ *
. =
. _
/ ..
] ..
aa AaaaaAA
aaaa AaaaAa
aaaa AaaaaaaAaa
Aaa AAAAaaaaa
Aaaa AAAaaaa
aaaaa AaaaaaAaaaaaaa
Aaaaaaa AaaaAaaaaa
Aaaaaaa AaaaaaAaaaaa
Aaaaaaaaa AAAAAAA
Aaaaaaaaa aaaaaaaaaaaaaaa
Aaaaaaaaa AaaaaaAaaaaaaaa
Ġaaaaa Aaa
Ġaaaaaaa AaaaaaAaaaa
aaaaaaaaa Aaaaaaa
Aaaaaaaaaaaaaa Aaaaaaa
AaAa AaAA
AAAa AaAaaaAa
AaaaaaAaaaaaa Aaaaaaa
aaaaAaaaaa AaaaaaAaaa
ĠAAaa Aaaaaaaaa
ĠaaaaAaaaaa AaaaaaaAaaa
aaaaAaaaaaAaaa Aaaaaaaa
-------- --------
) &
/ ??
< >
> $
aaaa AaaaaAaaaaaa
aaaa AaaaaaaaAaaaaaa
aaaa AaaaaAaaaaAaaaa
AA AaaaaAaaa
AA AaaaAaaaaaaa
aaa AaaaaAaaaa
ĠAaaaaaa AaAaaaaAaaaaaaaa
ĠAaaa AaaaaAaaa
Aaaaaaaa AaaaaaaaAaaaaaa
Aaaaaaaaa aaaaaaaaaaaaaaaa
Ġaaaaaaaa Aaa
ĠAaa AaaaaaaaaaAaaaaa
aaaaaa AA
Ġa AaaA
AAAAAA aaaa
Ġ, -
AaaAaa AaAa
AaAa AAA
AaaAaaaaa Aaaaaaaaaa
AAaaa AaaaaAaaaA
Ġ% ),
() *
Ġ.. .,
aaaaAaaaa AaaAaaaaa
AAAAaaa Aaaaaaa
aaaaAaaaaaa AaaaaAaaaa
! ]
( );
+ [
, )
, -
a AaaaaAaaaa
AA AaaaaAaaaaa
aaa AaaAaa
Aaaaaa AAAaaa
Ġaaa AaaaAaa
Aa AAAaaa
Ġaaaaaaaaaaa Aa
... )"
AaaAaa Aa
ĠAaaAaaa Aaaaaaaaaaa
AaaaaAaaa Aaa
AaAaa AA
AAaaa Aaa
AAaaa Aa
Ġ= >
AAAa Aaaaa
AaaAa Aaaaaaa
AaaaaaaaAaaaa Aaaaaaaaaa
Ġ{ #
:: $
AaaaAA aaaaaa
aaaaAaaaaaa Aaaaaaaaa
aaaaAaaaaaa AaaAaaaaa
!!!! !!!!!
Ġ<= ,
________________ ________________
"< ,
>) >)
, _
] `
~ )
aa Aaaaaaaaaa
aaaa AaaaaaaaAaaaa
AA AaaaaaAaaa
AA AaaaaaaaaAaaaa
aaa AAa
Aaa AAAAAA
Aaaaaa AaAaaa
Aaaaaa AaaaaaaaAaaaaa
ĠAaaaaa AaaaaaaaaAaaaaaaaa
Aaaaaaa AAAA
Aaaaaaa AaaaaAaaaaaaa
ĠAaaa AaaAaaaa
Aaaaaaaaa Aaaaaaaaaaaaa
Aaaaaaaaa AaaaaAaaa
Ġaaaaaaa A
Ġaaaaaaa AAAAAAA
Ġaaaaaaaaa A
Ġaaaaaaaaa Aaaaaaaa
aaaaaaa AaAaaaAaaa
aaaaaaaaa Aaaaaa
Aaaaaaaaaaaa Aaaaaaaaaa
aaaaaaaaaa Aa
AAAAAAAAAA aaa
Ġ* *"
AaaAaaa Aaaaaaaaaa
.) ."
AaaaaaAaaa AA
AaAaa Aaaaaaa
AAaaa Aaaaaaa
AaaaaaaaAaaaaa Aaaaaaaaaaaa
Ġ| ,
AaaaaAaa Aaaaaaaa
AAaa AAAA
AaaaaaAaaaaaa AaaaaaAaaaaaa
AaaaaaaAaaaaaa AaaaAaaa
AaaaaaAaaaaaaa Aaaaaaaa
aaaaAaaaaa AaaAaaaaaAaaaaaa
AaaaaaaaAaaaAaaa AaaaAaaaaa
ĠAAaaaaaaa Aaaaaa
aAaAa AaA
aaaaAaaaaaAaaaa Aaaaaa
aaaaAaaAaaaaaaa AaaaAaaaaaa
$ {
% )"
aa AAAa
aaaa AaAaaaaaa
AA aaaaaaaaaaa
Aaaaa AaaaaaaaAaaa
aaa AAaaa
aaa AaaaaaaaaAaaaaa
Aaaa AAAAAA
Aaaaaaa AaaAaa
Aaaaaaaa AaaaaaAaaaaa
Ġaaaaa Aaaaaaa
ĠAA AaaaAaa
ĠAaa AaaaaaaAaaa
Ġa AaAaAa
Ġa AAaaaA
aaaaaaaa AAA
ĠAaaaaaaaaa AaaaaAaaaaaaaa
ĠAAAAAA aaaa
aaaaaaa Aaaaaaaaaa
AAAAAA aaaaa
ĠAaaaaaaaaaa Aaaaa
aaaaaaaaa Aaaaaaaaaa
Aaaaaaaaaaaa Aaaaaaaa
... ?
Ġ* ,
Ġ# #
AAa AAAA
AAa AaA
AaaaAaaaaa AaAaa
AaAaa AaA
aAa AA
aaaaaaaaaaaaaaaa aaaaaaaaaaaaaaaaaa
AaaaAaaaaaa Aa
ĠAaaAaaaaa Aaaaaaa
AaAaaaaaa Aa
AaaaaAaaaaaaa Aaaaaaa
AaaaaAaaaaaaa Aa
AaaaaAaaaaaa Aaaaaaa
AaaaaaaAaaaaaa Aaaaa
AaaaaaaaAaaaaaa Aaaaaa
Ġ! !
AAaaaaa Aaaaaaa
Ġ~ ,
aaaaAaaaa AaaaaaAaaaa
AaaaaaaaAaaaaaaaa Aaaaaaaaa
Ġ???? ???
!!!!!!!! !!!!!!!!!
Ġ} .
( ))
- ."
. ?]
= ,
> "
a Aaaaaaaaaaaa
aa AaA
Aaaaa Aaaaaaaaaaaaa
Ġaaaa AaaAaaaaaaa
ĠAaaaaa AaaaaaAaaaaaa
Ġaaa AaAaaa
ĠAaaa AaaaaaaaaaaaAaaaaaa
Aaaaaaaaa AAA
ĠAAAA AaaaaaaAaaaaaaAaaaAaaa
Ġaaaaa AAAAAAA
ĠAaaaaaaaa Aaaaaaaaaa
Ġ( ~
aaaaaa AaaaaAaaaa
AAAAAAAA AAAAAAAAAAAAA
Aa AaaaaaaAaaa
Aa AAaaaaa
Ġaaaaaaaaaa Aaaaaaaa
AAAAAA aaaAA
Ġ& &
ĠAaaaaaaaaaaa A
00000000 0000000000
Ġ[ |
Ġ* ^
AaaaAaaa AaaaaaAaaaaaa
AaaAaa AaAaa
?? )
AAa Aaaaa
AAa AaaAaaa
Ġ$ .
AaaaAaaaa AAA
AaaaaaAaaa Aaaaaaaaaa
AAaaaa A
AaaaaaAaaaaa Aaaaaaaa
AAAa AaA
AAAa AAaa
Ġaaaaaaaaaaaaaaaa aaaaaaaaaa
AaaaaAaaaaa Aaaaaaaaa
Ġ% .
ĠAaaAaaaa AA
aAA aaaaaAaaa
AaaaaaAaaaaaaa Aaaaaaaaaa
AAaaaaa Aaaa
ĠAaaaaaAaaaaa AaaaaaaaaaAaaa
AaaAaaaaaaa Aaaaaaaaaa
AaaaaaAaaaaaaaa Aaaaaa
}} },
aaAaaaaa AAaA
aAAaaaaaa Aaaaa
aaaaAaaaaaaa AaaaaAaaaaa
ĠAAAAAaaaaaa AaaAaaaAaaa
"{{ {
aaaaAaaaaAaaaaa AaaaaaaaaAaaaa
ĠaaaaaaAaaaaa AAAa
% );
/ ).
` ,
a AaaAa
AA Aaaaaaaaaaa
AA aaaaaaaaaaaa
AA AaaaaaAaaaaaa
Aaaaa AaaaaaAaa
ĠAaaaa AAaaa
Ġaaaa AaaaaAaaaa
Aaaa AaaaaaaaAaaa
Aaaaaa AAaaa
Ġaa Aa
Ġaa AAAa
ĠAaaa AaaaaaaAaaa
Aaaaaaaaa AaaaaAaaaaaaaa
Ġaaaaa AaAaaaaa
Ġ( !)
aaaaaa AaaaaaAaaa
aaaaaaa AaaaaaAaaaaaa
Ġaaaaaaaaaaaaa AaaAaaa
aaaaaaaaaa A
aaaaaaaaaa Aaaaaa
AaaaAaaa Aaaaaaaaaa
AaaaAaaa AaaaaaAaaa
AaaaAaaa AAaaaa
ĠAaaAaaa Aaaaaa
AaAa AaaaaaaaAaaa
aAa AAa
AaaaaaaaAaaaaa Aaaaaaaaa
"( -
Ġ? ,"
AaaaaAaaaaaaa Aaaaaaaa
++ ++
ĠAAaaaaa Aaaaaaaaa
AaaAaaaaaaaa Aaaaaaa
AaaaaaAaaaaaaaa Aaaaaaaaaa
aaaaAaaaa AaAaaaaa
AaaaAaaaaaaaa Aaaaa
AaaaAaaaaaaaa Aaaaaaa
???? ???
AaaaaaAaaaAaaa Aa
?] ,
AAaaaaaaa Aaaaaaaaa
aaaaAaaaaaa AaaaaaAaaa
aaaaAaa AaaaaaaAaaaaaa
AaaAaAaa Aaaaa
aaaaAaaaaaAaaaaaa Aaaaaaaaa
Ġ{# };
( ?)"
, &
- ?
: ..."
: ]]
: \\
[ ...]
] +[
aa AaaAaaaaaa
aaaa AAAAA
aaaa AaaaaaaaAaaaaaaa
AA AaaaaAaa
aaa AaaaaaAaaa
aaa AaaAaaaa
aaa AaaaaaaaAaaa
aaa AaaaaaaaAaa
Aaaaaa AaAaaaaa
ĠAaaaaa AaaaAaaaaa
ĠAaaaaa AaaAaaaa
ĠAaaaaa AaaaaaaAaaaaa
ĠAaaa AaaaaaAaaaa
Aaaaaaaa AaaaaaaaAaaaaa
Aaaaaaaa AaaaaaaAaaaaaa
Aaaaaaaaa AaAaaaaa
Aaaaaaaaa AaaaAaaaaaaaa
ĠAAAA aaaaaaaaa
ĠAAAA AaAAA
ĠAaa AaaaaaAaaaa
Ġaaaaaaa Aaa
ĠAa AAaA
Ġa Aaaaaaaaaaa
AAAAAAAA aaaa
Aaaaaaaaaaaa Aa
aaaaaaaaaa Aaaaaaaa
Ġ[ ]"
Aaaaaaaaaaaaaa Aaaa
AaaaAaaa Aaaaaaaaaaa
AaaaAaaaa Aaaaaaaaaa
AaaaAaaaaa AaaaAaaa
AaaaaaAaaaa Aaaaaaaaaa
AaaAaaaa AaAaaAaaa
aaaaaaaaaaaaaaaa aaaaaaaaaaaaaaaaaaaaaaaaaaaaaaaaaa
AAaa Aaaaaaaaaaaa
Ġ% {
Ġ% ."
ĠAaAaa AaaaaaaaAaaaAaaa
ĠAaaaAaaaaa AA
AaaaaaaAaaaaaaa Aaaaaaaa
AaaaaaaAaaaaa AA
---- ------
AaAAA aA
AaaAAA aA
AaaaaaaaaaAaaaaaa Aaaaaaaaa
AaaaAaaaaaaaa Aaaaaaaaa
}} "
AaaaaaAaaaaaaaaa Aaaaaa
Ġ] [
ĠAAaaaaaa Aaaa
AaaaaaaAaaaaAaaa Aaaaaaa
AaaaaaaAaaaaAaaa AaaaaaaAaaaaAaaaa
aaaaAaaaaaaaaaaaaa AaaaaaAaaaaaa
aaaaAaaaaAaaaaaaa AaaaaaaAaaaaAaaaAaaaaaaAaaaaAaaaa
??- ??
<< "
................................ ................................
!!!!!!!!!!!!!!!! !!!!!!!!!!!!!!!!!
# -
# ---
, ."
- ..."
[ _
` .
aa AaaaAaa
aaaa AaaaaaaAaaaa
aaaa AAAaaaa
aaaa AaaaaaaaaaAaaa
aaaa AaaaaaaaaAaaaaaa
aaaa AaaAaaaaaAaa
AA AaaAaaaaaa
AA AaaAA
aaa AaaaaAaaa
Ġaaaa AA
Aaaa AaaaaaaaaaaAaaaaaaa
aaaaa Aaaaaaaaaa
aaaaa Aaaaaaaaaaa
ĠAaaaaa AaaaaaaAaaa
ĠAaaaaa AaaaaaaAaa
Aaaaaaa AaAaaaaa
Aaaaaaa AAAAaaa
Aaaaaaaaa aaaaaaaaaaaaaaaaa
Ġaaaaaaaa Aaaaa
Ġaaaaaaaa Aaaaaa
Ġaaaaa AA
ĠAA AaaaAaaaaa
ĠAaa Aaaaaaaaaaaa
aaaaaa AaaaAaaaa
aaaaaa AaaaaaaAaaa
ĠAAAAAAAA AAAAAAAAAAAAAA
ĠAAAAAAAA AAAAAAAAAAAAAAA
Ġ- )"
Ġ- ...
Ġaaaaaaaaaa AAAAAAA
AAAAAA Aaa
Ġ00000000 0000
aaaaaaaaaa AA
aaaaaaaaaaaa Aaaa
AaaAaaa A
AaaAaaa AaaaaaAaaa
Ġ: (
Ġ: )"
AaAaaaa Aaa
ĠAaAaaa Aaaaaa
AaAaaaaa Aaaaaaaaaaa
)) )
ĠAAa Aaaaaa
Ġ= {{
AaaaaAaa Aa
AAaa Aaaaaaa
AaaaAaaaaaa Aaaaaaaaaa
ĠAaAaa A
AaAaaaaaa Aaaaa
AaaAaaaaaa AA
AaaAaaaaaa Aaa
AaaAaaaaaa AaaaAaaaa
AaaAA Aaa
Ġ($ )
Ġ_ )
AaaaaaAaaaaaaaa Aaaaa
AaaAaaaaaaaaa Aaaaaaaaa
AaaaaaaAaaaaaaaa Aaaaaaaaa
AaaaaaaaaAaaaaaaaa AaaaAaaaa
aAAa AaA
aaaaAaaaaAaaa AaAaaa
>)> ).
Ġ________ ___
-{ [
# .
( _
= *
] *
a AaaAA
a AaaaAa
aaaa AaaaaaaaaaAaaaa
aaaa AaaaaaaaAaaaaaaaaa
aaa AaaaAaaaa
aaa AaaaaaAaaaaa
aaa AaaAaaaAaaa
ĠAaaaa AaaAaaaa
ĠAaaaa AaaaaaaAaa
AAAA AaAA
AAAA AaaaaaaaaAaaa
Aaa AAAa
Aaa AaaaaaaaaaAaaa
ĠAaaaaa AaaaaaaaAaaaaaaaa
Aaaaaaa AaaaaaaaAaaa
Aaaaaaa AaaAaaaaaa
Ġaa Aaaaaaaaa
Aaaaaaaaa AaaaaaaAaaaa
Aaaaaaaaa AaaAaaaaaaaaa
Ġaaaaa AaaaaAaaa
ĠAaaaaaaa AaaaaAaaaaaa
ĠAA Aaaaaaaaaaaaa
ĠAaaaaaaaa AA
ĠAaaaaaaaa aaaaaaaaaaaaaaaa
ĠAaaaaaaaa AaaaaaaaAaaaaaaaa
Ġaaaaaa AA
Ġ( ...)
Ġaaaaaaaaa Aaaaa
aaaaaa AaaaaaaaAaaaaaaa
AAAAAAAA Aaa
Aa AAAaAA
Aaaaaaaaaaa AaaaAaaaaa
Aaaaaaaaaaa AaaaaaAaaaa
Ġ[ ,
AAa AaAa
AaaaaAaaa AAA
AaaaaAaaa Aaaaaaaaaa
AAaaa AaaaAaaaaaaa
AaaAaaaa AaAaaaa
:// /
AaaaaaaaAaaaaa Aaaaaaaaaa
AaaaaaaAaaa AA
AaaaaaaAaaa Aaaaaaaaaa
AAAAaaaaa AaaaaaaAaaaaaaa
Ġ% ;
Ġ? (
Ġ? .
AaaaaAaaaaaaa Aaa
AaaaaAaaaaaaa AaaaAaaaaa
AaaaaaAaaaaaa Aaaaaaaaa
.... ...
Ġ! "
== =
aaaaAaaaaa AaaAaaaaa
---- ---
AaaaAa Aaaaaaaaaaa
AaaAaaaaaaaa AaaaaaaA
Ġ($ /
Ġ< <
Ġ< ->
-( (
Ġ?? )
aaaaAaaa AaAaaaaaa
ĠAaaaaaAaaaaaa AaaAaaAaa
aaaaAaaaaaaa AaaaaAaaaAaaaaaa
AAaaaaaaaa Aaaaaaaa
aaaaAaaaaAaaa AaAaaaaa
Ġ__ "
aaaaAaaAaaaaaaaa AaaaaaAaaaAaa
aaaAaaaaaaaaa AaaaaaAaaaa
aaaaAaaaaaaaAaaaaa Aaa
AaAaaAaa Aa
AaaAaaaAaaaaAaaaaaaa AaaaaAaaa
aaaaAaaaaAaaaAaaaaa AAAAaaaaaAaaaaa
aaaaAaaaaaaaAaaaaAaaaAaaaaaa AaaaaAaaaaaaaAaaaAaaaaa
* (
* -
. --
/ ../
[ ^
a AAAAAAAA
Ġ Ċ
Ġ ē
AA Aaaaaaaaaaaaaaaa
Aaaaa AAAaaa
Aaaaa AaAaaAaaaa
aaa AAAAAAA
aaa AaaaaaAaaaaaaa
aaa AaaaaaaaAaaaaaaaa
aaa AaaaaaaaaAaaaa
Aaaaaa AaaaaaaaaaAaaa
aaaaa AaaaAaaaa
ĠAaaaaa AaaaaaAaaaaa
ĠAaaaaa AaaaaAaa
ĠAaaaaa AaaaaaaaAaaaa
ĠAaaaaa AaaaaaaaaaAaa
Ġaa AaaaAaaa
Aaaaaaaa AAAAAAAAA
ĠAA AaaaaaaaaaAaaa
ĠAaaaaaaaa AAAA
ĠAaaaaaaaa AaaaaaaaaaAaaa
Ġ( &
Aaaaaaaaaa AaaaaAaaa
Aaaaaaaaaa AaaaaaaAaaaaaa
aaaaaa Aaaaaaaaaaaa
aaaaaa AaaaAaaaaaa
ĠAa AAAAAAA
Aaaaaaaaaaa A
AAAAAA aaaaaa
AAAAAA aA
AAAAAAA a
aaaaaaaaa AAA
Ġ/ .
Ġ# :
aaaaaaaaaaaaa AA
Ġ: "
AaaaAaaaa Aaaaaaaaaaaa
AaAaaaaa Aaaaaaaaa
AaaaaaAaaa Aaaaaaaaaaa
AaaaaAaaaa Aaaaaaaaaa
AaaaAaaaaa Aa
AaaaaaAaaaa AAaa
AaAaa Aaaaaaaa
AaAaa Aaaaaaaaa
AaaaaaAaaaaa Aaaaaaaaaa
AaaAaaaa Aa
Ġ@ @
AAAa AAa
AAaa Aaaaaa
AaaaAaaaaaa AaaaAaaa
"( #
AaaaaAaaaaaaa AAAAAaaaaaa
ĠAaaaAaaa Aaaaaaaaaa
AaaaaaAaaaaaa Aaaaaaaaaa
ĠAaAaaaaaaa Aaaaaaaa
AaaaaAaaaaaa Aaa
AaaaaaaAaaaaaa Aaaaaaaaaa
Ġ! !!
??? -
:: -
++ ,
ĠAaaaaaaAaaaa Aaaaaaaaa
AaaaAa Aaaaaaaaa
AaaaAA Aaa
aaaaAaaaa AaaaAaaaa
`` )
AAAAaaaa Aaa
AAAAaaaa AaaaaAaaaaaaaAAAAAaaaaaa
aaaaAaaa Aaaaaaaaaa
ĠAaaAaaaaaaaa Aaaaaaaaa
&&&& &&
AaaaaaaAaaaaaaaaa Aaaaaaaaaa
Ġ>= "
&&&&&&&& &&&&&&
Ġ________ _____
AAAAAAAAAAAAAAAAAAAAAAAAAAAAAAAA AAAAAAAAAAAAAAAAAAAAAAAAAAAAAAAA
AAAaaaaAaaaaaa Aaaaaaaaa
Ġ)> .)
________________________ ____
" ==
( >
) ..."
- _
- ??-??
? ;
` :
| =
} {
aaaa AAAAAA
aaaa AaaAaaaaaAaaaAaaa
AA AaaaaAaaaaaaa
Aaaaa AAAAA
Aaaaa AaAaaaaaaa
Aaaaa AaAaAA
aaa AAAAA
aaa AaaaaaAaaaaaaaa
ĠAaaaa AaaaAaaaaa
Ġaaaa AaaAaaaa
Aaa Aaaaaaaaaaaaa
Aaa Aaaaaaaaaaaaaa
Aaaa AAa
Aaaaaa Aaaaaaaaaaaaaa
Aaaaaaa AaAaaaa
Aaaaaaa AaaAA
ĠAaaaaaa AaaaAaaaaa
ĠAaaaaaa AaaaAaaaaaa
ĠAaaaaaa AaaaAaaaaAaaaaa
Aaaaaaaa Aaaaaaaaaaaaaa
Aaaaaaaa AaaaaaaaaaAaaa
ĠAAAA aaaaaaaaaa
ĠAaaaaaaa AaaaaAaa
ĠAaaaaaaa AaaaaaAaaaaaaa
ĠAaaaaaaa AaaaaaAaaaaaaaa
ĠAaaaaaaa AaaaaaaaaaaAaaa
ĠAaaaaaaaa AAAAA
Ġ( _
Aaaaaaaaaa AaaaAaaaaa
aaaaaa AaAaaaa
ĠAa AaaAaaa
aaaaaaaa AaaaaaaAaaaaa
Aa AAAAa
Ġaaaaaaaaaa Aaaa
Aaaaaaaaaaa Aaaaaaaaaaaa
aaaaaaa AaaaAaaa
aaaaaaaaa AAAAAaaaaaaaaAaaa
aaaaaaaaaaa Aaaaaaaa
Ġ& );
.. -..
ĠAaaaaaaaaaaa Aaaaaaa
ĠAaaaaaaaaaaa Aa
AaaAaaa AaaaaAaaa
AaaaAaaa AAA
aaaaaaaaaaaaa Aaaa
Ġ: =
AaaaaAaaaa AaaAaaaaaAaaaaa
AAaaa AAA
AaaaaaaaAaaaaa Aaa
AAAa AAAa
AaaaaAaaaaa Aaaaaaaaaa
AAaa AaaAaaa
AAAAaaaaa Aaaa
AaaaAaaaaaa AaaaaAaaa
"( $
AaaaaAaaaaaa Aaaaa
AaaaAaaaaaaa Aaa
AaaaaaaaAaaaaaa AaaaaAaaa
AaaaaaAaaaaaaa Aaa
aaaaAaaaaa AaaaaAaaa
*** ,
AaaaaaAaaaaaaaa Aaaaaaaa
aaaaAaaaa Aaaaaaaaaa
AaaaaaaAa AaaAaaaaa
AaaaAaaAaaa Aaa
AaaaaaaaAaaaaaaaaa Aaaaaa
aaaaAaa AaAaaa
aaaaAaaaaAaaaa AaAaaaaaaa
ĠAaaaaAaaaaaaaa AaaaaAaaa
AaaaaaaAaaaAaaaaaa AaaaaAaaaa
ĠAaaaaaaaAaa AaaaaaaAaaaaaaa
aaaaAaaaaAaaaaaaa AaaaaaaAaaaAaaaaaaAaaaaAaaaa
Ġ____ __
Ġ____ ___
aaaaAaaaaaAaaAaaaa AaaaaaaaAaaaAaaaAaaaAaaaaa
Ġ(| ).
aaaaaAaaaaAaaaa AaaaaAaaaaAaaAaaaaaAaaaaa
________________________________ ______
[_ ].
! -
! ~
% ),
( #
) --
* =
+ ...
/ _
> >=
? (
] ...
a AaaaA
~ /
Ġ .,
Ġ ....
aa AaAaa
aaaa AaaAa
aaaa AAAAaaaaa
AA AaaAa
ĠAaaaa AaaaAaa
Ġaaaa AAAAaaaaa
Aaaa AAaaaaa
Aaaaaa AaaaaaaaaaaAaaaaaa
aaaaa AaAaaaaaa
aaaaa AaaAaaaaaAaa
ĠAaaaaa AaaaaAaaaa
ĠAaaaaa AaaaaaaAaaaaaa
Ġaaa AaaaAaaa
Aaaaaaaa AaaAaaaa
Aaaaaaaaa AaaaAaaaa
Aaaaaaaaa AaaaaaAaaaaaa
Aaaaaaaaa AaaaaaAaaaaaaa
ĠAaaaaaaa AaaaaaaAaaaaa
ĠAA aaaaaaaaaaa
ĠAaaaaaaaa AAA
Ġaaaaaa Aaaaaaaaaa
Ġ( ;
Ġ( <
Ġ( .)
Ġ( /)
Ġ( [])
Aaaaaaaaaa AaaaaAaaaaaa
aaaaaa AaAaaa
ĠAa AaAaaaaa
Ġa AaAAA
Ġ- =
AAAAAAAA aa
aaaaaaa Aaaaaaaaaaaa
aaaaaaa AaaaaAaaa
aaaaaaa AaaaaaaaaAaaa
aaaaaaaaa Aaaaaaaaa
aaaaaaaaa AaaaaaaAaaaa
aaaaaaaaaaa Aaaaa
aaaaaaaaaa Aaa
... (
Ġ* _
Ġ* ***
Ġ+ )
AaaAaaaaa AaAaaaa
AaaaaaAaaaa Aaaaaaaaaaaa
AaaaAaa AA
AaaaaaAa Aaaaaaaaa
AAAa Aaaa
AaaAa AAAAAAA
AaaaaAaaaaaa AaaaaAaaa
AaaaAaaaaaaa Aaaaaaaaaa
AaaaaaaaAaaaaaa Aaaaaaaaaa
AaaAaaaaaa AaaaAaaaaa
*** )
Ġ~ ~
AaAaaaaaaa Aaaaaaaaa
AaaaaAaaaaaaaa Aaaaaaaa
AaaaaaaAaa AaaaaAaaa
AAaaaaaa AaaaaaaaAaaaaaaa
AaaaaaaaAaaaaaaaa Aaaa
Ġ] ."
AaaaaaaaaAaaaaaa Aaaaaaaaaa
aAAaaaaaa Aa
(( ((
................ ......
aaaaAaaaaAaaa Aaaaaaaaa
Ġ???? ????
AaAaAaAa AaAa
aaaaAaaaaaAaaaaaa Aaaaaaa
??- ???-
aaaaAaaaaaaAaaaaa AaaaaaaaAaaaaa
ĠAaaaaaAaaAaaaaaa AaaaaAaa
aaaaAaaaaaaaAaa Aaaaaaaaaa
" ??
% =
: @
< <=
= |
> .
[ "
_ *,
a AaaaAaaaaaa
a AaaaaA
Ġ );
aa AaAa
aaaa AaaaaaaaaaAaaaaaa
aaaa AaaAaaaaaAaaaa
AA Aaaaaaaaaaaa
AA AaaAAA
AA AaaaAaaaaaaAaaaaaa
aaa AaAaaa
aaa AaaaaaAaa
aaa AaaaaaaaAa
aaa AAaAa
ĠAaaaa AaA
Ġaaaa AaaaaaaaaAaaa
Aaa AaaaaaaaaaaAaaaaaaa
Aaa AaaaaaaaaaAaaaa
Aaa AAaaA
ĠAaaaaa Aaaaaaaaaaaa
ĠAaaaaa AaaaaAaaaaaaaa
Ġaaa AaAaaaa
ĠAaaa AaaaaaAaaaaa
Aaaaaaaaa aaaaaaaaaaaaaaaaaaa
Aaaaaaaaa AaaaaaaAaaaaaaa
Ġaaaaaaaa AAA
ĠAA AaaAaaa
ĠAaa AAa
ĠAaa AAAaaaa
ĠAaaaaaaaa Aaaaaaaaaaaaa
Ġ( {}
Aaaaaaaaaa AaaaAaaaaaaaa
aaaaaa AAAA
aaaaaa AaaaaaaAaaaa
ĠAa AaaAaaaaa
Ġa AaaAA
AAAAAAAA Aaaa
Aa AAaaaa
Ġaaaaaaaaaa Aaaaa
Aaaaaaaaaaa AAA
Aaaaaaaaaaa AaaaaAaaa
Aaaaaaaaaaa AaaAaaaaa
ĠAAAAAA aaaaaaaaa
aaaaaaa AaaaaaAaaa
AAAAAA Aaaaaa
AAAAAA Aaaaaaa
AAAAAA aaAaaaaa
Ġaaaaaaaaaaaa AAAAAAA
aaaaaaaaaa AAAAAAA
Ġ/ *
), (
AaaaAaaa AaaaAaaa
aaaaaaaaaaaaa Aaa
Ġ+ "
ĠAaaAaaa Aaaaaaaa
AaAaaaaa Aaaaaaaa
AaAaaaaa Aaaaaaaaaa
aaaaaaaaaaaaaa Aaaa
AaaaaAaaa AA
AaaaaAaaa AaaAaaaaaaaaAaaaaaaaa
AAaaaa AA
AaaAaaaaa AaaaAaaaa
AaaAaaaaa AaaaaaaaAaaaaaaaa
AAAAa Aa
Ġ| =
aaaaaaaaaaaaaaaa aaaaaaaaaaaaaaaaaaa
AaaaaaaAaaa AaAaaaa
AaaAa Aaaaaaaaa
AAaa AaaaAaaaaa
Ġ% ?
Ġ% ]
AaAaaaaaa Aaaaaaaa
ĠAaaaAaaa Aaaaaaaaa
AaaaaaAaaaaaa AaaaaaaAaaaaaAaaaaaa
AaaaAaaaaaaa Aaaaaaaaaaa
ĠAAaaaa Aaaaaaa
++ _
ĠAAaaaaa Aaa
AaaAaaaaaaaa Aaaaaaaa
AaaAaaaaaaaa Aaaaaaaaaa
AaaAaaaaaaaa AaaaAaaaa
AaaaaaAaaaAaaaa Aaaaa
Ġ?? ,
aaaaAaaaaaa AaaAaaaa
aaaaAaaaaaa AaaaaAaaaaaaa
aaaaAaaaaaa AaaaaaaAaaaaaaa
AAAAaaaaaa Aaaa
AaaaaaaaaaaAaaaaaa Aaaaaaaaa
aaaaaaaaaaaaaaaaaaaaa AA
Ġ` .
aaaAaaaaaaaaa AaaaaaaaaAaaa
aaaAaaaaaaa AAa
???????? ????????
aaaaAaaaaaaaAaaa Aaaaaaaa
################ ################
AaaAaaAaAaa AaAa
................................................................ ......................
Ġ({} );
" &
# *
( *
( ...)
( *)
) ),
- /-
: =
: ?
] /
] /(
^ =
_ [
_ ]
{ .
} )."
} ={
aa AaaAaa
aaaa AaaAA
aaaa AaaaAaaaAaaa
AA Aaaaaaaaaaaaa
AA AaaaaaaaAaaaaaaa
ĠAaaaa AaaAaaaaa
Aaaaaa AaaaaaaaaaaAaaaa
Aaaaaa AaAaaaAaaaaaaaa
aaaaa Aaaaaaaaaaaa
aaaaa AaAaaaa
Aaaaaaa AaaaaaAaaaaaaa
Aaaaaaa AAAAaa
Ġaaa AAAAA
ĠAaaa AaaAaaaaaaa
Aaaaaaaa AAAAA
Aaaaaaaa AaaaaaaAaaaa
Aaaaaaaa AaaaaaaaaaAaaaaaa
Aaaaaaaaa AaaaAaaaaa
Aaaaaaaaa AaaaaaaaAaaa
ĠAaaaaaaa AaaaAaaaaaa
ĠAaaaaaaaa AaaaaaaaaAaa
Ġ( ..."
Aaaaaaaaaa AaaaaaAaaaaaaaa
aaaaaa AaaaaaaAaaaAaaa
ĠAa Aaaaaaaaaaaa
ĠAa AAa
ĠAa AaAaA
ĠAaaaaaaaaa AaaaaAaaaaaaaaa
AAAAAAAA Aaaaa
aaaaaaa AaaaaAaa
Aaaaaaaaaaaa A
aaaaaaaaaaa Aaaaaaa
Ġ& /
Ġ[ ])"
Aaaaaaaaaaaaaa Aaaaa
Aaaaaaaaaaaaaa Aaaaaa
AaaAaaa Aaaaaaaaaaa
AaaaAaaa AaaaaaaAaaa
AaaaAaaa AaaaaaAaaaaaaaa
AaaAaa AaaaaaAaaaaaaaa
Ġ+ =
AaAaaa Aaaaaaaaaa
AaAaaa AaaaaaaaaAaaa
AAa AAaaaaaaa
AaAa Aaaaaaa
AaaaAaaaa AaaaaaaaaAaaaaaa
)) ]
AaaAaaaaa Aa
AaaAaaaaa Aaaaaaaaaaa
AaaaaAaaaa Aaaaaaaaaaa
ĠAAa Aaaa
AaaaaaAaaaa AaaaaaaAaaa
Ġ. *
Ġ. }
Ġ@ >
AaaaaAaa AA
aaaaaaaaaaaaaaaa Aa
AAaa AaAa
ĠAaaAaaaaa Aaaaaaaaa
ĠAAaaa Aaaaaaaaa
AaAaaaaaa Aaaaaa
AAAaaa Aaaaaaaaaa
AAAaaa Aa
AaaaaaaAaaaa Aaaaaaaaaa
AaaAaaaaaa Aaaaaaaaa
aaaaAaaaaa AaaaAaaa
AAAAaa Aaa
AAAAaa Aaaaaa
++ +
ĠAaaaaaAaaa Aaaaaaaaa
AaaaaAaaaaaaaa Aaaaa
.: .
ĠAaaaaaaAaaaaaa Aaaaaaaaa
AAAAaaa Aaa
AAAAaaa Aaaaaa
AaaaaaAaaaaaaaaa Aaaaaaaaa
Ġ?? "
aAAAa AA
AAAAaaaa Aaaaaaa
AAAAAAAAAAAAAAAA AAAAAAAA
AaaAaaaAaaaAaaa AA
AaaaAaaaaaaaaa Aaaaaa
AaaaaaaAaaaaaaaaa Aaaaaaaaa
AAaaaaaaaa AaaaAaaaaaaa
AaAAa Aa
ĠaAAAa AA
Ġ(?? );
ĠAaAaaaaaaaaa AaaaaaAaaaaaa
AaaaaAaAaaaa Aaa
AaaaaaAaaAaaaaaa AaaaaAaa
>)> ).)"
aaaaAaaAaa Aaaaaaaaa
0000000000000000 00000000
AaaaaAaaaAaaaaaaAaaaaaaaaa AA
ĠaaaaaAaaaaaAaaaaaAaaa Aaaaaaaa
Ġ*^ #"
ĠAaaAAAaaaa AAAA
AAaaAaaaAaaaaa AaaaaAaaaa
]/( [
& =
( -)
) .;
+ :
+ ?
+ +**
- ;
- ??
/ )"
: ,
: ?,
= #
> ."
@ @
] .....
^ ^"
a AaAaaa
a AaAaaaa
a AaaaaAaaa
} \
~ =
Ġ )."
aa AaaAaaaa
aa AaaaaAaaaaa
aaaa AaaaAaa
aaaa AaaaaaaaaAaaaaaaa
aaaa AaaaaaAaaaaaAaaaaaa
AA AaaAaaaa
AA AaaaaaAaaaaaaa
Aaaaa AaAa
Aaaaa AaaaaaaAaaaaaaa
Aaaaa AaaaaaaaaaaAaaa
aaa AaAaa
aaa AaaaaaaAaaaaaaa
aaa AaaaAaaaaaaa
aaa AaaaAa
ĠAaaaa AaaaaAaaaa
ĠAaaaa AaaaaaaAaaa
ĠAaaaa AaaaAaaaaaa
Ġaaaa Aaaaaaaaaaaa
Aaaa AAAAAAAAAA
Aaaaaa AAAAAAA
aaaaa AaaaaaAaaa
ĠAaaaaa AaaAaaaaa
ĠAaaaaa AaaaaAaaaaa
ĠAaaaaa AaaaaaaaaaaaAaaaaaa
Aaaaaaa AaAaa
Aaaaaaa AaaaaaAa
Aaaaaaa AaaaaaaAaaaaaaa
Aaaaaaa AaaaaaaaaAaaa
Ġaaa AaaaAa
Ġaaa AaaaaaaaaAaAaaa
ĠAaaaaaa AAAAA
ĠAaaaaaa AaaaaaaAaaaaaAaaaaaaaaa
ĠAaaa AaaaaaaaA
ĠAaaa AaaAaaAaaAaa
Aaaaaaaa AaaaAaaaaaa
Aaaaaaaaa AaaaaaAaaaaa
ĠAaaaaaaa AaaaaAaaa
ĠAaaaaaaa AaaaaaAaaa
ĠAaaaaaaa AaaaAaaaaaaaa
ĠAaa AaAaaaaa
ĠAaa AaaaaaaaAaaaaaaa
ĠAaa AAaA
ĠAaa AaaaaaaaaaaAaaaaaa
Ġaaaaaa Aaaaaaaaa
aaaaaa AaaaaaAaaaa
aaaaaa AaaaaaaaAaaa
aaaaaa AaaaaaAaaaaaa
aaaaaa AaaaaaaAaa
aaaaaa AaaaAaaaaaaaaa
aaaaaaaa AaaaaAaaaaAaaaa
Ġ- ,
ĠAaaaaaaaaa AaaaaaAaaa
AAAAAAAA aaaaaa
Aa AaAaaaAa
Aaaaaaaaaaa AA
Aaaaaaaaaaa AaaaaaAaaa
Aaaaaaaaaaa AaaaaaaAaaa
Aaaaaaaaaaa AaaaaaaAaaaaaa
Aaaaaaaaaaa AaaaaaAaaaaaaa
ĠAAAAAA aa
ĠAAAAAA aaaaa
aaaaaaa AaaaaaaaAaa
Ġaaaaaaaaaaa Aaaaaaa
AAAAAA AaaaaaaAaaaaAaaaaaaaa
ĠAaaaaaaaaaa Aaaaaaaa
ĠAaaaaaaaaaa AaaaaaAaaaaaa
Ġ& =
.. )
Ġ[ ?]
Ġ# "
Ġaaaaaaaaaaaaaa AaaAaaa
AaaAaaa AaaaaaAaaaa
AaaAaa AaAaaa
Ġ+ (
Ġ+ +
AAa Aaaaaaaaaa
AAa AAaa
AAa AAaA
AaAaaaa Aaaaaaaaaa
AaaaAaaaa Aaaaaaaaaaa
AaaaAaaaa AaaaaAaaaaa
AaaaaaAaaa AaaaaaaAaaaaAaaa
AAaaaa AaaaaAaAaaa
AaaaaAaaaa AA
AaaaaaAaaaa Aa
AAaaa AaaaAaaa
AaaaAaa Aaaaaaaaaa
AaaaaaAa Aaaaaaaa
Ġ@ :
AaaaaAaa Aaaaaaaaa
AaaaaAaa Aaaaaaaaaa
aaaaaaaaaaaaaaaa AA
AaaaaaaAaaa AaaaaaaAaaaaa
AAAa AAAA
AaaaaaaaAaaa AA
Ġ% =
ĠAAaaa AaAaaa
AaAaaaaaa Aaaaaaa
Ġ... )
AaaaaaAaaaaaa Aaa
AaaaaaAaaaaaa AaaaaaAaaa
(+) -
AaaaaAaaaaaa AaaaaaAaa
aaaaaaaaaaaaaaaaa AaaAaaa
AaaAAa Aaa
AAaaaaa AaaaAaaaaaaaaa
ĠAAAaaa Aaaaaaaaaa
Ġ-- ,
ĠAAaa Aaaa
ĠAAaa Aaaaaaa
Ġ_ ,
Ġ_ )"
aaaaAaaaa AaAaaaa
AAaaaaaa Aaaaaaaaa
???? ,
AaaaaaAaaaAaaa Aaaaaa
aaaaAaaaaaa AaaaaaAaaaaa
ĠAAAAAAAAAAAAAAAA AAAAAAAAAA
aaaaAaa AaaaaaaaAaaa
AaaaAaaaaaaaaa Aaaaaaaaa
aaaaaaAaaa AaAaaaaAaaaa
aaaaaaAaaaaa AaAaaaaAaaaa
AaAAa AA
AaaAaaAaaa AaaaaAaaaa
AaaaaAAAA Aaaaaaaa
aaaaAaaaaaaaaa AaaaaaaaAaaaAaaaaaaaa
AaaAaaaaAaaa Aaaaaaa
AaAaaaAa AaaAaaaaaAaaaa
[[ :
aaaaAaaaaAaaaa AaaaAaaaaAaaa
:- :
aaaaaaAaaaaaa AaaaaaAaaa
aaaAaaaaaaaaa AaaaaAaaaa
ĠAaaaaaaAaaaaaaaaaa AaaAaaAaa
-------- ---
AaaaaaaAaaaaAaaaa AaAaaaa
AaaaaaaaAaaaaaaaaaa AaaaaaAaaaa
AaaaaaAaaaaaaAaaa AAaaaaAaaaaAaAaaa
...... ...
AaAAaaa A
aaaaAaaaaAaaaaa AaaaaaaAaaaaaa
aaaaAaaaaaAaaaaaaaaa AaAaaaAaAaaAaaaaaAaaaa
aaaaAaaAaa AaaaaAaaaaaa
ĠaaaAaaaaaaaa AaaaaaaAaaa
aaaaAaaAaaaa AaaAaaaaaaa
aaaaaaAaaaaAaaaaaa AaaaAaaaaAaaaa
aaaaaaAaaaaAaaaaaa AaaAaaAaaaAaaaaAaaaa
~*~* ~*~*
aaaaAaaaaaAaaaaaAaaa AaaAaaaa
ĠaaaAaaaAaa Aaaaaaaaa
ĠaaaAaaaAaa AaaaaaaaaAaaaAaaa
AAAaAAaa AAaa
ĠAaaaaaAaaaaaaaAaaaaaaaa AAaaa
aaaaAaaAaaaaaaaaAaaaaaAaaaAaa AaAaaAaaaa
aaaaAaaaaAaaaAaaaaaAAAAaaaaaAaaaaa AaaAaaaaa
[^ [:
aaaaaaaAaaaaaaaaaaa AaaaaAaaaa
) }
) ---
- ????
/ =
: |
< @
= #,
? ):
@ .
[ *]
} <
} )"
Ġ ___
aa AaaAaaaaaaa
aaaa Aaaaaaaaaaaa
aaaa AaaaaaaaaaaAaaaaaaa
aaaa AaaaaaaaAa
aaaa AaaaaAaaaaaaAaaaaa
AA aaaaaaaaaaaaaa
Aaaaa AaAA
aaa AAAAAA
aaa AaaaaaaAaaaaa
ĠAaaaa AaaaaAaa
Ġaaaa Aaaaaaaaa
Aaa AaaAaaaAaaa
Aaaa AAAAA
aaaaa AaaaaAaaaaa
ĠAaaaaa AaaaaaAaaaa
ĠAaaaaa AaaaAaa
ĠAaaaaa AaAaaaAaaaaaaaa
Aaaaaaa Aaaaaaaaaaaaa
ĠAaaaaaa AaaaaaaaAaaaaaaaa
ĠAaaaaaa AaAaaaaaaaa
ĠAaaaaaa AaaaaaaaaAaaaaaaaa
ĠAaaa Aaaaaaaaaaaa
ĠAaaa AaaaA
Aaaaaaaa AaAaaa
Aaaaaaaa AaaaaaaAaaaaaaa
ĠAAAA aaaaaAaaa
ĠAaaaaaaa AaaaaaAaaaa
ĠAaaaaaaa AaaAaaaaaa
ĠAaaaaaaaa aaaaaaaaaaaaaaaaaa
Ġaaaaaaa AA
Ġaaaaaaaaa Aaaaaa
Ġaaaaaaaaa Aaaaaaaaaa
aaaaaa Aaaaaaaaaaa
aaaaaa AaaAaaa
aaaaaa AaaAaaaaaa
aaaaaa AaaaaaaaaAaaa
aaaaaa AaaaaAaaaaaaaaa
AAAAAAAA AaA
AAAAAAAA AAAAAAAAAAAAAAA
Aa AaaaaaaaAaaaaaaa
Ġaaaaaaaaaa Aaaaaa
Aaaaaaaaaaa AaaaaaaAaaaaaaa
aaaaaaa AAA
aaaaaaa AaaaaaAaa
ĠAaaaaaaaaaa AAAA
Aaaaaaaaaaaa AaaaAaaaaa
Ġ& #
Ġ/ ...
). [
Ġ* =
AaaAaaa AaaaAaaaaa
AaaAaaa AaaaaaAaaaaa
AaaaAaaa Aaaaaaaaaaaaa
AaaaAaaa AaaaaaaaAaaa
AaAaaa Aaaaaaaa
AAa Aaaaaaa
AAa AaAaaaaa
ĠAaAaaaa Aaaa
AaAa AaAaaAa
AaaaAaaaa AaAaaa
AaaaAaaaa AaaAaaaaa
AaaaaAaaa AaAa
)) ))
AaaaaaAaaa AaaaaaAaaa
AAaaaa Aaaa
AAaaaa AaaaaaA
AaaAaaaaa A
AaaAaaaaa AaaaaaAaaaaaa
ĠAaaaAaaaa Aaaaaaaaa
AaaaAaaaaa AaaaaaaAaaaaaa
aaaaaaaaaaaaaaa Aa
AaaaAaa AaaaaaAaaa
AaaaaaAaa Aa
AAAa Aaa
AaaAa AaaAaaa
AAaa AaaAaa
AaaaaAaaaaaa Aaaaaaaaa
AaaaaaaaAaaaaaa AaaaaAaaaa
AaaAA aaaaaaaaa
aAAA aAa
ĠAAaa AaaaAaaaa
AaaaaAaaaaaaaa Aaa
AaaaaAaaaaaaaa Aaaaaa
AAAaaaaa AA
AAAAaaa Aaaaa
AaaaAaaaaaaaa Aaaaaaaa
==== ===
AAAAaaaaaaa Aaaa
Ġ< @
}} }
???? ?????
AaaaaaaaaaAaaaa Aaaaaaaaaa
AaaaaaAaaaaaaaaa AaaaaaAaaa
aaaAaaaa Aaaaaaaaaa
AaaaaAaaaaaaaaa Aaa
-[ [(
aaaaAaaaaaa AaaaaaaaaAaaa
aaaaAaa AaAaaaAaaaaaa
Ġ(> =
aaaaAaaaaaaa AaaaAaaaaaa
aAaAa AaAa
AaaaaaaAaaaaAaaa AaaaaaaAaaaaaa
AaaAaaaaAaaa Aaaaaaaa
aAAa Aa
)[ /
aaaaAaaaaaaaaaaaaa Aaaaaaa
aaAAAA Aaa
-{ [(
! ).
" .,
" +,
% ...
+ =
, /
. ].
/ {
/ ???
/ *.
; .
= ~
= ??
? *
@ >
[ ."
] --
_ #
a AaaaaAaaaaa
aa AaaAa
aa AaAA
aa AAaA
aa AaaaaaAaaaAaaaAaaaaa
aaaa AaaaaaaaaAa
aaaa AaaaaaaaaAaaaa
aaaa AAAAaaaa
aaaa AaaaaaaaaaaAaaaAaaa
aaaa AaAaaaAaaa
aaaa AaaaaaAaaaaaAaaaaa
AA AaaaaA
AA AaaaaaaAaaaaa
AA AaaaaaaaAaa
Aaaaa AaaaaaaaaaaaaAaaaaaaa
aaa AaAa
aaa AaaaaAaaaaaaa
Ġaaaa AaaAa
AAAA AaaaaaAaaaaa
Aaa AaaaaaaaaaaaaAaaa
Aaaa AaAA
Aaaaaa AAaaaa
Aaaaaa AaaaaaaaaaaAaaa
Aaaaaa AaAaaAaaaa
aaaaa AaaaaaaAaaaAaaaaaa
aaaaa AaaaaAaaaaAaaaaaa
ĠAaaaaa AaaAaaaaaaa
Aaaaaaa Aaaaaaaaaaaaaa
Aaaaaaa AaaaaaaaaaAaaa
Ġaa AAAAA
Ġaa AaaaaAaaaaaa
ĠAaaaaaa AaaaaaaAaaaaaaa
ĠAaaaaaa AaaaaaaaaaAaaa
ĠAaaa AaaA
ĠAaaa AaaaaaaaaAaaaaaa
ĠAaaa AaaaaaaaaaaaAaaaaa
Aaaaaaaa AaaAaa
Aaaaaaaa AaaaaaaaAaaa
Aaaaaaaa AaaaaAaaaaaaa
Aaaaaaaa AaaaaaaaaaaAaaaaaaaa
Aaaaaaaa AaAaaaaAaaaaaaaa
Aaaaaaaaa AaAaa
Aaaaaaaaa AaaaaaaAaaaaaa
Aaaaaaaaa AaaaAaaaaAaaaaaaa
ĠAAAA aaAaaaaa
ĠAAAA AaaaAaaaaaAaaaaaa
ĠAaaaaaaa Aaaaaaaaaaaa
ĠAaaaaaaa AaaaaaAaaaaaa
ĠAaaaaaaa AaaaaaaAaaaaaaa
ĠAaaaaaaa AaaaaAaaaaaaaaa
ĠAaaaaaaa AaaaaaaaaaaAaaaaa
ĠAA AaaaaaAaaa
ĠAaa AaAa
ĠAaaaaaaaa AaaaaAaaa
ĠAaaaaaaaa AaaaaaaAaaaaaaaAaaaaaaa
ĠAaaaaaaaa AaaAaaaaaaaaaAaaaaaaaa
Aaaaaaaaaa AaAaaaaa
aaaaaa AaaAaa
aaaaaa AaAaa
aaaaaa AaaaaaaAaaaaaaa
aaaaaa AaaAaaaaaaaa
ĠAa AAAAAAAA
Ġa AAAAAAAA
Ġa AaAa
Ġa AAaa
Ġa AaAA
ĠAaaaaaaaaa AA
ĠAaaaaaaaaa AaaaaA
ĠAaaaaaaaaa AaaaaAa
Aa AaaaaaaaAaaaaa
Aa AaaaaaaaaAaaa
Ġaaaaaaaaaa AAA
Aaaaaaaaaaa AaaaAaaaa
Aaaaaaaaaaa AaaaaaaAaaaa
Aaaaaaaaaaa AaaaAaaaaaaaa
aaaaaaa AaaaAaaaa
aaaaaaa AaaaaAaaaaaaa
Ġaaaaaaaaaaa AAAAAAA
Ġaaaaaaaaaaa AaaAaaa
Aaaaaaaaaaaa AaaaAaaa
.. ;
Ġ00000000 00000000000
aaaaaaaaaa AAA
). *
Aaaaaaaaaaaaaa AaaAaaa
Ġ* /
Ġ# .
AaaAaaa AaaaaAaaaa
AaaAaaa AaaaAaaaaaa
AaaaAaaa AaaaaAaa
aaaaaaaaaaaaa AaaAaaa
AaAaaa AaaaaAaaa
AaAaaaa Aaaaaaaa
Ġaaaaaaaaaaaaaaa Aa
Ġ$ _
Aaaaaaaaaaaaaaa Aaaaaaaa
Aaaaaaaaaaaaaaa Aaaaaaaaa
AaaaaAaaa AAAaaa
AaaaaaAaaa AaaaaaaAaaaaAaaaaaa
ĠAAAa Aaaaa
ĠAAAa Aaaaaaaa
ĠAaaaAaaaa Aaaaaaa
AaaaaAaaaa AAA
AaaaaAaaaa Aaaaaaaaaaaa
AaaaaAaaaa AaaaAaaaa
AaaaaAaaaa AaaaaaA
AaaaaAaaaa AaaaaAa
ĠAAa Aaaaa
"- $
AAAAa AA
AaaaaaAaaaa AaaaAaaaa
AAaaa Aaaaaaaaaa
AAaaa AaaaaaaaAaaaaaaa
000000000000 00000
AaaAaaaa AaaAaaa
): :
AaaaaaaaAaaaaa AaaaAaaaa
AaaaAaa Aaaaaaaaa
Ġ. /
AaaaaaAa AA
AaaaaaAaa AAAaaa
AaaaaaAaa AaaaaaaAaaaa
Ġaaaaaaaaaaaaaaaa aaaaaaaaaaaaa
AaaAa AA
AaaAa Aaaaaaaa
AaaaaAaaaaa AaaaaAaaa
AaaaAaaaaaa AaaaaaaaAaaaaaaaa
AaAaaaaaa Aaaaaaaaaa
Ġ? /
Ġ? ]
Ġ? )"
Ġ? [?]
() ),
Ġ) *
.- .
AaaaaaaAaaaaaa Aaa
AaaaaaaAaaaaaa AaaaaaAaaaaAaaaaaaAaaa
AaaAaaaaaa AaaaaAaaaa
ĠAaaaaAaa AaaaaAaaa
AaaAA Aaaaa
AAaaaaa AAaaa
____ ___
AaaAaaaaaaa Aaaaaaaaaaa
AaaAaaaaaaa AaaaaAaaaa
AAAaaaaa Aaaaaaaaaa
ĠAaaaAA aaaaaa
AaaAaaaaaaaa AaaaAaaaaaaa
AaaaaAa AaaaAaaa
aAaa AaA
AaaaaaAaaaaaaaa Aaa
AaaaaaAaaaaaaaa AaaaaAaaa
aaaaAaaaa Aaaaaaaaaaa
aaaaAaaaa AAAAAAAAAAA
AAAAaaa AAA
AAAAaaa AaaaAaaaAaaaaaAaaaaaaaa
AaaaAaaaaaaaa Aaaaaaaaaaa
ĠAAAAaaa AaaaaaaAaaa
AAaaaaaa AaaaAaaaaaa
AaaaaaAaaaAaaaa Aaaa
AaaaaaaaAaaaAaaa Aaaaa
AaaaaaaaAaaaAaaa AaaaaaAaaaAaaaaaaAaaaaAaaaaaa
Ġ] ,
ĠAAaaaaaa AaaaaaaaAaaaaaaa
Ġ(? ),
AaaaaaaaaAaaaaa AaaAaa
[?] )
aaaaAaaaaaa AaaAaaaaaa
AaaaaaaAaaaAaaa AaaaaaaAaaaAaaaaaa
AaaaaaaaAaaaaaaaaa Aaaaaaaaa
aaaaAaa AaAaa
aaaaAaaaaaaa AaaaaaaaaaaAaaaaaa
aaaaAaaaaaaaa Aaaaaaaaaa
aaaaAaaaaaaaa AaaaaaaaAaaaaaa
AaaaaaaaaaAaaaaaaaa Aaaaaaaaaa
aaaaaaaAaaaa AaAaaaaa
aaaaAaaaaAaaaa AaAaaa
aaaaAaaaaAaaaa AaaaaaAaaaaaa
Ġ>= ,
aaaaAaaaaaAaaa AaaaaaAaaaaaaa
aaaaAaaaAaaa Aaaaaaaa
AaaAaAaaa Aaaaa
AaaAaAaaa Aaaaaa
ĠAaaaaaAaaaaaaaaAaaaAaaa Aaaaaa
AaaaaaaAaaaaAaaaa Aa
*# *#
AaaaaaAaaaaaaAaaa AaaaaaaAaaaaaaAaaaaaAaaaaAaaaaaaAaaa
aaaaAaaaaaaaaaaaaa Aaaaaa
aaaaAaaaaaaaaaaaaa AaaaAa
ĠAaaaaaAa AAAAaaaAaaaaaa
aaaaAaaaaaaaAaaa AaaaaaaaAaaaAaaaAaaaaaAaaaAaaaaaaAaaaaAaaaaaa
AAaaaaaaaaaa Aaaaaaaa
aaaaAaaaaaaAaaaAaaa AaaaaaaAaaaAaaaaaa
aaaaAaaaaaaAaaaAaaa AaaaaaaAaaaaAaaaAaaaaaa
aaaaAaaaaaaAaaaAaaa AaaaaaAaaaAaaaaaaAaaaaAaaa
aaaaAaaaaaaAaaaaaaa AaaaaaaAaaaAaaaAaaaaaaAaaaAaaaaaa
aaaaAaaaaaaAaaaaAaaaAaaa AaaaaaaAaaaAaaaaaa
aaaaAaaaaaaAaaaaAaaaAaaa AaaaaaaAaaaaAaaaAaaaaaa
aaaaAaaaaaaAaaaaAaaaAaaa AaaaaaAaaaaaaAaaaAaaaaaaAaaaaaaAaaaaaAaaaaAaaaaaaAaaa
aaaaAaaaaaaAaa AaaaaaaAaaaaaaa
aaaaAaaaaAaaaaaAaaaa AaAaaaaaa
aaaaAaaaaAaaaaaAaaaaaaaaAaaaa AaAaa
aaaaAaaaaaaaAaaaaAaaaAaaaaaaAaaaaAaaaaaaaAaaaAaaaaa AaaaaaaAaaaAaaaaaaAaaaaa
ĠAaaaaAaaaAaa AaaaaaaaaAaaaaaaaa
aaaaAaaaaaaaAaaaAaaaaaa AaaaaaaAaaaaAaaaAaaaaaaAaaaaaa
ĠAAAAAaaaAaaaaaAaaaaaa AAaaa
aaaaAaaaaaaaAaaaAaaaaaaaAaaaAaaaAaaaaaAaaaAaaaaaaAaaaaAaaaaaa AaAaaa
aaaaAaaaaaaAaaaAaaaAaaaaaAaaaAaaaaaaAaaaaAaaa AaaaaaAaaAaaa
" _____
, :
- ?]"
/ -)
: :(
; [
< $
= ?
> )"
? |
] _
] ::
] -"
a Aaaaaaaaaaa
a AAAAAAAAAA
a AaaAaaaa
a AAAaaa
} ."
~ ).
Ġ ____________________________
aa AaaaAaaa
aa AaaaaAaaaa
aa AaaaaaAaaaAaaaa
aa AaAAa
aaaa AaAa
aaaa AAaa
aaaa AaaaaaaaaaaAaaaaaa
aaaa AaaAaaaAaaaaaa
aaaa AaAaaaaaAaaa
AA AaaaA
AA AaaaaaaAaaaaaa
Aaaaa AaaaaaAa
aaa AaaaaaAaaaa
aaa AaaaaAaa
aaa AaaaaAaaaaa
aaa AaaaaaaAaaaaaa
aaa AAAaaa
aaa AaaaaaaAaaaa
aaa AaaaAaaaaaaaa
aaa AaaaaaaaAaaaaaaaaa
ĠAaaaa AaaaaAaaa
ĠAaaaa AaaaaaAaaaa
ĠAaaaa AaaaaaaaAaaaaa
ĠAaaaa AaaaaaaaaaAaaaaaa
Ġaaaa AaaaaaAaaaa
Ġaaaa AaaaaaAaaaaa
Ġaaaa AaaaaAa
Ġaaaa AaaaaAaaaaaaaaa
AAAA Aaaaaaaaaaaa
AAAA AaaaAaaaa
AAAA AaaAaaaaa
Aaa AaAaA
Aaaa Aaaaaaaaaaaaaa
Aaaaaa AaaaaaaaaaAaaaaaa
Aaaaaa AaaAaaaaaAaaaa
aaaaa AaaaaAaaa
ĠAaaaaa AaaaaaaaaaAaaaaaaaa
Aaaaaaa AaaaaaaaAaaaa
Aaaaaaa AaaaaaaaaaaAa
Aaaaaaa AaAaaaaAaaaa
Ġaa AAAAAAAA
ĠAaaaaaa Aaaaaaaaaaaaa
ĠAaaaaaa AaaaaaaaAaaa
ĠAaaa AaaaaaaaaAaa
ĠAAAA Aaaaaaaaaaa
ĠAAAA aaaaAaaa
Ġaaaaa AAAa
ĠAaaaaaaa Aa
ĠAA AaaAA
Ġaaaaaaa Aaaaaaaaa
Ġ( !
Ġ( ),
Ġ( _)
Ġaaaaaaaaa Aaa
Aaaaaaaaaa Aaaaaaaaaaaa
aaaaaa AAAAAAA
aaaaaa AaAaaaaa
aaaaaa AaaAaaaaa
aaaaaa AaaaaAaa
aaaaaa AaAaaaaaaa
ĠAAAAAAAA a
ĠAa AaAaaaa
ĠAa AaAaa
aaaaaaaa AaaaaaaaaaAAA
Ġ- (
Aa Aaaaaaaaaaaaaaa
Aa AAAAaaa
aaaaaaa AaAaaa
aaaaaaaaaaa Aaaaaaaaa
.. .,
Ġ00000000 000000000000
ĠAaaaaaaaaaaa Aaaaaaaaa
aaaaaaaaaa Aaaaaaa
aaaaaaaaaa AaaaAaaaaaa
Ġ/ =
Ġ[ #
Ġ[ ?
aaaaaaaaaaaa AaaAaaa
AaaAaaa AaAaaa
AaaaAaaa AaaAaaaaa
AaaaAaaa AaaaaAaaaa
AaAaaa AaaaaaaAaaaaaaaa
AAa Aaaaaaaaa
AAa AaAAa
ĠAaAaaa Aaa
AaaaAaaaa AaaaaaAaaaa
AaaaAaaaa AaAaa
AaAaaaaa AaaaAaa
AaaaaaAaaa AaaaaaaaAaaaaa
ĠAAAa Aaaaaaa
AaaAaaaaa AaaAaaaaa
AaaAaaaaa AaaaaaAaaaaaaa
ĠAAa Aa
ĠAAa AAAAA
AaaaAaaaaa AaaaaAaaa
AaaaAaaaaa AaaaaaAaaaaaaa
AAAAa AaaAaa
AaAaa AaAaa
AAaaa Aaaa
AAaaa Aaaaaaaaa
aAa AAA
AaaAaaaa AaaAaaaa
AaaAaaaa AaaaaaAaaaaaaaa
AaaaaaAa AAA
AaaaaaAa AaaAaaa
AaaaaAaa AaaaaAaaa
AaaaaaaAaaa Aa
AaaaaaaAaaa Aaaaaaaaaaa
Ġaaaaaaaaaaaaaaaa aaaaaaaaaaa
AAaa Aaaaaaaaaa
AaaaAaaaaaa Aaa
AaaaAaaaaaa AaaaaaAaaa
AaaaaaaaAaaa Aaaaaaaa
ĠAaaAaaaaa Aaaaaaaaaa
ĠAAaaa Aaaaaaa
AaAaaaaaa Aaaaaaaaa
Ġ? *
.- $
AaaaaAaaaaaa Aaaaaaaaaa
AaaaAaaaaaaa AaaaAaaa
aaAA Aaa
aAA Aaa
AaaaaaaaAaa Aaaaaaa
AaaAaaaaaa Aaaaaaaaaaa
ĠAaaAa Aaaaaaaaaa
aaaaAaaaaa AaaaaaaaaAaaaa
AAAAaa AAA
AAaaaaa A
aAaaaa AA
AaaAaaaAaaa AAAAA
AaaaaaaaAaaaaaaa Aaaaaaaaaa
AaaaAaaaAaaa AAAAAaaa
AaAaaaaaaa AaaaAaaaa
AaaAaaaaaaa AaaaaaaaAaaaaa
ĠAAaaaaa Aaaaaaa
Ġ.. ...."
AaaAaaaaaaaa Aaaaaa
AAaaaaaa Aaaa
AAAaaaaaa Aaaaaaaaaa
ĠAaaaAaaaaaa Aaaaaaaaa
-( -
-( {
aaaAaaaa Aaaaaaaaaaa
AaaaaaAaaaAaaa Aaaaa
ĠAaaaaAaaaaaa Aaaaaaaaaa
AaaaaaaaaAaaaaaa Aaaaaaaaa
AAAAaaaa Aaaa
aaaaAaa AaaAaaaAaaAaaa
ĠAaaaaaAaa AaaaaaaAaaaa
.? )"
!!!! !!
AaaaaaaAaaaaAaaaAaaa Aa
AaAaaaAaaa Aaaaaa
AaaAaaaaaAaaa Aaaaaa
ĠAAAAaaaaa Aaaaaa
ĠAAAAaaaaa AaaaaaaaaaAaaa
aaaaAaaaaaaaaa AaaaaaaAaaa
ĠAaaaaaaaAaaa AaaaaaaaaaAaaa
aaaaaaAaaaaaaaa Aaaaaaaaaa
ĠAAaaaaaaaa Aaaaaaaa
AaaaAaaAaaaa Aaaaaaaaa
aaaaaAaaaaa AaaaaaAaaaAaa
ĠaaaaAaaa AaAaaaaaAaaaAaa
ĠaaaaaaAaaaaaaa AAA
AAaaaAAaaa Aaaa
aaaaAaaAaaa AaaaAaaaaaa
AaaaaaAaaaaAaaa Aa
~~ ~~
AAAaAa AA
ĠAaaaAaaaAaaaaa Aaaaaaaa
/# !
ĠaaaaaAaaaaaAaaaaaAaaa AaaaaaAaaa
________________________ _
******** ********
---------------- -----------
AAaAaAa AaAaaaAa
Ġ(; ).
"?? ,
"_____ ,
aaAaaaaaAaaaAaaaa AAAAaaaaaAaaaaa
" ????,
# *#
$ .
* _
/ +
/ >
/ *,
= ]
^ )
a Aaaaaaaaaaaaa
a AaaAaaa
a AaaaAaaa
a AaaaAaaaa
a AaaaAaaaaa
a AAaaA
Ġ ________________________________
Ġ )::
aa Aaaaaaaaaaa
aa AaaaaAaaa
aa AaaaaAaaaaaaa
aa AaaaaAaaaaAaaaa
aa AAaAa
aaaa AaAaaa
aaaa AAa
aaaa AaAaa
aaaa AaaaaaAa
aaaa AaAA
aaaa AaaaaaaaaAaaaaa
aaaa AaaAaaAaa
aaaa AaaAaaAaaaa
AA AaaaaaAaaaaa
AA AaaaaaaaAaaaaaa
Aaaaa AAAAAAAAA
Aaaaa AAAAaaaa
aaa AaaAaaaaa
aaa AaaaaaaaAaaaaa
aaa AaaaaaaaAaaaaaa
aaa AaaAaaaaaaaa
aaa AaaaaaaaAaaaAaaa
aaa AaaAaaaaaaaaaa
ĠAaaaa AaAaaaa
ĠAaaaa AaaaaaAaaaaa
ĠAaaaa AaaaaAaaaaa
ĠAaaaa AaaaaAaaaaaaa
Ġaaaa Aaaaaaaaaa
AAAA AaaaAaaa
AAAA AaaaAaaaaaa
AAAA AaaaaaAaaaaaa
Aaa AaaaaaaaaaAaaaaaa
Aaaaaa AAAAA
Aaaaaa AAa
Aaaaaa AAAAaaaaaa
aaaaa AAaaa
aaaaa AaaAa
aaaaa AaaA
aaaaa AAaaaaa
ĠAaaaaa AAaaa
Aaaaaaa AaaaaAaa
Ġaa Aaaaaaaaaaa
Ġaa AaaaaaaAaaaaa
Ġaaa AaaaaaAaaa
Ġaaa AaaaaAa
Ġaaa AaaaaaaaaAaaaa
ĠAaaaaaa AaaaaaAaaaa
ĠAaaaaaa AaaaaAaaaaa
ĠAaaaaaa AAAaaa
ĠAaaaaaa AaaaaaAaaaaaaaa
ĠAaaaaaa AaaaaaAaaaaAaaaaa
ĠAaaaaaa AaaAaaaaaaaaAaaaaaaaa
ĠAaaa AAAAAAAAAA
ĠAaaa AaaaaaaaAaaa
ĠAaaa AaaaaaaAaaaaaaa
ĠAaaa AaaaaaaAaaaaa
ĠAaaa AaaaaaaaAaaaaaaaa
Aaaaaaaa AaaaaaaaaaAaaaa
Aaaaaaaaa AaaaaaaaAaaaa
ĠAAAA AaaaaAaaaaa
ĠAaaaaaaa AaaaaaaaAaa
ĠAaaaaaaa AaaaaaaAaaaaaaaaa
ĠAA AaaAaaaaa
ĠAA AaaaAaaaaaa
ĠAaa AAaaa
ĠAaaaaaaaa AaaaaaAaaaaa
ĠAaaaaaaaa AaaaaaAaaaaaaaa
Ġ( \\
Aaaaaaaaaa AaaaaAaaaaaaaa
Aaaaaaaaaa AaaaaaaaaAaaaaaaaa
aaaaaa AaaAaaaAaaa
aaaaaa AaaaaaAaaaAaaa
aaaaaa AaaaAaaaAaaaAaaaa
aaaaaa AaaaAaaaaAaaa
aaaaaa AaaaaaaAaaaaaaaaaaa
aaaaaa AaaaaaAaaAaaaaaaa
aaaaaa AaaAaaAaaaaaaaa
ĠAa AaaAaaaAaaaa
Ġa Aaaaaaaaaa
aaaaaaaa AaaaAaaaa
Ġ- /-
AAAAAAAA Aaaaaa
AAAAAAAA Aa
Aa Aaaaaaaaaaaaa
Aa AAAaaaa
Aaaaaaaaaaa AaaaaaaaAaaa
ĠAAAAAA aA
aaaaaaa AaaAaaaaa
ĠAaaaaaaaaaa Aaaaaaaaaa
ĠAAAAAAA a
aaaaaaaaa AaaaaAaaaa
aaaaaaaaa AaaaaAaaaaa
aaaaaaaaa AaAaaaaaa
Aaaaaaaaaaaa AAA
Aaaaaaaaaaaa AaaaaaaaAaaa
aaaaaaaaaaa Aaa
Ġ& ...
.. ::(
AAAAAAAAAA Aaaa
Ġ[ ?],
aaaaaaaaaaaa AA
AaaaAaaa AaaAaaa
AaaaAaaa AaAaaaaa
AaaaAaaa AaaaAaaaaa
AaaaAaaa AaAaaaaaaaa
AaaAaa AaaAaaaa
ĠAaaAaaa AaaaaaaaAaaaaaaaaa
AAa AAAAA
AAa AAaaa
AAa AaaAa
AAa AaAA
Ġ$ (
Ġ$ )
ĠAaAaaa AaaaaaaAaaaaaaaa
AaAa AAa
AaaaAaaaa AaAaaaa
AaaaAaaaa AaaaaAaaaa
aaaaaaaaaaaaaa AA
AaaaaAaaa AaaaaaaaAaaa
AaaaaaAaaa AaaaaaaAaaa
AAaaaa Aaaaaaaa
AaaaaAaaaa AaaaaaaaaAaaaaaaa
AaaaaAaaaa AaaaAaaaAaaaa
ĠAAa Aaaaaaa
ĠAAa AAAa
AaaaAaaaaa AaaaaaaaAaaa
AAAAa Aaa
AaaaaaAaaaa AaaAaaaa
AaaaaaAaaaa AaaaaaaaaAaaaaaaa
AaAaa AAa
AaAaa AaaaaaaAaaaaaa
AaaaaaAaaaaa AaaaaaaAaaaaaa
AAaaa Aaaaaaaa
AAaaa AaaaA
aAa AAAa
aAa AAaaAAA
AaaAaaaa AaaaaaAaaa
:// :
AaaaAaa Aaaaaaaaaaa
Ġ= ,
AaaaaAaa AaaaaaaaAaaaaa
AaaaaaAaa AaaaaAaaa
AaaaaaAaa AaaaaaAaaa
AaaaaAaaaaa AaaaaaaaAaaa
AAaa AaAAa
AaaaAaaaaaa AaaaaaAaaaaa
ĠAAaaa AaaaaaaaAaaaaaaa
AaAaaaaaa A
ĠAaaaaAaaaa Aaaaaaaaaa
ĠAaaaAaaa Aaaaaaaa
AAAaaa Aaaaaaaaaaaa
ĠAaaaaAaaa Aaaaaaaaaa
aAA AaaA
AaaaaaaAaaaa Aa
ĠAAaaaa Aaaaaaaa
AaaaaaaaAaaaaaa AaaaAaaaa
AaaaaaaaAaa AaAaaaaAaaaaaaaa
AaaAaaaaaa AaaaAaaa
!! !"
!! !)
aaaaAaaaaa Aaaaaaaaaaa
aaaaAaaaaa AaaAaaaaAaaaaaaa
aaaaAaaaaa AaaaaaaaaaaAaaaaaaaaa
aaaaAaaaaa AaaaaaAaaaAaaaaaaa
Ġ{ !
Ġ{ {{
*** )"
AaAA Aaaaaa
AaAA aaaaaa
ĠAaaaaaAaaa AaaaaaAaaa
AaaaAa AAA
AaaAaaaaaaaa Aaa
AaaAaaaaaaaa AaaaaaAaaaaa
aAaa AaAa
Ġ_ (
aaaaAaaaa AaaaaaaaAaaaaa
aaaaAaaaa AaAaaaaaa
AAAAaaa AaAa
AaaaAaaaaaaaa Aaa
AaaaAaaaaaaaa Aaaaaaaaaa
ĠAAAAaaa Aaaa
ĠAAAAaaa Aaaaaa
AaaaaaaaAaaaaaaaa Aaaaaaa
AaaaaaaaAaaaaaaaa AaAaaaaaaaa
AAAAaaaaaaa Aaaaaaaaa
Ġ(- /
AaaAaaaaaaaaa Aaa
ĠAaaaaaAaaaa Aaaaaaaaaa
ĠAaaaaaAaaaa AaaAaaaa
ĠAaaaaAaaaaaa Aaaaaaaaa
"= ,
aAAAa AaAaAA
ĠAaaaaaAA AaaaaaaaAaaaaa
.* .
[?] (
aaaaAaaa AaaaaaAaaaAaaaaaaa
AaAaaaaaaaa AaaaaaaaAaaa
aaaaAaaaaaa AAAAAAAAAAA
AaaaaaaaAa AAAA
ĠAAAAaa AaaaAaa
aaaaAaa AaaaaaAaaa
aaaaAaa AaaaaaaaAaaaa
AaaaaaaaaAaaaaaaaa Aaaaaaaaaa
AaaaAaaaaAaa AAAAAaaa
AaaaAaaaaaAaaaa AaaAaaAaaaaaAaaaaaaaa
\\ %
ĠAaaAaaaaaaaaa Aaaaaaaaa
aaaaaaAaaaaa AaaaaAaaaaAaaaa
ĠAaaaaaAaaaaaaaa AaaaaaAaaaaaaaaa
aaaaAaaaaaaaaa AaaaaaaaaAaaaAaaa
aAAa Aaa
aAAa AaAa
Ġ^ =
ĠaaaaaAaaaa AaaaaaAaaaAaaaaaaa
AaAaaaaaaaaa AaAaaa
#### ##
AaaaAaaAaaaa Aaa
AaaaaaaAaaaAaaaaaa AaaaaaAaAAA
(). )"
aaaaAaaaaaAaaaa AaaaaaAaaaAaaa
aaaaAaaaaaAaaaa AaaaaaAaaaaaAaaa
aaaaaaAaaaaaa AaaaaaaaaAaaa
AaaaaaaAaaaaAaaaa AaaaaAa
ĠaaaaaaAaaaa Aaaaaaaaaaaaa
aaaaAaaaaaAaaaaaa Aaaaaa
AAAAaaaaaaaa Aaaaaaa
ĠAAaaaaaaaaaa Aaaaaaaa
aaaaAaaaaaaaaaaaaa AaaAa
aaaaAaaaaAaaaaaaa Aaaaaaaaa
aaaaAaaaaaaaaaa Aaaaaaaaaa
AaaaaaAaaaaaaaaaaa Aaaaaa
aaaaAaaaaaaaAaaaaa Aaaaaaaaaaa
aaaaAaaAaaaaaaa Aaaaaaaaaaa
AaaaaaaAaaaAaaaa Aaaaaaaaa
aaaaAaaaaaAaaaaaaaaa AaAaaaaaa
aaAAa AAa
aaaaaaaAaaaaAaaaa AaaaAaaaAaaaa
aaaaAaaaaaAaa AaaaaaaaAaaaAaaaAaaaAaaaaa
)... )"
aaaaAaaaaaAaaaaaaaa AaaAaaaaaaaaa
aaaaAaaaaaAaaaaa AaaaaaaAaaaaaa
aaaaAaaaAaaaaaa AaaAaaaaaaAaaaaa
:] _]
aaaaAaaaaaAaaAaaaa AaaaaaaaAaaaAaaa
ĠaaaaaAaaaaaAaaaaaAaaa AaAaaaaa
aaaaAaaaaAaaaaAaaa AaaAaaaaAaaa
AaaaaAaaaaaaaAaaaaa A
aaaaaaAaaaAaaaaa AaaaaAaaaa
aaaaAaaaaaaAaaaaAaaaa AaAaaa
AAaaaaaaaaaaaa Aaaaaa
aaaaaaAaaaAaaaa AaaaaAaaaa
aaaaaaAaaaaaaaAaaaaaaa Aaaaaaaa
AaaaaaaaaaaAaaaaaAaaaa AAA
aaaaAaaaaaaaAaaaaAaaaAaaaaaaAaaaaAaaaaaaaAaaaAaaaaa AaaaaaaAaaaAaaaaaaAaaaaaAaAAA
aaaaaaAaaaAaaaaaa AaaaaAaaaa
aaaaAaaAaAaaa AaaaaaaAaaaa
aaaaAaaaaaaaaAaaaaaaa Aaaaaaaaaa
aaaaaaAaaaaaAaaaaaa AaaaaAaaaa
aaaaAaaaaaaaaaAaaaaaaaAaaaAaaaaaaaa AaaaAA
AaaaaaAaaaaaaAaaaAAaaaaAaaaaAaAaaa AaaAaaAaAaaa
AaaaaAaaaaAaaaaaaaaaaa AaaaaaaaAaaaaa
aaaaaaAaAaaaaaaa AaAaaAaaa
#*# *
Ġ):: ..
aaaaaaAaaaAaaaAaaaAaaaa Aaaaaaa
aaaaaaAaaaaaaAaaaaaaaaaaa Aaaaaaaaaa
! &
! /
" ~
% +
& <
& >
( .
( =
( ?:
* /
, ``
. $
. ::
: ^
: -)
? )."
\ )
\ [
] -,
^ .
_ "
_ ######
a AAAAAAAAA
a Aaaaaaaaaaaaaa
a AaaaaAaa
a AaaaAAA
Ġ .;
aa AaaaaaAaaa
aa AaaaaaAaaaaaaa
aa AaaaAa
aa AaaaAaaaaaAaaaaa
aaaa AaaaaaaaaaaAaaa
aaaa AaaAaaaaaAaaaaaa
AA AaaaaaaAaaaaaaa
AA AaaaaaaaaaaAaaaaaa
Aaaaa AAAaaaa
Aaaaa AaAaAa
aaa AaaaaAa
aaa AaaaaaaaaAaaa
aaa AaaaaaaaAaaaaaAaaaaaaaaa
ĠAaaaa Aaaaaaaaaaaaaa
ĠAaaaa AaAaaa
ĠAaaaa AaaaaaaAaaaaaa
ĠAaaaa AaaAaaaaaa
Ġaaaa AAAAAAA
Ġaaaa AaaAaa
Ġaaaa AaaaaaAaaaaaa
AAAA AaaA
Aaa AAAAa
Aaa AaaAaaaAaaaa
Aaa AaaaaaaaaaaAaaaaa
Aaa AaaaaaaaaaaaaAaaaaaaaa
Aaa AaaaaaaaaaaaaAaaaa
Aaaa AaaaaaaaaaaAaaa
Aaaa AaaaaaAaaaAaaaaa
Aaaaaa AaaAaaaaAaaaaa
aaaaa AaaaaaAaaaa
aaaaa AaaAaaaa
aaaaa AaaaaaaaAaaa
ĠAaaaaa AAAaaaa
ĠAaaaaa AaaaaaaaaAaaa
ĠAaaaaa AaaAaaaaaaaaa
ĠAaaaaa AaaaaaaaaAaaaaa
ĠAaaaaa AaaaAaaaaAaaaaa
Aaaaaaa AaAa
Aaaaaaa AaaaaaaaAaaaaa
Aaaaaaa AaaAaaaaaaa
Aaaaaaa AaaaaaaaaAaaaaaa
Ġaa AaaaaaaAaa
ĠAaaaaaa AaaaaAaaa
ĠAaaaaaa AaaAaaaa
ĠAaaaaaa AaaaaaaaAaaaaaa
ĠAaaa AaaaAaa
ĠAaaa AaaaaaaaaaAaaaaa
ĠAaaa AaaaaaAaaaAaa
ĠAaaa AaaaaaaAaaaaaAaaaaaaaa
ĠAaaa AaaaaaaAaaaaaaAaaaaaaaa
Aaaaaaaa AaAaa
Aaaaaaaa AaaaaaaaaaaAaaaaaa
Aaaaaaaa AaaAaaaaAaaaaaaaa
Aaaaaaaa AaaaaAaaaaaAaaaaaa
Aaaaaaaaa AAAA
Aaaaaaaaa AAAAA
Aaaaaaaaa AaAaaaa
Aaaaaaaaa AaaaaaaaAaaaaaa
Aaaaaaaaa AaaaaaaAaaaaa
Ġaaaaaaaa Aaaaaaaaa
Ġaaaaa AAAA
ĠAaaaaaaa AaaaaaAaaaaa
ĠAA aaaaaaaaaaaa
ĠAA AaaaAaaa
ĠAA AaaA
ĠAA AaaaaaaAaaaaaa
ĠAA AaaaaaAaaaaaaa
ĠAaa AaA
ĠAaa AaaaaaaaAaaaa
ĠAaa AaaaaaaaaAaaaaa
ĠAaaaaaaaa AaaaaaAaaaa
ĠAaaaaaaaa aaaaaaaaaaaaaaaaa
Ġaaaaaaaaa AaaaaAaaaaaAaaaaa
Aaaaaaaaaa AaaaAaaaa
Aaaaaaaaaa AaaaaaAaaaa
aaaaaa AAAAA
aaaaaa AaaaaaAaa
aaaaaa AaaaaAaaaaa
aaaaaa AaaaAaaaaaaa
aaaaaa AaaaaaaAaaaaAaaa
ĠAa AaaaAaaa
Ġa AaaAaa
Ġa AaaaaaAaaaaa
Ġa AaaaA
aaaaaaaa AaaaAaaa
aaaaaaaa AaaaaaaAaaa
ĠAaaaaaaaaa AaaaAaaaaa
ĠAaaaaaaaaa AaaaAaaaaaaa
Aa AaaaaaaaaaAaaa
Ġaaaaaaaaaa Aaa
Ġaaaaaaaaaa Aaaaaaa
Aaaaaaaaaaa AaaaaaAaaaaaa
aaaaaaa AaaaAaaaaa
aaaaaaa AaaaAaaaaaa
aaaaaaa AaaaAa
aaaaaaa AAAAaaa
aaaaaaaaa AaAaaaAaaaaa
Aaaaaaaaaaaa AA
Ġ& "
.. +
Ġ00000000 000000000
ĠAaaaaaaaaaaa Aaa
ĠAaaaaaaaaaaa Aaaaaa
Aaaaaaaaaaaaa AaaAaaa
ĠAaaaaaaaaaaaa Aaaaaaaaa
Ġ/ ,
Ġ[ $
Ġ[ ~
Ġ# ##
Ġaaaaaaaaaaaaaa Aaaa
AaaAaaa AaaaaaaaAaaaaaaaaa
AaaaAaaa AaAaaaa
AaaaAaaa AaaaaaAaaaa
AaaaAaaa AaaaAaa
AaaAaa AaaaaaAaaaaaaa
AaaAaa AaaAA
Ġ: -)
Ġ+ ,
?? "
AAa Aaaaaaaa
AAa AaaaAaaa
AAa AaaAAa
AaAaaaa AaAaaa
AaAaaaa AAa
AaAa AAaA
AaaaAaaaa AaaaaaaAaaaaaa
AaAaaaaa AAA
AaaaaAaaa AaaaaaaaaaaaaAaaa
AaaaaAaaa AaaaaaaaAAA
AaaaaaAaaa AAA
AaaaaaAaaa AaaaaaAaaaaaa
ĠAAAa AA
ĠAAAa Aa
AAaaaa Aaaaa
AAaaaa AaaaaaaaaAaaa
AaaAaaaaa AA
ĠAaaaAaaaa AA
ĠAaaaAaaaa Aaaaa
ĠAaaaAaaaa Aaaaaaaa
ĠAaaaAaaaa AaaaaAaaaaa
AaaaaAaaaa A
AaaaaAaaaa AaaaaaaAaaaaaaaa
ĠAAa AAA
AaaaAaaaaa AaaAaaaa
AaaaaaAaaaa AaaAaaaaa
AAaaa AaaaaAaaaaaa
AaaAaaaa AaaaaaaaAaaaaa
:// @
AaaaaaaaAaaaaa AaaAaaaa
AaaaAaa AAA
AaaaAaa AaaaaaaAaa
Ġ= )
Ġ= ...
AaaaaAaa Aaaaaaaaaaa
AaaAa Aaaaaaaaaa
AaaAa Aaaaaaaaaaa
AaaAa AAa
AaaAa AAaaaaa
AAaa AaaaAaaa
AAaa AaaaaaAaaaa
AAaa AAaaa
AAaa AaaaaaaaAaa
AAAAaaaaa Aaaaaaaaa
AaaaAaaaaaa AAA
AaaaAaaaaaa AaaaaAaaaaa
AaaaaaaaAaaa AaAaaa
ĠAaAaa AA
aaaaaaaaaaaaaaaaaaa AA
ĠAaaAaaaaa AA
ĠAAaaa AaaaAaaaaaaa
AaAaaaaaa AaaaAaaaa
Ġ? -
Ġ? :
Ġ? ..."
Ġ? ;"
Ġ? (?)
AaaaaaAaaaaaa Aa
() ]
)- ,
AAAaaa AAAA
aAA Aaaaaa
AaaaaaaAaaaa AaaAaaaa
AaaaaaaaAaa Aaaaaaaa
AaaaaaaaAaa Aaaaaaaaa
AaaAAa Aaaaaaa
ĠAaaAa AAA
aaaaAaaaaa AaaaaAaaaa
aaaaAaaaaa AaaaaaaaaAaaa
AAAAaa Aaaaa
AAaaaaa AAA
AAaaaaa Aaaaaa
AAaaaaa AaaaAaaa
AAAaaaa AaaAaaa
:: ~
:: __
ĠAaaaaaAaaaaa Aaaaaaaaa
ĠAAaa Aa
AaaaAa AaaaAaaa
AaaaaAaaaaaaaa Aaaaaaa
AaaaaaaAaa AaaaaaaaaAaaaaaaaa
AAAAaaa A
AaaaaaaaaaAaaaaaa AaaaaAaaa
AaaaaaaaaaaAaaaaaaa Aaaaaaaaa
aaAaaaa Aaaaaaaaaaaa
AaaaaaaaAaaaaaaaa Aaaaaaaa
Ġ< ,
`` -
{{ {
ĠAAaaaaaa Aaaaaaaa
AaaaaaAaaaAaaa AaaaaAaaaa
AaaaaaaaaAa Aaaaaaaaa
___ "
___ ,
ĠAaaAaaaaaaa AaaaaAaaa
-[ [
aaaaAaaa AaaAaaaa
AAAAaaaaaa Aaaaaa
ĠAAAAaa AaaaAaaaa
aaaaAaa AaaAaaa
AaaaaaaAaaaaaaaa Aaaaaaaaaa
AaaaAaaaaaaaaa Aaa
ĠAAaaaaaaaaa Aaaaaaaaaa
AaAAAA Aa
ĠaaaaAaaaaaaa AaaaaaAaaaaa
AAaaaaaaaaa Aaaaaaaaa
<= )
ĠaaaAaaaa AaaaaaAaaaaa
AaaAaaaaAaaa Aaa
aaAa AAAa
aAAa AA
AaaAaAa AA
Ġ^ ^
aaaaaaaaaaaaaaaaaaaaaaa AA
AaAaaaaaaaaa Aaaaaaaaaa
AaaAaaaaaaaaaa Aaaaaaaaaa
(?) ?
------ ---
AaaAaAaaa Aaaaaaa
AaaaaaaaAaaAaaa Aaaaaaaaa
AaaaAaaaaaAaaa Aaaaaaaaaaa
AaaaaaAaaaaaaAaaa AaA
AaAaaaAaaaa AaaaaaAaaaaa
AaaAaaaaaaAaaa Aaaaaaaaaa
>> >
AaaaAaAaaaaaa Aaaaa
AAaaaAaaaaa Aaaaaaaaaaaaa
AaaaaaAaaaaaaaaaaa Aaaaa
aaaaAaaAaaaaa AaaaaaAaaa
aaaaAaaaaaaaAaaa AaAaaa
aaAAa Aaa
AaaaaaAaaAaaaaa Aaaaaaaaaa
aaaaAaaaaaAaa AaAaaa
Ġ!= ,
Aaaaaaaaaaaaaaaaaaaaaaa AA
aaaaAaaaaaaaaAaaa Aaaaaaaaaa
AAAAAAAAAAAAAAAAAAAAAAAAAAAAAAAAAAAAAAAAAAAAAAAAAAAAAAAAAAAAAAAA AAAAAAAAAAAAAAAAAAAAAAAAAAAAAAAAAAAAAAAAAAAAAAAAAAAAAAAAAAAAAAAA
/_ /
(((( (
aaaaaAaaAa AaaaaaaaaaaAa
Ġ?(?) ?)
! +
! @
! ...
! ***
! *~
# >
% /
% ).
( +
( ):
( %)
) +(
, }
, -)"
- ]"
. +
. **
< ->
< >,
= $
= }}
[ -
[ .
[ ..."
[ -----
] (
] ).
^ !
_ +
_ {
a AaAaaaaa
a AaaaaaA
| /
} #
} )
} :
} ?
} [
Ĉ .
Ġ ĉ
Ġ }"
Ġ ________________________
aa AAAAa
aa AaaaaaAaaaaa
aa AaaaaaaaAaaaa
aa AaaAA
aa AaaaAA
aaaa AaA
aaaa AaaA
aaaa AAAAaaa
aaaa AAAAAaaa
aaaa AaaaaaaaaaaAaaaa
aaaa AaaaaaaaaaAaaaaaaaa
aaaa AaaaAaaaaaAaaaaaa
aaaa AaaAaaaaaAaaaaa
aaaa AaaaaaAaaAaaaaaaa
aaaa AaaaAaaaaAaaaaaa
aaaa AAAAAAaaa
aaaa AaaaAaaaaaAaaaaaaaa
aaaa AaaAaaaaAaa
aaaa AaaaaaaAaaaaAaaaaaaaa
aaaa AaaaaaaaAaaaaaaaAaaaaaaaa
AA aaaaaaaaaaaaa
AA AaaAaaaaaaaa
AA AaaaaaaaaaAaaa
AA AaaaaaaaaAaaa
Aaaaa Aaaaaaaaaaaaaaa
Aaaaa AaaaaaaaaaaaAaaa
aaa AaAaaaaa
aaa AaAA
aaa AaaaaaaaaaAaaa
aaa AaaaaaAaaaaaaaaa
aaa AaaAaaaaaaaaa
aaa AaaaaaaaaaaAaaa
aaa AaaaaaaaaaAaaaaa
aaa AaaaaaaAaaaaaaaaa
aaa AaAAa
aaa AaaaaaaaaAaAaaa
aaa AaaaaaaaAaaaaaaaAaaaaaaaa
ĠAaaaa AaaaaaAaaa
ĠAaaaa AaAaa
ĠAaaaa AaaaaA
ĠAaaaa AaaaaaaAaaaa
ĠAaaaa AaaaaaaaAaaaaaaaa
Ġaaaa AaAaaa
Ġaaaa AaAaaaaaa
Ġaaaa AaaAaaaAaaa
Ġaaaa AaaAaaaaaaaa
Ġaaaa AaaaaaaaaAaaaAaaa
Ġaaaa AaaAaaaaaaaaa
Ġaaaa AaaaaaAaaaaAaaaaaa
Ġaaaa AaaAaaaAaaaa
Ġaaaa AaaAaaaaaAaaa
Ġaaaa AaaAaaAaaaaaa
Ġaaaa AaaAaaaAaaaaaa
Ġaaaa AaaAaaaaaaAaaa
Ġaaaa AaaAaaaaaAaaaaaaa
Ġaaaa AaaAaaaaaAaaaaaaaa
Ġaaaa AaaAaaaaaaaAAA
Ġaaaa AaaAaaAaaaaaaaa
Ġaaaa AaaAaaaaaAaaaaaaaaaa
AAAA AaaaaAaaa
AAAA AaaaaaAaaaaaaa
AAAA AaaaaaaaaaAaaa
AAAA AaaaaaAaaaaAaaaaa
AAAA AaaaaAaaaaaaAaaaaa
AAAA AaaaAaaaaAaaaaaaaaaaa
AAAA AaaaaaAaaaaAaaaaaaaaaaa
AAAA AaaaaaAaaaaaaaaaaaAaaaaa
Aaa AAAAAAAA
Aaa AaaAaaaAaa
Aaa AaAaAaa
Aaa AaaaaaaaaaaAaaaa
Aaa AaaaaaaaaaaaAaaa
Aaaa Aaaaaaaaaaaaaaaa
Aaaa AAAaaa
Aaaa AaaAaaaAaaa
Aaaa AAAAAAAAAAAAAAAA
Aaaa AaaaaaaaaaaAaaaaa
Aaaaaa AAAAaaa
Aaaaaa AaaaaaaaaaaaaAaaaaaaa
Aaaaaa AAaaaaaaa
Aaaaaa AaaAaaaAaaaAaaa
Aaaaaa AaaaaaaaaaaAaaaaaaaa
Aaaaaa AAAAAaaaaaa
Aaaaaa AaAaaaAaaaa
Aaaaaa AaaaaaaaAaaaaAaaaaaa
aaaaa AaaaAaaaaa
aaaaa AaaaaaAaaaaaa
aaaaa AaaaaaaAaaaaaaaa
aaaaa AaaaaaaAaaaaAaaa
ĠAaaaaa AaaAaaa
ĠAaaaaa AaaaAaaaa
ĠAaaaaa AaaaaaaaAaaa
ĠAaaaaa AaaaaAaaaaaaa
ĠAaaaaa AaaA
ĠAaaaaa AaaaaaaAaaaaaaa
ĠAaaaaa AaaaaaaaAaaaaaa
ĠAaaaaa AaAA
ĠAaaaaa AAAAaaaaaa
Aaaaaaa AaaA
Aaaaaaa Aaaaaaaaaaaaaaaaa
Aaaaaaa AaaaaaaaaAaaaaaaa
Aaaaaaa AaaaaAaaaaAaa
Ġaa AaaaaAaaa
Ġaa AaaaaaAaaaa
Ġaaa Aaaaaaaaaaa
Ġaaa AaaaAaaaa
Ġaaa AaaaaaaAaaaaa
Ġaaa AaaaAaaaaaaaaa
Ġaaa AaaaaaaaaAaaaaaAaaaa
Ġaaa AaaAaaaaaaaaAaaa
Ġaaa AaaaaaaaaaaAaaAaaaaa
ĠAaaaaaa AaAaaa
ĠAaaaaaa AaaaAaaaa
ĠAaaaaaa AaaaaaaAaaaaa
ĠAaaa AaaaaaaaAaaaaa
ĠAaaa AaaaaaaaAaaaa
ĠAaaa AaaaaaaAaa
ĠAaaa AaaAAA
ĠAaaa AaaAaaaaAaaaaaaaa
ĠAaaa AaaaaaaAaaaaaaaAaaaaaaaa
Aaaaaaaa AaaaAaaaaaaAaaaaaaaa
Aaaaaaaaa AaaAaaaaa
Aaaaaaaaa AaaAaaaa
Aaaaaaaaa AAAaaaaa
Aaaaaaaaa AaaaAaaaaaAaaaa
Aaaaaaaaa AaaaAaaaaAA
Ġaaaaaaaa Aaaaaaaaaaaaa
ĠAAAA aaaaAaaaaa
ĠAAAA AaAA
Ġaaaaa AaAaaaa
Ġaaaaa AaaaaaAaa
Ġaaaaa AaAaaaaaa
Ġaaaaa AaaaaaAaaaAaaaaa
Ġaaaaa AaaaaaaaaaaAaaaAaaaaa
ĠAaaaaaaa Aaaaaaaaaaa
ĠAaaaaaaa Aaaaaaaaaaaaa
