{"<s>":0,"<pad>":1,"</s>":2,"<unk>":3,"<mask>":4,"!":5,"\"":6,"#":7,"$":8,"%":9,"&":10,"'":11,"(":12,")":13,"*":14,"+":15,",":16,"-":17,".":18,"/":19,"0":20,"1":21,"2":22,"3":23,"4":24,"5":25,"6":26,"7":27,"8":28,"9":29,":":30,";":31,"<":32,"=":33,">":34,"?":35,"@":36,"A":37,"B":38,"C":39,"D":40,"E":41,"F":42,"G":43,"H":44,"I":45,"J":46,"K":47,"L":48,"M":49,"N":50,"O":51,"P":52,"Q":53,"R":54,"S":55,"T":56,"U":57,"V":58,"W":59,"X":60,"Y":61,"Z":62,"[":63,"\\":64,"]":65,"^":66,"_":67,"`":68,"a":69,"b":70,"c":71,"d":72,"e":73,"f":74,"g":75,"h":76,"i":77,"j":78,"k":79,"l":80,"m":81,"n":82,"o":83,"p":84,"q":85,"r":86,"s":87,"t":88,"u":89,"v":90,"w":91,"x":92,"y":93,"z":94,"{":95,"|":96,"}":97,"~":98,"¡":99,"¢":100,"£":101,"¤":102,"¥":103,"¦":104,"§":105,"¨":106,"©":107,"ª":108,"«":109,"¬":110,"®":111,"¯":112,"°":113,"±":114,"²":115,"³":116,"´":117,"µ":118,"¶":119,"·":120,"¸":121,"¹":122,"º":123,"»":124,"¼":125,"½":126,"¾":127,"¿":128,"À":129,"Á":130,"Â":131,"Ã":132,"Ä":133,"Å":134,"Æ":135,"Ç":136,"È":137,"É":138,"Ê":139,"Ë":140,"Ì":141,"Í":142,"Î":143,"Ï":144,"Ð":145,"Ñ":146,"Ò":147,"Ó":148,"Ô":149,"Õ":150,"Ö":151,"×":152,"Ø":153,"Ù":154,"Ú":155,"Û":156,"Ü":157,"Ý":158,"Þ":159,"ß":160,"à":161,"á":162,"â":163,"ã":164,"ä":165,"å":166,"æ":167,"ç":168,"è":169,"é":170,"ê":171,"ë":172,"ì":173,"í":174,"î":175,"ï":176,"ð":177,"ñ":178,"ò":179,"ó":180,"ô":181,"õ":182,"ö":183,"÷":184,"ø":185,"ù":186,"ú":187,"û":188,"ü":189,"ý":190,"þ":191,"ÿ":192,"Ā":193,"ā":194,"Ă":195,"ă":196,"Ą":197,"ą":198,"Ć":199,"ć":200,"Ĉ":201,"ĉ":202,"Ċ":203,"ċ":204,"Č":205,"č":206,"Ď":207,"ď":208,"Đ":209,"đ":210,"Ē":211,"ē":212,"Ĕ":213,"ĕ":214,"Ė":215,"ė":216,"Ę":217,"ę":218,"Ě":219,"ě":220,"Ĝ":221,"ĝ":222,"Ğ":223,"ğ":224,"Ġ":225,"ġ":226,"Ģ":227,"ģ":228,"Ĥ":229,"ĥ":230,"Ħ":231,"ħ":232,"Ĩ":233,"ĩ":234,"Ī":235,"ī":236,"Ĭ":237,"ĭ":238,"Į":239,"į":240,"İ":241,"ı":242,"Ĳ":243,"ĳ":244,"Ĵ":245,"ĵ":246,"Ķ":247,"ķ":248,"ĸ":249,"Ĺ":250,"ĺ":251,"Ļ":252,"ļ":253,"Ľ":254,"ľ":255,"Ŀ":256,"ŀ":257,"Ł":258,"ł":259,"Ń":260,"aa":261,"aaaa":262,"00":263,"AA":264,"Aaaaa":265,"aaa":266,"0000":267,"ĠAaaaa":268,"Ġaaaa":269,"AAAA":270,"Aaa":271,"Aaaa":272,"Ġ00":273,"AAA":274,"Aaaaaa":275,"aaaaa":276,"\"\"":277,"ĠAaaaaa":278,"Aaaaaaa":279,"Ġaa":280,"000":281,"Ġaaa":282,"ĠAaaaaaa":283,"ĠAaaa":284,"Aaaaaaaa":285,"Ġ0000":286,"Aaaaaaaaa":287,"Ġaaaaaaaa":288,"Ġ0":289,"ĠAAAA":290,"ĠA":291,"Ġaaaaa":292,"ĠAaaaaaaa":293,"ĠAA":294,"ĠAaa":295,"ĠAaaaaaaaa":296,"Ġaaaaaaa":297,"Ġaaaaaa":298,"ĠAAA":299,"Ġ(":300,"Ġaaaaaaaaa":301,"Aaaaaaaaaa":302,"aaaaaa":303,"ĠAAAAAAAA":304,"ĠAa":305,"Ġa":306,"aaaaaaaa":307,"Ġ-":308,"ĠAaaaaaaaaa":309,"AAAAAAAA":310,"Aa":311,"Ġaaaaaaaaaa":312,"000000":313,"Aaaaaaaaaaa":314,"AAAAA":315,".\"":316,"ĠAAAAA":317,"ĠAAAAAA":318,"aaaaaaa":319,"Ġaaaaaaaaaaa":320,"00000":321,"AAAAAA":322,"ĠAaaaaaaaaaa":323,"ĠAAAAAAA":324,"Ġ000":325,"AAAAAAA":326,"aaaaaaaaa":327,"Aaaaaaaaaaaa":328,"Ġaaaaaaaaaaaa":329,"Ġaaaaaaaaaaaaa":330,"ĠAAAAAAAAA":331,"aaaaaaaaaaa":332,"Ġ&":333,"..":334,"ĠAAAAAAAAAA":335,"AAAAAAAAA":336,"Ġ00000000":337,")\"":338,"ĠAaaaaaaaaaaa":339,"00000000":340,"0000000000":341,"Ġ00000":342,"aaaaaaaaaa":343,"Aaaaaaaaaaaaa":344,"AAAAAAAAAA":345,"ĠAaaaaaaaaaaaa":346,"Ġ/":347,"ĠAAAAAAAAAAA":348,".;":349,".,":350,"Ġ0000000000":351,"--":352,"),":353,"...":354,"Ġ[":355,"ĠAaaaaaaaaaaaaa":356,"aaaaaaaaaaaa":357,").":358,"Aaaaaaaaaaaaaa":359,"Ġ*":360,"Ġ#":361,"Ġaaaaaaaaaaaaaa":362,"AaaAaaa":363,"**":364,"0000000":365,"Ġ,":366,"AaaaAaaa":367,"AAAAAAAAAAA":368,"ĠAAAAAAAAAAAA":369,"Ġ*\"":370,"aaaaaaaaaaaaa":371,"AaaAaa":372,"ĠaA":373,"Ġ:":374,"Ġ+":375,"??":376,"AaAaaa":377,"**)":378,"ĠAaaAaaa":379,"ĠAaAaaaaa":380,"...\"":381,"ĠAAAAAAAAAAAAA":382,"AAa":383,"AaAaaaa":384,".)":385,"ĠAaAaaaa":386,"Ġ>":387,"Ġaaaaaaaaaaaaaaa":388,"Ġ$":389,"ĠAaAaaa":390,"AaAa":391,"Aaaaaaaaaaaaaaa":392,"ĠAaaaaaaaaaaaaaa":393,"AaaaAaaaa":394,"ĠAaaAaaaAA":395,"AaAaaaaa":396,"aaaaaaaaaaaaaa":397,",\"":398,"AaaaaAaaa":399,"))":400,"AaaaaaAaaa":401,"ĠAAAa":402,"AaA":403,"AAaaaa":404,"AaaAaaaaa":405,"ĠAaaaAaaaa":406,"AaaaaAaaaa":407,"ĠAAa":408,"AaaaAaaaaa":409,"\"-":410,"AAAAAAAAAAAA":411,"aaaaaaaaaaaaaaa":412,"AAAAa":413,"---":414,"Ġ000000":415,":/":416,"AaaaaaAaaaa":417,"AaAaa":418,");":419,"ĠAaA":420,"AaaaaaAaaaaa":421,"ĠAaAaaaaaa":422,"AAaaa":423,"000000000000":424,"Ġ000000000":425,"aAa":426,"AaaAaaaa":427,"://":428,"):":429,"aA":430,"ĠAAAAAAAAAAAAAA":431,"AaaaaaaaAaaaaa":432,"AaaaAaa":433,"Ġ=":434,"AAAAAAAAAAAAA":435,"Ġ.":436,"__":437,"AaaaaaAa":438,"Ġ@":439,"\"$":440,"Ġ|":441,"AaaaaAaa":442,"aaaaaaaaaaaaaaaa":443,"AaaaaaaAaaa":444,"AaaaaaAaa":445,"AAAa":446,").\"":447,"000000000":448,"Ġaaaaaaaaaaaaaaaa":449,"Ġ0000000":450,"AaaAa":451,"aAaaaaaaa":452,"AaaaaAaaaaa":453,"AAaa":454,"AAAAaaaaa":455,"AaaaAaaaaaa":456,"+)":457,"AaaaaaaaAaaa":458,"Ġ%":459,"ĠaaaaAAAAa":460,"ĠAaAaa":461,"aaaaaaaaaaaaaaaaaaa":462,"%)":463,"ĠaaaaAaaaaaAa":464,"AaaaaA":465,"ĠAaaAaaaaa":466,"\"(":467,"ĠAAaaa":468,"AaAaaaaaa":469,"Ġ?":470,"AaaaaAaaaaaaa":471,":(":472,"Ġ...":473,"AaaaA":474,"ĠAaaaaAaaaa":475,"]\"":476,"+**":477,"ĠAaaaAaaa":478,"ĠAAAAa":479,"AaaaaaAaaaaaa":480,"AaaA":481,"()":482,"|-":483,"Ġaaaaaaaaaaaaaaaaa":484,"ĠaaaaAAAAaAaaaaaAaaa":485,"ĠAaaAaaaa":486,"AaaaaaaaAaaaa":487,"Ġ)":488,"ĠAaaaAaaaaa":489,"ĠAaAaaaaaaa":490,".)\"":491,"(+)":492,"\\\"\"":493,"....":494,"AaaaaaaAaaaaaaa":495,".-":496,"$$":497,",...\"":498,"AaaaaAaaaaaa":499,"Aaaaaaaaaaaaaaaa":500,")-":501,"aaaaaaaaaaaaaaaaa":502,"AaaaaaaAaaaaaa":503,"AaaaAaaaaaaa":504,"ĠAaAa":505,"AAAaaa":506,"0000000000000":507,"aaAA":508,"ĠAaaaaAaaa":509,"00000000000":510,"aAA":511,"|-|-":512,"?)":513,"AaaaaaaAaaaa":514,"AaaaaaA":515,"ĠAAaaaa":516,"AaaaaaaaAaaaaaa":517,"ĠaAAA":518,"AaaaaaAaaaaaaa":519,"AaaaaaaAaaaaa":520,"Ġ!":521,"AaaaaaaaAaa":522,"ĠAaaaaaaaaaaaaaaaaa":523,"==":524,"AaaAaaaaaa":525,"!!":526,"...@":527,"AAAAaaaaaAaaaaa":528,"ĠAaaaaAaa":529,"AaaAAa":530,"ĠAaaAa":531,"aaaaAaaaaa":532,"ĠAAAaaaaa":533,"???":534,"ĠAaaAaa":535,"AaaAA":536,"Ġ>>":537,"Ġ{":538,"ĠAaaA":539,"AAAAaa":540,"AAaaaaa":541,"AAAAAAAAAAAAAA":542,"ĠAaaaaaaaaaaaaaaa":543,"ĠAAAaaaa":544,"ĠAAAaaa":545,"Aaaaaaaaaaaaaaaaa":546,"AAAaaaa":547,"ĠaAaa":548,"aAaaaa":549,"***":550,"ĠaAaaaa":551,"Ġ>>>":552,"aAAA":553,"AaaAaaaAaaa":554,"Ġ--":555,"AaaaaaaaaAaaAaaa":556,"::":557,"Ġaaaaaaaaaaaaaaaaaa":558,"AaAA":559,"____":560,"Ġ~":561,"AaaaaaaaAaaaaaaa":562,"++":563,"ĠAaaaaaaAaaaa":564,"ĠAAAaaaaaa":565,"Ġ0000000000000":566,"ĠAAAAAAAAAAAAAAA":567,"AaaaAaaaAaaa":568,"ĠAaaaaaAaaaaa":569,"AaAaaaaaaa":570,"AaaAaaaaaaa":571,"+/":572,"AAAAAaaaa":573,"ĠAaaaaaaAaaa":574,"----":575,"ĠAAaaaaa":576,"ĠAaaaaaAaaa":577,"!\"":578,"ĠAAaa":579,"Ġ(%)":580,"\"\\\"\"":581,"\\\"\"\"":582,"\"\\\"\"\\\"\"\"":583,"...)":584,"AaaaAa":585,"AaaaaAaaaaaaaa":586,"AaaaaaaAaa":587,"AAAAaaaaAaaaaa":588,"aaaaaaaaaaaaaaaaaa":589,"AaaaaAAA":590,"AaAAA":591,"ĠaaaaAaaaaa":592,"Ġ..":593,"AAAaaaaa":594,"ĠAaaAaaaaaa":595,"ĠAaaaaAAAAAaaaa":596,"AaaAAA":597,"AaAaaaaaAaaaaa":598,"ĠAAAaaaaaaa":599,"aAaaaaa":600,"/)":601,"ĠAaaaAA":602,"AaaAaaaaaaaa":603,"AAaA":604,")..":605,"ĠaaaaAaaaaaAaAaaaaaAaaaaa":606,"AaaaaAa":607,"AaaaaAA":608,"ĠaaaaAaaaaaAaAAAAaaaaaAaaaaa":609,"ĠAaAA":610,"AaaaAA":611,".:":612,"Ġ($":613,"aAaa":614,"ĠaAaaaaa":615,"Ġ_":616,"ĠAaaaaAaaaaa":617,"AaaaaAaaaAaaAaa":618,"aaaaaAAAA":619,"AaaaAAA":620,"\",\"":621,"ĠAaaaaaaAaaaaaa":622,"AAAAaaAaaa":623,"_(":624,"00000000000000":625,"+/-":626,"AaAaaaAaa":627,")(":628,"AaaaaaAaaaaaaaa":629,"aaaaaaAaa":630,"[]":631,"ĠaaAAA":632,"?\"":633,"AaaaaaaA":634,"_(%)":635,"ĠAaaaAaa":636,"ĠaAA":637,"Ġ(#":638,"\"[":639,"ĠAAAaaaaaaaa":640,"aaaaAaaaa":641,"AAAAaaa":642,"AaaaaaaaaaAaaaaaa":643,"AaaaAaaaaaaaa":644,"AaaaaaaaaaaAaaaaaaa":645,"aaAaaaa":646,"??/":647,"ĠAAAAaaa":648,"ĠAAAAAAAAAAAAAAAAAA":649,"ĠAaAaaaaaaaa":650,"====":651,"ĠĠ":652,"???/":653,"AaaaaaaaaaAaaa":654,"AAaaaaaa":655,"AaaaaaaaaAaaaAaaa":656,":\"":657,"AaaaaaaaAaaaaaaaa":658,"Ġ(?)":659,"AAAAaaaaaaa":660,"&&":661,"-$":662,"AAAaaaaaa":663,"Ġ;":664,"ĠAaaaaaaaaaaaaaaaa":665,"Ġ<":666,"Ġaaaaaaaaaaaaaaaaaaa":667,"AaaaaaAaaaAaaaa":668,"}}":669,"????":670,"AaaaaaaaaaAaaaa":671,"Aaaaaaaaaaaaaaaaaa":672,"ĠAaaaAaaaaaa":673,"AaaaaAaaaAaaa":674,"ĠaAa":675,"Ġ(-":676,"AaaaaaAaaaaaaaaa":677,"``":678,"ĠaaaaAAAAaAaaaaaAaaaAAAAaaaaaAaaaaa":679,"ĠaaaaAAAAaAaaaaaAaaaAAAAaaaaAaaaaa":680,"AAAAAAAAAAAAAAA":681,"\"#":682,"|-|-|-|-":683,"AaaaaaaaaAaaa":684,"AaaaaaaaAaaaAaaa":685,"{{":686,"_(%)_":687,"AaaAaaaaaaaaa":688,"-(":689,"Ġ]":690,"AaaaaaaAa":691,"aaaAaaaa":692,"aaaaaaaaaaaaaaaaaaaa":693,"AaAaaaA":694,"$$$$":695,"AaaaaaaaaaaaAaaaaaa":696,"-\"":697,"..\"":698,"ĠaAaaa":699,"*\"":700,"ĠAAaaaaaa":701,"./":702,".(":703,"!)":704,"ĠAaaAAA":705,"AaaaaaAaaaAaaa":706,"ĠAAAaa":707,"aAAAA":708,"?]":709,"AAAAAAaaaaaaa":710,"AaaaaaaaaaaaaAaaaaaaa":711,"AaaaaaaaaAa":712,"+,":713,"aaaAaaa":714,"000000000000000":715,"___":716,"ĠAAAaaaaaaaaa":717,"Ġ()":718,"ĠAaaaaaAaaaa":719,"][":720,"ĠaaaaaaaaAaaAaaa":721,"aAaaa":722,"Ġ(?":723,"ĠAaaaaAaaaaaa":724,"ĠaaaaaaaAaaAaaa":725,"AaaaaaaaaAaaaaaaa":726,"\"=":727,"AaaaaaAaaaAaaaaAaaaaa":728,"AaaaaAaaaaaaaaa":729,"ĠAaAAA":730,"ĠaaaaAaaaaAaaa":731,"ĠAaaAA":732,"ĠaaaaAAAAaAaaaaaAaaaAAAAaaaaa":733,"ĠaaaaAAAAaAaaaaaAaaaAaaaaAaaaaa":734,"ĠaaaaAaaaaaaaaaaaAaaaaaa":735,"ĠaaaaAaaaaaAaAaaaaaaAaaaaaa":736,"ĠaaaaAaaaaaAaAAAAaaaaaaa":737,"ĠaaaaAAAAaAaaaaaAaaaAAA":738,"ĠaaaaAAAAaAaaaaaAaaaAAAAaaaaaAaaaaaAa":739,"ĠaaaaAaaaaaaaaaAaaaaaa":740,"AaaaAaaAaaa":741,"AAAAaaaaaAaaaaaAaaaaa":742,"ĠaaaaAaaaaaAaAAAAaaaaAaaaaa":743,"ĠaaaaAaaaaaAaAAAAaaaaaAaaaaaAaaaaa":744,"ĠaaaaAaaaaaAaAaaaaaAaaaaaAAAAAAaaaaaaa":745,"ĠAaaaAAA":746,"Ġ??":747,"%]":748,"ĠAaaAaaaaaaa":749,"Ġ[%]":750,"AaaaaaaaaaAaaaAaaa":751,".),":752,"aAAAa":753,"ĠaaAaaaaa":754,"Ġ...\"":755,"AaaaaaaaaAaaaa":756,"Ġ(+":757,"AAaaaaaaa":758,"AaaaaaaAAA":759,"AAAaa":760,"AaaaaaaaaAaaaaa":761,"-[":762,"ĠAaaaaaAA":763,"\"___":764,"\"+":765,"AaaaaaaaaAaaaaaa":766,"AAAAaaaa":767,"Ġ->":768,".*":769,"[?]":770,"aaaaAaaa":771,";\"":772,"!!!":773,"AaAaaaaaaaa":774,"aaaA":775,").)":776,"Ġ***":777,"ĠAaaAaaaaaaaa":778,"________":779,"\"/":780,"aaaaAaaaaaa":781,"AaAAAAAA":782,"0000000000000000000000":783,"Ġ-\"":784,"],":785,"Aaaaaaaaaaaaaaaaaaaa":786,")|":787,"ĠAaaaAAAA":788,"ĠAAAAAAAAAAAAAAAA":789,"Aaaaaaaaaaaaaaaaaaa":790,"ĠAAaaaaaaa":791,"*****":792,"AaaaaaaaAa":793,"AaaaAaaaAaaaAaaaa":794,"aaAaa":795,"?,":796,"000000000000000000000":797,"aaaaaAaaa":798,"].":799,"AaaaaaaaA":800,"AaaaaaaaaAaa":801,"AaAaA":802,"ĠAaaaaaaAaaaaa":803,"AaaaaaaaaaaAaaa":804,"AaaaaaaaaaaAaaaAaaa":805,"AAAaaaaaaa":806,"AAAAAAAAAAAAAAAA":807,"aaAaaaaa":808,"AaaaaaAA":809,"AaaaaaaAaaAaaa":810,"Ġ(\"":811,"AaaaaaaaAA":812,"aAAaaaaaa":813,"AAAAaaaaaa":814,"-..":815,"Ġ>\"":816,"****":817,"ĠAAAAaa":818,"ĠAaaAaaAaaaaa":819,"ĠAaaAaaaAaaa":820,"ĠAaaaaaAaaaaaa":821,"========":822,"AaaaaAaaaaAaaaa":823,"aaaaaaaaaaaaaaaaaaaaaa":824,"ĠAAaA":825,"AaaaaaaAaaaAaaa":826,"AaaaaaaaAaaaaaaaaa":827,"AaaaaaaaaAA":828,"........":829,"AaaaaaaaaaaAaaaaaa":830,"AaaAaaaAaaaAaaa":831,"ĠaaaaaaaaaAa":832,"AaaaAAAA":833,"aaaaAaa":834,"Ġ//":835,"-)":836,"ĠAaaaaaAaa":837,"AaAAAAA":838,"aaaaaaaAaaa":839,"Ġaaaaaaaaaaaaaaaaaaaa":840,"AAaaAA":841,"AaaaaaaAaaaaaaaa":842,"AaAaAa":843,"AaaaAaaaaaaaaa":844,"AaaaaaaAA":845,"Ġ(>":846,"=+":847,"AaaAaaAaa":848,"ĠAaaaaaaAA":849,"ĠAaaaAaaaaaaa":850,".?":851,"AaaaaaaaaaaaaAa":852,"\",":853,"ĠAaAAAA":854,"aaA":855,"AaaaaaaaAaaaaAA":856,"Ġ(?).":857,".);":858,"aaaaaAaaaa":859,"ĠAAaaaaaaaaa":860,"aaaaaaAaaaaaaa":861,"AAAAAaaa":862,"]]":863,"AaaAaA":864,"ĠaaaaaaaaAa":865,"!!!!":866,"AaaaaaaaaAaaaaaaaa":867,"/\"":868,"AaaaaaAAA":869,"ĠAaaaaAAA":870,"aaaaaaAaaa":871,"AaaaaaaaaaAaaaaa":872,"&&&&":873,"ĠAAaaAaaaaaaa":874,"##":875,"AaAAAA":876,"aaaaaaaaaaaaaaaaaaaaa":877,"AaaaAaaaaAaa":878,"aaaAaaaaa":879,"aaaaAaaaaaaa":880,"ĠaAAAA":881,"AaaaAaaaaAaaaAaaa":882,"....\"":883,"AaaAaaaAaa":884,"AaaaAaaaaaAaaaa":885,"aaaaaaaaAaaa":886,"AaaaaaaAaaaaAaaaAaaa":887,"AAAaaaaaaaa":888,"ĠaaaaaaAa":889,"ĠaaAA":890,"AaaaAaaaAaaaa":891,"~*":892,"AaAaaaAaaa":893,"...]\"":894,"AaaaAaaaaAaaa":895,"ĠAaaaA":896,"[],":897,"AaaaaaaaaaAaa":898,"AaAaAaa":899,"+.\"":900,"#\"":901,"\\\\":902,"AAAAAAAaA":903,"ĠAaaaaaaaaAaaaaaa":904,"ĠaaaaaaAaaAaaa":905,"AaaaaaaaaAaaaaaaaaaaa":906,"Ġ,(":907,"--_":908,"aaAAA":909,"(),":910,"AAAAAa":911,">=":912,"Ġ00000000000000":913,"AAaaAaaaaaaaAaaaaaa":914,"ĠAaaaaaaaaaaaaaaaaaa":915,"Ġ~/":916,".]":917,"*.":918,"+.":919,",?":920,"aaaaAaaaaaaaa":921,"ĠaaaaAaaaaaaa":922,"AAaaAaaaa":923,"$$$$$":924,"ĠAaaAaaaaaaaaa":925,"-,":926,"Ġ(.":927,"://,":928,"aaaaaaAaaaa":929,"Ġ**":930,"ĠaaaaaAaaAaaa":931,"AaaaaaaAaaaaaaaaa":932,"AaaaaaaaaaAaaAaaa":933,"[...]\"":934,"AAaaaaaaaaa":935,"ĠAaaaaAaaaaaaa":936,"AaaaaaaaaaaAa":937,",,":938,"ĠaaAaaaa":939,"ĠaaaaaaaaAAAAAAA":940,"ĠAAAAAaa":941,"*~":942,"ĠAaaaaaaAaaaAaaa":943,"ĠAaaaaA":944,"AAaaAaA":945,"AaaaaaAaaaaAaaaaaa":946,"aaaaaaAaaaaa":947,"ĠAaaaaaaAAA":948,")/":949,"ĠaaaA":950,"ĠAAAAAaaaa":951,"Ġ,\"":952,"?.\"":953,"AaaaaaaaaaaAaaaa":954,"AaaaaaaaaaAaaaaaaaa":955,"%.":956,"((":957,"ĠAaaaaaaaAaaaaaa":958,"|-|-|-|-|-|-":959,"ĠAaaaaAA":960,"ĠAaaaaaaaaAaaa":961,"<=":962,"]-":963,"AaaaAaAaaa":964,"AaaAaaaAaaaa":965,"aaaaaaaaaaaaaaaaaaaaaaaa":966,")*":967,"%,":968,"/-":969,"AAaaaaaaaa":970,"->":971,"AAAAaaaaaaaaaaaa":972,"AaaAaaaaaAaaa":973,"-%":974,"ĠAaaaaaAaaaaAaaaaaa":975,"ĠaaaaaaaAa":976,"$)":977,"ĠAaaAAAA":978,"]-[":979,"ĠAaaaaaaAaa":980,"aAaaaaaa":981,"Ġ();":982,"AaAaaaaAaaaaAaaaAaaa":983,"ĠaaaaaaaaaAaaAaaa":984,"AaAAa":985,"ĠAAAAAAAAAAAAAAAAA":986,"AaaaAaaaaAaaaa":987,".[":988,".?\"":989,"))\"":990,"AaaaaaaaaaaAaaaaaaaa":991,"AaaaaaAaaaAaa":992,"AaaAaAaaaaa":993,"ĠAAAAaaaaa":994,"ĠAaaaaaaaAaaaAaaa":995,"AaAaaaaAaaaaaa":996,"ĠAaaaaaAaaaaaaaa":997,"+).":998,"aAaAa":999,"ĠaaaaAaaaaaAaa":1000,"ĠAAaaaAaaaAaaa":1001,"AAAAaaA":1002,"+_":1003,"/.":1004,"Ġ???":1005,"AaaAAAA":1006,"AaaaaaaaaaaAaa":1007,"AaaaaaaAaaaaaaaaaaa":1008,"$$$":1009,"AaaAaaAaaa":1010,"ĠaaAaaa":1011,"Ġ].":1012,"ĠAaaaaaaA":1013,"ĠAAAAAaaa":1014,"ĠAAAAAAAAAAAAAAAAAAA":1015,"ĠAaaaaaaaaaAaaaAaaa":1016,"aaaaA":1017,"AaaaaaAaaaaaaaaaAaa":1018,"AaaaaAAAA":1019,"ĠAAAaaaaaaaaaa":1020,"Ġ[[":1021,")]":1022,"aaaaaA":1023,"ĠaaaAaaaa":1024,"aaaaaaaAaaaaaaa":1025,"aAaA":1026,"Ġ)\"":1027,"Ġaaaaaaaaaaaaaaaaaaaaa":1028,"ĠAAAAAaaaaa":1029,"?.":1030,"ĠAaaaaaaaaAaaaAaaa":1031,"AaaaaaaaaaaAaaaaa":1032,"aaaaAaaaaaaaaa":1033,"Ġ`":1034,"AaaaaaaAaaaaAaaa":1035,"ĠAaaaaaaaAaaaaaaa":1036,"...);":1037,"-/":1038,"}\"":1039,"AaaAaaaaAaaa":1040,"AAAaA":1041,"ĠAAAAAa":1042,"AaaaAaaaAaaaaa":1043,"ĠĠĠĠ":1044,"aaAAaaa":1045,"ĠAAAAAaaaaaa":1046,"AaAaaA":1047,"AAaaA":1048,"\"*":1049,"ĠAaaaaaAaaaaaaaaa":1050,"aaaaaAaa":1051,"../":1052,"AaAaaaAa":1053,"Ġ.\"":1054,"Ġ<=":1055,"aaAa":1056,"ĠAaaaaaaaAaaa":1057,"aaaaaaaaaaaaaAa":1058,"ĠaaaaAAAAaAaaaaaAaaaAaaa":1059,"ĠaaaaAAAAaAaaaaaAaaaAaaaaaAaaaaa":1060,"``\"":1061,"aaaaAA":1062,"*,":1063,"[[":1064,"aAAa":1065,"AaaAaAa":1066,"Ġ(*":1067,"AaAaaaaaaaaaa":1068,"AaAAaA":1069,"/?":1070,"aaAaaaaaa":1071,"AaAAAAAAA":1072,"Ġ^":1073,"ĠaaaaaaAaaa":1074,"ĠAaaaaaaaaaAaaaaa":1075,"ĠAaaaAaaaAaaa":1076,"aaaaaaAaaaaaaaa":1077,"**)\"":1078,"AaaAaaAaaaa":1079,"ĠAAaaaaaaaa":1080,"ĠAaaAaaaaaaaaaaaa":1081,"ĠAaaaaaaaaAaaaAaaaaaa":1082,"ĠAAAAaaaa":1083,"aaaaaaA":1084,"................":1085,"AaaAaaAA":1086,"Ġ))":1087,"AaaaaAaaAaaa":1088,"Ġaaaaaaaaaaaaaaaaaaaaaa":1089,"ĠAaaAaAaa":1090,"aaaaaaaAaaaa":1091,"aaaaaaaaaaaaAa":1092,"=-":1093,"ĠAaaAaaaAaaaaaa":1094,"AaaaAAaaaa":1095,"ĠAAAAAaaaaaaa":1096,"ĠAAAaaaaaaaaaaa":1097,"ĠAaaaaaAaaaaaaa":1098,")-\"":1099,"AaaaaaAaAa":1100,"AAaaaaAaaaaaAaaaa":1101,"AaaaAaaaaaAaaaaaa":1102,"================":1103,"+)\"":1104,"ĠaaaaaAaaaa":1105,"ĠaAAAa":1106,"aaaaaaaaaaaaaaaaaaaaaaa":1107,"ĠAaaAaaaAaaaaaaaaa":1108,".)]":1109,"aaaaAaaaaAaaa":1110,"ĠAaaaaaaAaaaaaaaa":1111,"Ġ(+)":1112,"!)\"":1113,"aaaaAaaaaAaaaa":1114,"ĠAAAAAaaaaaAaaaaaaa":1115,"_____":1116,"aaAaaa":1117,"Ġ>=":1118,"Ġ{{":1119,"Ġ==":1120,"AaaaaaaaaaAaaaaaaa":1121,"Ġ??.":1122,"ĠAaaaAaaaaaaaa":1123,"ĠAAAAAaaaaaaAaaaaa":1124,"AaaaAaaaAaaaaaa":1125,"ĠAaaaAa":1126,"AaAaaaaaaaaa":1127,"AaaAaaaaaAaaaaa":1128,"Ġ?\"":1129,")#":1130,":-":1131,"AAAAAaaaaaa":1132,"ĠaaaaaAa":1133,"AAaaaaAaaaAaaa":1134,"ĠAAAAAaaaaaaaAaaaAaaaAaaa":1135,"AaaAaaaaaaaaaa":1136,"AaaAaaaaAaaaa":1137,"ĠAAAAAaaaAaaa":1138,"ĠAaaAaaAaaaaaa":1139,"aaaaaaaaaaaaaaaaaaaaaaaaaaaaa":1140,"ĠaaaaAAAA":1141,"AaaaaaAaaaaaaaaaa":1142,"AAAAAAAAAAAAAAAAA":1143,"=../":1144,"aaaaAaaaaaaAaaa":1145,"ĠAAAAAaaaAaaaaAaaaAaaa":1146,"ĠAAAAAaaaaaaAaaaaAaaaAaaa":1147,"AAaAaaaaa":1148,"AaaaaaAaaaaAaaaaaaa":1149,"AAaaAaaaaaaa":1150,"....-..":1151,"________________":1152,"....-..-..":1153,"ĠaaaaAa":1154,"####":1155,"AaaaAaaAaaaa":1156,"ĠAaaaaaaaaAaaaaa":1157,"(?)":1158,"AaaaaAaaaAaaaa":1159,"AaaaAaaAaa":1160,"AaaaaaaaaaaaaAaaa":1161,"AAaAA":1162,"aaAAAaaaaaa":1163,"[])\"":1164,".).":1165,"])\"":1166,"AaaaaAaaaaAaaa":1167,"aaaaaAaaaaa":1168,"ĠAaaaaaA":1169,"AaaAaaaaaAaaaa":1170,"\"<":1171,"AaaaaAaaaaAaa":1172,"Ġ????":1173,"Ġ((":1174,"AaAaAaaaaa":1175,"aaaaAaaaaaAaaa":1176,"aaaAaa":1177,"------":1178,"aaaaAaaaaaAaaaaaaa":1179,"aaaAaaaaaa":1180,"ĠaaaaAaaa":1181,"ĠAAAAaaaaaaaa":1182,"().)":1183,"aaaAAA":1184,"AaaaaaAaaaaaAaaa":1185,"AaaaaaaaaA":1186,")).":1187,".]\"":1188,"aaaAA":1189,"ĠAaaaaAaaaaaaaa":1190,"aaaaaaaaaAaaa":1191,"Ġ\\":1192,"AaAAAAAAAA":1193,"??.":1194,"AAAaaaAaaa":1195,"AaaAaAaa":1196,"AaaAaaaaaAaaaAaaa":1197,"ĠaaaAaaa":1198,"ĠAAAAaaaaaa":1199,"AaaaaaAaaaAaaaaa":1200,"AaaAaaaaAaaaaa":1201,"AaaaaaaAaaaAaaaaaa":1202,"ĠAAaaAaaaa":1203,"ĠAaaAaaaaaaaaaAaaa":1204,"AAaAa":1205,"AaAaAA":1206,"ĠAAAAaaaAaaaaaaa":1207,"().":1208,"ĠAaaAaaaaAaaa":1209,"Ġ??.??.":1210,"<(":1211,"ĠAaaaaaaaAaaaaaaaa":1212,"ĠAaaAaaaaaaaAaaaaa":1213,"AaAaAaA":1214,">)":1215,"Ġaaaaaaaaaaaaaaaaaaaaaaaa":1216,"ĠAaaaaaaaaaAaa":1217,"AaaAaaaAaaaaa":1218,"AaaAaaAaaaaaa":1219,"AaaaaaAaaaAa":1220,"AaaaaAaaAaaaa":1221,"aaaaaAaaaaaaa":1222,"ĠaaaaaaAaaaaaaa":1223,"aaaaaaaaaaaaaaaaaaaaaaaaa":1224,"aaaaaaaaaaaaaaaaaaaaaaaaaaaaaaa":1225,"Ġ__":1226,"AaaaaaaaaAaaaaaaaaa":1227,"Ġ..\"":1228,"AAAaaaaAAA":1229,"%\"":1230,"aAAaaaa":1231,"ĠAaaaaaaaaaAaaa":1232,"AaaAaaaAaaaaaa":1233,"AaaAaaaaAaaaAaaa":1234,"!!!!!!!!":1235,"-.":1236,"ĠaAAAAA":1237,"AAAAAAAAAAAAAAAAAA":1238,"aaaaAAAAAAA":1239,"AaaaAaAaa":1240,"AaAaaaaaA":1241,"Ġaaaaaaaaaaaaaaaaaaaaaaaaa":1242,"]:":1243,"aaaaaaaaaaAaaa":1244,"AaaaAaaaaAaaaaa":1245,"aAAaaaaa":1246,"*]":1247,"aaaaAaaaaaAaaaa":1248,"AaaaaAaaaaaaaaaa":1249,"AaaaaaaaaAaAaaa":1250,".,;":1251,"Ġ[-":1252,"AaaAaaaaAaaaaaaa":1253,"Ġ<>":1254,"ĠaaaaaAaaa":1255,"ĠAaaaaaaaAaa":1256,"?????":1257,"AaaAaaaaaAaaaaaa":1258,")[":1259,"-*":1260,".&":1261,"Ġ}":1262,"aaaaAAAA":1263,"aaaaAaaAaaaaaaaa":1264,"aaaAa":1265,"aaaaaaAaaaaaa":1266,"AaaaaaaaaaaaAaaa":1267,"AaAaaaaaaAaa":1268,"Aaaaaaaaaaaaaaaaaaaaa":1269,"Ġ(??":1270,"ĠAaAaaaaaaaaa":1271,"AAaaaaAaaaaa":1272,"aaaaaaaAaaaaa":1273,"AaAaaaaAaaaa":1274,"/,":1275,"ĠAaaaaaaAAAA":1276,"ĠaAaaaaaa":1277,"AaaaaAaaaaaAaaaaaaa":1278,"-...":1279,"AaaaaAaaaaaAaaa":1280,"AaaaAaAa":1281,"aaaaaaaaaaAaaAaaa":1282,"-----":1283,"aaaaaAA":1284,"aaaaAaaaAaaa":1285,"ĠAaaaaaaAaaaaaaa":1286,"ĠAaaaaaaaaaaaaAaaaaaa":1287,"AAAAAaaaaaaa":1288,"AaaAaAaaa":1289,"AaAaAaAa":1290,"aaaAaaaaaaaaa":1291,"ĠAaaAaaaaaAaaa":1292,"AaAaaAaaaa":1293,"aaaAaaaaaaa":1294,"ĠAaaaaaaAaaaaaaaaaa":1295,"ĠAaaaaaaaAaaaaa":1296,"ĠAaaaaaaaaaAaaaaAaa":1297,"aaaaaaaAaaAaaa":1298,"AaaaAaaaAaa":1299,"AaaaaAaaaaAaaaaaa":1300,"aaAAAaaaaa":1301,"ĠAAaaaaaAaaaaaaa":1302,"\">=":1303,"Ġ]\"":1304,"AAAAAaaaaaaaa":1305,"ĠAaaaaaAaaaAaaa":1306,"AaaaaaaaaaAaaaaaaaaa":1307,"AaAaaAaaaaa":1308,"AAAaAA":1309,"aAAaaaaaaAaaaaa":1310,"\">=$":1311,"*)":1312,"=&":1313,"AAAaaAaaa":1314,"ĠAaaaaAaaaAaaa":1315,"AaaAaaaaaaaAaaaa":1316,"ĠaaaaaaaAaaaaaaa":1317,"Ġ?,":1318,"AaaaaaaAaaaaaAaaaaaaaa":1319,"\"...":1320,"ĠAAAaA":1321,"--------":1322,"*+":1323,"Ġ(-)":1324,"ĠAaaaaAaaaaaaAaaaaaaaaaaa":1325,")_":1326,",(":1327,"AaaaAaaaaaaaaaa":1328,"ĠAaaaaaAaaaaaaaaAaaaAaaa":1329,"AaaaaaaaAaaAaaa":1330,"ĠAaaAaaaaaaaaaaaaa":1331,"AaAaaAaaa":1332,"Ġ[*]":1333,"AaaAaaaaA":1334,"|-|-|-":1335,"ĠAAaaaaaaaAaaa":1336,"&&&&&&&&":1337,"aaAaaaaaaaa":1338,"AaAaaAaaaAaaa":1339,"aaaaaaaaaAaaaa":1340,"AaaAaaaaaAaa":1341,"AaaaaaaaAaaaaaaAaaaAaaa":1342,"AaaAaaaaaaaaAA":1343,"AaaaAaaaaaAaaa":1344,"ĠAaaAaaaaaaAaaaaaa":1345,"AAAaAAA":1346,"Ġ>>)\"":1347,"-)-":1348,"ĠAaaAaaaaaaAaaaaaaa":1349,"ĠAaaaaaaaaAaaaa":1350,"ĠaAaaaaaaa":1351,"AaaAaaaAaaAaaaa":1352,"ĠAaaAaaaaAaaaaaaaaaaaa":1353,"aaaaaAAA":1354,"AaaaaaaAaaaaAaaaa":1355,"ĠAaaaAaAaaa":1356,"AaaaaaaaAaaaaaaaaaa":1357,"ĠAaaaaaaaaaaaaaaaaaaa":1358,"AaaaaaAaaaaaAaaaaaa":1359,"ĠAaaAaaaaAaaaAaaa":1360,"[])":1361,"_-":1362,"AaaAaaaaaaaaAaaaAaaa":1363,"ĠaaaAAA":1364,"AaAaAaaaa":1365,"AAAAAAaaaAaaa":1366,"AaAaaaAaaaaa":1367,"Ġ%,":1368,"AAAaaaAaa":1369,"AaaaaAaaaAaaaaa":1370,"AaaaAaaaaaAaa":1371,"ĠAAaaaaaAaaaaaaaAaaa":1372,"}}{{":1373,"]}}{{":1374,"Ġ}}":1375,"ĠAaaAaaaaaaaAaaa":1376,"ĠAaaAaaaAaaaAaaa":1377,"ĠaaaaaaAaaaa":1378,"ĠAaAaAa":1379,"ĠAaaaaaaaaaAaaaaaa":1380,"..-":1381,"ĠAaaaaAaaaaAaaaAaaa":1382,"aAAaaaaAaaAa":1383,",#":1384,"Ġ_____":1385,"aaaaAaaaaaAaaaaaa":1386,"Aaaaaaaaaaaaaaaaaaaaaa":1387,"ĠAaaAaaaaaaaAaaaAaaa":1388,"AaaaAaaaaaaAaaaaaa":1389,"];":1390,"ĠAaaaaaAaaaAaaaAaaa":1391,"ĠAAAAaaaaaaaaaaaaaAa":1392,"ĠAaaaaaaaAaaaa":1393,"ĠAaaAaaaaaaaAaaaaaaAaaaAaaa":1394,"Ġ00000000000":1395,"00000000000000000000":1396,"ĠAaaAaaaAaaaaaaaAaaaAaaa":1397,"AaAaaaaaAa":1398,"AaAaaAaaaaaaaaAaa":1399,"ĠAaaAaaaaAaaaAaaaAaaa":1400,"ĠAAaaaaAaaaAaaa":1401,"AAAAaaaAaaa":1402,"aaaaAaaaAaaaaaaaaaaAaaaaaaaa":1403,"ĠAaaAaaaAaaaAaaaaaaaAaaaAaaa":1404,"ĠAaaAaaaaaaaAaaaAaaaAaaaAaaa":1405,"(:":1406,"ĠAaaaaAaaaaaaaaaaa":1407,"AAAAaaaaaaaa":1408,"AAAAAaaAaaa":1409,"AAAAAAaa":1410,"Ġ*.":1411,"AaaaaAaaaaAaaaaa":1412,"AaaaaaAaaAaaaaaaa":1413,"++.":1414,"*#":1415,"aAAAAA":1416,"ĠAaaaaAa":1417,"ĠaaA":1418,"ĠAAAAAAAAAAAAAAAAAAAA":1419,"Ġ<(":1420,"ĠAAAAAaaaaaaaa":1421,"ĠAAaaaaaaaaaa":1422,"Ġ+-":1423,"AaaaAaaaaaAaaaaa":1424,"AAaaaaaaAaaaaaa":1425,"ĠAAAAaaAaaa":1426,"aAAAAa":1427,"AaaaAaaaaaaAaaa":1428,"ĠAaaaAaaaaaaaaaa":1429,"AaaaaaaaAAA":1430,"ĠAaaaaaaaAaaaaaaaaa":1431,"AaAaaaaaaaaaaa":1432,"aaaaaaaaaaaAaaa":1433,"++-":1434,"}.":1435,"AaaaaaAaaaaaaAaaa":1436,"ĠAaaaAaaaaaaaaa":1437,"AaaaaaaaaaaAaaAaaa":1438,"aaaaaaaaaAaaaaaAaaaaaaa":1439,"AaAaaaaAaaaaaaaa":1440,"AaaaaAaaaAaaaaaa":1441,")).\"":1442,"Ġ(?);":1443,"!=":1444,"+\"":1445,"AaaaaAaAaaaa":1446,"AaaAaAaaaa":1447,"ĠaaaAaaaaa":1448,"AaaaaaAaaaaAaa":1449,"......":1450,"ĠaaaaAAAAaAaaaaaAaaaAAAAaaaaaAaaaaaAaaaAaaa":1451,"ĠaaaaAAAAaAaaaaaAaaaAAAAaaaaaAaaaaaAaaaAaaaa":1452,"ĠaaaaAAAAaAaaaaaAaaaAAAAaaaaAaaaaaAaaaAaaa":1453,"ĠaaaaAAAAaAaaaaaAaaaAAAAaaaaAaaaaaAaaaAaaaa":1454,"ĠAAaaaaaaAaaaaaa":1455,"ĠaaaaAAAAaAaaaaaAaaaAaaaAaaaAaaaa":1456,"ĠaaaaAAAAaAaaaaaAaaaAaaaaaAaaaaaAaaaAaaaa":1457,"].\"":1458,"AaAaaaAaaaa":1459,"AaaaAaaaaAaaaaaa":1460,"AaAaaaaaAaAaaaa":1461,"AaaaaaAaaaaAaaaaa":1462,"&&&&&":1463,"ĠaaaaAAA":1464,"AaaaaaAaaAaaa":1465,"ĠAAAAAAa":1466,"Ġ:)":1467,"AAaaaAAaaa":1468,"Ġ...)\"":1469,"])":1470,"AaaAaaaaaaAaaa":1471,"Ġ(*.":1472,"Ġ${":1473,"AAaaAaa":1474,",=":1475,"//":1476,"aaaaAaaaaaaaaaaaaa":1477,"aaaaAaaAAa":1478,"ĠAaaaaaaaAA":1479,"ĠaAaaaaaaaa":1480,"),\"":1481,"AAaaaaAAaaa":1482,">>":1483,"aaaaAaaaaAaaaaaaa":1484,"AaaaaaAaaAaaaa":1485,"AaaaaaaaaAaaAaa":1486,"Ġ(=":1487,"Ġ[/":1488,"??-":1489,"AaaaaaAaaaaaAaa":1490,"AAaaAaaa":1491,"aaaaAAA":1492,"Ġ----":1493,"AAAAAAAAAAAAAAAAAAA":1494,"):\"":1495,":.":1496,"AaaaAaAaaaaaa":1497,"AaAaaaaaAaaa":1498,"aaaaAaaaaaaaaaa":1499,"AaaaaAaaaaaaaaaaa":1500,"AaaaaAAa":1501,"ĠAaaaaAAAA":1502,"AaaAAAaaa":1503,"AaaaaaaAaaaaaAaa":1504,"AaaaaaaAaaaaaAaaaaaa":1505,"ĠAaaaaaaaaAaaaaaaaa":1506,"aaaaaaaaaA":1507,"AaaAaaAaaaaAaaaa":1508,"AaAaaaaAaaa":1509,"????????":1510,"|-|-|-|-|-":1511,"\"{{":1512,"[,":1513,"ĠaaaaAaaaa":1514,"AaaaaaaAaaaaaaaaaa":1515,"AaaaaaaaaAaaaaaAaaaa":1516,"ĠAaaaaaaaaaaaAaaaa":1517,"AaAaAaAaAa":1518,"AAaaaAaaaaa":1519,"AaaAaaaaAA":1520,"://-":1521,"ĠĠĠĠĠ":1522,"ĠAAAAAaaaaaaAaaaaaAaaaAaaa":1523,".],":1524,"?]\"":1525,"AAAaaaaaaaaa":1526,"AaaaaaaaAaaaaaaaaaaa":1527,"ĠAAaaAA":1528,"ĠAaaaaaaaaaaaaaaaaaaaa":1529,"AaaaaaaaaaaaAaa":1530,"AaaaaaaaAaaaaAaaaAaaa":1531,"AaaAaaaaaaaAaaaAaaa":1532,"AaaAAaa":1533,"AaaaaaaaAaaaAaa":1534,"ĠAAAAAaaaaaaaAaaa":1535,"AaaaAaaaaaAaaaaaaaaaa":1536,"ĠAAaaaAaaaa":1537,"ĠAAaaaAaaaaa":1538,"========================":1539,".?)":1540,"<<":1541,"@-":1542,"AaaaaaAaaAaa":1543,"ĠaaAaa":1544,"ĠAaaaAaaAaaa":1545,"ĠAAAAAaaaaAaaaAaaa":1546,"ĠAaaaaaaaaAaaaaaaa":1547,"AaAaaaaaaAaaAaaaAaaaAaaa":1548,"ĠAAAAAaaaAaAaaaaaaAaaAaaaAaaaAaaa":1549,"Ġ_____\"":1550,"ĠAAAAAaaaaaaaAaaaAaaaaaaaaAaaaAaaa":1551,"(-":1552,"_.":1553,"Ġ).":1554,"ĠAaaaaaAa":1555,"AaaaaaaaaaA":1556,"AaAAaaa":1557,"ĠAaaAaaaAaaaa":1558,"AaaaaaAaaaaaAaaaaa":1559,"aaaaAaaAaaa":1560,"AAAaaaaaaAaaa":1561,"ĠAaaaaAaaaaaaaaaaAaaaa":1562,"AaaaaaAaaaaaaaaaaa":1563,"aaaaaAa":1564,"ĠaaAaaaaaa":1565,"ĠaaaaaAAA":1566,"ĠaAaA":1567,"Ġ+/-":1568,"AaaaaaaAaaaAaaAaaaAaaa":1569,"ĠAAaaaAaaaaaaa":1570,"Ġ(?))":1571,"|-|-|-|-|-|-|-":1572,"#)":1573,"-#":1574,"aaAAAA":1575,"aaaAAAA":1576,"AaaaaaAaaaaAaaa":1577,"ĠaaaAaaaaaa":1578,"AaaaaaaaaAaaaaaaaAaaaAaaa":1579,"ĠAAAAAaaaaaaAa":1580,"ĠAAAAAaaAaaaAaaaAaaa":1581,"ĠAAAAAaaAaaaaAaaaAaaa":1582,"ĠAAAAAaaaaaaaAaaaaAaaaAaaa":1583,"Ġ...])\"":1584,"ĠAAAAAaaAaaaaaaAaaaaAaaaAaaa":1585,"ĠAAAAAaaAaAaaaaAaaaaAaaaAaaa":1586,"ĠAAAAAaaaaAaaaAaaaAaaa":1587,"ĠAAAAAaaaaAaAaaaaAaaaaAaaaAaaa":1588,"ĠAAAAAaaaAaAaaaaAaaaaAaaaAaaa":1589,"ĠAAAAAaaaaaAaaaaaaaaaaAaaaAaaa":1590,"ĠAAAAAaaaaaAaaaaaaAaaaAaaAaaaAaaa":1591,"ĠAAAAAaaaaaaAaaaAaaaAaaa":1592,"ĠAAAAAaaaaaAaaaaaaaAaaAaaaAaaa":1593,"ĠAAAAAaaaaaAaaaaaaaAaaaaaaaaAaaaAaaa":1594,"ĠAAAAAaaaaaaAaaaaaAaaaAaaaAaaa":1595,"ĠAAAAAaaaAaaaAaaaaaaaaAaaaaaaa":1596,"ĠAAAAAaaaAaaaAaaaaaaaaAaaaaaaaAaaaAaaa":1597,"ĠAAAAAaaaAaaaaAaaaAaaaAaaaaaaAaaaAaaa":1598,"ĠAAAAAaaaaaaaaAaaAaaaaaaaAaaaAaaa":1599,"ĠAaaaaAaaaaaaaaaaAaaaaAaaAaaaAaaaAaaa":1600,"ĠAAAAAaaaaaaAaAaaaAaaaAaaa":1601,"\"???":1602,"aaaaAa":1603,"AaaaaAaaaaaAaaaa":1604,"AaaaaaaAaaAaaaaa":1605,"ĠAaaaaaaAaAaaAaaaaa":1606,"ĠAAAAAaaaaaaAaaa":1607,"Ġ([":1608,".....":1609,".;\"":1610,"AaaAaaAaaaaa":1611,"Ġ$[":1612,"AaaAaaaaAaaaaaaaa":1613,"AaaaAaaaaaaAaaaaaaaa":1614,"ĠAAaaaaAaaaaa":1615,"?)\"":1616,"||":1617,"aaaaAaaaaaaAaaaaaa":1618,"AaaaaAaAaa":1619,"AAAAaaaaaaaaa":1620,"AaaaAAaa":1621,"Ġaaaaaaaaaaaaaaaaaaaaaaaaaaaaaaaa":1622,"Ġ(%":1623,"aaaaaaaAa":1624,"aaaaaaaAAAAAAA":1625,"AaaaaAaaaaaAaaaAaaa":1626,"................................":1627,"%{":1628,"~~":1629,"AaaaAaaAaaaaa":1630,"ĠAaaaaaAAAA":1631,"ĠaaaaaaaaaAAAAAAA":1632,"AaaaaaaaaaaaaaaaAa":1633,"?-":1634,"aaaaAaaaaaaaAaaaaa":1635,"ĠaaaaaAaaaaaaa":1636,"ĠAaaaaaaaA":1637,"AaaAaaaAaaAaaa":1638,"()\"":1639,"?)).\"":1640,"aaaaAaaAaaaaa":1641,"aaaaAaaAaaaaaaa":1642,"ĠaaaaAaa":1643,"AAAAAaA":1644,"AaaAaaaaaaAaaaaaa":1645,"ĠAaaaaaAaaaAaaaaaa":1646,"ĠAaAaAaaa":1647,"aaaaaaaA":1648,"Ġ+.\"":1649,"AaaaAaaaaAa":1650,"AaaaaaAaaAaaaaaa":1651,":\\":1652,"aaaaAaaaaAaaaaa":1653,"ĠAaaaaAaaaaaaaaa":1654,"ĠaaaaaaaaaAaaa":1655,"ĠAaaaaaaaaaAaaaaAaaa":1656,"ĠaaaaaaaaaaaAaaa":1657,"ĠAaaAaaaAaa":1658,"AAaaaaAaaaaaa":1659,"AaaaaaAaaaaaA":1660,">)>":1661,"\"???,":1662,"-=":1663,"aaaaAaaaaaaaAaaa":1664,"AaaaaaaAaaaAaaaa":1665,"AaaaAaaAaaaaaa":1666,"AaaaaaAaAaaaaaa":1667,"ĠaaaaaA":1668,"ĠaAAa":1669,"ĠAaaaaaaaaaAaaaa":1670,"ĠAaaaaaaaaaAaaaaAaaaa":1671,"AaaaaaaaaaaAaaaaaaaaa":1672,"AaaaAaaaAaaaaaaaa":1673,"AaaaAaaA":1674,"AaaaaAaaA":1675,"AaaaaaaaAaaaaAaaaaaa":1676,"ĠAAaaaaaAA":1677,"ĠAAaaAaaaaa":1678,"$$$$$$$$":1679,"$$$$$$$$$$$$$":1680,"-)\"":1681,"AAAaaAaa":1682,"aaaAaaaaaaaa":1683,"ĠaaaaaaaAaaa":1684,"ĠaaaaaaaaaaaaaAa":1685,"AaaAaaaaAaaaaaa":1686,"aaaaAaaaaaAaaaaaaaaa":1687,"ĠĠĠ":1688,"aAAaaaaaaAaaaaaaa":1689,"aAAaaaaaaAaaaaaAaaaaaa":1690,"aAAaaaaaaAaaaaaAaaaaaaaa":1691,"().\"":1692,"[:":1693,"AAAaaA":1694,"AaaaaAaaAaaaaa":1695,"AaaaaaaaAaAaaaa":1696,"ĠAAaaaaaaAaa":1697,"AAAAAAaaa":1698,"AaaaAaaaAaaaA":1699,"AaaAaaaaaaaaAAA":1700,"``)\"":1701,"-#:":1702,"Ġ________":1703,"aaAAa":1704,"aaaaAaaAaa":1705,"AaaaaAaAaaa":1706,"ĠaaaaaaaaAaaaaaaa":1707,"aaaaaaaAaaaaAaaaa":1708,"ĠAaaaaaaaaaaAA":1709,"ĠAaaaaaaaaaaAaaaaaa":1710,"AaaAaaAAA":1711,"AaaAaaaaaAaaaaaaa":1712,"Ġ{@":1713,"########":1714,"!?":1715,"AaaaAaaaaaaaaaaa":1716,"AaaaaaaaaaAa":1717,"AaaaaAaaaaAaAA":1718,"AaaAaaaaaaaAA":1719,"\"<=":1720,"AaaaAaAaaaaa":1721,"ĠaaaAAAA":1722,"AaaaaaaaaAaaaAaaaaaa":1723,"ĠAaaAaaaaAaaaaa":1724,"ĠaaaaaaAAAAAAA":1725,"AaAAAa":1726,"aaaaaaaAaaaaaa":1727,"AaaaAaaaA":1728,"AaaAaaaaaAaaaaaaaa":1729,"Ġ||":1730,"ĠAaaaAaaaAaaaaaaaaaAaaa":1731,"AaaaaaaAaaAaaaaaaaa":1732,">,":1733,"Ġ),":1734,"AaaaaAaaAaa":1735,"AAAaAa":1736,"ĠaaaaaaA":1737,"Ġ::":1738,"AaaaaAaaaaAaaaaaaaa":1739,"AAAAaA":1740,"AaaaaaAaaaaAaaaaaaaa":1741,"Ġ?????":1742,"AaaAaaaaaaAaaaa":1743,"AaaaaaAaaaaaAaaaa":1744,"AaaaaaAaAaa":1745,"ĠaaaaaaaAaaaaa":1746,"AaAaaAaa":1747,"ĠAaaaaaaaaaaaAaaa":1748,"AaaaAaaaaAaaaaaaa":1749,"aaaaaaaaaaaaaaAa":1750,"ĠAaaaaaaaAaaaaaaaAaaaAaaaaAaaaAaaa":1751,"Ġ??.??.????":1752,"<-":1753,"AAAAAaa":1754,"AaaaaaAaaAaaaaa":1755,"AaaaaaaaAaaaaAaaa":1756,"ĠAAAAaaaaaaa":1757,"ĠAaaAaaaaaAaaaaa":1758,"ĠaaaaaaaAaaaa":1759,".):":1760,"Ġ?)":1761,"AAaaaaaAA":1762,"$_":1763,".*\"":1764,"aAAaa":1765,"AaaaaAAAAAAA":1766,"AaaaaAaAaaaaa":1767,"ĠAaaaaaAaaaaAaaa":1768,"AaaaaaaAAaaa":1769,"ĠaaAaaaaaaa":1770,"ĠaaAaaaaaaaaa":1771,"ĠAaaaaaaaaaAaaaaAaaaaaa":1772,"AaaaAaaaaaAaaaaaaaa":1773,"aaaaaaaaaaaaaaaaaaaaaaaaaaa":1774,"AaaaaAaaaaaaAaaaaa":1775,"Ġ(*)":1776,"\"--":1777,"+-":1778,"{}":1779,"AaaaaAaaaaaAaaaaa":1780,"AaaaaAaAaaaaaa":1781,"AaaaaaaAaAaaa":1782,"AaaaaaaAaaaaaAaaa":1783,"ĠAaaAaAaaa":1784,"ĠAaaAaaaaaaaaAaaaaaaa":1785,"ĠaaaaaaAaaaaaa":1786,"aaaaaaaaAaaaaa":1787,"AaAaAaaa":1788,"AaaaaaAaaaAaaaaaaa":1789,"AaAaaAaAaA":1790,"AaaAaaaaAaa":1791,"ĠAaaAaaaAaaaaaaaaaAaaaaaaaaAaaaAaaa":1792,"\"?":1793,"/____":1794,"aaaaAaaaaaAaa":1795,"AaaaaaaAaaAaaaa":1796,"ĠaAAAAAA":1797,"aaaaaaaaAaaaaaa":1798,"aaaaaaaaAa":1799,".,\"":1800,"ĠAaaAaaaAaaaaaaaa":1801,"AaaaaaAaaaaaaAaaaaa":1802,"()-":1803,"AaaaaAaaaaaaaaAaaaAaaa":1804,"ĠAaaAaaaaaaaAaaaaAaa":1805,")...":1806,"-{":1807,":+":1808,"aaaaAaaaaaaAaaaaa":1809,"AAaaaaaaaaaa":1810,"AaaaaAaaaaaaAaaa":1811,"AaaaaaaAaaaaAaaaaaa":1812,"ĠAaaaAaaaaaAaaa":1813,"ĠAaaaAaaaAaaaaa":1814,"ĠAaaAaaaaAaaaa":1815,"ĠAAAAAAAAAAAAAAAAAAAAA":1816,"AaaAaaAaaaaaaaaa":1817,"AAaaaaaAaa":1818,"->.":1819,"\"{":1820,"},":1821,"aaaaAaaaAaaaaaaa":1822,"AAAaaaaaAaaaa":1823,"AaaaaAaA":1824,"AaaAaaaaaaaaaaa":1825,"ĠAaaaaaaaAaaaAaaaAaaa":1826,"ĠAaaAaaaaaaAaa":1827,"aaaaaaaaAaaAaaa":1828,"AaAAaa":1829,"AaaaaaaaaaaaaaaAaaaaaa":1830,"AaaaaaAaaaAaaaaaaaa":1831,"AaaaaAaaaaAaaAaaa":1832,"AaaaaaAaAaaaAaaa":1833,"ĠAaaAaaaaAaaAaaaaaAaaaAaaa":1834,"AaaaAaaaaaaaAAAAaaaAaaa":1835,"Ġ[-]":1836,"ĠAaaaaaaAAAAAaaaAaaaaaaaAAAAaaaAaaa":1837,".&&&&&":1838,"aAAAAAAA":1839,"aaaAaaaAaaa":1840,"ĠAaaaaAaaaaaaAaaaaa":1841,"AaaaaaaaAaaaaaAaaaa":1842,"AaaaaaaaaAaaaaaaaAaa":1843,"AaaaaaaaaAaaaAaaaAaaa":1844,"Ġaaaaaaaaaaaaaaaaaaaaaaa":1845,"ĠAaaAAAAA":1846,"AaaaaaaaaaAaaaaAaa":1847,"AaaAaaAaaaaaaa":1848,"AaAaaaaaAaa":1849,"ĠAaaaAaaaaaAaaaaaaaaaAaaa":1850,"AaaaaaaAaaaaaaaAaaaaaaaa":1851,"aaaaAaaaaaAaaaaaaaa":1852,"ĠAaaAaaaaaaAaaaaaaaaaa":1853,"AaaAaaaaaaaaAaaaaaaaa":1854,"??????":1855,"aaaaaAaaaaaa":1856,"ĠAAAAAaaaaAaaa":1857,"ĠAaaAaaaaaaaaAa":1858,"ĠAaaaaaaaaaaaaaaaaaaaaa":1859,"ĠAaaaaaaaaAaaaAaaaaaaaa":1860,"ĠaaaaaaAaaaaa":1861,"Ġ(@":1862,"AaaAaaaAa":1863,"AAaAAA":1864,"AaAaaaaaAaaaa":1865,"Ġ...]":1866,"ĠAAAaaaaaaaAaaaAaaa":1867,"!:":1868,"?),":1869,"_)":1870,"aaAaaaaaaa":1871,"AaaaaAAaaa":1872,"ĠaaAAAA":1873,"ĠAaaaaaaAaaAaaaAaaa":1874,"ĠAaaaAaaaaaaaaaaAaaaAaaa":1875,"ĠAaaaaaaaAaaaaaaaAaaaaa":1876,"ĠAaaaaaaaAaaAaaaAaaa":1877,"ĠAaaaaaaaAaaaaaaaAaaaAaaa":1878,"ĠAaaaaaaaaAaaaAaaaAaaa":1879,"ĠAaaaaaaaaAaaaaAaaaAaaa":1880,"aaaaaaaAaa":1881,"ĠAaaaaaaaaaaAaaaaa":1882,"AaaAaaaAaaaaaaa":1883,"AaaaaaaaAaaaaaAaaaaaaa":1884,"ĠAaaAaaaaAaaAaaaaAaaaAaaa":1885,"ĠAaaAaAaaAaaaAaaa":1886,"ĠAaaAaaaaaaAaaaaaaaaAaaaAaaaAaaa":1887,"AaaAaaaaaaaaAaaa":1888,"ĠAaaAaaaaaaaAaAaaAaaaAaaa":1889,"AaAaaaaaaaaAaaaaAaaaAaaa":1890,"ĠAaaAaaaaaaaaAaaaaAaaaaaaaaAaaaAaaa":1891,"ĠAaaaaaaaaAaaaAaaaaaaaaaaAaaaAaaa":1892,"ĠAaaAAAAAaaaaaaaAaaaAaaa":1893,"ĠAaaaaaaaaAaaaAaaaaaaAaaaaaaaaAaaaAaaa":1894,"ĠAaaaaaaaaAaaaAaaaaaaAaaaaAaaaAaaa":1895,"ĠAaaaaaaaaAaaaAaaaaaaAaaaaaaaaaaAaaaAaaa":1896,"ĠAaaAaAaaAaaaaaaaaaaAaaaAaaa":1897,"ĠAaaAaaaAaaaaaaaaaAaaAaaaaaaaaAaaaAaaa":1898,"ĠAaaAaaAaaaaaaAaaaAaaa":1899,"ĠAAAAaaaaaaaaAaaaAaaa":1900,"ĠAAAAaaaaaaaaAaaAaaaAaaaAaaa":1901,"ĠAaaAaaaaaaaAaaaaaAaAaaAaaaAaaa":1902,"Ġ(???)":1903,"ĠAaaAaaaaaaAaaaaaaAaaaAaaaAaaa":1904,"ĠAaaAaaaaAaaaaaaaaaaaaAaaaaAaaaAaaa":1905,"ĠAaaAaaaaAaaaaaaaaaaaaAaaaaaAaaaAaaa":1906,"ĠAaaaAaaaaaaaaaaAaaaaaAaaaAaaa":1907,"ĠAaaAaaaaaAaaaaaAaaaAaaaAaaa":1908,"ĠAaaAaaaaaaaaAaaaaaaaAaAaaaaaaaaAaaaaAaaaAaaa":1909,"ĠAaaAaaaaaaAaaaaaaaaaaAaaaaAaaaAaaa":1910,"ĠAAAAAaaaaAaaaAaaaaaaaaaaAaaaAaaa":1911,"ĠAaaAaaaaaaaaAaAaaaaaaaaAaaaAaaa":1912,"ĠAaaaaaaaAaaaaaaaAaaaaaAaaaAaaa":1913,"\"@":1914,"++)":1915,"=.":1916,"_*":1917,"Ġ____":1918,"aaaaAaaaaaAaaaaa":1919,"aaaAAAAAaaaa":1920,"AaaAAaaa":1921,"AaaaaaAAAA":1922,"ĠAaaaaaaAaaaaaaaaa":1923,"ĠAAAAaaaaaaAaaaaa":1924,"ĠAaaaaaaaAaaaaaaaaaAaaaAaaa":1925,"ĠAaaaaaaaaaAaaaaAaaaaa":1926,"AaaaaaaaaaaaaAaaaaaa":1927,"AaaAaaaAaaaaaaaaAaaa":1928,"AAaAAa":1929,"AaaaaaaaaaaaaaaAa":1930,"aaaaaaaaaaaaaaaaaaaaaaaaaaaa":1931,"AaAaaaaaaAaaaAaaa":1932,"{{#":1933,"\"**":1934,"(%":1935,"/~":1936,"AaaAaaaaaaaAaaaaaa":1937,"ĠAaaaaaaAaaaAaaaaaAaaaaaa":1938,"ĠAaaAaaaaaaaaAaaaAaaa":1939,"ĠAaaAaaAaaaAaa":1940,"aaaaaaAAA":1941,"ĠAaAaA":1942,"AaAAaaA":1943,"ĠaaaaaaaaaaAa":1944,"AaaAaaAaaAaa":1945,"Ġ>,":1946,"ĠAaaAaaaaaAaaaaaaAaaa":1947,"AaaaaaAaaaaaaAaaaa":1948,"AaaaaaAaaaaaaAaaaaaaa":1949,"()()":1950,"AaaaaaaAaaaaaaAaaaaaaaa":1951,"Ġ!=":1952,"]}}{{/":1953,"]}}{{[":1954,"%%":1955,"?/":1956,"AaaaAaaaaaaaAaaaaa":1957,"ĠAaaaaaAaaaaAaaaAaaa":1958,"ĠAaaaaaAaaaaaaaaaAaaaAaaa":1959,"ĠAaaaaaaAaaaaaaaaAaaaAaaa":1960,"ĠaaaaaaaaAA":1961,"ĠAAAAAaaaaaaaAaaaAaaa":1962,"ĠAaaaaaaaAaaaAa":1963,"ĠAaaaaaaaAaaaaAaaaAaaa":1964,"ĠAaaaaaaaAaaaaaAaaaAaaa":1965,"ĠAaaaaaaaAaaaaaaAaaaAaaa":1966,"ĠAaaaaaaaAaaaaaaaaAaaaaaaaaaaa":1967,"ĠAaaaaaaaAAAAAAaaaAaaa":1968,"ĠAaaAAAAAAaaaaaaa":1969,"ĠAaaAAAAAAaaaAaaa":1970,"ĠAaaaaaaaaAaaaaaaaAaaaAaaa":1971,"AAAAAAAAAAAAAAAAAAAA":1972,"AaAaaaaaaaaAaaaAaaa":1973,"AaaAaaaAAAAaaaaaaa":1974,"ĠAaaAaaaAaaaaAaaaaaaa":1975,"ĠAaaAaaaAaaaaaaaaAaaaAaaa":1976,"ĠAaaAaaaAaaaaaaAa":1977,"ĠAaaAaaaAaaaaaaAaaaAaaa":1978,"ĠAaaAaaaAaaaaaaAaaaaAaaaAaaa":1979,"ĠAaaAaaaAaaaaaaAaaAaaaaaaaa":1980,"AaAaaaaAaaaAaaaAaaa":1981,"ĠAaaaAaaaaAaa":1982,"AAAAaAAA":1983,"AaaaaaaaAaaaaaAaaaaaa":1984,"ĠAaaAaaaaaAaaaaaaAaaaAaaa":1985,"ĠAaaAaaaaAaaaaaaaaAaaaAaaa":1986,"ĠAaaAaaaaAaaaaaaaaaAaaaAaaa":1987,"ĠAaaAaaaaAaaaAaaaaAaaaAaaa":1988,"ĠAaaAaAaaaAaaaAaaa":1989,"ĠAaaAaAaaaaaaaaAaaaaa":1990,"ĠAaaAaAaaAaaaaaAaaaAaaa":1991,"ĠAaaAaaAaaaaaaaaAaa":1992,"ĠAaaaaaaAaaaaAaaaAaaa":1993,"ĠAAaaaaaAaaaaaaaaaa":1994,"Ġ.....":1995,"ĠAaaAaaaaaaAaaaAaa":1996,"ĠAaaAaaaaaaAaaaaaaaaAaaaAaaa":1997,"ĠAaaAaaaaaaAaaaaaaaaaAaaaAaaa":1998,"ĠAaaAaaaaaaAaaAaaAaaaa":1999,"ĠAaaAaaaaaaAaaAaaaAaaaaaaaaAaaa":2000,"ĠAaaAaaaaaaAaAaaaaaaaaAaaaAaaa":2001,"AaaaAAAaaaAaaa":2002,"ĠAaaaaAaaaaaAAAaaaAaaa":2003,"ĠAaaAaaaaaaaAaaaaaaaaaAaaaAaaa":2004,"ĠAaaAaaaaaaaAaAaaAaaaaaaaaAaa":2005,"ĠAaaAaaaaaaaaAaa":2006,"ĠAaaAaaaaaaaaAaaaaaaaaAaaaAaaa":2007,"ĠAaaAaaaaaaaaAaaaaAaaaAaaa":2008,"ĠAaaAaaaaaaaaAaaaaaaaAaaaAaaa":2009,"ĠAaaAaaaaaaaaAaaaaaaaaaAaaaAaaa":2010,"ĠAaaAaaaAaaaAaaaAaaa":2011,"ĠAaaAaaaAaaaAaaaAaaaAaaa":2012,"ĠAaaAaaaaaaaaaAaAaaAaaaaaaaaAaa":2013,"ĠAAAAAaaaaAaAaaaaAaaaAaaaAaaa":2014,"ĠAaaaaaaaAaaaaaaAaaaAaaaAaaa":2015,"ĠAaaAaaaaaaaaaaaaAaaaAaaa":2016,"ĠAaaAaaaaaaaaaaaaAAAaaaAaaa":2017,"ĠAaaAaaaaaaaaaaaaAaaaAAAaaaAaaa":2018,"ĠAaaAaAaaAaaaaaaaaaaAaa":2019,"ĠAaaAaaaAaaaaaaAaaAaaaAaaa":2020,"ĠAaaAaaaAaaaaaaAaaaaaaaaAaaaAaaa":2021,"ĠAaaAaaaAaaaaaaAaaaaaaaaaAaaaAaaa":2022,"ĠAaaAaaaAaaaaaaaaaAaaaaaaaAaa":2023,"ĠAaaaaaaAaaaaaaaaAaaaaaaaaaAaaaAaaa":2024,"ĠAaaaaaaAaaaaaaaaAaaaaAaaaaaAaaaAaaa":2025,"ĠAaaAaaAaaaaaaAaaAaaaAaaa":2026,"ĠAaaAaaAaaaaaaAaaaaaaaaaAaaaaAaa":2027,"ĠAAAAaaaaaaAaaaAaaa":2028,"ĠAAAAaaaaaaAaaAaaaaaaaaAaaaAaaa":2029,"ĠAaaAaaaaAaaaAaaaaaaaAaaaAaaa":2030,"ĠAaaAaaaaAaaaAaaaaaaaaaAaaaAaaa":2031,"ĠAaaAaaaaaaaAaaaaaAaaaAaaa":2032,"ĠAaaAaaaaaAaaaAaaaaaaaaAaaaaaaaAaa":2033,"ĠAaaAaaaaaaaaaaaaaAaaaAaaa":2034,"ĠAaaAaaaaaaaaaaaaaAaaaaaAaaaAaaa":2035,"ĠAaaAaaaaaaAaaaaaaAaa":2036,"ĠAaaAaaaaaaAaaaaaaaAaaaAaaa":2037,"ĠAaaAaaaaaaAaaaaaaaAaaaaaaaAaa":2038,"ĠAaaAaaaaaaaAaaaAaaaaaaaaaaAaaaAaaa":2039,"ĠAaaAaaaaaaaAaaaAaAaaaaaaAaa":2040,"ĠAAAAaaaaaaaaaaaaaAaAaaAaaaAaaaAaaa":2041,"ĠAAAAaaaaaaaaaaaaaAaAaaAaaaAAAAaaaaaaa":2042,"ĠAaaAaaaAaaaaAaaaAaaaaAaaaAaaa":2043,"ĠAAAAAaaaaaaAaaaAaaaaaaaaaaAaaaAaaa":2044,"ĠAaaaaaAaaaAaaaaaaAaaaaaaaaaAaaaAaaa":2045,"ĠAaaAaaaaAaaaaaAaaaaaaAaa":2046,"ĠAaaAaAaaaAaaaaaAaaaAaaa":2047,"ĠAaaAaaaAaaaaaaaaAaaaaaaaaaAaaaAaaa":2048,"ĠAaaAaaaaaaAaaAaaaaaaaaAaa":2049,"ĠAaaaaAaaaaaaAaaaaaAaaaAaaa":2050,"ĠAaaaaaaaaAaaaAaaaaaaaaAaaaAaa":2051,"ĠAaaAaaaaaAaaaaaaAaaaAaaaaaaaaaaAaa":2052,"ĠAaaaaaaaAaaaAaAaaaaaaaaaAaaaAaaa":2053,"ĠAaaaaaaaAaaaaaaaaAaaaaaaaaaaaAaaaAaaa":2054,"ĠAaaAAAAAAaaaaaaaAaaaAaaa":2055,"ĠAaaAaaaAaaaaAaaaaaaaAaaaAaaaaAaa":2056,"ĠAaaAaaaAaaaaaaAaAaaaaaaaaAaaaAaaa":2057,"ĠAaaAaaaAaaaaaaAaaAaaaaaaaaAaAaaaaaaAaa":2058,"ĠAaaAaaaaAaaaaaaaaaAaaaAaaaAaaaAaaa":2059,"ĠAaaAaAaaaaaaaaAaaaaaAaaAaaAaa":2060,"ĠAaaAaaaaaaAaaAaaAaaaaAaAaaaaaaAaaaAaaa":2061,"ĠAAAAaaaaaaaaaaaaaAaAaaAaaaAAAAaaaaaaaAaaaAaaa":2062,"?:":2063,"AaaaaaAaaaaAaaaa":2064,"aaaaaaAa":2065,"ĠAaAAaa":2066,"...),":2067,"AaaaAaaaAaaaaaaa":2068,"AAaAaaaaaaaAaaa":2069,"AaaaAaaaaAaaaaaaaa":2070,"ĠAAaAA":2071,"AAaaaA":2072,"AaaaAaaaaaaaAaaaaaaaa":2073,"AaaaaaaAaaaaAaaaaaaaa":2074,"AaaAAaA":2075,"Ġ???\"":2076,")----":2077,".{":2078,"aaaaAaaaaAa":2079,"aaaaAaaaaaaaAaaaaaaaa":2080,"ĠaaaaA":2081,"AaaaaaaaAAAA":2082,"ĠAaaaaaaaAAAA":2083,"AaaaaaaaaaaaaAaaaaaaaa":2084,"AaaAaaaAA":2085,"AaaaaaAaaaaaAaaaaaaaa":2086,"aaaaaaaaaaaaaaaaaaaaaaaaaa":2087,"AaaaaAaaaaaAaaaaaa":2088,"Ġ%\"":2089,"AaaaaaaAaaaaaaAaaaaa":2090,")?":2091,"/.\"":2092,"=(":2093,"aAaaaAaa":2094,"aaaaAaAaaaaa":2095,"aaaaAaaAaaaaaaaaa":2096,"AAAaaaAaaaa":2097,"AAAAAaaaaa":2098,"AaaaAaAaaaa":2099,"AaaaaaAaaaaaaaAaaaa":2100,"ĠAaaaaaAAA":2101,"AaaaaaaAaaaAaa":2102,"ĠaaaAA":2103,"ĠaaaAaaaaaaaa":2104,"AaaaaaaaaaAA":2105,"-[(":2106,"};":2107,"Ġ``":2108,"AaaaaaaaAaaaaaaAaaa":2109,"ĠaaaaaaaaAaaaaaa":2110,"Ġ(...":2111,"ĠAaAAAAA":2112,"ĠaAAaA":2113,"AaaaaaaaaaaaaAaaaa":2114,"AaAaaaAaaaaaa":2115,"AaaaaAaaAaaaaaa":2116,"ĠAAAAaaaAaaaaaa":2117,"ĠAAaaaaaaAaaaaa":2118,"aAAaaaaaaAaaaaAaaaaaaaa":2119,"aAAaaaaaaAaaaaaAaaaAaaa":2120,"AaaaaaaaAaaaaaaaaaAaa":2121,"[<":2122,"aAAAAAA":2123,"}-":2124,"aaaaAaaaAaaaa":2125,"AAAaaaAaaaaaa":2126,"AaaaaAAaaaa":2127,"AaaaAaaaaaaaAaaaa":2128,"AaaaaaAaAaaaa":2129,"AaaaaaAaaaaaaaAaaaaaa":2130,"ĠaaaaaaaaAaaa":2131,"ĠAaaaaaaaaaAaaaaaaa":2132,"ĠAaaaaaaaaaAaaaaaaaa":2133,"AaaaaaaaaaaaAaaaaaaaa":2134,"aaaaaaaaaaAaaaa":2135,"Ġ[...]\"":2136,"AaaaAaaaaaaAaaaaa":2137,")-(":2138,"!!!!!":2139,"AaaAaaaaaaaaaAaaaaa":2140,"!,":2141,"!.":2142,"\"?,":2143,"+(":2144,",;":2145,".!":2146,"/...":2147,"^\"":2148,"aAAaaa":2149,"Ġ\\\\":2150,"aaaaAaaaAaaaaaa":2151,"AaaaaAaaaaaaaaaaaaa":2152,"ĠAaaaaaaaaAaa":2153,"ĠAaaaaaaaaAaaAaaAaa":2154,"AaaaaaaaaaaAAAAAAA":2155,"aaaaaaaAaaaaaaaa":2156,"0000000000000000000":2157,"AaaAaaA":2158,"AAaaaAaaaa":2159,"aaaaAaaaaaAaaAaaAaaaaaaaaa":2160,"\".":2161,",[":2162,"/(":2163,":]":2164,"[@":2165,"aaAAAAA":2166,"aaaaAaaAaaaa":2167,"AaaaaAAaa":2168,"AaaaaAaaaaaaaaaAaaaaaa":2169,"ĠAaaaAaaaaaAaa":2170,"ĠAaaaAaaaaaAaaaaaa":2171,"Aaaaaaaaaaaaaaaaaaaaaaa":2172,"AaaaaaaaaaAaaaaaAaaa":2173,"aaaaaaaaAAAAAAA":2174,"AAAAAAAAAAAAAAAAAAAAAA":2175,"ĠAaaaaaaaaaaaaAaaa":2176,".,,":2177,"--]":2178,"AaaaAaaaAa":2179,"AaAaaaAaaaaaaaa":2180,"ĠAAAaAaaa":2181,"AaaaAaaaaaAaaaaaaa":2182,"AaAaaAa":2183,"ĠAaAaaaaaaAaaaaaaaAaaaaaaaa":2184,"AaaaaaaaAaaaAaaaaaaaa":2185,"AaAaaaaaaAaaaaaaaAaaaaaaaa":2186,"AaaaaAaaaaaaaAaaaa":2187,"AaAAAaa":2188,"|-|-|-|-|-|-|-|-":2189,"AAAAAAAAAAAAAAAAAAAAAAAAAAAAAAAA":2190,"******":2191,"*^":2192,"-),":2193,";;":2194,"aAaaaaaaaa":2195,"}/":2196,"}-%":2197,"aaAaaaaAaaaaaa":2198,"AAAaaaaAaaaa":2199,"aaaAaaAaaa":2200,"AaaAaaaaaaAaaaaa":2201,"AaaaaaaAaaaaaAaaaa":2202,"ĠaaaAaaaaaaa":2203,"ĠAaaaAaaaAaaaa":2204,"ĠaaaaaaAaa":2205,"aaaaaaaaaAaaaaaaa":2206,"0000000000000000":2207,"Ġ[]":2208,"AaAaaaaAa":2209,"AaaaaAaaaA":2210,"ĠAaaaAaaaaAaaaaaaaaa":2211,"AaaAaaaaaaaaAaaaa":2212,"AaaaaaaaAaaaaaaaaAaaaaaaaaaa":2213,"aaaAaaaAAAAA":2214,"!!!!!!!!!!!!!!!!":2215,"}-%{":2216,"%.\"":2217,",...":2218,"?).":2219,"aAaaAaa":2220,"aaaaAaAaaaa":2221,"ĠAaaaaAaaAaaa":2222,"AaaaAAaaa":2223,"ĠAaaaaaaaaaaaaaaaaaaaaaaa":2224,"AaaaaaaaaaAAA":2225,"aaaaaaAaaaaAaaaaaa":2226,"ĠAaaaaaaaaaAaaaaaaaaa":2227,"ĠaaaaaaaaaaaaAa":2228,"ĠaaaaaaaaaaaaaAaaaaaaa":2229,"Ġ/)":2230,"AaaAaaaAaaaaAaaaaaaa":2231,"AaaaAaaaaAA":2232,"ĠAAAaAaaaaa":2233,");\"":2234,"AAaaAAa":2235,"AaaaAaaaaaaAaaaa":2236,"AaaaAaaaaaaAaaaaaaa":2237,"AaaaAaaaaaaaaAaaa":2238,"Ġ??????":2239,"/*":2240,"?!":2241,"aaaaAaaaaAaaaaaaaa":2242,"aaaAaAaaaa":2243,"AaaAaaaaaaaAaaa":2244,"ĠaaaAaaaaaaaaa":2245,"AaaaaaaaAaaaAaaaa":2246,"AaaaaaaaaAaaaaaaaaaa":2247,"ĠaaaaaaaAaaaaaa":2248,"aaaaaaaaAaaaaaaa":2249,"AAAAAAAAaaa":2250,"aaaaaaaaaAaaaaAaaaaaaa":2251,"AaaaaaaaaaaaAaaaaa":2252,"Ġ[_":2253,"**\"":2254,"AaaaaaAaaaAaaaaaa":2255,"AaaAaaaaaaaAAA":2256,"ĠAAaaaaaaAaaaa":2257,"aaaaAaaaaaaAaaaAaaa":2258,"ĠAAaaaaaaaaaAaaaaaAaaaaa":2259,"aAaAaAA":2260,")!":2261,",.":2262,"~$":2263,"AaaaAAAa":2264,"ĠAaaaaaAaaaaaAaaa":2265,"ĠAaaaAaaaAaaaaaa":2266,"ĠAAAAaA":2267,"ĠAaaAaaaaaaaaaa":2268,"ĠAaaAaaAaaa":2269,"ĠAaaAaaAaa":2270,"ĠAaAaaaaaaaaaa":2271,"aaaaaaaaAaa":2272,"AaaaAaaAaaaaaaa":2273,"AaaaaaaAaaaaaaaAaaaaaa":2274,"AaaaaaAaaaaaaaaAaaaaaaaa":2275,"aaaaAaaaaAaaaAaaaaa":2276,"aAaaaaaaaaa":2277,"AAAaaaaAaaaaaa":2278,"aaaAaaaAaaaaa":2279,"aaaAaaaaaaAaaa":2280,"AaaaAAAAAAA":2281,"ĠAaaaaaAaaaaaaaaaa":2282,"ĠAaaaaaAaaAaaaaaa":2283,"AaaaaaaAAAAAAA":2284,"ĠaaaAaaaaaaAaaa":2285,"AaaaaaaaAaaaaAaaaaa":2286,"ĠaaaaaaAAA":2287,"ĠAaaaaaaaaaAaaaaAaaaaaaa":2288,"aaaaaaaaaAaaAaaa":2289,"Ġ&,":2290,"AaaAaaaAaaaAaaaa":2291,"Ġ>]":2292,"AaAaaaaaAaaaaaa":2293,"AaaaaAaaaAa":2294,"AaaaaAaaaAaaaaaaAaaaaaaaaa":2295,"AaaaAaaaaaAaaaaaaaaa":2296,"AaaAaaaaAaaaaaaaaa":2297,"AaaaAaaAa":2298,"ĠAaaAaaaaaAaaaaaaa":2299,"AaaaaaaaAaaaaAaaaaaaaa":2300,"aaAAAaaaa":2301,"aaAAAaaaaaaaa":2302,"aaAAAaaaaaaaaa":2303,"aaAAAaaaaaaaaaa":2304,"aaaaAaaaaaAaaAaaaa":2305,"AaaAaaaaaaaaA":2306,"ĠAaaaaAaaaaaAaaaaaaaa":2307,"~*~*":2308,"&&&&&&&&&&&&&":2309,">)>).)":2310,"%;":2311,"-]":2312,"/#":2313,"=.\"":2314,"_...":2315,"_--_":2316,"aAaaA":2317,"aaAaaA":2318,"aaaaAaaaaaaAaaaaaaa":2319,"aaaaAaaaaaaaAaa":2320,"AaaAaaaaaaaAaa":2321,"AaaaAaaaaaaaaaaaa":2322,"ĠAaaaaaaaAaaaaaaaaaAaaa":2323,"aaaaaaaAA":2324,"AAAAAAa":2325,"AaaaaAaaaAaaaaaaaa":2326,"AaaaAaaaaaaA":2327,"Ġ%)":2328,"Ġ)>":2329,"AAaaaaaAaaaaaaa":2330,"AaaAaaaaaaaAaaaaaaaa":2331,"Ġ(#)":2332,"ĠAaaAaaaAaaaAa":2333,"-.-":2334,"={":2335,"aAaAaA":2336,"aaaaAAAAAAAAAAA":2337,"aaaaAaaaaaaaaAaaa":2338,"aaaaAaaaaaaaaaaaAaaa":2339,"aaaAaaaaaaaaaa":2340,"aaaAAAaaaaaa":2341,"AaaAaaaaaaaAaaaaa":2342,"AaaAaaaaaaAaaaaaaa":2343,"ĠaaaaaAaaaaaAaaaaaAaaa":2344,"AaaaaaaaaaAaaaaaaaaaa":2345,"AaaaaaaaaaAaaaaaaaAaaaaaa":2346,"aaaaaaaaA":2347,"aaaaaaaaAaaaa":2348,"ĠAaaaaaaaaaaAaaaaaaaa":2349,"aaaaaaaaaAa":2350,"AaaaaaaaaaaaAaaaa":2351,"AaaAaaaAaaaaA":2352,"AaAaAaaAa":2353,"AaaaaaaAaaaAaaaaaaaa":2354,"Ġaaaaaaaaaaaaaaaaaaaaaaaaaaaa":2355,"())\"":2356,"AaaaAaaaaaaaAaaaaaa":2357,"AaaaaaaAaaaaaAaaaaaaaaa":2358,"++\"":2359,"++/":2360,"AaAAaAAaaA":2361,"_-_":2362,"#,":2363,"(?":2364,"+]":2365,"/$":2366,"[(":2367,"ĠAaaaaAaaaaaaaaaa":2368,"ĠaaaaAaaAaaa":2369,"AaaaAaA":2370,"ĠaaaAa":2371,"AaaaaaaaAaaaaaaaaaaAaaa":2372,"Ġ(,":2373,"aaaaaaaaAaaaaaaaa":2374,"AaAaaaaaaaAaaaaaa":2375,"aaaaaaaaaAA":2376,"Ġ[.":2377,"AaaaAaaaAA":2378,"AAaAaa":2379,"ĠAaAaaaAaaaaaa":2380,"AaAaAaAaA":2381,"AAaaaaAAAaaa":2382,"AaaaaaaAaaaAaaaaaaa":2383,"AAaaAaaaAaaaa":2384,"AaaaaAaaaaaaaAaaaaaaaa":2385,"AaaaaaaaAaaaaaaAaaaaaaaa":2386,"______":2387,"AAAAaaaaAa":2388,"ĠAAaaaaaaaAaaaaaaa":2389,"AaaaAaAaaAaaaaaa":2390,"Ġ(??)":2391,"\"``":2392,"%-":2393,"%\\":2394,"($":2395,"-_-":2396,"aAAaA":2397,"aAaAaAa":2398,"aaaaAaaAaaaaaa":2399,"AaaAAAAA":2400,"AaaaAAAAAAAAAAAA":2401,"AaaaaaAaaaaaaaaaaaa":2402,"AaaaaaaAaaaaAaaaaa":2403,"ĠaaaAaaaaaAaaaaaa":2404,"AaaaaaaaAaaaaaAaaa":2405,"AaaaaaaaAaaaAaaaaa":2406,"ĠAaaAaaaaaaaaAaaa":2407,"ĠAaaaaaaaaaaaaaaaaaaaaaa":2408,"Ġ(|":2409,"Ġ()\"":2410,"aaaaaaaaAA":2411,"ĠaaaaaaaaaaAaaAaaa":2412,"AAAAAAAaaaa":2413,"aaaaaaaaaAaa":2414,"ĠaaaaaaaaaaaaAaaAaaa":2415,"ĠAAAAAAAAAAaaaaaaaa":2416,").)\"":2417,"Ġ#,":2418,"AaaaaAaaaAaaaaaaa":2419,"AAaaaaAaa":2420,"AaaaaAaaaaAaaaaaaa":2421,"aaaaaaaaaaaaaaaAA":2422,"AAaaaAA":2423,"AAaaAaaaaaaaAaaaa":2424,"Ġ...@":2425,"AaaaaAaaaaaaAa":2426,"AaaaaaaaAaaaaaaaAaaaaaaaa":2427,"aaaaaaAaaaaaAAAa":2428,"________________________":2429,"*)\"":2430,":)":2431,"AaaAAaaaa":2432,"AaaaaaaaAaaaaaaaaaaaa":2433,"AaaaaaaaAaaaaAaaaa":2434,"ĠaaaaaAaaaaa":2435,"ĠAAaaaaaaaaaaaAaaa":2436,"ĠAaaaaaaaaA":2437,"Ġ(/":2438,"ĠAaAAAAAA":2439,"Ġ---":2440,"AaaaaaaaaaaAaaaaaaaaaa":2441,"aaaaaaaAAAA":2442,"AAAAAAAaaa":2443,"AaaaaaaaaaaaaAaaaaa":2444,"...]":2445,"Ġ[(":2446,"Ġ:::":2447,"AaAaaaaAaaaaa":2448,"AAaaaaAaaaaAaaa":2449,"AAaaAAA":2450,"AaaaaaAaaaaaaaAaaaaaaaa":2451,"AaaAaaaaaaaA":2452,"ĠAAaaaaaAaaaaa":2453,"aaaaAaaaaAaaaaAaaa":2454,".#":2455,":;":2456,"=/":2457,"^^":2458,"`\"":2459,"aaAaaaAaaaaa":2460,"aaAAaa":2461,"aaaaAaaaaaaAa":2462,"aaaaAaaaaaaAaaaaAaaaAaaa":2463,"AAAaaaAaaaaa":2464,"AaaaaAaaaaaaaAaaaaa":2465,"ĠaaaaAaaAaaaaaa":2466,"AAAAaaaaaaaaaa":2467,"AaaaaaAaaaaaaaAaaa":2468,"aaaaaAAAAAAA":2469,"ĠaaaAaa":2470,"AaaaaaaaaAaaaaaaaAaaaaaaaa":2471,"ĠAaaaaaaaAAA":2472,"ĠAaaAAAAaaaaa":2473,"ĠAaaAaaAaaAaa":2474,"aaaaaaAaaaaaaaaa":2475,"aaaaaaaaAAAA":2476,"ĠAaaaaaaaaaaAaaa":2477,"ĠAaAaaaAaaaa":2478,"AAaaAa":2479,"AaaaaaaAaaaaaaAaaaaaa":2480,"AaaAAaAaAaaaa":2481,"AaaaaaAaaaaaaaaAaaa":2482,"AaaaAaaaaaaaaAaaaaa":2483,"Ġ(?)\"":2484,"################":2485,"*:":2486,"/--":2487,":$":2488,"aaaaAaaaAaaaaa":2489,"aaaaaAAAAA":2490,"aaaaaAaaaAaaa":2491,"aaaaaAaaaaAaaaa":2492,"ĠAaaaAaaaaaaAaaaaaa":2493,"ĠAaaaAaaAaaaaaa":2494,"AaaaaaaaAaaaaAaa":2495,"ĠaaaaaAaaaaAaaaa":2496,"ĠaaaaaaaAAAA":2497,"ĠAaaaaaaaaaAaaaaaaaaaAaaa":2498,"AaAaaaaaaaAaaa":2499,"aaaaaaaaaaaAA":2500,"..>":2501,"AaaAaaaAaaaaaaaa":2502,"AaAaaaaA":2503,"ĠAaaaAaaaaaAaaaaaaaaa":2504,"AaaaAaaaaaaaAaaaaaaa":2505,"AAaaaaaAaaaaaaA":2506,"********":2507,")+":2508,"aAaAaa":2509,"aaaaAAAAAAAAAA":2510,"aaaaAaaaaAaa":2511,"AAAaaaaaAaa":2512,"ĠaaaaAaaaaaa":2513,"AaaAaaaaaaaAaaaaaaa":2514,"AaaaAaAaaaaaaa":2515,"aaaaaAaaaaaaaa":2516,"AaaaaaaAaaaaaaAaaa":2517,"ĠAaaaaaaAa":2518,"ĠAaaaAaaaaaaaAaaaaaa":2519,"ĠAaaAaaAaaaa":2520,"ĠaaaaaaaaaAAA":2521,"aaaaaaAaaaAaaa":2522,"aaaaaaAaaaAaaaaa":2523,"aaaaaaaAaaaaaaaaaa":2524,"aaaaaaaaaaaA":2525,"AaaaaaaaaaaaaAaaaaaaaaa":2526,"AaaAaaAaaaaaaaa":2527,"AAaAaaa":2528,"Ġ$$":2529,"AaaaaaAaaaaAA":2530,"ĠAAaaaAaaa":2531,"Ġ--\"":2532,"____/____":2533,"aaaaAaaaaaaAaaaaaaaaa":2534,"aAAAAaA":2535,"ĠAaAAaaAaAA":2536,"/--/":2537,"____/____/____":2538,"+*":2539,".=":2540,"._":2541,"/..":2542,"]..":2543,"aaAaaaaAA":2544,"aaaaAaaaAa":2545,"aaaaAaaaaaaAaa":2546,"AaaAAAAaaaaa":2547,"AaaaAAAaaaa":2548,"aaaaaAaaaaaAaaaaaaa":2549,"AaaaaaaAaaaAaaaaa":2550,"AaaaaaaAaaaaaAaaaaa":2551,"AaaaaaaaaAAAAAAA":2552,"Aaaaaaaaaaaaaaaaaaaaaaaa":2553,"AaaaaaaaaAaaaaaAaaaaaaaa":2554,"ĠaaaaaAaa":2555,"ĠaaaaaaaAaaaaaAaaaa":2556,"aaaaaaaaaAaaaaaa":2557,"AaaaaaaaaaaaaaAaaaaaa":2558,"AaAaAaAA":2559,"AAAaAaAaaaAa":2560,"AaaaaaAaaaaaaAaaaaaa":2561,"aaaaAaaaaaAaaaaaAaaa":2562,"ĠAAaaAaaaaaaaa":2563,"ĠaaaaAaaaaaAaaaaaaAaaa":2564,"aaaaAaaaaaAaaaAaaaaaaa":2565,"----------------":2566,")&":2567,"/??":2568,"<>":2569,">$":2570,"aaaaAaaaaAaaaaaa":2571,"aaaaAaaaaaaaAaaaaaa":2572,"aaaaAaaaaAaaaaAaaaa":2573,"AAAaaaaAaaa":2574,"AAAaaaAaaaaaaa":2575,"aaaAaaaaAaaaa":2576,"ĠAaaaaaaAaAaaaaAaaaaaaaa":2577,"ĠAaaaAaaaaAaaa":2578,"AaaaaaaaAaaaaaaaAaaaaaa":2579,"Aaaaaaaaaaaaaaaaaaaaaaaaa":2580,"ĠaaaaaaaaAaa":2581,"ĠAaaAaaaaaaaaaAaaaaa":2582,"aaaaaaAA":2583,"ĠaAaaA":2584,"AAAAAAaaaa":2585,"Ġ,-":2586,"AaaAaaAaAa":2587,"AaAaAAA":2588,"AaaAaaaaaAaaaaaaaaa":2589,"AAaaaAaaaaAaaaA":2590,"Ġ%),":2591,"()*":2592,"Ġ...,":2593,"aaaaAaaaaAaaAaaaaa":2594,"AAAAaaaAaaaaaa":2595,"aaaaAaaaaaaAaaaaAaaaa":2596,"!]":2597,"();":2598,"+[":2599,",)":2600,",-":2601,"aAaaaaAaaaa":2602,"AAAaaaaAaaaaa":2603,"aaaAaaAaa":2604,"AaaaaaAAAaaa":2605,"ĠaaaAaaaAaa":2606,"AaAAAaaa":2607,"ĠaaaaaaaaaaaAa":2608,"...)\"":2609,"AaaAaaAa":2610,"ĠAaaAaaaAaaaaaaaaaa":2611,"AaaaaAaaaAaa":2612,"AaAaaAA":2613,"AAaaaAaa":2614,"AAaaaAa":2615,"Ġ=>":2616,"AAAaAaaaa":2617,"AaaAaAaaaaaa":2618,"AaaaaaaaAaaaaAaaaaaaaaa":2619,"Ġ{#":2620,"::$":2621,"AaaaAAaaaaaa":2622,"aaaaAaaaaaaAaaaaaaaa":2623,"aaaaAaaaaaaAaaAaaaaa":2624,"!!!!!!!!!":2625,"Ġ<=,":2626,"________________________________":2627,"\"<,":2628,">)>)":2629,",_":2630,"]`":2631,"~)":2632,"aaAaaaaaaaaa":2633,"aaaaAaaaaaaaAaaaa":2634,"AAAaaaaaAaaa":2635,"AAAaaaaaaaaAaaaa":2636,"aaaAAa":2637,"AaaAAAAAA":2638,"AaaaaaAaAaaa":2639,"AaaaaaAaaaaaaaAaaaaa":2640,"ĠAaaaaaAaaaaaaaaAaaaaaaaa":2641,"AaaaaaaAAAA":2642,"AaaaaaaAaaaaAaaaaaaa":2643,"ĠAaaaAaaAaaaa":2644,"AaaaaaaaaAaaaaaaaaaaaa":2645,"AaaaaaaaaAaaaaAaaa":2646,"ĠaaaaaaaA":2647,"ĠaaaaaaaAAAAAAA":2648,"ĠaaaaaaaaaA":2649,"ĠaaaaaaaaaAaaaaaaa":2650,"aaaaaaaAaAaaaAaaa":2651,"aaaaaaaaaAaaaaa":2652,"AaaaaaaaaaaaAaaaaaaaaa":2653,"aaaaaaaaaaAa":2654,"AAAAAAAAAAaaa":2655,"Ġ**\"":2656,"AaaAaaaAaaaaaaaaa":2657,".).\"":2658,"AaaaaaAaaaAA":2659,"AaAaaAaaaaaa":2660,"AAaaaAaaaaaa":2661,"AaaaaaaaAaaaaaAaaaaaaaaaaa":2662,"Ġ|,":2663,"AaaaaAaaAaaaaaaa":2664,"AAaaAAAA":2665,"AaaaaaAaaaaaaAaaaaaAaaaaaa":2666,"AaaaaaaAaaaaaaAaaaAaaa":2667,"AaaaaaAaaaaaaaAaaaaaaa":2668,"aaaaAaaaaaAaaAaaaaaAaaaaaa":2669,"AaaaaaaaAaaaAaaaAaaaAaaaaa":2670,"ĠAAaaaaaaaAaaaaa":2671,"aAaAaAaA":2672,"aaaaAaaaaaAaaaaAaaaaa":2673,"aaaaAaaAaaaaaaaAaaaAaaaaaa":2674,"${":2675,"%)\"":2676,"aaAAAa":2677,"aaaaAaAaaaaaa":2678,"AAaaaaaaaaaaa":2679,"AaaaaAaaaaaaaAaaa":2680,"aaaAAaaa":2681,"aaaAaaaaaaaaAaaaaa":2682,"AaaaAAAAAA":2683,"AaaaaaaAaaAaa":2684,"AaaaaaaaAaaaaaAaaaaa":2685,"ĠaaaaaAaaaaaa":2686,"ĠAAAaaaAaa":2687,"ĠAaaAaaaaaaAaaa":2688,"ĠaAaAaAa":2689,"ĠaAAaaaA":2690,"aaaaaaaaAAA":2691,"ĠAaaaaaaaaaAaaaaAaaaaaaaa":2692,"ĠAAAAAAaaaa":2693,"aaaaaaaAaaaaaaaaa":2694,"AAAAAAaaaaa":2695,"ĠAaaaaaaaaaaAaaaa":2696,"aaaaaaaaaAaaaaaaaaa":2697,"AaaaaaaaaaaaAaaaaaaa":2698,"...?":2699,"Ġ*,":2700,"Ġ##":2701,"AAaAAAA":2702,"AAaAaA":2703,"AaaaAaaaaaAaAaa":2704,"AaAaaAaA":2705,"aAaAA":2706,"aaaaaaaaaaaaaaaaaaaaaaaaaaaaaaaaaa":2707,"AaaaAaaaaaaAa":2708,"ĠAaaAaaaaaAaaaaaa":2709,"AaAaaaaaaAa":2710,"AaaaaAaaaaaaaAaaaaaa":2711,"AaaaaAaaaaaaaAa":2712,"AaaaaAaaaaaaAaaaaaa":2713,"AaaaaaaAaaaaaaAaaaa":2714,"AaaaaaaaAaaaaaaAaaaaa":2715,"Ġ!!":2716,"AAaaaaaAaaaaaa":2717,"Ġ~,":2718,"aaaaAaaaaAaaaaaAaaaa":2719,"AaaaaaaaAaaaaaaaaAaaaaaaaa":2720,"Ġ???????":2721,"!!!!!!!!!!!!!!!!!":2722,"Ġ}.":2723,"())":2724,"-.\"":2725,".?]":2726,"=,":2727,">\"":2728,"aAaaaaaaaaaaa":2729,"aaAaA":2730,"AaaaaAaaaaaaaaaaaa":2731,"ĠaaaaAaaAaaaaaaa":2732,"ĠAaaaaaAaaaaaAaaaaaa":2733,"ĠaaaAaAaaa":2734,"ĠAaaaAaaaaaaaaaaaAaaaaaa":2735,"AaaaaaaaaAAA":2736,"ĠAAAAAaaaaaaAaaaaaaAaaaAaaa":2737,"ĠaaaaaAAAAAAA":2738,"ĠAaaaaaaaaAaaaaaaaaa":2739,"Ġ(~":2740,"aaaaaaAaaaaAaaaa":2741,"AAAAAAAAAAAAAAAAAAAAA":2742,"AaAaaaaaaAaaa":2743,"AaAAaaaaa":2744,"ĠaaaaaaaaaaAaaaaaaa":2745,"AAAAAAaaaAA":2746,"Ġ&&":2747,"ĠAaaaaaaaaaaaA":2748,"000000000000000000":2749,"Ġ[|":2750,"Ġ*^":2751,"AaaaAaaaAaaaaaAaaaaaa":2752,"AaaAaaAaAaa":2753,"??)":2754,"AAaAaaaa":2755,"AAaAaaAaaa":2756,"Ġ$.":2757,"AaaaAaaaaAAA":2758,"AaaaaaAaaaAaaaaaaaaa":2759,"AAaaaaA":2760,"AaaaaaAaaaaaAaaaaaaa":2761,"AAAaAaA":2762,"AAAaAAaa":2763,"Ġaaaaaaaaaaaaaaaaaaaaaaaaaa":2764,"AaaaaAaaaaaAaaaaaaaa":2765,"Ġ%.":2766,"ĠAaaAaaaaAA":2767,"aAAaaaaaAaaa":2768,"AaaaaaAaaaaaaaAaaaaaaaaa":2769,"AAaaaaaAaaa":2770,"ĠAaaaaaAaaaaaAaaaaaaaaaAaaa":2771,"AaaAaaaaaaaAaaaaaaaaa":2772,"AaaaaaAaaaaaaaaAaaaaa":2773,"}}},":2774,"aaAaaaaaAAaA":2775,"aAAaaaaaaAaaaa":2776,"aaaaAaaaaaaaAaaaaAaaaaa":2777,"ĠAAAAAaaaaaaAaaAaaaAaaa":2778,"\"{{{":2779,"aaaaAaaaaAaaaaaAaaaaaaaaAaaaa":2780,"ĠaaaaaaAaaaaaAAAa":2781,"%);":2782,"/).":2783,"`,":2784,"aAaaAa":2785,"AAAaaaaaaaaaa":2786,"AAaaaaaaaaaaaa":2787,"AAAaaaaaAaaaaaa":2788,"AaaaaAaaaaaAaa":2789,"ĠAaaaaAAaaa":2790,"ĠaaaaAaaaaAaaaa":2791,"AaaaAaaaaaaaAaaa":2792,"AaaaaaAAaaa":2793,"ĠaaAa":2794,"ĠaaAAAa":2795,"ĠAaaaAaaaaaaAaaa":2796,"AaaaaaaaaAaaaaAaaaaaaaa":2797,"ĠaaaaaAaAaaaaa":2798,"Ġ(!)":2799,"aaaaaaAaaaaaAaaa":2800,"aaaaaaaAaaaaaAaaaaaa":2801,"ĠaaaaaaaaaaaaaAaaAaaa":2802,"aaaaaaaaaaA":2803,"aaaaaaaaaaAaaaaa":2804,"AaaaAaaaAaaaaaaaaa":2805,"AaaaAaaaAaaaaaAaaa":2806,"AaaaAaaaAAaaaa":2807,"ĠAaaAaaaAaaaaa":2808,"AaAaAaaaaaaaAaaa":2809,"aAaAAa":2810,"AaaaaaaaAaaaaaAaaaaaaaa":2811,"\"(-":2812,"Ġ?,\"":2813,"AaaaaAaaaaaaaAaaaaaaa":2814,"++++":2815,"ĠAAaaaaaAaaaaaaaa":2816,"AaaAaaaaaaaaAaaaaaa":2817,"AaaaaaAaaaaaaaaAaaaaaaaaa":2818,"aaaaAaaaaAaAaaaaa":2819,"AaaaAaaaaaaaaAaaaa":2820,"AaaaAaaaaaaaaAaaaaaa":2821,"???????":2822,"AaaaaaAaaaAaaaAa":2823,"?],":2824,"AAaaaaaaaAaaaaaaaa":2825,"aaaaAaaaaaaAaaaaaAaaa":2826,"aaaaAaaAaaaaaaAaaaaaa":2827,"AaaAaAaaAaaaa":2828,"aaaaAaaaaaAaaaaaaAaaaaaaaa":2829,"Ġ{#};":2830,"(?)\"":2831,",&":2832,"-?":2833,":...\"":2834,":]]":2835,":\\\\":2836,"[...]":2837,"]+[":2838,"aaAaaAaaaaaa":2839,"aaaaAAAAA":2840,"aaaaAaaaaaaaAaaaaaaa":2841,"AAAaaaaAaa":2842,"aaaAaaaaaAaaa":2843,"aaaAaaAaaaa":2844,"aaaAaaaaaaaAaaa":2845,"aaaAaaaaaaaAaa":2846,"AaaaaaAaAaaaaa":2847,"ĠAaaaaaAaaaAaaaaa":2848,"ĠAaaaaaAaaAaaaa":2849,"ĠAaaaaaAaaaaaaAaaaaa":2850,"ĠAaaaAaaaaaAaaaa":2851,"AaaaaaaaAaaaaaaaAaaaaa":2852,"AaaaaaaaAaaaaaaAaaaaaa":2853,"AaaaaaaaaAaAaaaaa":2854,"AaaaaaaaaAaaaAaaaaaaaa":2855,"ĠAAAAaaaaaaaaa":2856,"ĠAAAAAaAAA":2857,"ĠAaaAaaaaaAaaaa":2858,"ĠaaaaaaaAaa":2859,"ĠAaAAaA":2860,"ĠaAaaaaaaaaaa":2861,"AAAAAAAAaaaa":2862,"AaaaaaaaaaaaAa":2863,"aaaaaaaaaaAaaaaaaa":2864,"Ġ[]\"":2865,"AaaaaaaaaaaaaaAaaa":2866,"AaaaAaaaAaaaaaaaaaa":2867,"AaaaAaaaaAaaaaaaaaa":2868,"AaaaAaaaaaAaaaAaaa":2869,"AaaaaaAaaaaAaaaaaaaaa":2870,"AaaAaaaaAaAaaAaaa":2871,"aaaaaaaaaaaaaaaaaaaaaaaaaaaaaaaaaaaaaaaaaaaaaaaaaa":2872,"AAaaAaaaaaaaaaaa":2873,"Ġ%{":2874,"Ġ%.\"":2875,"ĠAaAaaAaaaaaaaAaaaAaaa":2876,"ĠAaaaAaaaaaAA":2877,"AaaaaaaAaaaaaaaAaaaaaaa":2878,"AaaaaaaAaaaaaAA":2879,"----------":2880,"AaAAAaA":2881,"AaaAAAaA":2882,"AaaaaaaaaaAaaaaaaAaaaaaaaa":2883,"AaaaAaaaaaaaaAaaaaaaaa":2884,"}}\"":2885,"AaaaaaAaaaaaaaaaAaaaaa":2886,"Ġ][":2887,"ĠAAaaaaaaAaaa":2888,"AaaaaaaAaaaaAaaaAaaaaaa":2889,"AaaaaaaAaaaaAaaaAaaaaaaAaaaaAaaaa":2890,"aaaaAaaaaaaaaaaaaaAaaaaaAaaaaaa":2891,"aaaaAaaaaAaaaaaaaAaaaaaaAaaaaAaaaAaaaaaaAaaaaAaaaa":2892,"??-??":2893,"<<\"":2894,"................................................................":2895,"!!!!!!!!!!!!!!!!!!!!!!!!!!!!!!!!!":2896,"#-":2897,"#---":2898,",.\"":2899,"-...\"":2900,"[_":2901,"`.":2902,"aaAaaaAaa":2903,"aaaaAaaaaaaAaaaa":2904,"aaaaAAAaaaa":2905,"aaaaAaaaaaaaaaAaaa":2906,"aaaaAaaaaaaaaAaaaaaa":2907,"aaaaAaaAaaaaaAaa":2908,"AAAaaAaaaaaa":2909,"AAAaaAA":2910,"aaaAaaaaAaaa":2911,"ĠaaaaAA":2912,"AaaaAaaaaaaaaaaAaaaaaaa":2913,"aaaaaAaaaaaaaaa":2914,"aaaaaAaaaaaaaaaa":2915,"ĠAaaaaaAaaaaaaAaaa":2916,"ĠAaaaaaAaaaaaaAaa":2917,"AaaaaaaAaAaaaaa":2918,"AaaaaaaAAAAaaa":2919,"Aaaaaaaaaaaaaaaaaaaaaaaaaa":2920,"ĠaaaaaaaaAaaaa":2921,"ĠaaaaaaaaAaaaaa":2922,"ĠaaaaaAA":2923,"ĠAAAaaaAaaaaa":2924,"ĠAaaAaaaaaaaaaaa":2925,"aaaaaaAaaaAaaaa":2926,"aaaaaaAaaaaaaAaaa":2927,"ĠAAAAAAAAAAAAAAAAAAAAAA":2928,"ĠAAAAAAAAAAAAAAAAAAAAAAA":2929,"Ġ-)\"":2930,"Ġ-...":2931,"ĠaaaaaaaaaaAAAAAAA":2932,"AAAAAAAaa":2933,"Ġ000000000000":2934,"aaaaaaaaaaAA":2935,"aaaaaaaaaaaaAaaa":2936,"AaaAaaaA":2937,"AaaAaaaAaaaaaAaaa":2938,"Ġ:(":2939,"Ġ:)\"":2940,"AaAaaaaAaa":2941,"ĠAaAaaaAaaaaa":2942,"AaAaaaaaAaaaaaaaaaa":2943,")))":2944,"ĠAAaAaaaaa":2945,"Ġ={{":2946,"AaaaaAaaAa":2947,"AAaaAaaaaaa":2948,"AaaaAaaaaaaAaaaaaaaaa":2949,"ĠAaAaaA":2950,"AaAaaaaaaAaaaa":2951,"AaaAaaaaaaAA":2952,"AaaAaaaaaaAaa":2953,"AaaAaaaaaaAaaaAaaaa":2954,"AaaAAAaa":2955,"Ġ($)":2956,"Ġ_)":2957,"AaaaaaAaaaaaaaaAaaaa":2958,"AaaAaaaaaaaaaAaaaaaaaa":2959,"AaaaaaaAaaaaaaaaAaaaaaaaa":2960,"AaaaaaaaaAaaaaaaaaAaaaAaaaa":2961,"aAAaAaA":2962,"aaaaAaaaaAaaaAaAaaa":2963,">)>).":2964,"Ġ___________":2965,"-{[":2966,"#.":2967,"(_":2968,"=*":2969,"]*":2970,"aAaaAA":2971,"aAaaaAa":2972,"aaaaAaaaaaaaaaAaaaa":2973,"aaaaAaaaaaaaAaaaaaaaaa":2974,"aaaAaaaAaaaa":2975,"aaaAaaaaaAaaaaa":2976,"aaaAaaAaaaAaaa":2977,"ĠAaaaaAaaAaaaa":2978,"ĠAaaaaAaaaaaaAaa":2979,"AAAAAaAA":2980,"AAAAAaaaaaaaaAaaa":2981,"AaaAAAa":2982,"AaaAaaaaaaaaaAaaa":2983,"ĠAaaaaaAaaaaaaaAaaaaaaaa":2984,"AaaaaaaAaaaaaaaAaaa":2985,"AaaaaaaAaaAaaaaaa":2986,"ĠaaAaaaaaaaa":2987,"AaaaaaaaaAaaaaaaAaaaa":2988,"AaaaaaaaaAaaAaaaaaaaaa":2989,"ĠaaaaaAaaaaAaaa":2990,"ĠAaaaaaaaAaaaaAaaaaaa":2991,"ĠAAAaaaaaaaaaaaa":2992,"ĠAaaaaaaaaAA":2993,"ĠAaaaaaaaaaaaaaaaaaaaaaaaa":2994,"ĠAaaaaaaaaAaaaaaaaAaaaaaaaa":2995,"ĠaaaaaaAA":2996,"Ġ(...)":2997,"ĠaaaaaaaaaAaaaa":2998,"aaaaaaAaaaaaaaAaaaaaaa":2999,"AAAAAAAAAaa":3000,"AaAAAaAA":3001,"AaaaaaaaaaaAaaaAaaaaa":3002,"AaaaaaaaaaaAaaaaaAaaaa":3003,"Ġ[,":3004,"AAaAaAa":3005,"AaaaaAaaaAAA":3006,"AaaaaAaaaAaaaaaaaaa":3007,"AAaaaAaaaAaaaaaaa":3008,"AaaAaaaaAaAaaaa":3009,":///":3010,"AaaaaaaaAaaaaaAaaaaaaaaa":3011,"AaaaaaaAaaaAA":3012,"AaaaaaaAaaaAaaaaaaaaa":3013,"AAAAaaaaaAaaaaaaAaaaaaaa":3014,"Ġ%;":3015,"Ġ?(":3016,"Ġ?.":3017,"AaaaaAaaaaaaaAaa":3018,"AaaaaAaaaaaaaAaaaAaaaaa":3019,"AaaaaaAaaaaaaAaaaaaaaa":3020,".......":3021,"Ġ!\"":3022,"===":3023,"aaaaAaaaaaAaaAaaaaa":3024,"-------":3025,"AaaaAaAaaaaaaaaaa":3026,"AaaAaaaaaaaaAaaaaaaA":3027,"Ġ($/":3028,"Ġ<<":3029,"Ġ<->":3030,"-((":3031,"Ġ??)":3032,"aaaaAaaaAaAaaaaaa":3033,"ĠAaaaaaAaaaaaaAaaAaaAaa":3034,"aaaaAaaaaaaaAaaaaAaaaAaaaaaa":3035,"AAaaaaaaaaAaaaaaaa":3036,"aaaaAaaaaAaaaAaAaaaaa":3037,"Ġ__\"":3038,"aaaaAaaAaaaaaaaaAaaaaaAaaaAaa":3039,"aaaAaaaaaaaaaAaaaaaAaaaa":3040,"aaaaAaaaaaaaAaaaaaAaa":3041,"AaAaaAaaAa":3042,"AaaAaaaAaaaaAaaaaaaaAaaaaAaaa":3043,"aaaaAaaaaAaaaAaaaaaAAAAaaaaaAaaaaa":3044,"aaaaAaaaaaaaAaaaaAaaaAaaaaaaAaaaaAaaaaaaaAaaaAaaaaa":3045,"*(":3046,"*-":3047,".--":3048,"/../":3049,"[^":3050,"aAAAAAAAA":3051,"ĠĊ":3052,"Ġē":3053,"AAAaaaaaaaaaaaaaaa":3054,"AaaaaAAAaaa":3055,"AaaaaAaAaaAaaaa":3056,"aaaAAAAAAA":3057,"aaaAaaaaaAaaaaaaa":3058,"aaaAaaaaaaaAaaaaaaaa":3059,"aaaAaaaaaaaaAaaaa":3060,"AaaaaaAaaaaaaaaaAaaa":3061,"aaaaaAaaaAaaaa":3062,"ĠAaaaaaAaaaaaAaaaaa":3063,"ĠAaaaaaAaaaaAaa":3064,"ĠAaaaaaAaaaaaaaAaaaa":3065,"ĠAaaaaaAaaaaaaaaaAaa":3066,"ĠaaAaaaAaaa":3067,"AaaaaaaaAAAAAAAAA":3068,"ĠAAAaaaaaaaaaAaaa":3069,"ĠAaaaaaaaaAAAA":3070,"ĠAaaaaaaaaAaaaaaaaaaAaaa":3071,"Ġ(&":3072,"AaaaaaaaaaAaaaaAaaa":3073,"AaaaaaaaaaAaaaaaaAaaaaaa":3074,"aaaaaaAaaaaaaaaaaa":3075,"aaaaaaAaaaAaaaaaa":3076,"ĠAaAAAAAAA":3077,"AaaaaaaaaaaA":3078,"AAAAAAaaaaaa":3079,"AAAAAAaA":3080,"AAAAAAAa":3081,"aaaaaaaaaAAA":3082,"Ġ/.":3083,"Ġ#:":3084,"aaaaaaaaaaaaaAA":3085,"Ġ:\"":3086,"AaaaAaaaaAaaaaaaaaaaa":3087,"AaAaaaaaAaaaaaaaa":3088,"AaaaaaAaaaAaaaaaaaaaa":3089,"AaaaaAaaaaAaaaaaaaaa":3090,"AaaaAaaaaaAa":3091,"AaaaaaAaaaaAAaa":3092,"AaAaaAaaaaaaa":3093,"AaAaaAaaaaaaaa":3094,"AaaaaaAaaaaaAaaaaaaaaa":3095,"AaaAaaaaAa":3096,"Ġ@@":3097,"AAAaAAa":3098,"AAaaAaaaaa":3099,"AaaaAaaaaaaAaaaAaaa":3100,"\"(#":3101,"AaaaaAaaaaaaaAAAAAaaaaaa":3102,"ĠAaaaAaaaAaaaaaaaaa":3103,"AaaaaaAaaaaaaAaaaaaaaaa":3104,"ĠAaAaaaaaaaAaaaaaaa":3105,"AaaaaAaaaaaaAaa":3106,"AaaaaaaAaaaaaaAaaaaaaaaa":3107,"Ġ!!!":3108,"???-":3109,"::-":3110,"++,":3111,"ĠAaaaaaaAaaaaAaaaaaaaa":3112,"AaaaAaAaaaaaaaa":3113,"AaaaAAAaa":3114,"aaaaAaaaaAaaaAaaaa":3115,"``)":3116,"AAAAaaaaAaa":3117,"AAAAaaaaAaaaaAaaaaaaaAAAAAaaaaaa":3118,"aaaaAaaaAaaaaaaaaa":3119,"ĠAaaAaaaaaaaaAaaaaaaaa":3120,"&&&&&&":3121,"AaaaaaaAaaaaaaaaaAaaaaaaaaa":3122,"Ġ>=\"":3123,"&&&&&&&&&&&&&&":3124,"Ġ_____________":3125,"AAAAAAAAAAAAAAAAAAAAAAAAAAAAAAAAAAAAAAAAAAAAAAAAAAAAAAAAAAAAAAAA":3126,"AAAaaaaAaaaaaaAaaaaaaaa":3127,"Ġ)>.)":3128,"____________________________":3129,"\"==":3130,"(>":3131,")...\"":3132,"-_":3133,"-??-??":3134,"?;":3135,"`:":3136,"|=":3137,"}{":3138,"aaaaAAAAAA":3139,"aaaaAaaAaaaaaAaaaAaaa":3140,"AAAaaaaAaaaaaaa":3141,"AaaaaAAAAA":3142,"AaaaaAaAaaaaaaa":3143,"AaaaaAaAaAA":3144,"aaaAAAAA":3145,"aaaAaaaaaAaaaaaaaa":3146,"ĠAaaaaAaaaAaaaaa":3147,"ĠaaaaAaaAaaaa":3148,"AaaAaaaaaaaaaaaa":3149,"AaaAaaaaaaaaaaaaa":3150,"AaaaAAa":3151,"AaaaaaAaaaaaaaaaaaaa":3152,"AaaaaaaAaAaaaa":3153,"AaaaaaaAaaAA":3154,"ĠAaaaaaaAaaaAaaaaa":3155,"ĠAaaaaaaAaaaAaaaaaa":3156,"ĠAaaaaaaAaaaAaaaaAaaaaa":3157,"AaaaaaaaAaaaaaaaaaaaaa":3158,"AaaaaaaaAaaaaaaaaaAaaa":3159,"ĠAAAAaaaaaaaaaa":3160,"ĠAaaaaaaaAaaaaAaa":3161,"ĠAaaaaaaaAaaaaaAaaaaaaa":3162,"ĠAaaaaaaaAaaaaaAaaaaaaaa":3163,"ĠAaaaaaaaAaaaaaaaaaaAaaa":3164,"ĠAaaaaaaaaAAAAA":3165,"Ġ(_":3166,"AaaaaaaaaaAaaaAaaaaa":3167,"aaaaaaAaAaaaa":3168,"ĠAaAaaAaaa":3169,"aaaaaaaaAaaaaaaAaaaaa":3170,"AaAAAAa":3171,"ĠaaaaaaaaaaAaaa":3172,"AaaaaaaaaaaAaaaaaaaaaaa":3173,"aaaaaaaAaaaAaaa":3174,"aaaaaaaaaAAAAAaaaaaaaaAaaa":3175,"aaaaaaaaaaaAaaaaaaa":3176,"Ġ&);":3177,"..-..":3178,"ĠAaaaaaaaaaaaAaaaaaa":3179,"ĠAaaaaaaaaaaaAa":3180,"AaaAaaaAaaaaAaaa":3181,"AaaaAaaaAAA":3182,"aaaaaaaaaaaaaAaaa":3183,"Ġ:=":3184,"AaaaaAaaaaAaaAaaaaaAaaaaa":3185,"AAaaaAAA":3186,"AaaaaaaaAaaaaaAaa":3187,"AAAaAAAa":3188,"AaaaaAaaaaaAaaaaaaaaa":3189,"AAaaAaaAaaa":3190,"AAAAaaaaaAaaa":3191,"AaaaAaaaaaaAaaaaAaaa":3192,"\"($":3193,"AaaaaAaaaaaaAaaaa":3194,"AaaaAaaaaaaaAaa":3195,"AaaaaaaaAaaaaaaAaaaaAaaa":3196,"AaaaaaAaaaaaaaAaa":3197,"aaaaAaaaaaAaaaaAaaa":3198,"***,":3199,"AaaaaaAaaaaaaaaAaaaaaaa":3200,"aaaaAaaaaAaaaaaaaaa":3201,"AaaaaaaAaAaaAaaaaa":3202,"AaaaAaaAaaaAaa":3203,"AaaaaaaaAaaaaaaaaaAaaaaa":3204,"aaaaAaaAaAaaa":3205,"aaaaAaaaaAaaaaAaAaaaaaaa":3206,"ĠAaaaaAaaaaaaaaAaaaaAaaa":3207,"AaaaaaaAaaaAaaaaaaAaaaaAaaaa":3208,"ĠAaaaaaaaAaaAaaaaaaAaaaaaaa":3209,"aaaaAaaaaAaaaaaaaAaaaaaaAaaaAaaaaaaAaaaaAaaaa":3210,"Ġ______":3211,"Ġ_______":3212,"aaaaAaaaaaAaaAaaaaAaaaaaaaAaaaAaaaAaaaAaaaaa":3213,"Ġ(|).":3214,"aaaaaAaaaaAaaaaAaaaaAaaaaAaaAaaaaaAaaaaa":3215,"______________________________________":3216,"[_].":3217,"!-":3218,"!~":3219,"%),":3220,"(#":3221,")--":3222,"*=":3223,"+...":3224,"/_":3225,">>=":3226,"?(":3227,"]...":3228,"aAaaaA":3229,"~/":3230,"Ġ.,":3231,"Ġ....":3232,"aaAaAaa":3233,"aaaaAaaAa":3234,"aaaaAAAAaaaaa":3235,"AAAaaAa":3236,"ĠAaaaaAaaaAaa":3237,"ĠaaaaAAAAaaaaa":3238,"AaaaAAaaaaa":3239,"AaaaaaAaaaaaaaaaaAaaaaaa":3240,"aaaaaAaAaaaaaa":3241,"aaaaaAaaAaaaaaAaa":3242,"ĠAaaaaaAaaaaAaaaa":3243,"ĠAaaaaaAaaaaaaAaaaaaa":3244,"ĠaaaAaaaAaaa":3245,"AaaaaaaaAaaAaaaa":3246,"AaaaaaaaaAaaaAaaaa":3247,"AaaaaaaaaAaaaaaAaaaaaa":3248,"AaaaaaaaaAaaaaaAaaaaaaa":3249,"ĠAaaaaaaaAaaaaaaAaaaaa":3250,"ĠAAaaaaaaaaaaa":3251,"ĠAaaaaaaaaAAA":3252,"ĠaaaaaaAaaaaaaaaa":3253,"Ġ(;":3254,"Ġ(<":3255,"Ġ(.)":3256,"Ġ(/)":3257,"Ġ([])":3258,"AaaaaaaaaaAaaaaAaaaaaa":3259,"aaaaaaAaAaaa":3260,"ĠAaAaAaaaaa":3261,"ĠaAaAAA":3262,"Ġ-=":3263,"AAAAAAAAaa":3264,"aaaaaaaAaaaaaaaaaaa":3265,"aaaaaaaAaaaaAaaa":3266,"aaaaaaaAaaaaaaaaAaaa":3267,"aaaaaaaaaAaaaaaaaa":3268,"aaaaaaaaaAaaaaaaAaaaa":3269,"aaaaaaaaaaaAaaaa":3270,"aaaaaaaaaaAaa":3271,"...(":3272,"Ġ*_":3273,"Ġ****":3274,"Ġ+)":3275,"AaaAaaaaaAaAaaaa":3276,"AaaaaaAaaaaAaaaaaaaaaaa":3277,"AaaaAaaAA":3278,"AaaaaaAaAaaaaaaaa":3279,"AAAaAaaa":3280,"AaaAaAAAAAAA":3281,"AaaaaAaaaaaaAaaaaAaaa":3282,"AaaaAaaaaaaaAaaaaaaaaa":3283,"AaaaaaaaAaaaaaaAaaaaaaaaa":3284,"AaaAaaaaaaAaaaAaaaaa":3285,"***)":3286,"Ġ~~":3287,"AaAaaaaaaaAaaaaaaaa":3288,"AaaaaAaaaaaaaaAaaaaaaa":3289,"AaaaaaaAaaAaaaaAaaa":3290,"AAaaaaaaAaaaaaaaAaaaaaaa":3291,"AaaaaaaaAaaaaaaaaAaaa":3292,"Ġ].\"":3293,"AaaaaaaaaAaaaaaaAaaaaaaaaa":3294,"aAAaaaaaaAa":3295,"((((":3296,"......................":3297,"aaaaAaaaaAaaaAaaaaaaaa":3298,"Ġ????????":3299,"AaAaAaAaAaAa":3300,"aaaaAaaaaaAaaaaaaAaaaaaa":3301,"??-???-":3302,"aaaaAaaaaaaAaaaaaAaaaaaaaAaaaaa":3303,"ĠAaaaaaAaaAaaaaaaAaaaaAaa":3304,"aaaaAaaaaaaaAaaAaaaaaaaaa":3305,"\"??":3306,"%=":3307,":@":3308,"<<=":3309,"=|":3310,">.":3311,"[\"":3312,"_*,":3313,"aAaaaAaaaaaa":3314,"aAaaaaA":3315,"Ġ);":3316,"aaAaAa":3317,"aaaaAaaaaaaaaaAaaaaaa":3318,"aaaaAaaAaaaaaAaaaa":3319,"AAAaaaaaaaaaaa":3320,"AAAaaAAA":3321,"AAAaaaAaaaaaaAaaaaaa":3322,"aaaAaAaaa":3323,"aaaAaaaaaAaa":3324,"aaaAaaaaaaaAa":3325,"aaaAAaAa":3326,"ĠAaaaaAaA":3327,"ĠaaaaAaaaaaaaaAaaa":3328,"AaaAaaaaaaaaaaAaaaaaaa":3329,"AaaAaaaaaaaaaAaaaa":3330,"AaaAAaaA":3331,"ĠAaaaaaAaaaaaaaaaaa":3332,"ĠAaaaaaAaaaaAaaaaaaaa":3333,"ĠaaaAaAaaaa":3334,"ĠAaaaAaaaaaAaaaaa":3335,"Aaaaaaaaaaaaaaaaaaaaaaaaaaaa":3336,"AaaaaaaaaAaaaaaaAaaaaaaa":3337,"ĠaaaaaaaaAAA":3338,"ĠAAAaaAaaa":3339,"ĠAaaAAa":3340,"ĠAaaAAAaaaa":3341,"ĠAaaaaaaaaAaaaaaaaaaaaa":3342,"Ġ({}":3343,"AaaaaaaaaaAaaaAaaaaaaaa":3344,"aaaaaaAAAA":3345,"aaaaaaAaaaaaaAaaaa":3346,"ĠAaAaaAaaaaa":3347,"ĠaAaaAA":3348,"AAAAAAAAAaaa":3349,"AaAAaaaa":3350,"ĠaaaaaaaaaaAaaaa":3351,"AaaaaaaaaaaAAA":3352,"AaaaaaaaaaaAaaaaAaaa":3353,"AaaaaaaaaaaAaaAaaaaa":3354,"ĠAAAAAAaaaaaaaaa":3355,"aaaaaaaAaaaaaAaaa":3356,"AAAAAAAaaaaa":3357,"AAAAAAAaaaaaa":3358,"AAAAAAaaAaaaaa":3359,"ĠaaaaaaaaaaaaAAAAAAA":3360,"aaaaaaaaaaAAAAAAA":3361,"Ġ/*":3362,"),(":3363,"AaaaAaaaAaaaAaaa":3364,"aaaaaaaaaaaaaAaa":3365,"Ġ+\"":3366,"ĠAaaAaaaAaaaaaaa":3367,"AaAaaaaaAaaaaaaa":3368,"AaAaaaaaAaaaaaaaaa":3369,"aaaaaaaaaaaaaaAaaa":3370,"AaaaaAaaaAA":3371,"AaaaaAaaaAaaAaaaaaaaaAaaaaaaaa":3372,"AAaaaaAA":3373,"AaaAaaaaaAaaaAaaaa":3374,"AaaAaaaaaAaaaaaaaAaaaaaaaa":3375,"AAAAaAa":3376,"Ġ|=":3377,"aaaaaaaaaaaaaaaaaaaaaaaaaaaaaaaaaaa":3378,"AaaaaaaAaaaAaAaaaa":3379,"AaaAaAaaaaaaaa":3380,"AAaaAaaaAaaaaa":3381,"Ġ%?":3382,"Ġ%]":3383,"AaAaaaaaaAaaaaaaa":3384,"ĠAaaaAaaaAaaaaaaaa":3385,"AaaaaaAaaaaaaAaaaaaaAaaaaaAaaaaaa":3386,"AaaaAaaaaaaaAaaaaaaaaaa":3387,"ĠAAaaaaAaaaaaa":3388,"++_":3389,"ĠAAaaaaaAaa":3390,"AaaAaaaaaaaaAaaaaaaa":3391,"AaaAaaaaaaaaAaaaaaaaaa":3392,"AaaAaaaaaaaaAaaaAaaaa":3393,"AaaaaaAaaaAaaaaAaaaa":3394,"Ġ??,":3395,"aaaaAaaaaaaAaaAaaaa":3396,"aaaaAaaaaaaAaaaaAaaaaaaa":3397,"aaaaAaaaaaaAaaaaaaAaaaaaaa":3398,"AAAAaaaaaaAaaa":3399,"AaaaaaaaaaaAaaaaaaAaaaaaaaa":3400,"aaaaaaaaaaaaaaaaaaaaaAA":3401,"Ġ`.":3402,"aaaAaaaaaaaaaAaaaaaaaaAaaa":3403,"aaaAaaaaaaaAAa":3404,"????????????????":3405,"aaaaAaaaaaaaAaaaAaaaaaaa":3406,"################################":3407,"AaaAaaAaAaaAaAa":3408,"......................................................................................":3409,"Ġ({});":3410,"\"&":3411,"#*":3412,"(*":3413,"(...)":3414,"(*)":3415,")),":3416,"-/-":3417,":=":3418,":?":3419,"]/":3420,"]/(":3421,"^=":3422,"_[":3423,"_]":3424,"{.":3425,"}).\"":3426,"}={":3427,"aaAaaAaa":3428,"aaaaAaaAA":3429,"aaaaAaaaAaaaAaaa":3430,"AAAaaaaaaaaaaaa":3431,"AAAaaaaaaaAaaaaaaa":3432,"ĠAaaaaAaaAaaaaa":3433,"AaaaaaAaaaaaaaaaaAaaaa":3434,"AaaaaaAaAaaaAaaaaaaaa":3435,"aaaaaAaaaaaaaaaaa":3436,"aaaaaAaAaaaa":3437,"AaaaaaaAaaaaaAaaaaaaa":3438,"AaaaaaaAAAAaa":3439,"ĠaaaAAAAA":3440,"ĠAaaaAaaAaaaaaaa":3441,"AaaaaaaaAAAAA":3442,"AaaaaaaaAaaaaaaAaaaa":3443,"AaaaaaaaAaaaaaaaaaAaaaaaa":3444,"AaaaaaaaaAaaaAaaaaa":3445,"AaaaaaaaaAaaaaaaaAaaa":3446,"ĠAaaaaaaaAaaaAaaaaaa":3447,"ĠAaaaaaaaaAaaaaaaaaAaa":3448,"Ġ(...\"":3449,"AaaaaaaaaaAaaaaaAaaaaaaaa":3450,"aaaaaaAaaaaaaAaaaAaaa":3451,"ĠAaAaaaaaaaaaaa":3452,"ĠAaAAa":3453,"ĠAaAaAaA":3454,"ĠAaaaaaaaaaAaaaaAaaaaaaaaa":3455,"AAAAAAAAAaaaa":3456,"aaaaaaaAaaaaAaa":3457,"AaaaaaaaaaaaA":3458,"aaaaaaaaaaaAaaaaaa":3459,"Ġ&/":3460,"Ġ[])\"":3461,"AaaaaaaaaaaaaaAaaaa":3462,"AaaaaaaaaaaaaaAaaaaa":3463,"AaaAaaaAaaaaaaaaaa":3464,"AaaaAaaaAaaaaaaAaaa":3465,"AaaaAaaaAaaaaaAaaaaaaaa":3466,"AaaAaaAaaaaaAaaaaaaaa":3467,"Ġ+=":3468,"AaAaaaAaaaaaaaaa":3469,"AaAaaaAaaaaaaaaAaaa":3470,"AAaAAaaaaaaa":3471,"AaAaAaaaaaa":3472,"AaaaAaaaaAaaaaaaaaAaaaaaa":3473,"))]":3474,"AaaAaaaaaAa":3475,"AaaAaaaaaAaaaaaaaaaa":3476,"AaaaaAaaaaAaaaaaaaaaa":3477,"ĠAAaAaaa":3478,"AaaaaaAaaaaAaaaaaaAaaa":3479,"Ġ.*":3480,"Ġ.}":3481,"Ġ@>":3482,"AaaaaAaaAA":3483,"aaaaaaaaaaaaaaaaAa":3484,"AAaaAaAa":3485,"ĠAaaAaaaaaAaaaaaaaa":3486,"ĠAAaaaAaaaaaaaa":3487,"AaAaaaaaaAaaaaa":3488,"AAAaaaAaaaaaaaaa":3489,"AAAaaaAa":3490,"AaaaaaaAaaaaAaaaaaaaaa":3491,"AaaAaaaaaaAaaaaaaaa":3492,"aaaaAaaaaaAaaaAaaa":3493,"AAAAaaAaa":3494,"AAAAaaAaaaaa":3495,"+++":3496,"ĠAaaaaaAaaaAaaaaaaaa":3497,"AaaaaAaaaaaaaaAaaaa":3498,".:.":3499,"ĠAaaaaaaAaaaaaaAaaaaaaaa":3500,"AAAAaaaAaa":3501,"AAAAaaaAaaaaa":3502,"AaaaaaAaaaaaaaaaAaaaaaaaa":3503,"Ġ??\"":3504,"aAAAaAA":3505,"AAAAaaaaAaaaaaa":3506,"AAAAAAAAAAAAAAAAAAAAAAAA":3507,"AaaAaaaAaaaAaaaAA":3508,"AaaaAaaaaaaaaaAaaaaa":3509,"AaaaaaaAaaaaaaaaaAaaaaaaaa":3510,"AAaaaaaaaaAaaaAaaaaaaa":3511,"AaAAaAa":3512,"ĠaAAAaAA":3513,"Ġ(??);":3514,"ĠAaAaaaaaaaaaAaaaaaAaaaaaa":3515,"AaaaaAaAaaaaAaa":3516,"AaaaaaAaaAaaaaaaAaaaaAaa":3517,">)>).)\"":3518,"aaaaAaaAaaAaaaaaaaa":3519,"000000000000000000000000":3520,"AaaaaAaaaAaaaaaaAaaaaaaaaaAA":3521,"ĠaaaaaAaaaaaAaaaaaAaaaAaaaaaaa":3522,"Ġ*^#\"":3523,"ĠAaaAAAaaaaAAAA":3524,"AAaaAaaaAaaaaaAaaaaAaaaa":3525,"]/([":3526,"&=":3527,"(-)":3528,").;":3529,"+:":3530,"+?":3531,"++**":3532,"-;":3533,"-??":3534,"/)\"":3535,":,":3536,":?,":3537,"=#":3538,">.\"":3539,"@@":3540,"].....":3541,"^^\"":3542,"aAaAaaa":3543,"aAaAaaaa":3544,"aAaaaaAaaa":3545,"}\\":3546,"~=":3547,"Ġ).\"":3548,"aaAaaAaaaa":3549,"aaAaaaaAaaaaa":3550,"aaaaAaaaAaa":3551,"aaaaAaaaaaaaaAaaaaaaa":3552,"aaaaAaaaaaAaaaaaAaaaaaa":3553,"AAAaaAaaaa":3554,"AAAaaaaaAaaaaaaa":3555,"AaaaaAaAa":3556,"AaaaaAaaaaaaAaaaaaaa":3557,"AaaaaAaaaaaaaaaaAaaa":3558,"aaaAaAaa":3559,"aaaAaaaaaaAaaaaaaa":3560,"aaaAaaaAaaaaaaa":3561,"aaaAaaaAa":3562,"ĠAaaaaAaaaaAaaaa":3563,"ĠAaaaaAaaaaaaAaaa":3564,"ĠAaaaaAaaaAaaaaaa":3565,"ĠaaaaAaaaaaaaaaaa":3566,"AaaaAAAAAAAAAA":3567,"AaaaaaAAAAAAA":3568,"aaaaaAaaaaaAaaa":3569,"ĠAaaaaaAaaAaaaaa":3570,"ĠAaaaaaAaaaaAaaaaa":3571,"ĠAaaaaaAaaaaaaaaaaaAaaaaaa":3572,"AaaaaaaAaAaa":3573,"AaaaaaaAaaaaaAa":3574,"AaaaaaaAaaaaaaAaaaaaaa":3575,"AaaaaaaAaaaaaaaaAaaa":3576,"ĠaaaAaaaAa":3577,"ĠaaaAaaaaaaaaAaAaaa":3578,"ĠAaaaaaaAAAAA":3579,"ĠAaaaaaaAaaaaaaAaaaaaAaaaaaaaaa":3580,"ĠAaaaAaaaaaaaA":3581,"ĠAaaaAaaAaaAaaAaa":3582,"AaaaaaaaAaaaAaaaaaa":3583,"AaaaaaaaaAaaaaaAaaaaa":3584,"ĠAaaaaaaaAaaaaAaaa":3585,"ĠAaaaaaaaAaaaaaAaaa":3586,"ĠAaaaaaaaAaaaAaaaaaaaa":3587,"ĠAaaAaAaaaaa":3588,"ĠAaaAaaaaaaaAaaaaaaa":3589,"ĠAaaAAaA":3590,"ĠAaaAaaaaaaaaaaAaaaaaa":3591,"ĠaaaaaaAaaaaaaaa":3592,"aaaaaaAaaaaaAaaaa":3593,"aaaaaaAaaaaaaaAaaa":3594,"aaaaaaAaaaaaAaaaaaa":3595,"aaaaaaAaaaaaaAaa":3596,"aaaaaaAaaaAaaaaaaaaa":3597,"aaaaaaaaAaaaaAaaaaAaaaa":3598,"Ġ-,":3599,"ĠAaaaaaaaaaAaaaaaAaaa":3600,"AAAAAAAAaaaaaa":3601,"AaAaAaaaAa":3602,"AaaaaaaaaaaAA":3603,"AaaaaaaaaaaAaaaaaAaaa":3604,"AaaaaaaaaaaAaaaaaaAaaa":3605,"AaaaaaaaaaaAaaaaaaAaaaaaa":3606,"AaaaaaaaaaaAaaaaaAaaaaaaa":3607,"ĠAAAAAAaa":3608,"ĠAAAAAAaaaaa":3609,"aaaaaaaAaaaaaaaAaa":3610,"ĠaaaaaaaaaaaAaaaaaa":3611,"AAAAAAAaaaaaaAaaaaAaaaaaaaa":3612,"ĠAaaaaaaaaaaAaaaaaaa":3613,"ĠAaaaaaaaaaaAaaaaaAaaaaaa":3614,"Ġ&=":3615,"..)":3616,"Ġ[?]":3617,"Ġ#\"":3618,"ĠaaaaaaaaaaaaaaAaaAaaa":3619,"AaaAaaaAaaaaaAaaaa":3620,"AaaAaaAaAaaa":3621,"Ġ+(":3622,"Ġ++":3623,"AAaAaaaaaaaaa":3624,"AAaAAaa":3625,"AAaAAaA":3626,"AaAaaaaAaaaaaaaaa":3627,"AaaaAaaaaAaaaaaaaaaa":3628,"AaaaAaaaaAaaaaAaaaaa":3629,"AaaaaaAaaaAaaaaaaAaaaaAaaa":3630,"AAaaaaAaaaaAaAaaa":3631,"AaaaaAaaaaAA":3632,"AaaaaaAaaaaAa":3633,"AAaaaAaaaAaaa":3634,"AaaaAaaAaaaaaaaaa":3635,"AaaaaaAaAaaaaaaa":3636,"Ġ@:":3637,"AaaaaAaaAaaaaaaaa":3638,"AaaaaAaaAaaaaaaaaa":3639,"aaaaaaaaaaaaaaaaAA":3640,"AaaaaaaAaaaAaaaaaaAaaaaa":3641,"AAAaAAAA":3642,"AaaaaaaaAaaaAA":3643,"Ġ%=":3644,"ĠAAaaaAaAaaa":3645,"AaAaaaaaaAaaaaaa":3646,"Ġ...)":3647,"AaaaaaAaaaaaaAaa":3648,"AaaaaaAaaaaaaAaaaaaAaaa":3649,"(+)-":3650,"AaaaaAaaaaaaAaaaaaAaa":3651,"aaaaaaaaaaaaaaaaaAaaAaaa":3652,"AaaAAaAaa":3653,"AAaaaaaAaaaAaaaaaaaaa":3654,"ĠAAAaaaAaaaaaaaaa":3655,"Ġ--,":3656,"ĠAAaaAaaa":3657,"ĠAAaaAaaaaaa":3658,"Ġ_,":3659,"Ġ_)\"":3660,"aaaaAaaaaAaAaaaa":3661,"AAaaaaaaAaaaaaaaa":3662,"????,":3663,"AaaaaaAaaaAaaaAaaaaa":3664,"aaaaAaaaaaaAaaaaaAaaaaa":3665,"ĠAAAAAAAAAAAAAAAAAAAAAAAAAA":3666,"aaaaAaaAaaaaaaaAaaa":3667,"AaaaAaaaaaaaaaAaaaaaaaa":3668,"aaaaaaAaaaAaAaaaaAaaaa":3669,"aaaaaaAaaaaaAaAaaaaAaaaa":3670,"AaAAaAA":3671,"AaaAaaAaaaAaaaaAaaaa":3672,"AaaaaAAAAAaaaaaaa":3673,"aaaaAaaaaaaaaaAaaaaaaaAaaaAaaaaaaaa":3674,"AaaAaaaaAaaaAaaaaaa":3675,"AaAaaaAaAaaAaaaaaAaaaa":3676,"[[:":3677,"aaaaAaaaaAaaaaAaaaAaaaaAaaa":3678,":-:":3679,"aaaaaaAaaaaaaAaaaaaAaaa":3680,"aaaAaaaaaaaaaAaaaaAaaaa":3681,"ĠAaaaaaaAaaaaaaaaaaAaaAaaAaa":3682,"-----------":3683,"AaaaaaaAaaaaAaaaaAaAaaaa":3684,"AaaaaaaaAaaaaaaaaaaAaaaaaAaaaa":3685,"AaaaaaAaaaaaaAaaaAAaaaaAaaaaAaAaaa":3686,".........":3687,"AaAAaaaA":3688,"aaaaAaaaaAaaaaaAaaaaaaAaaaaaa":3689,"aaaaAaaaaaAaaaaaaaaaAaAaaaAaAaaAaaaaaAaaaa":3690,"aaaaAaaAaaAaaaaAaaaaaa":3691,"ĠaaaAaaaaaaaaAaaaaaaAaaa":3692,"aaaaAaaAaaaaAaaAaaaaaaa":3693,"aaaaaaAaaaaAaaaaaaAaaaAaaaaAaaaa":3694,"aaaaaaAaaaaAaaaaaaAaaAaaAaaaAaaaaAaaaa":3695,"~*~*~*~*":3696,"aaaaAaaaaaAaaaaaAaaaAaaAaaaa":3697,"ĠaaaAaaaAaaAaaaaaaaa":3698,"ĠaaaAaaaAaaAaaaaaaaaAaaaAaaa":3699,"AAAaAAaaAAaa":3700,"ĠAaaaaaAaaaaaaaAaaaaaaaaAAaaa":3701,"aaaaAaaAaaaaaaaaAaaaaaAaaaAaaAaAaaAaaaa":3702,"aaaaAaaaaAaaaAaaaaaAAAAaaaaaAaaaaaAaaAaaaaa":3703,"[^[:":3704,"aaaaaaaAaaaaaaaaaaaAaaaaAaaaa":3705,")}":3706,")---":3707,"-????":3708,"/=":3709,":|":3710,"<@":3711,"=#,":3712,"?):":3713,"@.":3714,"[*]":3715,"}<":3716,"})\"":3717,"Ġ___":3718,"aaAaaAaaaaaaa":3719,"aaaaAaaaaaaaaaaa":3720,"aaaaAaaaaaaaaaaAaaaaaaa":3721,"aaaaAaaaaaaaAa":3722,"aaaaAaaaaAaaaaaaAaaaaa":3723,"AAaaaaaaaaaaaaaa":3724,"AaaaaAaAA":3725,"aaaAAAAAA":3726,"aaaAaaaaaaAaaaaa":3727,"ĠAaaaaAaaaaAaa":3728,"ĠaaaaAaaaaaaaa":3729,"AaaAaaAaaaAaaa":3730,"AaaaAAAAA":3731,"aaaaaAaaaaAaaaaa":3732,"ĠAaaaaaAaaaaaAaaaa":3733,"ĠAaaaaaAaaaAaa":3734,"ĠAaaaaaAaAaaaAaaaaaaaa":3735,"AaaaaaaAaaaaaaaaaaaa":3736,"ĠAaaaaaaAaaaaaaaAaaaaaaaa":3737,"ĠAaaaaaaAaAaaaaaaaa":3738,"ĠAaaaaaaAaaaaaaaaAaaaaaaaa":3739,"ĠAaaaAaaaaaaaaaaa":3740,"ĠAaaaAaaaA":3741,"AaaaaaaaAaAaaa":3742,"AaaaaaaaAaaaaaaAaaaaaaa":3743,"ĠAAAAaaaaaAaaa":3744,"ĠAaaaaaaaAaaaaaAaaaa":3745,"ĠAaaaaaaaAaaAaaaaaa":3746,"ĠAaaaaaaaaaaaaaaaaaaaaaaaaaa":3747,"ĠaaaaaaaAA":3748,"ĠaaaaaaaaaAaaaaa":3749,"ĠaaaaaaaaaAaaaaaaaaa":3750,"aaaaaaAaaaaaaaaaa":3751,"aaaaaaAaaAaaa":3752,"aaaaaaAaaAaaaaaa":3753,"aaaaaaAaaaaaaaaAaaa":3754,"aaaaaaAaaaaAaaaaaaaaa":3755,"AAAAAAAAAaA":3756,"AAAAAAAAAAAAAAAAAAAAAAA":3757,"AaAaaaaaaaAaaaaaaa":3758,"ĠaaaaaaaaaaAaaaaa":3759,"AaaaaaaaaaaAaaaaaaAaaaaaaa":3760,"aaaaaaaAAA":3761,"aaaaaaaAaaaaaAaa":3762,"ĠAaaaaaaaaaaAAAA":3763,"AaaaaaaaaaaaAaaaAaaaaa":3764,"Ġ&#":3765,"Ġ/...":3766,").[":3767,"Ġ*=":3768,"AaaAaaaAaaaAaaaaa":3769,"AaaAaaaAaaaaaAaaaaa":3770,"AaaaAaaaAaaaaaaaaaaaa":3771,"AaaaAaaaAaaaaaaaAaaa":3772,"AaAaaaAaaaaaaa":3773,"AAaAaaaaaa":3774,"AAaAaAaaaaa":3775,"ĠAaAaaaaAaaa":3776,"AaAaAaAaaAa":3777,"AaaaAaaaaAaAaaa":3778,"AaaaAaaaaAaaAaaaaa":3779,"AaaaaAaaaAaAa":3780,"))))":3781,"AaaaaaAaaaAaaaaaAaaa":3782,"AAaaaaAaaa":3783,"AAaaaaAaaaaaA":3784,"AaaAaaaaaA":3785,"AaaAaaaaaAaaaaaAaaaaaa":3786,"ĠAaaaAaaaaAaaaaaaaa":3787,"AaaaAaaaaaAaaaaaaAaaaaaa":3788,"aaaaaaaaaaaaaaaAa":3789,"AaaaAaaAaaaaaAaaa":3790,"AaaaaaAaaAa":3791,"AAAaAaa":3792,"AaaAaAaaAaaa":3793,"AAaaAaaAaa":3794,"AaaaaAaaaaaaAaaaaaaaa":3795,"AaaaaaaaAaaaaaaAaaaaAaaaa":3796,"AaaAAaaaaaaaaa":3797,"aAAAaAa":3798,"ĠAAaaAaaaAaaaa":3799,"AaaaaAaaaaaaaaAaa":3800,"AaaaaAaaaaaaaaAaaaaa":3801,"AAAaaaaaAA":3802,"AAAAaaaAaaaa":3803,"AaaaAaaaaaaaaAaaaaaaa":3804,"=======":3805,"AAAAaaaaaaaAaaa":3806,"Ġ<@":3807,"}}}":3808,"?????????":3809,"AaaaaaaaaaAaaaaAaaaaaaaaa":3810,"AaaaaaAaaaaaaaaaAaaaaaAaaa":3811,"aaaAaaaaAaaaaaaaaa":3812,"AaaaaAaaaaaaaaaAaa":3813,"-[[(":3814,"aaaaAaaaaaaAaaaaaaaaAaaa":3815,"aaaaAaaAaAaaaAaaaaaa":3816,"Ġ(>=":3817,"aaaaAaaaaaaaAaaaAaaaaaa":3818,"aAaAaAaAa":3819,"AaaaaaaAaaaaAaaaAaaaaaaAaaaaaa":3820,"AaaAaaaaAaaaAaaaaaaa":3821,"aAAaAa":3822,")[/":3823,"aaaaAaaaaaaaaaaaaaAaaaaaa":3824,"aaAAAAAaa":3825,"-{[(":3826,"!).":3827,"\".,":3828,"\"+,":3829,"%...":3830,"+=":3831,",/":3832,".].":3833,"/{":3834,"/???":3835,"/*.":3836,";.":3837,"=~":3838,"=??":3839,"?*":3840,"@>":3841,"[.\"":3842,"]--":3843,"_#":3844,"aAaaaaAaaaaa":3845,"aaAaaAa":3846,"aaAaAA":3847,"aaAAaA":3848,"aaAaaaaaAaaaAaaaAaaaaa":3849,"aaaaAaaaaaaaaAa":3850,"aaaaAaaaaaaaaAaaaa":3851,"aaaaAAAAaaaa":3852,"aaaaAaaaaaaaaaaAaaaAaaa":3853,"aaaaAaAaaaAaaa":3854,"aaaaAaaaaaAaaaaaAaaaaa":3855,"AAAaaaaA":3856,"AAAaaaaaaAaaaaa":3857,"AAAaaaaaaaAaa":3858,"AaaaaAaaaaaaaaaaaaAaaaaaaa":3859,"aaaAaAa":3860,"aaaAaaaaAaaaaaaa":3861,"ĠaaaaAaaAa":3862,"AAAAAaaaaaAaaaaa":3863,"AaaAaaaaaaaaaaaaAaaa":3864,"AaaaAaAA":3865,"AaaaaaAAaaaa":3866,"AaaaaaAaaaaaaaaaaAaaa":3867,"AaaaaaAaAaaAaaaa":3868,"aaaaaAaaaaaaAaaaAaaaaaa":3869,"aaaaaAaaaaAaaaaAaaaaaa":3870,"ĠAaaaaaAaaAaaaaaaa":3871,"AaaaaaaAaaaaaaaaaaaaa":3872,"AaaaaaaAaaaaaaaaaAaaa":3873,"ĠaaAAAAA":3874,"ĠaaAaaaaAaaaaaa":3875,"ĠAaaaaaaAaaaaaaAaaaaaaa":3876,"ĠAaaaaaaAaaaaaaaaaAaaa":3877,"ĠAaaaAaaA":3878,"ĠAaaaAaaaaaaaaAaaaaaa":3879,"ĠAaaaAaaaaaaaaaaaAaaaaa":3880,"AaaaaaaaAaaAaa":3881,"AaaaaaaaAaaaaaaaAaaa":3882,"AaaaaaaaAaaaaAaaaaaaa":3883,"AaaaaaaaAaaaaaaaaaaAaaaaaaaa":3884,"AaaaaaaaAaAaaaaAaaaaaaaa":3885,"AaaaaaaaaAaAaa":3886,"AaaaaaaaaAaaaaaaAaaaaaa":3887,"AaaaaaaaaAaaaAaaaaAaaaaaaa":3888,"ĠAAAAaaAaaaaa":3889,"ĠAAAAAaaaAaaaaaAaaaaaa":3890,"ĠAaaaaaaaAaaaaaaaaaaa":3891,"ĠAaaaaaaaAaaaaaAaaaaaa":3892,"ĠAaaaaaaaAaaaaaaAaaaaaaa":3893,"ĠAaaaaaaaAaaaaAaaaaaaaaa":3894,"ĠAaaaaaaaAaaaaaaaaaaAaaaaa":3895,"ĠAAAaaaaaAaaa":3896,"ĠAaaAaAa":3897,"ĠAaaaaaaaaAaaaaAaaa":3898,"ĠAaaaaaaaaAaaaaaaAaaaaaaaAaaaaaaa":3899,"ĠAaaaaaaaaAaaAaaaaaaaaaAaaaaaaaa":3900,"AaaaaaaaaaAaAaaaaa":3901,"aaaaaaAaaAaa":3902,"aaaaaaAaAaa":3903,"aaaaaaAaaaaaaAaaaaaaa":3904,"aaaaaaAaaAaaaaaaaa":3905,"ĠAaAAAAAAAA":3906,"ĠaAAAAAAAA":3907,"ĠaAaAa":3908,"ĠaAAaa":3909,"ĠaAaAA":3910,"ĠAaaaaaaaaaAA":3911,"ĠAaaaaaaaaaAaaaaA":3912,"ĠAaaaaaaaaaAaaaaAa":3913,"AaAaaaaaaaAaaaaa":3914,"AaAaaaaaaaaAaaa":3915,"ĠaaaaaaaaaaAAA":3916,"AaaaaaaaaaaAaaaAaaaa":3917,"AaaaaaaaaaaAaaaaaaAaaaa":3918,"AaaaaaaaaaaAaaaAaaaaaaaa":3919,"aaaaaaaAaaaAaaaa":3920,"aaaaaaaAaaaaAaaaaaaa":3921,"ĠaaaaaaaaaaaAAAAAAA":3922,"ĠaaaaaaaaaaaAaaAaaa":3923,"AaaaaaaaaaaaAaaaAaaa":3924,"..;":3925,"Ġ0000000000000000000":3926,"aaaaaaaaaaAAA":3927,").*":3928,"AaaaaaaaaaaaaaAaaAaaa":3929,"Ġ*/":3930,"Ġ#.":3931,"AaaAaaaAaaaaAaaaa":3932,"AaaAaaaAaaaAaaaaaa":3933,"AaaaAaaaAaaaaAaa":3934,"aaaaaaaaaaaaaAaaAaaa":3935,"AaAaaaAaaaaAaaa":3936,"AaAaaaaAaaaaaaa":3937,"ĠaaaaaaaaaaaaaaaAa":3938,"Ġ$_":3939,"AaaaaaaaaaaaaaaAaaaaaaa":3940,"AaaaaaaaaaaaaaaAaaaaaaaa":3941,"AaaaaAaaaAAAaaa":3942,"AaaaaaAaaaAaaaaaaAaaaaAaaaaaa":3943,"ĠAAAaAaaaa":3944,"ĠAAAaAaaaaaaa":3945,"ĠAaaaAaaaaAaaaaaa":3946,"AaaaaAaaaaAAA":3947,"AaaaaAaaaaAaaaaaaaaaaa":3948,"AaaaaAaaaaAaaaAaaaa":3949,"AaaaaAaaaaAaaaaaA":3950,"AaaaaAaaaaAaaaaAa":3951,"ĠAAaAaaaa":3952,"\"-$":3953,"AAAAaAA":3954,"AaaaaaAaaaaAaaaAaaaa":3955,"AAaaaAaaaaaaaaa":3956,"AAaaaAaaaaaaaAaaaaaaa":3957,"00000000000000000":3958,"AaaAaaaaAaaAaaa":3959,")::":3960,"AaaaaaaaAaaaaaAaaaAaaaa":3961,"AaaaAaaAaaaaaaaa":3962,"Ġ./":3963,"AaaaaaAaAA":3964,"AaaaaaAaaAAAaaa":3965,"AaaaaaAaaAaaaaaaAaaaa":3966,"Ġaaaaaaaaaaaaaaaaaaaaaaaaaaaaa":3967,"AaaAaAA":3968,"AaaAaAaaaaaaa":3969,"AaaaaAaaaaaAaaaaAaaa":3970,"AaaaAaaaaaaAaaaaaaaAaaaaaaaa":3971,"AaAaaaaaaAaaaaaaaaa":3972,"Ġ?/":3973,"Ġ?]":3974,"Ġ?)\"":3975,"Ġ?[?]":3976,"()),":3977,"Ġ)*":3978,".-.":3979,"AaaaaaaAaaaaaaAaa":3980,"AaaaaaaAaaaaaaAaaaaaAaaaaAaaaaaaAaaa":3981,"AaaAaaaaaaAaaaaAaaaa":3982,"ĠAaaaaAaaAaaaaAaaa":3983,"AaaAAAaaaa":3984,"AAaaaaaAAaaa":3985,"_______":3986,"AaaAaaaaaaaAaaaaaaaaaa":3987,"AaaAaaaaaaaAaaaaAaaaa":3988,"AAAaaaaaAaaaaaaaaa":3989,"ĠAaaaAAaaaaaa":3990,"AaaAaaaaaaaaAaaaAaaaaaaa":3991,"AaaaaAaAaaaAaaa":3992,"aAaaAaA":3993,"AaaaaaAaaaaaaaaAaa":3994,"AaaaaaAaaaaaaaaAaaaaAaaa":3995,"aaaaAaaaaAaaaaaaaaaa":3996,"aaaaAaaaaAAAAAAAAAAA":3997,"AAAAaaaAAA":3998,"AAAAaaaAaaaAaaaAaaaaaAaaaaaaaa":3999,"AaaaAaaaaaaaaAaaaaaaaaaa":4000,"ĠAAAAaaaAaaaaaaAaaa":4001,"AAaaaaaaAaaaAaaaaaa":4002,"AaaaaaAaaaAaaaaAaaa":4003,"AaaaaaaaAaaaAaaaAaaaa":4004,"AaaaaaaaAaaaAaaaAaaaaaAaaaAaaaaaaAaaaaAaaaaaa":4005,"Ġ],":4006,"ĠAAaaaaaaAaaaaaaaAaaaaaaa":4007,"Ġ(?),":4008,"AaaaaaaaaAaaaaaAaaAaa":4009,"[?])":4010,"aaaaAaaaaaaAaaAaaaaaa":4011,"AaaaaaaAaaaAaaaAaaaaaaAaaaAaaaaaa":4012,"AaaaaaaaAaaaaaaaaaAaaaaaaaa":4013,"aaaaAaaAaAaa":4014,"aaaaAaaaaaaaAaaaaaaaaaaAaaaaaa":4015,"aaaaAaaaaaaaaAaaaaaaaaa":4016,"aaaaAaaaaaaaaAaaaaaaaAaaaaaa":4017,"AaaaaaaaaaAaaaaaaaaAaaaaaaaaa":4018,"aaaaaaaAaaaaAaAaaaaa":4019,"aaaaAaaaaAaaaaAaAaaa":4020,"aaaaAaaaaAaaaaAaaaaaAaaaaaa":4021,"Ġ>=,":4022,"aaaaAaaaaaAaaaAaaaaaAaaaaaaa":4023,"aaaaAaaaAaaaAaaaaaaa":4024,"AaaAaAaaaAaaaa":4025,"AaaAaAaaaAaaaaa":4026,"ĠAaaaaaAaaaaaaaaAaaaAaaaAaaaaa":4027,"AaaaaaaAaaaaAaaaaAa":4028,"*#*#":4029,"AaaaaaAaaaaaaAaaaAaaaaaaAaaaaaaAaaaaaAaaaaAaaaaaaAaaa":4030,"aaaaAaaaaaaaaaaaaaAaaaaa":4031,"aaaaAaaaaaaaaaaaaaAaaaAa":4032,"ĠAaaaaaAaAAAAaaaAaaaaaa":4033,"aaaaAaaaaaaaAaaaAaaaaaaaAaaaAaaaAaaaaaAaaaAaaaaaaAaaaaAaaaaaa":4034,"AAaaaaaaaaaaAaaaaaaa":4035,"aaaaAaaaaaaAaaaAaaaAaaaaaaAaaaAaaaaaa":4036,"aaaaAaaaaaaAaaaAaaaAaaaaaaAaaaaAaaaAaaaaaa":4037,"aaaaAaaaaaaAaaaAaaaAaaaaaAaaaAaaaaaaAaaaaAaaa":4038,"aaaaAaaaaaaAaaaaaaaAaaaaaaAaaaAaaaAaaaaaaAaaaAaaaaaa":4039,"aaaaAaaaaaaAaaaaAaaaAaaaAaaaaaaAaaaAaaaaaa":4040,"aaaaAaaaaaaAaaaaAaaaAaaaAaaaaaaAaaaaAaaaAaaaaaa":4041,"aaaaAaaaaaaAaaaaAaaaAaaaAaaaaaAaaaaaaAaaaAaaaaaaAaaaaaaAaaaaaAaaaaAaaaaaaAaaa":4042,"aaaaAaaaaaaAaaAaaaaaaAaaaaaaa":4043,"aaaaAaaaaAaaaaaAaaaaAaAaaaaaa":4044,"aaaaAaaaaAaaaaaAaaaaaaaaAaaaaAaAaa":4045,"aaaaAaaaaaaaAaaaaAaaaAaaaaaaAaaaaAaaaaaaaAaaaAaaaaaAaaaaaaAaaaAaaaaaaAaaaaa":4046,"ĠAaaaaAaaaAaaAaaaaaaaaAaaaaaaaa":4047,"aaaaAaaaaaaaAaaaAaaaaaaAaaaaaaAaaaaAaaaAaaaaaaAaaaaaa":4048,"ĠAAAAAaaaAaaaaaAaaaaaaAAaaa":4049,"aaaaAaaaaaaaAaaaAaaaaaaaAaaaAaaaAaaaaaAaaaAaaaaaaAaaaaAaaaaaaAaAaaa":4050,"aaaaAaaaaaaAaaaAaaaAaaaaaAaaaAaaaaaaAaaaaAaaaAaaaaaAaaAaaa":4051,"\"_____":4052,",:":4053,"-?]\"":4054,"/-)":4055,"::(":4056,";[":4057,"<$":4058,"=?":4059,">)\"":4060,"?|":4061,"]_":4062,"]::":4063,"]-\"":4064,"aAaaaaaaaaaa":4065,"aAAAAAAAAAA":4066,"aAaaAaaaa":4067,"aAAAaaa":4068,"}.\"":4069,"~).":4070,"Ġ____________________________":4071,"aaAaaaAaaa":4072,"aaAaaaaAaaaa":4073,"aaAaaaaaAaaaAaaaa":4074,"aaAaAAa":4075,"aaaaAaAa":4076,"aaaaAAaa":4077,"aaaaAaaaaaaaaaaAaaaaaa":4078,"aaaaAaaAaaaAaaaaaa":4079,"aaaaAaAaaaaaAaaa":4080,"AAAaaaA":4081,"AAAaaaaaaAaaaaaa":4082,"AaaaaAaaaaaAa":4083,"aaaAaaaaaAaaaa":4084,"aaaAaaaaAaa":4085,"aaaAaaaaAaaaaa":4086,"aaaAaaaaaaAaaaaaa":4087,"aaaAAAaaa":4088,"aaaAaaaaaaAaaaa":4089,"aaaAaaaAaaaaaaaa":4090,"aaaAaaaaaaaAaaaaaaaaa":4091,"ĠAaaaaAaaaaAaaa":4092,"ĠAaaaaAaaaaaAaaaa":4093,"ĠAaaaaAaaaaaaaAaaaaa":4094,"ĠAaaaaAaaaaaaaaaAaaaaaa":4095,"ĠaaaaAaaaaaAaaaa":4096,"ĠaaaaAaaaaaAaaaaa":4097,"ĠaaaaAaaaaAa":4098,"ĠaaaaAaaaaAaaaaaaaaa":4099,"AAAAAaaaaaaaaaaa":4100,"AAAAAaaaAaaaa":4101,"AAAAAaaAaaaaa":4102,"AaaAaAaA":4103,"AaaaAaaaaaaaaaaaaa":4104,"AaaaaaAaaaaaaaaaAaaaaaa":4105,"AaaaaaAaaAaaaaaAaaaa":4106,"aaaaaAaaaaAaaa":4107,"ĠAaaaaaAaaaaaaaaaAaaaaaaaa":4108,"AaaaaaaAaaaaaaaAaaaa":4109,"AaaaaaaAaaaaaaaaaaAa":4110,"AaaaaaaAaAaaaaAaaaa":4111,"ĠaaAAAAAAAA":4112,"ĠAaaaaaaAaaaaaaaaaaaa":4113,"ĠAaaaaaaAaaaaaaaAaaa":4114,"ĠAaaaAaaaaaaaaAaa":4115,"ĠAAAAAaaaaaaaaaa":4116,"ĠAAAAaaaaAaaa":4117,"ĠaaaaaAAAa":4118,"ĠAaaaaaaaAa":4119,"ĠAAAaaAA":4120,"ĠaaaaaaaAaaaaaaaa":4121,"Ġ(!":4122,"Ġ(),":4123,"Ġ(_)":4124,"ĠaaaaaaaaaAaa":4125,"AaaaaaaaaaAaaaaaaaaaaa":4126,"aaaaaaAAAAAAA":4127,"aaaaaaAaAaaaaa":4128,"aaaaaaAaaAaaaaa":4129,"aaaaaaAaaaaAaa":4130,"aaaaaaAaAaaaaaaa":4131,"ĠAAAAAAAAa":4132,"ĠAaAaAaaaa":4133,"ĠAaAaAaa":4134,"aaaaaaaaAaaaaaaaaaAAA":4135,"Ġ-(":4136,"AaAaaaaaaaaaaaaaa":4137,"AaAAAAaaa":4138,"aaaaaaaAaAaaa":4139,"aaaaaaaaaaaAaaaaaaaa":4140,"...,":4141,"Ġ00000000000000000000":4142,"ĠAaaaaaaaaaaaAaaaaaaaa":4143,"aaaaaaaaaaAaaaaaa":4144,"aaaaaaaaaaAaaaAaaaaaa":4145,"Ġ/=":4146,"Ġ[#":4147,"Ġ[?":4148,"aaaaaaaaaaaaAaaAaaa":4149,"AaaAaaaAaAaaa":4150,"AaaaAaaaAaaAaaaaa":4151,"AaaaAaaaAaaaaAaaaa":4152,"AaAaaaAaaaaaaAaaaaaaaa":4153,"AAaAaaaaaaaa":4154,"AAaAaAAa":4155,"ĠAaAaaaAaa":4156,"AaaaAaaaaAaaaaaAaaaa":4157,"AaaaAaaaaAaAaa":4158,"AaAaaaaaAaaaAaa":4159,"AaaaaaAaaaAaaaaaaaAaaaaa":4160,"ĠAAAaAaaaaaa":4161,"AaaAaaaaaAaaAaaaaa":4162,"AaaAaaaaaAaaaaaAaaaaaaa":4163,"ĠAAaAa":4164,"ĠAAaAAAAA":4165,"AaaaAaaaaaAaaaaAaaa":4166,"AaaaAaaaaaAaaaaaAaaaaaaa":4167,"AAAAaAaaAaa":4168,"AaAaaAaAaa":4169,"AAaaaAaaa":4170,"AAaaaAaaaaaaaa":4171,"aAaAAA":4172,"AaaAaaaaAaaAaaaa":4173,"AaaAaaaaAaaaaaAaaaaaaaa":4174,"AaaaaaAaAAA":4175,"AaaaaaAaAaaAaaa":4176,"AaaaaAaaAaaaaAaaa":4177,"AaaaaaaAaaaAa":4178,"AaaaaaaAaaaAaaaaaaaaaa":4179,"Ġaaaaaaaaaaaaaaaaaaaaaaaaaaa":4180,"AAaaAaaaaaaaaa":4181,"AaaaAaaaaaaAaa":4182,"AaaaAaaaaaaAaaaaaAaaa":4183,"AaaaaaaaAaaaAaaaaaaa":4184,"ĠAaaAaaaaaAaaaaaaaaa":4185,"ĠAAaaaAaaaaaa":4186,"AaAaaaaaaAaaaaaaaa":4187,"Ġ?*":4188,".-$":4189,"AaaaaAaaaaaaAaaaaaaaaa":4190,"AaaaAaaaaaaaAaaaAaaa":4191,"aaAAAaa":4192,"aAAAaa":4193,"AaaaaaaaAaaAaaaaaa":4194,"AaaAaaaaaaAaaaaaaaaaa":4195,"ĠAaaAaAaaaaaaaaa":4196,"aaaaAaaaaaAaaaaaaaaAaaaa":4197,"AAAAaaAAA":4198,"AAaaaaaA":4199,"aAaaaaAA":4200,"AaaAaaaAaaaAAAAA":4201,"AaaaaaaaAaaaaaaaAaaaaaaaaa":4202,"AaaaAaaaAaaaAAAAAaaa":4203,"AaAaaaaaaaAaaaAaaaa":4204,"AaaAaaaaaaaAaaaaaaaAaaaaa":4205,"ĠAAaaaaaAaaaaaa":4206,"Ġ......\"":4207,"AaaAaaaaaaaaAaaaaa":4208,"AAaaaaaaAaaa":4209,"AAAaaaaaaAaaaaaaaaa":4210,"ĠAaaaAaaaaaaAaaaaaaaa":4211,"-(-":4212,"-({":4213,"aaaAaaaaAaaaaaaaaaa":4214,"AaaaaaAaaaAaaaAaaaa":4215,"ĠAaaaaAaaaaaaAaaaaaaaaa":4216,"AaaaaaaaaAaaaaaaAaaaaaaaa":4217,"AAAAaaaaAaaa":4218,"aaaaAaaAaaAaaaAaaAaaa":4219,"ĠAaaaaaAaaAaaaaaaAaaaa":4220,".?)\"":4221,"!!!!!!":4222,"AaaaaaaAaaaaAaaaAaaaAa":4223,"AaAaaaAaaaAaaaaa":4224,"AaaAaaaaaAaaaAaaaaa":4225,"ĠAAAAaaaaaAaaaaa":4226,"ĠAAAAaaaaaAaaaaaaaaaAaaa":4227,"aaaaAaaaaaaaaaAaaaaaaAaaa":4228,"ĠAaaaaaaaAaaaAaaaaaaaaaAaaa":4229,"aaaaaaAaaaaaaaaAaaaaaaaaa":4230,"ĠAAaaaaaaaaAaaaaaaa":4231,"AaaaAaaAaaaaAaaaaaaaa":4232,"aaaaaAaaaaaAaaaaaAaaaAaa":4233,"ĠaaaaAaaaAaAaaaaaAaaaAaa":4234,"ĠaaaaaaAaaaaaaaAAA":4235,"AAaaaAAaaaAaaa":4236,"aaaaAaaAaaaAaaaAaaaaaa":4237,"AaaaaaAaaaaAaaaAa":4238,"~~~~":4239,"AAAaAaAA":4240,"ĠAaaaAaaaAaaaaaAaaaaaaa":4241,"/#!":4242,"ĠaaaaaAaaaaaAaaaaaAaaaAaaaaaAaaa":4243,"_________________________":4244,"****************":4245,"---------------------------":4246,"AAaAaAaAaAaaaAa":4247,"Ġ(;).":4248,"\"??,":4249,"\"_____,":4250,"aaAaaaaaAaaaAaaaaAAAAaaaaaAaaaaa":4251,"\"????,":4252,"#*#":4253,"$.":4254,"*_":4255,"/+":4256,"/>":4257,"/*,":4258,"=]":4259,"^)":4260,"aAaaaaaaaaaaaa":4261,"aAaaAaaa":4262,"aAaaaAaaa":4263,"aAaaaAaaaa":4264,"aAaaaAaaaaa":4265,"aAAaaA":4266,"Ġ________________________________":4267,"Ġ)::":4268,"aaAaaaaaaaaaa":4269,"aaAaaaaAaaa":4270,"aaAaaaaAaaaaaaa":4271,"aaAaaaaAaaaaAaaaa":4272,"aaAAaAa":4273,"aaaaAaAaaa":4274,"aaaaAAa":4275,"aaaaAaAaa":4276,"aaaaAaaaaaAa":4277,"aaaaAaAA":4278,"aaaaAaaaaaaaaAaaaaa":4279,"aaaaAaaAaaAaa":4280,"aaaaAaaAaaAaaaa":4281,"AAAaaaaaAaaaaa":4282,"AAAaaaaaaaAaaaaaa":4283,"AaaaaAAAAAAAAA":4284,"AaaaaAAAAaaaa":4285,"aaaAaaAaaaaa":4286,"aaaAaaaaaaaAaaaaa":4287,"aaaAaaaaaaaAaaaaaa":4288,"aaaAaaAaaaaaaaa":4289,"aaaAaaaaaaaAaaaAaaa":4290,"aaaAaaAaaaaaaaaaa":4291,"ĠAaaaaAaAaaaa":4292,"ĠAaaaaAaaaaaAaaaaa":4293,"ĠAaaaaAaaaaAaaaaa":4294,"ĠAaaaaAaaaaAaaaaaaa":4295,"ĠaaaaAaaaaaaaaa":4296,"AAAAAaaaAaaa":4297,"AAAAAaaaAaaaaaa":4298,"AAAAAaaaaaAaaaaaa":4299,"AaaAaaaaaaaaaAaaaaaa":4300,"AaaaaaAAAAA":4301,"AaaaaaAAa":4302,"AaaaaaAAAAaaaaaa":4303,"aaaaaAAaaa":4304,"aaaaaAaaAa":4305,"aaaaaAaaA":4306,"aaaaaAAaaaaa":4307,"ĠAaaaaaAAaaa":4308,"AaaaaaaAaaaaAaa":4309,"ĠaaAaaaaaaaaaa":4310,"ĠaaAaaaaaaAaaaaa":4311,"ĠaaaAaaaaaAaaa":4312,"ĠaaaAaaaaAa":4313,"ĠaaaAaaaaaaaaAaaaa":4314,"ĠAaaaaaaAaaaaaAaaaa":4315,"ĠAaaaaaaAaaaaAaaaaa":4316,"ĠAaaaaaaAAAaaa":4317,"ĠAaaaaaaAaaaaaAaaaaaaaa":4318,"ĠAaaaaaaAaaaaaAaaaaAaaaaa":4319,"ĠAaaaaaaAaaAaaaaaaaaAaaaaaaaa":4320,"ĠAaaaAAAAAAAAAA":4321,"ĠAaaaAaaaaaaaAaaa":4322,"ĠAaaaAaaaaaaAaaaaaaa":4323,"ĠAaaaAaaaaaaAaaaaa":4324,"ĠAaaaAaaaaaaaAaaaaaaaa":4325,"AaaaaaaaAaaaaaaaaaAaaaa":4326,"AaaaaaaaaAaaaaaaaAaaaa":4327,"ĠAAAAAaaaaAaaaaa":4328,"ĠAaaaaaaaAaaaaaaaAaa":4329,"ĠAaaaaaaaAaaaaaaAaaaaaaaaa":4330,"ĠAAAaaAaaaaa":4331,"ĠAAAaaaAaaaaaa":4332,"ĠAaaAAaaa":4333,"ĠAaaaaaaaaAaaaaaAaaaaa":4334,"ĠAaaaaaaaaAaaaaaAaaaaaaaa":4335,"Ġ(\\\\":4336,"AaaaaaaaaaAaaaaAaaaaaaaa":4337,"AaaaaaaaaaAaaaaaaaaAaaaaaaaa":4338,"aaaaaaAaaAaaaAaaa":4339,"aaaaaaAaaaaaAaaaAaaa":4340,"aaaaaaAaaaAaaaAaaaAaaaa":4341,"aaaaaaAaaaAaaaaAaaa":4342,"aaaaaaAaaaaaaAaaaaaaaaaaa":4343,"aaaaaaAaaaaaAaaAaaaaaaa":4344,"aaaaaaAaaAaaAaaaaaaaa":4345,"ĠAaAaaAaaaAaaaa":4346,"ĠaAaaaaaaaaa":4347,"aaaaaaaaAaaaAaaaa":4348,"Ġ-/-":4349,"AAAAAAAAAaaaaa":4350,"AAAAAAAAAa":4351,"AaAaaaaaaaaaaaa":4352,"AaAAAaaaa":4353,"AaaaaaaaaaaAaaaaaaaAaaa":4354,"ĠAAAAAAaA":4355,"aaaaaaaAaaAaaaaa":4356,"ĠAaaaaaaaaaaAaaaaaaaaa":4357,"ĠAAAAAAAa":4358,"aaaaaaaaaAaaaaAaaaa":4359,"aaaaaaaaaAaaaaAaaaaa":4360,"aaaaaaaaaAaAaaaaaa":4361,"AaaaaaaaaaaaAAA":4362,"AaaaaaaaaaaaAaaaaaaaAaaa":4363,"aaaaaaaaaaaAaa":4364,"Ġ&...":4365,"..::(":4366,"AAAAAAAAAAAaaa":4367,"Ġ[?],":4368,"aaaaaaaaaaaaAA":4369,"AaaaAaaaAaaAaaa":4370,"AaaaAaaaAaAaaaaa":4371,"AaaaAaaaAaaaAaaaaa":4372,"AaaaAaaaAaAaaaaaaaa":4373,"AaaAaaAaaAaaaa":4374,"ĠAaaAaaaAaaaaaaaAaaaaaaaaa":4375,"AAaAAAAA":4376,"AAaAAaaa":4377,"AAaAaaAa":4378,"AAaAaAA":4379,"Ġ$(":4380,"Ġ$)":4381,"ĠAaAaaaAaaaaaaAaaaaaaaa":4382,"AaAaAAa":4383,"AaaaAaaaaAaAaaaa":4384,"AaaaAaaaaAaaaaAaaaa":4385,"aaaaaaaaaaaaaaAA":4386,"AaaaaAaaaAaaaaaaaAaaa":4387,"AaaaaaAaaaAaaaaaaAaaa":4388,"AAaaaaAaaaaaaa":4389,"AaaaaAaaaaAaaaaaaaaAaaaaaaa":4390,"AaaaaAaaaaAaaaAaaaAaaaa":4391,"ĠAAaAaaaaaa":4392,"ĠAAaAAAa":4393,"AaaaAaaaaaAaaaaaaaAaaa":4394,"AAAAaAaa":4395,"AaaaaaAaaaaAaaAaaaa":4396,"AaaaaaAaaaaAaaaaaaaaAaaaaaaa":4397,"AaAaaAAa":4398,"AaAaaAaaaaaaAaaaaaa":4399,"AaaaaaAaaaaaAaaaaaaAaaaaaa":4400,"AAaaaAaaaaaaa":4401,"AAaaaAaaaA":4402,"aAaAAAa":4403,"aAaAAaaAAA":4404,"AaaAaaaaAaaaaaAaaa":4405,"://:":4406,"AaaaAaaAaaaaaaaaaa":4407,"Ġ=,":4408,"AaaaaAaaAaaaaaaaAaaaaa":4409,"AaaaaaAaaAaaaaAaaa":4410,"AaaaaaAaaAaaaaaAaaa":4411,"AaaaaAaaaaaAaaaaaaaAaaa":4412,"AAaaAaAAa":4413,"AaaaAaaaaaaAaaaaaAaaaaa":4414,"ĠAAaaaAaaaaaaaAaaaaaaa":4415,"AaAaaaaaaA":4416,"ĠAaaaaAaaaaAaaaaaaaaa":4417,"ĠAaaaAaaaAaaaaaaa":4418,"AAAaaaAaaaaaaaaaaa":4419,"ĠAaaaaAaaaAaaaaaaaaa":4420,"aAAAaaA":4421,"AaaaaaaAaaaaAa":4422,"ĠAAaaaaAaaaaaaa":4423,"AaaaaaaaAaaaaaaAaaaAaaaa":4424,"AaaaaaaaAaaAaAaaaaAaaaaaaaa":4425,"AaaAaaaaaaAaaaAaaa":4426,"!!!\"":4427,"!!!)":4428,"aaaaAaaaaaAaaaaaaaaaa":4429,"aaaaAaaaaaAaaAaaaaAaaaaaaa":4430,"aaaaAaaaaaAaaaaaaaaaaAaaaaaaaaa":4431,"aaaaAaaaaaAaaaaaAaaaAaaaaaaa":4432,"Ġ{!":4433,"Ġ{{{":4434,"***)\"":4435,"AaAAAaaaaa":4436,"AaAAaaaaaa":4437,"ĠAaaaaaAaaaAaaaaaAaaa":4438,"AaaaAaAAA":4439,"AaaAaaaaaaaaAaa":4440,"AaaAaaaaaaaaAaaaaaAaaaaa":4441,"aAaaAaAa":4442,"Ġ_(":4443,"aaaaAaaaaAaaaaaaaAaaaaa":4444,"aaaaAaaaaAaAaaaaaa":4445,"AAAAaaaAaAa":4446,"AaaaAaaaaaaaaAaa":4447,"AaaaAaaaaaaaaAaaaaaaaaa":4448,"ĠAAAAaaaAaaa":4449,"ĠAAAAaaaAaaaaa":4450,"AaaaaaaaAaaaaaaaaAaaaaaa":4451,"AaaaaaaaAaaaaaaaaAaAaaaaaaaa":4452,"AAAAaaaaaaaAaaaaaaaa":4453,"Ġ(-/":4454,"AaaAaaaaaaaaaAaa":4455,"ĠAaaaaaAaaaaAaaaaaaaaa":4456,"ĠAaaaaaAaaaaAaaAaaaa":4457,"ĠAaaaaAaaaaaaAaaaaaaaa":4458,"\"=,":4459,"aAAAaAaAaAA":4460,"ĠAaaaaaAAAaaaaaaaAaaaaa":4461,".*.":4462,"[?](":4463,"aaaaAaaaAaaaaaAaaaAaaaaaaa":4464,"AaAaaaaaaaaAaaaaaaaAaaa":4465,"aaaaAaaaaaaAAAAAAAAAAA":4466,"AaaaaaaaAaAAAA":4467,"ĠAAAAaaAaaaAaa":4468,"aaaaAaaAaaaaaAaaa":4469,"aaaaAaaAaaaaaaaAaaaa":4470,"AaaaaaaaaAaaaaaaaaAaaaaaaaaa":4471,"AaaaAaaaaAaaAAAAAaaa":4472,"AaaaAaaaaaAaaaaAaaAaaAaaaaaAaaaaaaaa":4473,"\\\\%":4474,"ĠAaaAaaaaaaaaaAaaaaaaaa":4475,"aaaaaaAaaaaaAaaaaAaaaaAaaaa":4476,"ĠAaaaaaAaaaaaaaaAaaaaaAaaaaaaaaa":4477,"aaaaAaaaaaaaaaAaaaaaaaaAaaaAaaa":4478,"aAAaAaa":4479,"aAAaAaAa":4480,"Ġ^=":4481,"ĠaaaaaAaaaaAaaaaaAaaaAaaaaaaa":4482,"AaAaaaaaaaaaAaAaaa":4483,"######":4484,"AaaaAaaAaaaaAaa":4485,"AaaaaaaAaaaAaaaaaaAaaaaaAaAAA":4486,"().)\"":4487,"aaaaAaaaaaAaaaaAaaaaaAaaaAaaa":4488,"aaaaAaaaaaAaaaaAaaaaaAaaaaaAaaa":4489,"aaaaaaAaaaaaaAaaaaaaaaAaaa":4490,"AaaaaaaAaaaaAaaaaAaaaaAa":4491,"ĠaaaaaaAaaaaAaaaaaaaaaaaa":4492,"aaaaAaaaaaAaaaaaaAaaaaa":4493,"AAAAaaaaaaaaAaaaaaa":4494,"ĠAAaaaaaaaaaaAaaaaaaa":4495,"aaaaAaaaaaaaaaaaaaAaaAa":4496,"aaaaAaaaaAaaaaaaaAaaaaaaaa":4497,"aaaaAaaaaaaaaaaAaaaaaaaaa":4498,"AaaaaaAaaaaaaaaaaaAaaaaa":4499,"aaaaAaaaaaaaAaaaaaAaaaaaaaaaa":4500,"aaaaAaaAaaaaaaaAaaaaaaaaaa":4501,"AaaaaaaAaaaAaaaaAaaaaaaaa":4502,"aaaaAaaaaaAaaaaaaaaaAaAaaaaaa":4503,"aaAAaAAa":4504,"aaaaaaaAaaaaAaaaaAaaaAaaaAaaaa":4505,"aaaaAaaaaaAaaAaaaaaaaAaaaAaaaAaaaAaaaaa":4506,")...)\"":4507,"aaaaAaaaaaAaaaaaaaaAaaAaaaaaaaaa":4508,"aaaaAaaaaaAaaaaaAaaaaaaAaaaaaa":4509,"aaaaAaaaAaaaaaaAaaAaaaaaaAaaaaa":4510,":]_]":4511,"aaaaAaaaaaAaaAaaaaAaaaaaaaAaaaAaaa":4512,"ĠaaaaaAaaaaaAaaaaaAaaaAaAaaaaa":4513,"aaaaAaaaaAaaaaAaaaAaaAaaaaAaaa":4514,"AaaaaAaaaaaaaAaaaaaA":4515,"aaaaaaAaaaAaaaaaAaaaaAaaaa":4516,"aaaaAaaaaaaAaaaaAaaaaAaAaaa":4517,"AAaaaaaaaaaaaaAaaaaa":4518,"aaaaaaAaaaAaaaaAaaaaAaaaa":4519,"aaaaaaAaaaaaaaAaaaaaaaAaaaaaaa":4520,"AaaaaaaaaaaAaaaaaAaaaaAAA":4521,"aaaaAaaaaaaaAaaaaAaaaAaaaaaaAaaaaAaaaaaaaAaaaAaaaaaAaaaaaaAaaaAaaaaaaAaaaaaAaAAA":4522,"aaaaaaAaaaAaaaaaaAaaaaAaaaa":4523,"aaaaAaaAaAaaaAaaaaaaAaaaa":4524,"aaaaAaaaaaaaaAaaaaaaaAaaaaaaaaa":4525,"aaaaaaAaaaaaAaaaaaaAaaaaAaaaa":4526,"aaaaAaaaaaaaaaAaaaaaaaAaaaAaaaaaaaaAaaaAA":4527,"AaaaaaAaaaaaaAaaaAAaaaaAaaaaAaAaaaAaaAaaAaAaaa":4528,"AaaaaAaaaaAaaaaaaaaaaaAaaaaaaaAaaaaa":4529,"aaaaaaAaAaaaaaaaAaAaaAaaa":4530,"#*#*":4531,"Ġ)::..":4532,"aaaaaaAaaaAaaaAaaaAaaaaAaaaaaa":4533,"aaaaaaAaaaaaaAaaaaaaaaaaaAaaaaaaaaa":4534,"!&":4535,"!/":4536,"\"~":4537,"%+":4538,"&<":4539,"&>":4540,"(.":4541,"(=":4542,"(?:":4543,"*/":4544,",``":4545,".$":4546,".::":4547,":^":4548,":-)":4549,"?).\"":4550,"\\)":4551,"\\[":4552,"]-,":4553,"^.":4554,"_\"":4555,"_######":4556,"aAAAAAAAAA":4557,"aAaaaaaaaaaaaaa":4558,"aAaaaaAaa":4559,"aAaaaAAA":4560,"Ġ.;":4561,"aaAaaaaaAaaa":4562,"aaAaaaaaAaaaaaaa":4563,"aaAaaaAa":4564,"aaAaaaAaaaaaAaaaaa":4565,"aaaaAaaaaaaaaaaAaaa":4566,"aaaaAaaAaaaaaAaaaaaa":4567,"AAAaaaaaaAaaaaaaa":4568,"AAAaaaaaaaaaaAaaaaaa":4569,"AaaaaAAAaaaa":4570,"AaaaaAaAaAa":4571,"aaaAaaaaAa":4572,"aaaAaaaaaaaaAaaa":4573,"aaaAaaaaaaaAaaaaaAaaaaaaaaa":4574,"ĠAaaaaAaaaaaaaaaaaaa":4575,"ĠAaaaaAaAaaa":4576,"ĠAaaaaAaaaaaaAaaaaaa":4577,"ĠAaaaaAaaAaaaaaa":4578,"ĠaaaaAAAAAAA":4579,"ĠaaaaAaaAaa":4580,"ĠaaaaAaaaaaAaaaaaa":4581,"AAAAAaaA":4582,"AaaAAAAa":4583,"AaaAaaAaaaAaaaa":4584,"AaaAaaaaaaaaaaAaaaaa":4585,"AaaAaaaaaaaaaaaaAaaaaaaaa":4586,"AaaAaaaaaaaaaaaaAaaaa":4587,"AaaaAaaaaaaaaaaAaaa":4588,"AaaaAaaaaaAaaaAaaaaa":4589,"AaaaaaAaaAaaaaAaaaaa":4590,"aaaaaAaaaaaAaaaa":4591,"aaaaaAaaAaaaa":4592,"aaaaaAaaaaaaaAaaa":4593,"ĠAaaaaaAAAaaaa":4594,"ĠAaaaaaAaaaaaaaaAaaa":4595,"ĠAaaaaaAaaAaaaaaaaaa":4596,"ĠAaaaaaAaaaaaaaaAaaaaa":4597,"ĠAaaaaaAaaaAaaaaAaaaaa":4598,"AaaaaaaAaAa":4599,"AaaaaaaAaaaaaaaAaaaaa":4600,"AaaaaaaAaaAaaaaaaa":4601,"AaaaaaaAaaaaaaaaAaaaaaa":4602,"ĠaaAaaaaaaAaa":4603,"ĠAaaaaaaAaaaaAaaa":4604,"ĠAaaaaaaAaaAaaaa":4605,"ĠAaaaaaaAaaaaaaaAaaaaaa":4606,"ĠAaaaAaaaAaa":4607,"ĠAaaaAaaaaaaaaaAaaaaa":4608,"ĠAaaaAaaaaaAaaaAaa":4609,"ĠAaaaAaaaaaaAaaaaaAaaaaaaaa":4610,"ĠAaaaAaaaaaaAaaaaaaAaaaaaaaa":4611,"AaaaaaaaAaAaa":4612,"AaaaaaaaAaaaaaaaaaaAaaaaaa":4613,"AaaaaaaaAaaAaaaaAaaaaaaaa":4614,"AaaaaaaaAaaaaAaaaaaAaaaaaa":4615,"AaaaaaaaaAAAA":4616,"AaaaaaaaaAAAAA":4617,"AaaaaaaaaAaAaaaa":4618,"AaaaaaaaaAaaaaaaaAaaaaaa":4619,"AaaaaaaaaAaaaaaaAaaaaa":4620,"ĠaaaaaaaaAaaaaaaaa":4621,"ĠaaaaaAAAA":4622,"ĠAaaaaaaaAaaaaaAaaaaa":4623,"ĠAAaaaaaaaaaaaa":4624,"ĠAAAaaaAaaa":4625,"ĠAAAaaA":4626,"ĠAAAaaaaaaAaaaaaa":4627,"ĠAAAaaaaaAaaaaaaa":4628,"ĠAaaAaA":4629,"ĠAaaAaaaaaaaAaaaa":4630,"ĠAaaAaaaaaaaaAaaaaa":4631,"ĠAaaaaaaaaAaaaaaAaaaa":4632,"ĠAaaaaaaaaaaaaaaaaaaaaaaaaa":4633,"ĠaaaaaaaaaAaaaaAaaaaaAaaaaa":4634,"AaaaaaaaaaAaaaAaaaa":4635,"AaaaaaaaaaAaaaaaAaaaa":4636,"aaaaaaAAAAA":4637,"aaaaaaAaaaaaAaa":4638,"aaaaaaAaaaaAaaaaa":4639,"aaaaaaAaaaAaaaaaaa":4640,"aaaaaaAaaaaaaAaaaaAaaa":4641,"ĠAaAaaaAaaa":4642,"ĠaAaaAaa":4643,"ĠaAaaaaaAaaaaa":4644,"ĠaAaaaA":4645,"aaaaaaaaAaaaAaaa":4646,"aaaaaaaaAaaaaaaAaaa":4647,"ĠAaaaaaaaaaAaaaAaaaaa":4648,"ĠAaaaaaaaaaAaaaAaaaaaaa":4649,"AaAaaaaaaaaaAaaa":4650,"ĠaaaaaaaaaaAaa":4651,"ĠaaaaaaaaaaAaaaaaa":4652,"AaaaaaaaaaaAaaaaaAaaaaaa":4653,"aaaaaaaAaaaAaaaaa":4654,"aaaaaaaAaaaAaaaaaa":4655,"aaaaaaaAaaaAa":4656,"aaaaaaaAAAAaaa":4657,"aaaaaaaaaAaAaaaAaaaaa":4658,"AaaaaaaaaaaaAA":4659,"Ġ&\"":4660,"..+":4661,"Ġ00000000000000000":4662,"ĠAaaaaaaaaaaaAaa":4663,"ĠAaaaaaaaaaaaAaaaaa":4664,"AaaaaaaaaaaaaAaaAaaa":4665,"ĠAaaaaaaaaaaaaAaaaaaaaa":4666,"Ġ/,":4667,"Ġ[$":4668,"Ġ[~":4669,"Ġ###":4670,"ĠaaaaaaaaaaaaaaAaaa":4671,"AaaAaaaAaaaaaaaAaaaaaaaaa":4672,"AaaaAaaaAaAaaaa":4673,"AaaaAaaaAaaaaaAaaaa":4674,"AaaaAaaaAaaaAaa":4675,"AaaAaaAaaaaaAaaaaaaa":4676,"AaaAaaAaaAA":4677,"Ġ:-)":4678,"Ġ+,":4679,"??\"":4680,"AAaAaaaaaaa":4681,"AAaAaaaAaaa":4682,"AAaAaaAAa":4683,"AaAaaaaAaAaaa":4684,"AaAaaaaAAa":4685,"AaAaAAaA":4686,"AaaaAaaaaAaaaaaaAaaaaaa":4687,"AaAaaaaaAAA":4688,"AaaaaAaaaAaaaaaaaaaaaaAaaa":4689,"AaaaaAaaaAaaaaaaaAAA":4690,"AaaaaaAaaaAAA":4691,"AaaaaaAaaaAaaaaaAaaaaaa":4692,"ĠAAAaAA":4693,"ĠAAAaAa":4694,"AAaaaaAaaaa":4695,"AAaaaaAaaaaaaaaAaaa":4696,"AaaAaaaaaAA":4697,"ĠAaaaAaaaaAA":4698,"ĠAaaaAaaaaAaaaa":4699,"ĠAaaaAaaaaAaaaaaaa":4700,"ĠAaaaAaaaaAaaaaAaaaaa":4701,"AaaaaAaaaaA":4702,"AaaaaAaaaaAaaaaaaAaaaaaaaa":4703,"ĠAAaAAA":4704,"AaaaAaaaaaAaaAaaaa":4705,"AaaaaaAaaaaAaaAaaaaa":4706,"AAaaaAaaaaAaaaaaa":4707,"AaaAaaaaAaaaaaaaAaaaaa":4708,"://@":4709,"AaaaaaaaAaaaaaAaaAaaaa":4710,"AaaaAaaAAA":4711,"AaaaAaaAaaaaaaAaa":4712,"Ġ=)":4713,"Ġ=...":4714,"AaaaaAaaAaaaaaaaaaa":4715,"AaaAaAaaaaaaaaa":4716,"AaaAaAaaaaaaaaaa":4717,"AaaAaAAa":4718,"AaaAaAAaaaaa":4719,"AAaaAaaaAaaa":4720,"AAaaAaaaaaAaaaa":4721,"AAaaAAaaa":4722,"AAaaAaaaaaaaAaa":4723,"AAAAaaaaaAaaaaaaaa":4724,"AaaaAaaaaaaAAA":4725,"AaaaAaaaaaaAaaaaAaaaaa":4726,"AaaaaaaaAaaaAaAaaa":4727,"ĠAaAaaAA":4728,"aaaaaaaaaaaaaaaaaaaAA":4729,"ĠAaaAaaaaaAA":4730,"ĠAAaaaAaaaAaaaaaaa":4731,"AaAaaaaaaAaaaAaaaa":4732,"Ġ?-":4733,"Ġ?:":4734,"Ġ?...\"":4735,"Ġ?;\"":4736,"Ġ?(?)":4737,"AaaaaaAaaaaaaAa":4738,"()]":4739,")-,":4740,"AAAaaaAAAA":4741,"aAAAaaaaa":4742,"AaaaaaaAaaaaAaaAaaaa":4743,"AaaaaaaaAaaAaaaaaaa":4744,"AaaaaaaaAaaAaaaaaaaa":4745,"AaaAAaAaaaaaa":4746,"ĠAaaAaAAA":4747,"aaaaAaaaaaAaaaaAaaaa":4748,"aaaaAaaaaaAaaaaaaaaAaaa":4749,"AAAAaaAaaaa":4750,"AAaaaaaAAA":4751,"AAaaaaaAaaaaa":4752,"AAaaaaaAaaaAaaa":4753,"AAAaaaaAaaAaaa":4754,"::~":4755,"::__":4756,"ĠAaaaaaAaaaaaAaaaaaaaa":4757,"ĠAAaaAa":4758,"AaaaAaAaaaAaaa":4759,"AaaaaAaaaaaaaaAaaaaaa":4760,"AaaaaaaAaaAaaaaaaaaAaaaaaaaa":4761,"AAAAaaaA":4762,"AaaaaaaaaaAaaaaaaAaaaaAaaa":4763,"AaaaaaaaaaaAaaaaaaaAaaaaaaaa":4764,"aaAaaaaAaaaaaaaaaaa":4765,"AaaaaaaaAaaaaaaaaAaaaaaaa":4766,"Ġ<,":4767,"``-":4768,"{{{":4769,"ĠAAaaaaaaAaaaaaaa":4770,"AaaaaaAaaaAaaaAaaaaAaaaa":4771,"AaaaaaaaaAaAaaaaaaaa":4772,"___\"":4773,"___,":4774,"ĠAaaAaaaaaaaAaaaaAaaa":4775,"-[[":4776,"aaaaAaaaAaaAaaaa":4777,"AAAAaaaaaaAaaaaa":4778,"ĠAAAAaaAaaaAaaaa":4779,"aaaaAaaAaaAaaa":4780,"AaaaaaaAaaaaaaaaAaaaaaaaaa":4781,"AaaaAaaaaaaaaaAaa":4782,"ĠAAaaaaaaaaaAaaaaaaaaa":4783,"AaAAAAAa":4784,"ĠaaaaAaaaaaaaAaaaaaAaaaaa":4785,"AAaaaaaaaaaAaaaaaaaa":4786,"<=)":4787,"ĠaaaAaaaaAaaaaaAaaaaa":4788,"AaaAaaaaAaaaAaa":4789,"aaAaAAAa":4790,"aAAaAA":4791,"AaaAaAaAA":4792,"Ġ^^":4793,"aaaaaaaaaaaaaaaaaaaaaaaAA":4794,"AaAaaaaaaaaaAaaaaaaaaa":4795,"AaaAaaaaaaaaaaAaaaaaaaaa":4796,"(?)?":4797,"---------":4798,"AaaAaAaaaAaaaaaa":4799,"AaaaaaaaAaaAaaaAaaaaaaaa":4800,"AaaaAaaaaaAaaaAaaaaaaaaaa":4801,"AaaaaaAaaaaaaAaaaAaA":4802,"AaAaaaAaaaaAaaaaaAaaaaa":4803,"AaaAaaaaaaAaaaAaaaaaaaaa":4804,">>>":4805,"AaaaAaAaaaaaaAaaaa":4806,"AAaaaAaaaaaAaaaaaaaaaaaa":4807,"AaaaaaAaaaaaaaaaaaAaaaa":4808,"aaaaAaaAaaaaaAaaaaaAaaa":4809,"aaaaAaaaaaaaAaaaAaAaaa":4810,"aaAAaAaa":4811,"AaaaaaAaaAaaaaaAaaaaaaaaa":4812,"aaaaAaaaaaAaaAaAaaa":4813,"Ġ!=,":4814,"AaaaaaaaaaaaaaaaaaaaaaaAA":4815,"aaaaAaaaaaaaaAaaaAaaaaaaaaa":4816,"AAAAAAAAAAAAAAAAAAAAAAAAAAAAAAAAAAAAAAAAAAAAAAAAAAAAAAAAAAAAAAAAAAAAAAAAAAAAAAAAAAAAAAAAAAAAAAAAAAAAAAAAAAAAAAAAAAAAAAAAAAAAAAAA":4817,"/_/":4818,"(((((":4819,"aaaaaAaaAaAaaaaaaaaaaAa":4820,"Ġ?(?)?)":4821,"!+":4822,"!@":4823,"!...":4824,"!***":4825,"!*~":4826,"#>":4827,"%/":4828,"%).":4829,"(+":4830,"():":4831,"(%)":4832,")+(":4833,",}":4834,",-)\"":4835,"-]\"":4836,".+":4837,".**":4838,"<->":4839,"<>,":4840,"=$":4841,"=}}":4842,"[-":4843,"[.":4844,"[...\"":4845,"[-----":4846,"](":4847,"]).":4848,"^!":4849,"_+":4850,"_{":4851,"aAaAaaaaa":4852,"aAaaaaaA":4853,"|/":4854,"}#":4855,"})":4856,"}:":4857,"}?":4858,"}[":4859,"Ĉ.":4860,"Ġĉ":4861,"Ġ}\"":4862,"Ġ________________________":4863,"aaAAAAa":4864,"aaAaaaaaAaaaaa":4865,"aaAaaaaaaaAaaaa":4866,"aaAaaAA":4867,"aaAaaaAA":4868,"aaaaAaA":4869,"aaaaAaaA":4870,"aaaaAAAAaaa":4871,"aaaaAAAAAaaa":4872,"aaaaAaaaaaaaaaaAaaaa":4873,"aaaaAaaaaaaaaaAaaaaaaaa":4874,"aaaaAaaaAaaaaaAaaaaaa":4875,"aaaaAaaAaaaaaAaaaaa":4876,"aaaaAaaaaaAaaAaaaaaaa":4877,"aaaaAaaaAaaaaAaaaaaa":4878,"aaaaAAAAAAaaa":4879,"aaaaAaaaAaaaaaAaaaaaaaa":4880,"aaaaAaaAaaaaAaa":4881,"aaaaAaaaaaaAaaaaAaaaaaaaa":4882,"aaaaAaaaaaaaAaaaaaaaAaaaaaaaa":4883,"AAaaaaaaaaaaaaa":4884,"AAAaaAaaaaaaaa":4885,"AAAaaaaaaaaaAaaa":4886,"AAAaaaaaaaaAaaa":4887,"AaaaaAaaaaaaaaaaaaaa":4888,"AaaaaAaaaaaaaaaaaAaaa":4889,"aaaAaAaaaaa":4890,"aaaAaAA":4891,"aaaAaaaaaaaaaAaaa":4892,"aaaAaaaaaAaaaaaaaaa":4893,"aaaAaaAaaaaaaaaa":4894,"aaaAaaaaaaaaaaAaaa":4895,"aaaAaaaaaaaaaAaaaaa":4896,"aaaAaaaaaaAaaaaaaaaa":4897,"aaaAaAAa":4898,"aaaAaaaaaaaaAaAaaa":4899,"aaaAaaaaaaaAaaaaaaaAaaaaaaaa":4900,"ĠAaaaaAaaaaaAaaa":4901,"ĠAaaaaAaAaa":4902,"ĠAaaaaAaaaaA":4903,"ĠAaaaaAaaaaaaAaaaa":4904,"ĠAaaaaAaaaaaaaAaaaaaaaa":4905,"ĠaaaaAaAaaa":4906,"ĠaaaaAaAaaaaaa":4907,"ĠaaaaAaaAaaaAaaa":4908,"ĠaaaaAaaAaaaaaaaa":4909,"ĠaaaaAaaaaaaaaAaaaAaaa":4910,"ĠaaaaAaaAaaaaaaaaa":4911,"ĠaaaaAaaaaaAaaaaAaaaaaa":4912,"ĠaaaaAaaAaaaAaaaa":4913,"ĠaaaaAaaAaaaaaAaaa":4914,"ĠaaaaAaaAaaAaaaaaa":4915,"ĠaaaaAaaAaaaAaaaaaa":4916,"ĠaaaaAaaAaaaaaaAaaa":4917,"ĠaaaaAaaAaaaaaAaaaaaaa":4918,"ĠaaaaAaaAaaaaaAaaaaaaaa":4919,"ĠaaaaAaaAaaaaaaaAAA":4920,"ĠaaaaAaaAaaAaaaaaaaa":4921,"ĠaaaaAaaAaaaaaAaaaaaaaaaa":4922,"AAAAAaaaaAaaa":4923,"AAAAAaaaaaAaaaaaaa":4924,"AAAAAaaaaaaaaaAaaa":4925,"AAAAAaaaaaAaaaaAaaaaa":4926,"AAAAAaaaaAaaaaaaAaaaaa":4927,"AAAAAaaaAaaaaAaaaaaaaaaaa":4928,"AAAAAaaaaaAaaaaAaaaaaaaaaaa":4929,"AAAAAaaaaaAaaaaaaaaaaaAaaaaa":4930,"AaaAAAAAAAA":4931,"AaaAaaAaaaAaa":4932,"AaaAaAaAaa":4933,"AaaAaaaaaaaaaaAaaaa":4934,"AaaAaaaaaaaaaaaAaaa":4935,"AaaaAaaaaaaaaaaaaaaa":4936,"AaaaAAAaaa":4937,"AaaaAaaAaaaAaaa":4938,"AaaaAAAAAAAAAAAAAAAA":4939,"AaaaAaaaaaaaaaaAaaaaa":4940,"AaaaaaAAAAaaa":4941,"AaaaaaAaaaaaaaaaaaaAaaaaaaa":4942,"AaaaaaAAaaaaaaa":4943,"AaaaaaAaaAaaaAaaaAaaa":4944,"AaaaaaAaaaaaaaaaaAaaaaaaaa":4945,"AaaaaaAAAAAaaaaaa":4946,"AaaaaaAaAaaaAaaaa":4947,"AaaaaaAaaaaaaaAaaaaAaaaaaa":4948,"aaaaaAaaaAaaaaa":4949,"aaaaaAaaaaaAaaaaaa":4950,"aaaaaAaaaaaaAaaaaaaaa":4951,"aaaaaAaaaaaaAaaaaAaaa":4952,"ĠAaaaaaAaaAaaa":4953,"ĠAaaaaaAaaaAaaaa":4954,"ĠAaaaaaAaaaaaaaAaaa":4955,"ĠAaaaaaAaaaaAaaaaaaa":4956,"ĠAaaaaaAaaA":4957,"ĠAaaaaaAaaaaaaAaaaaaaa":4958,"ĠAaaaaaAaaaaaaaAaaaaaa":4959,"ĠAaaaaaAaAA":4960,"ĠAaaaaaAAAAaaaaaa":4961,"AaaaaaaAaaA":4962,"AaaaaaaAaaaaaaaaaaaaaaaa":4963,"AaaaaaaAaaaaaaaaAaaaaaaa":4964,"AaaaaaaAaaaaAaaaaAaa":4965,"ĠaaAaaaaAaaa":4966,"ĠaaAaaaaaAaaaa":4967,"ĠaaaAaaaaaaaaaa":4968,"ĠaaaAaaaAaaaa":4969,"ĠaaaAaaaaaaAaaaaa":4970,"ĠaaaAaaaAaaaaaaaaa":4971,"ĠaaaAaaaaaaaaAaaaaaAaaaa":4972,"ĠaaaAaaAaaaaaaaaAaaa":4973,"ĠaaaAaaaaaaaaaaAaaAaaaaa":4974,"ĠAaaaaaaAaAaaa":4975,"ĠAaaaaaaAaaaAaaaa":4976,"ĠAaaaaaaAaaaaaaAaaaaa":4977,"ĠAaaaAaaaaaaaAaaaaa":4978,"ĠAaaaAaaaaaaaAaaaa":4979,"ĠAaaaAaaaaaaAaa":4980,"ĠAaaaAaaAAA":4981,"ĠAaaaAaaAaaaaAaaaaaaaa":4982,"ĠAaaaAaaaaaaAaaaaaaaAaaaaaaaa":4983,"AaaaaaaaAaaaAaaaaaaAaaaaaaaa":4984,"AaaaaaaaaAaaAaaaaa":4985,"AaaaaaaaaAaaAaaaa":4986,"AaaaaaaaaAAAaaaaa":4987,"AaaaaaaaaAaaaAaaaaaAaaaa":4988,"AaaaaaaaaAaaaAaaaaAA":4989,"ĠaaaaaaaaAaaaaaaaaaaaa":4990,"ĠAAAAaaaaAaaaaa":4991,"ĠAAAAAaAA":4992,"ĠaaaaaAaAaaaa":4993,"ĠaaaaaAaaaaaAaa":4994,"ĠaaaaaAaAaaaaaa":4995,"ĠaaaaaAaaaaaAaaaAaaaaa":4996,"ĠaaaaaAaaaaaaaaaaAaaaAaaaaa":4997,"ĠAaaaaaaaAaaaaaaaaaa":4998,"ĠAaaaaaaaAaaaaaaaaaaaa":4999}