#version: 0.2 - Trained by `huggingface/tokenizers`
2 0
20 1
e r
o n
i n
a n
a t
a r
o r
e n
e s
Ġ S
" "
Ġ 1
a l
t h
e d
l e
Ġ C
a s
i c
a y
i s
0 0
e l
Ġ A
o u
1 9
r e
20 0
Ġ M
201 5
Ġ 2
i t
in g
1 0
i l
i on
r o
a m
Ġ P
1 1
c t
s t
201 2
a d
Ġ T
en t
1 2
c h
ĠS t
an d
Ġ F
201 3
Ġ t
Ġ B
o m
Ġ th
Ġ f
Ġ R
e t
o l
Ġ D
r i
u r
Ġ o
u n
0 7
Ġ p
o t
d ay
201 4
Ġ N
Ġth e
Ġ W
Ġ s
0 6
Ġ (
Ġo f
Ġ L
0 5
u l
Ġ c
Ġ a
0 4
Ġ H
i d
Ġt o
at e
Ġ I
0 8
Ġ b
201 1
0 9
1 5
at ion
0 3
0 1
0 2
u m
e c
1 8
1 3
Ġ J
e p
Ġ d
a c
Ġ G
Ġ in
o s
1 4
Ġ E
h e
o v
p r
Ġ O
Ġ 200
a g
3 0
e m
i g
i r
t er
M ar
l y
u s
2 5
1 7
Ġ and
e b
o w
e w
2 4
1 6
Ġ -
a b
i m
O R
i v
Ġ w
Ġ m
a p
er s
o d
2 3
2 7
2 6
Ġ1 9
e ar
2 9
Ġ V
201 0
or t
I N
2 8
Ġ 3
E R
Ġ v
A pr
o c
i a
e x
c e
2 2
t on
O N
m ent
or m
u g
2 1
e v
Ġ U
Ġ n
n d
Ġ l
Ġ K
u t
C A
a v
al l
. "
es t
es s
b er
il l
19 9
S ep
Ġ 2015
A S
Ġ 4
an t
E S
O ct
k e
i f
el l
e ct
A N
S t
ou t
i um
3 1
N ov
on t
s on
r a
i el
Ġ 5
e g
it y
C h
en d
ar t
ic h
is t
in e
ar d
200 9
o p
Ġ y
i p
A T
ad ium
ĠSt adium
A L
ou th
f f
E L
E N
es day
ac k
r an
iel d
ro m
on d
p l
u b
F eb
Ġ1 0
A R
Ġ1 5
Ġ 8
a h
Ġ on
v er
i e
l l
as s
M ay
Ġ Y
S I
e e
Ġ re
g e
n t
R E
or d
Ġy ear
Ġ 7
a il
a in
N ew
Ġ 6
ig h
Ġf or
U S
Ġ h
i th
u d
w n
il le
iv e
as e
Ġ1 2
S p
ar e
I T
q u
C H
Ġ1 6
r es
i o
Ġ 20
ĠSt ate
A M
A ug
Ġyear s
l and
om p
Ġb y
p er
Ġp ro
G N
ĠI n
ar k
Ġ1 4
5 0
ab le
Ġ 9
f orm
Ġ1 3
N C
at ch
or th
J an
a k
o g
u st
ag e
v ille
I L
3 3
19 8
U n
ou r
4 5
N Y
J ul
00 00
SI GN
o b
Ġ2 3
Ġ1 1
Ġ1 8
ar y
is c
4 7
4 6
P A
Ġf rom
s e
or e
D ec
ul t
al e
Ġ1 7
S he
ic k
am e
id e
it ed
r y
T h
O L
or k
o h
She a
t e
Ġ g
u e
Ġ2 1
Ġ 07
ĠT h
as t
Ġ 2013
ot es
Ġ is
a ch
i le
k l
F L
at es
ĠC h
n g
i es
ĠU n
ic e
T V
Ġ 2012
E D
4 8
s h
u p
o ad
ic ation
F R
J un
i al
i re
u re
as h
3 5
m an
4 9
I n
re et
S at
ur s
Ġ2 2
on s
3 7
at ed
T ER
Ġ 2014
n e
A l
Ġ st
en ce
is s
ri v
Ġ &
or y
re e
T X
i an
Ġ200 9
3 4
M O
ul l
S h
ĠSt reet
o od
3 8
E T
i b
le y
200 8
t s
ou nt
3 6
C O
A m
o k
on e
a u
oc k
3 2
ĠM on
3 9
g h
S un
L A
ex t
i z
Ġ an
200 7
Ġv ot
l or
. .
R O
am p
u esday
a w
4 0
o st
en s
T he
) "
ail able
Ġ r
ed n
Ġw ith
urs day
I S
in a
edn esday
u c
ĠT he
Ġ are
p h
om m
r ou
ing ton
SIGN OR
er n
ri day
Ġ19 9
19 7
Ġ2 7
oh n
M I
om e
em ber
W atch
ĠS en
end ment
an s
Ġb ase
e ad
p ort
ĠS c
C ol
th er
ir st
r ic
Ġ2 6
e f
igh t
Ġ2 8
ĠA S
ĠSt ates
Ġ out
ĠM an
ĠI N
as k
is h
Ġ 30
ĠR oad
pl ication
r u
ur day
4 4
ow n
Ġ 06
in t
19 6
in d
ĠY ork
Ġ 2011
Ġ2 9
M A
200 6
IN G
S T
at or
Ġ or
M on
5 5
Ġ ex
Ġf orm
u al
Watch ed
om a
n er
es ter
ĠP l
b ur
i am
Ġ2 4
EN T
ac e
S outh
Ġf irst
C l
ĠC ar
p p
ct ion
5 4
at t
5 8
riv ate
ĠC ity
Ġ 2010
c l
ro ll
Ġ200 8
Ġb e
S an
5 6
ĠS un
Ġf ield
f ord
5 1
4 1
C T
as ter
ort s
F B
Ġ e
d r
at h
an c
ex as
Ġv s
en n
Ġ2 5
ĠA n
s s
er t
M ich
ff ect
Ġn ame
k s
an ce
ĠT uesday
ĠM ar
5 3
o y
5 7
i ew
ĠC A
os ed
f er
Ġ 0
8 6
4 3
ah oma
kl ahoma
S U
AM E
p ec
O klahoma
ĠTh ursday
b y
V A
5 9
I C
ĠMon day
ĠW ednesday
ent er
O H
c c
ol d
an g
om b
ĠO F
Ġw h
ĠP ro
9 9
Ġ us
W A
n o
Ġa g
ĠA d
N V
ĠN o
it e
Ġt ext
p e
ĠUn ited
ĠS at
f t
r ed
L E
Ġ200 7
ĠSun day
th or
ing le
ĠV eg
l es
P ro
L as
wn er
al s
I ON
Ġd ate
Ġ at
Ġform at
ĠP ark
G re
Ġc omp
ĠF ree
ĠA r
im e
U T
00 0
e th
6 7
o ber
ffect ive
ĠF riday
Ġvot ed
is b
U C
ig an
re am
ĠVeg as
ou se
200 5
ap plication
T exas
ur n
US A
i ed
ou is
ĠSat urday
4 2
C le
FR AME
I A
os s
ri d
ĠIn c
w ay
B r
Ġ 08
ĠS h
Ġl ine
RE EL
P h
AS SIGNOR
ES T
m outh
Ġ le
N orth
ic al
I D
A d
Ġp rivate
form at
Ġth at
ĠN otes
a ct
5 2
ation al
n otes
in al
ĠC l
i x
isb n
A n
ĠI NC
f ield
Sp ell
oc ation
U R
o ol
ĠA m
an n
a ke
an e
ec ond
un d
v ailable
Ġ200 6
Ġ3 1
ĠT e
id a
A r
Ġc ont
er v
on g
7 8
ĠSc roll
ay ment
y st
6 6
re g
200 4
9 0
G A
ig n
ĠS A
S C
ag es
it ion
in s
h am
at er
p en
av id
et t
at a
ĠC o
7 5
ran s
Y ear
J ohn
um b
ing s
e y
I nd
Ġ ass
et er
art mouth
E M
9 8
am a
O S
ĠE ffective
i er
Ġto wn
omb in
T O
st ream
ĠF ield
le ct
r is
C ar
Q u
E C
ou s
il d
m in
U N
ol ina
Mich igan
t t
ĠMan ual
M iss
Ġp ayment
in n
au thor
F l
B l
ĠC ount
Ġ ad
9 5
ĠC O
Ġf ee
if ied
p m
7 7
in k
Ġc on
it t
e al
6 8
o ct
N A
PA Y
Ġ /
yst em
. ,
ĠB l
ant a
F PAY
M D
ĠSen ate
in o
r al
Ġ ch
o x
. ;
or n
Ġv al
or s
S e
ĠJ un
200 3
rou nd
p t
i k
6 4
n ot
N ot
a z
T N
ev el
1 00
oct et
ash ington
ion s
cl ud
ĠC ol
form ation
b ack
O wner
Ġs h
Un ited
Sp orts
Ġ 03
reg on
A ust
Ġb all
ow er
Ġ 09
S D
ers on
ĠCount y
ov er
6 5
a ir
P M
od e
e or
st on
6 2
it ch
Am endment
am es
ad a
dr ess
O regon
W in
ĠJ an
S A
ag o
in u
n ew
ub l
ĠR ep
ĠA l
ĠJ ul
7 9
ĠF ile
t l
F lor
ĠIN TER
L ouis
A vailable
200 1
ĠA N
ĠB e
AT ION
y n
ĠCar olina
M M
j ect
D avid
Ġ k
ou nd
200 2
ĠR e
ri gh
ap er
y l
20 00
ĠF L
6 9
M ult
ay lor
Ġag o
ON E
M ENT
ĠS T
7 0
H I
ot t
7 2
W est
Ġ Z
G R
av ailable
R ead
r ist
Ġ ev
Un available
S c
on a
Ġ [
ter n
in c
a x
bur g
an k
Ġ as
6 0
h er
en c
ES S
el ocation
A D
un n
ĠN orth
iv er
I R
ĠD ec
ĠN ight
M S
im age
ro d
en er
h io
H O
ar i
ĠA ug
Ġs econd
Flor ida
Ġp m
l d
Ch ar
Ġ 04
Ġin clud
r am
OR P
ng el
ĠO ct
N J
le t
E d
ĠN ov
al t
H A
Ġin formation
ip le
ou ri
ill iam
L C
W ant
ĠINTER EST
O K
re w
ĠA ver
ri ke
Ġp l
ĠS ch
S E
Ġ 01
ent al
m son
8 8
H ome
AS S
Ġ 02
ĠNight ly
or p
ĠP RO
os e
Ġ 05
i ke
ĠN O
F inal
I M
ĠF ran
7 6
Ġ 00
rike out
N E
8 4
ĠAver ages
r on
Ġ am
ĠN Y
ond on
F res
ĠM ay
et s
le x
ot e
ĠPl an
Louis ville
ar a
ĠSen ator
ep t
Miss ouri
o ok
p osed
St an
ons in
isc onsin
Ġa cc
od y
ĠP M
ĠO r
8 0
Cle mson
O hio
E x
al k
ĠF eb
ĠE d
ar m
it u
er man
ĠM c
st rikeout
a f
M en
ĠM en
ic ago
- -
B A
s p
on ent
ab ama
ri b
6 3
righ t
m kl
W ashington
a el
L SU
mkl z
O n
Gre en
D E
C on
P ort
ĠAS SIGN
us s
ĠD artmouth
O pen
er ic
ĠB ro
er e
W isconsin
ĠD O
ec k
7 1
.. .
8 5
T H
Mult iple
F ull
em ent
ĠASSIGN MENT
ad e
ĠI ll
on y
at ure
Al abama
Ġ all
W I
) ,
D ONE
res ent
er y
el s
am il
A Z
In s
c on
ate g
P I
an y
R I
v ir
ĠC omm
M ale
Ġp art
ĠAS SIGNOR
F ri
ubl ic
M N
id ence
Ch icago
Ġ res
A tl
ET TER
G r
ĠJ ohn
ĠA ngel
Fres no
ĠL ETTER
7 4
ĠS p
rid ge
ol l
om en
ĠG u
Ġex per
Ġwh ich
ĠASSIGNOR S
iv ers
Ġ X
8 2
Ġ200 5
ĠE n
i or
ĠA pr
Ġw ee
T ot
ic s
0000 00
ĠA M
UC LA
E ng
ĠP aper
F ran
AN D
7 3
uc k
it or
vir on
E l
Stan ford
viron ment
o o
c o
A B
ire ct
ect ion
L ondon
8 3
8 9
ic o
ĠA v
J ack
isc o
y d
ĠB r
iam i
um ber
N one
Ġc ombin
ĠT X
l ine
Ġ un
a i
C o
ĠC omp
ol og
F il
ĠN ew
Ġn ear
L os
a ul
B aylor
8 7
D isc
ol s
T E
ĠC enter
Jun e
fer red
b s
w e
Sh el
it s
U L
u le
ĠTe ch
ri g
ĠL LC
ub urn
ĠH igh
ow s
if ic
F OR
M iami
M an
E n
at ing
Ġ Qu
Ġpro posed
r ap
Ġ #
L e
199 9
ĠC on
G B
r ing
im ental
o ice
ateg ory
Ġp resent
ĠH ill
le ment
Ġa b
Ġin ferred
el and
Ġcomp ut
Ġcombin ation
199 8
ĠW atch
Ġexper imental
F rom
Ġc l
A uburn
ober t
er ry
ĠAngel es
vironment al
ĠPaper back
F riday
j p
Ġs ystem
O ther
ĠF ull
AL L
Ġs pec
Ġev idence
Ġd ev
y s
ĠA nd
M P
L a
er ly
ay er
w ood
IL L
199 6
av e
ri z
D an
Jul y
g er
Ġs outh
A K
Ġd is
er m
B ro
ic t
o e
Ph il
Ġcomput ational
Ġ ro
8 1
T uesday
ap ol
Ġon e
ĠC ORP
F r
F C
Ins itu
V D
ro v
Shel by
ic es
eth od
ĠP h
er os
Ġd ata
ĠS ep
T e
Ġpro v
ĠM ore
M ov
Th ursday
F or
ĠFran c
W ednesday
ĠBe ach
ĠW est
ar b
G l
ep h
up port
v ent
A P
Ġw ill
y pe
Ġn ot
Ġin t
Ġs c
ĠP r
ut e
W eb
amp ton
sh ire
ĠW h
Col umb
ĠP A
u ild
P l
o in
er r
re en
al if
ĠS P
ino is
al d
199 5
Ġc an
ĠI s
P IT
6 1
L oss
m p
R A
Mon day
EL L
Sep t
Mar ch
un t
ain t
ad o
P AT
ont inu
H E
id ent
C an
as ed
ĠAd dress
apol is
O r
Ġth is
Ġc enter
M ont
h ouse
S L
en g
A ct
u ary
aster s
Ġt rans
us e
Ġn orth
ĠA PI
ir d
ĠA ct
Th is
as es
A eros
K Y
ĠS erv
te in
an a
A nd
D IS
Apr il
A g
m er
C E
riz ona
A ll
ot a
riv e
Ġam endment
C omm
ĠS outh
Aeros ols
em b
M B
G E
our ce
V E
5 00
m ith
ar r
Ġ up
Ġle ft
Ġ *
ĠFranc isco
ĠF ood
199 7
is on
att le
Mov ie
qu e
Ġ200 4
Ġ al
e ff
M in
9 6
am b
R elocation
B e
D r
ro l
ER S
ĠE x
ĠT ime
ert ion
ĠF or
Ġval id
O VA
u ff
ip p
w ard
24 0
jp eg
ĠL ake
k i
l er
Ġin ter
Fl ask
7 50
Atl anta
Ġre c
i ence
l ish
Ġab out
15 5
C ategory
Ġm od
ĠAN D
C omp
9 4
S w
CH ED
P R
A rizona
ĠH ard
S o
Ġass ertion
Ġd e
B AL
ri an
ur r
Ġh as
g an
ĠF l
Fil ly
c es
D C
Cl osed
en e
Ġs ub
is e
Ġ200 3
ĠS er
DIS PAT
DISPAT CHED
a j
Ġ right
IT H
ort st
l in
9 3
9 1
un s
ation s
Ġ day
ch ester
IT Y
D en
t ask
S O
ar s
ĠM A
Th u
9 7
L AT
ton io
G eor
C C
us h
er c
S pr
u ct
ĠI nd
OR E
Sat urday
ĠG l
201 6
erman y
F X
ĠB ay
ĠRep orts
ock et
ASS ED
ĠV iew
ans as
Aust in
ro ss
c ess
C it
M asters
S M
ortst op
ost on
qu est
ou ston
ad el
Port land
I G
T or
Ġwee ks
ru ary
ur al
ud io
E V
s c
F ort
R ec
L IN
R IN
alif orn
P ol
) .
N orm
n ect
ĠD B
Ġvalid ated
T ue
R ich
aliforn ia
Ġprov id
ĠPRO GR
ĠL e
er d
9 2
Ġm ethod
R obert
ĠAn tonio
ĠD e
all as
ĠD oc
Ġn umber
id d
Ġs e
ul ar
ĠS pr
25 0
ent s
P r
p plication
H C
Col t
W ed
EL E
P S
Ġ200 2
ide o
ask a
al y
w est
Ġ ,
ĠK ing
R e
ear ch
g in
M E
6 00
rou gh
D B
o th
r ick
CH N
ĠPROGR ESS
b le
ev iew
David son
ĠSt a
m e
ĠG ases
et a
olog y
f ace
Green house
ontinu ance
K S
Ġ he
ir m
Ġg round
Aug ust
r um
ph ia
ĠB HA
ov e
ĠY ES
ĠL a
adel phia
Ġvot ing
H ouston
d t
pl ay
Sun day
ĠW t
ĠA ss
in es
unn ing
N ash
ĠC orp
ĠIll inois
P ar
ne y
Jack son
y c
T r
ĠT est
Sp ec
N H
as on
199 3
ro s
en a
Ġg ener
u es
y r
ĠW illiam
Oct ober
T A
our ces
B oston
ĠW A
R o
I t
ult ure
Ġc omm
D VD
f ig
ke y
ral ia
c om
N S
b or
ĠV al
th ly
M il
Ġ* "
Nash ville
at us
ĠD C
P E
ĠI L
Dec ember
ro w
us ic
Ġc or
ĠMon itor
oc ial
ĠGu ide
ĠO n
ion al
ond o
ĠS pec
o int
ĠF C
ĠC ont
ĠO per
aster ly
rou p
land s
ĠA g
ĠG A
c over
ĠU T
s ingle
Char l
ar g
f l
ĠCORP OR
w in
ĠS M
ĠP ower
ĠW ITH
ĠM ain
R es
all ed
Se attle
p d
os h
1 10
G ermany
S F
ĠHard cover
ap p
ĠAm endment
ĠCORPOR ATION
ow f
at ive
ĠM ich
W C
ĠT r
Phil adelphia
Ġp h
ob s
15 4
Ġp ort
el d
evel op
ĠR es
ing ham
ber t
eb r
re te
Norm al
I CA
es h
D allas
oc i
ap an
M c
G u
AR I
b ject
Ġl ink
ASSIGNOR S
Ġs ingle
Ġ :
Ġf e
om as
Sept ember
ĠN E
Jan uary
rap h
B ar
S anta
w owf
wowf ie
uild ing
C S
ĠM ark
f ly
id er
ur y
Eng lish
N e
u k
ĠS EC
ĠH ol
o le
w are
ĠMonitor ing
ivers ity
Ġinclud es
an o
C ombin
W illiam
D e
w alk
ex ico
eric an
ric ulture
k n
ic a
un ication
T R
ont o
Ġ20 00
ĠA ge
am m
Combin ed
L evel
w on
M ad
d e
C ondo
199 4
ur ing
i ent
I I
c omp
Ġin st
Nov ember
g ram
ir ed
em ale
re f
198 9
C OL
ĠH e
0000 0
L O
Can ada
Ġd isc
igh ts
ob ile
Mich ael
ĠServ ices
s om
ĠE l
d y
el ess
Ġ j
ib r
n a
or ado
ent ral
ĠG r
B el
F A
S al
Ġa pp
A way
ly n
UC F
F I
ĠD i
amil ton
on es
198 8
Mon thly
M IN
eb ody
ar ri
iv ity
il es
Ġl ayer
ebr aska
ĠL ouis
som ebody
at ic
Ind ian
tern al
ĠO wner
I s
b a
S ingle
Ind ia
ĠR iver
u ke
Ġt ime
Ġpro tein
199 0
199 2
North ern
Ġ3 5
J eff
d ra
Ġ +
u ro
Ġth rough
Ġv oice
H ar
at s
b on
ĠA G
re ed
Ġvot e
u ch
ĠP art
y an
ĠH ouse
A s
Am dt
ĠS an
Disc rete
Aust ralia
Ġ im
u per
B ER
S ch
T I
Ġ Q
D F
m on
F emale
Ġ end
T Y
Ġp re
ut ion
Tor onto
W h
Ġr el
m ond
ĠU SA
ĠSM ALL
D artmouth
Tot als
ĠO H
ĠS mith
ot te
in ess
it ies
o el
H T
Ġdev ice
ra in
ĠEn vironmental
Bro ok
t d
ir eless
enc y
Ġval ue
dr pm
Ġ3 240
ĠM ill
pec ified
R ule
ev e
ec ur
Ġan not
L and
ir gin
LAT IN
um m
Ġ199 9
g round
P ublic
Ġl bs
Den ver
ĠComp any
I nt
Ġa ct
ou ble
ĠW omen
J apan
Ġp er
t y
e z
ĠT O
ĠS e
ur es
S r
ĠSpec ial
ed s
ke e
Ġad dress
11 1
ĠH ar
ĠD r
Ch rist
il ity
en se
ĠM I
bur gh
T ON
ay out
ĠC H
ern el
le ge
o z
N ebraska
Ġm on
Ġannot ation
Ġm e
A U
ev in
ĠOper ator
d er
10 7
Cit i
B us
M ike
ap t
M a
R AN
es c
Read ing
PIT AL
uns pecified
Ġs ign
6 86
ĠM e
Ġbe en
Tot al
if f
k ins
D R
eg o
Ag riculture
f r
ĠHigh way
ut om
ou l
amp a
N or
is ion
ĠW eb
ru ct
D A
we en
R eview
it z
Ġs et
ĠI nt
FR A
Ġ it
ĠL ow
B C
o ft
H L
ĠM O
Ġs ources
Mar y
ound s
J ames
kn own
R ep
Ch ris
art ment
A lex
AS E
ĠJ obs
EN E
d om
D irect
ĠManual ly
ar l
198 2
198 7
a id
S aint
k y
b l
Ad ult
u x
ĠRe form
ro c
Ġs upport
5 09
E m
H amilton
U M
Feb ruary
1 20
ic le
S W
a it
ad ley
Ġf l
199 1
ĠCO MP
et te
ou gh
am s
Ġh h
urr ent
st r
Ġb et
RE G
an ia
ĠB uilding
ĠP et
ri e
ers ion
L OS
ĠA ll
Ġro ad
bur y
R M
all s
ist an
ark s
ers h
irgin ia
o at
no x
ĠCA PITAL
Ġc ol
O G
A p
Ġd ef
O P
00 5
dra wn
M inn
ot ion
st er
ag n
ĠR ec
ak a
y le
C K
ester ly
f ric
Mar k
C D
ĠT E
ill a
? ?
inu x
W ith
ĠSch ool
P er
el y
S en
AR D
Ġus ed
ĠR ead
ĠP aul
V ER
o ot
v iew
ĠM or
ĠQu ick
o f
ev en
Ġa pplication
d eb
P rivate
Ġf ile
F E
pd f
l ib
Ġc om
15 7
D on
ĠD ame
d en
u el
M or
S l
at i
et ro
C Y
A pp
K nox
ĠP DB
K ansas
3 02
Ġe lect
3 00
CA N
Columb ia
id s
em ory
p ut
ord ing
ĠW ireless
Ġacc ess
un g
C ON
P H
at ab
AN K
oin ts
and er
Ġevidence i
am er
s er
Ġ en
Not re
ign ed
R eg
ĠAv e
AL I
B rian
g z
v eland
y m
itch er
G EL
al m
S P
Ġre g
a e
ĠH all
es ota
re y
ĠS w
D ef
l ing
12 5
ĠBl ack
Ġbet ween
k a
L AN
ĠE ng
K B
ĠR ed
H al
ou n
V ote
g ia
Ġday s
Jackson ville
ĠB ar
w ich
Ġre p
eter min
ĠJ r
Ġn ew
o or
ĠE ast
P ASSED
ĠU S
unication s
Al b
h an
u z
r ess
und er
ibr ary
C L
ĠCh rist
T IM
ri pt
N M
P K
ĠNO T
J r
ut es
198 6
ĠMan ag
B R
ĠAN GEL
Ġto p
ĠG reen
W omen
il ver
Ġpro cess
Ġdis play
un ch
ĠM in
ĠANGEL ES
Ġo ther
ĠTh is
D U
oy s
il m
it er
C ell
M AN
air s
Charl otte
Ġag reed
fric a
10 1
M T
A st
atab ase
if e
ĠF OR
fig ur
F unn
z e
19 08
ount ain
Ġs er
ĠD ay
d ef
Ġwh en
20 6
ĠBro wn
al es
B er
ib le
C al
O W
t r
yc ow
Ġus e
Funn ycow
S Y
T ed
o en
Ġr elocation
o ard
ĠP AR
ool s
L Y
w ork
B ob
iss ion
l ost
D ate
Cle veland
it ts
ul es
o om
Ġin d
ra ct
ĠA R
and ard
ne apolis
aw a
itt le
ĠDi ego
ĠSEC UR
A A
ĠA ir
* *
ra w
P P
Ġd rive
iz ation
Man chester
O ff
ro p
ri m
ĠSECUR ITY
le v
nd er
un ction
comp onent
N IA
av is
ath er
a ff
iz ed
Ġ1 00
ĠA L
Ġre quest
ĠUn iversity
Fran ce
ons ider
11 3
ĠI t
ĠC at
Ġsc ience
ĠC OL
ĠSp ect
ĠIn st
A G
Ġm ay
ir c
T T
eck ed
i j
Columb us
P G
B O
ri a
Ġon ly
D el
b it
12 1
sh ortstop
ĠP ASS
Ġm ore
at ter
ĠC amp
ac ing
x ide
T ampa
ĠM D
. )
TIM ORE
E v
C R
M obile
ur t
w o
ĠI I
19 11
BAL TIMORE
M r
ou d
Spr int
ĠL td
ĠN V
ĠS C
Ġcont rol
A b
St alled
I m
19 09
Ġ200 1
ol y
Ġre ce
Ġle ast
B N
d ate
eal th
T ur
ĠSpect rum
g y
ix ed
ou ld
10 6
E E
Ġs p
ĠB ank
Ġn on
H ER
ecur ity
ra z
ĠM N
amil y
En vironmental
Ġ4 0
le te
M at
ug h
Brook lyn
s econd
Ġd evelop
F in
M el
Ġs erv
ant s
Ġsouth erly
N on
ĠY ou
ĠTest ed
P aul
P an
G ER
B M
R eal
ri k
Ġint o
uro pe
ol n
15 0
M et
re al
w au
RE MI
ru ction
Ġcon figur
10 4
oc al
ain s
With drawn
e in
T OR
u thor
K n
ĠAn ch
OL D
m a
ĠD ID
Ġm emory
im ore
Ġport ion
Minn esota
12 3
C alifornia
V al
.. ."
os ition
ter ation
R ILL
o ff
Ġb l
wau kee
15 9
ĠS ocial
ad i
Ġs ur
ĠCl ass
ersh ip
19 10
J im
land o
CH A
ĠM art
op er
th ers
Ġo bject
ĠS Y
pr ess
alt imore
ict ion
R ock
Dan iel
M IT
D ick
L ar
Jun ior
Ġcor ner
ĠA frica
am in
18 0
our n
AN Y
ĠW ind
N D
ir l
Ġ5 0
ol ph
ĠD an
It aly
R uss
is ing
ĠN C
Ġl ist
ric t
L inux
M e
ĠVal ley
ĠM ass
P ak
Ġus ing
if ies
en h
A cc
R ed
es e
i et
ĠR ock
F ree
ĠW ay
Te am
T D
P itts
T im
en ue
ber g
Ted dy
er o
19 0
ĠR eg
it al
ON SC
ONSC ENE
it es
John oel
ĠAnch eta
t el
198 0
ĠComm unications
M AR
Ġt r
ĠB el
c ast
Ġ qu
av ing
Ġt ype
l oad
Ġo ver
20 9
Min neapolis
ĠWilliam s
w ell
HO U
ach e
Ġd et
Br on
le ans
14 7
or ation
Ġm in
U P
ol t
N EM
15 1
C entral
ing er
E ast
FOR NIA
os eph
M exico
198 5
H aw
Mil waukee
S am
ĠAr m
Ġmod el
198 4
H z
T S
erd ale
D od
T ig
ur a
ov ern
Ġ199 8
b e
t ar
ic ense
13 5
etro it
ud erdale
M ed
eth ane
r ation
A ss
ĠW I
o on
SD HC
ur ch
ab out
Ġy ou
ĠOn ly
S ac
Ġa utom
ou ver
ĠU p
M L
o ch
Or lando
r d
An n
ĠKing dom
t ra
S ub
use um
Ġsign al
K E
a ult
ĠV er
ĠC an
oen ix
R et
Ġmon th
ĠF und
S ON
Ġ ant
F T
g en
C ont
it a
Ġre t
u f
Ġ 2016
in ks
Disc ontinuance
av a
al o
Ġw ater
Ġwh ere
mon ton
ed er
anc ouver
og s
H our
ĠJohn son
D is
I r
ust in
E X
ac c
ear n
ĠW OL
ĠG eor
St ring
Ġre port
con st
L I
Ġ 201
ari ant
A C
ĠWh ite
A V
V ideo
Bl ack
Rich ard
Ġus er
A nt
B en
Geor gia
ĠT exas
ĠAv enue
M ac
D ro
iz e
Pitts burgh
c ent
ĠO f
Ġ199 6
Act ive
ĠWOL FE
ĠCh ar
Ġc urrent
ĠV ote
ĠB ell
B OL
ap s
ĠB ridge
our t
A US
ar n
10 5
Ġ >
pp onent
ĠOr leans
Hour ly
end ing
Mad ison
rov ed
ev er
Ġo per
ĠK ernel
Bus ch
Ġwee k
P at
W AS
10 8
D etroit
l ed
ĠM ed
Ġm an
Ġ199 7
T RE
ĠL ibrary
ĠCOMP ANY
ond uct
O D
an ge
Ġall ows
ĠA nt
us iness
ener al
B altimore
or age
ter s
O U
Ġ if
og raph
AT ES
ĠMark et
ian a
Ġd ouble
A c
Ġcon nect
B ug
F F
12 50
p op
em p
is m
ou g
N o
D uke
M id
anc ial
m l
Ġex p
O per
ĠT rans
out e
ow b
Ġspec ific
p ro
pp ed
c pp
Ġrep airs
J oe
inc oln
st one
ip s
Ġnorth erly
et work
Pak istan
O pponent
b ab
196 6
D om
ĠBro ok
15 6
and y
th ew
Ġ4 5
Ġ $
ĠW ashington
ĠJ ames
T rans
ĠF alls
Ġspec ified
ip k
K en
Ġd etermin
T ri
P HI
R ES
Ġo pt
ar c
if y
her st
11 2
P erson
ĠV oice
ĠIs land
Ġinclud ing
Ad d
e q
h k
le an
ly mp
e an
ĠTe am
Ġm ember
n ess
arm v
Ph oenix
ĠW orth
Ġun it
fer ence
15 8
D ET
ĠC ALI
RO M
Ġacc ording
AN A
iz on
L D
U K
t o
20 5
ap e
Dro pped
NE W
Indian apolis
P DF
10 3
et ts
Ġf ly
Mont real
Ġs im
ĠIn tern
C M
ĠA Z
Char les
ĠRep ublic
th ird
c os
Ġd o
Ġcl ass
ĠR d
h a
Ġa c
ĠO K
em an
For um
ĠD avid
ĠR ich
S ar
l ist
Dod ger
o ke
L ayout
H on
47 8
Pro t
rig ley
h ib
19 5
own load
O T
ĠR E
Ġgener ated
W rigley
u a
ĠM iss
ad ge
Ġh aving
ĠA lex
em ic
Ġe asterly
ol a
V ancouver
re a
B L
d uct
n y
O tt
P N
ĠD E
15 3
ath an
en ry
C LE
M att
T o
10 2
45 3
il son
ur g
TRE BOL
G L
US C
Q U
u th
J R
overn ment
C I
ester n
re t
ur b
ĠH D
ĠH adley
RE D
qu ired
f irm
Ap artment
Dr ag
AT L
u ction
D ev
ĠMar ch
ĠS ystem
ĠV ol
ĠH old
Ġ199 5
J on
V ern
ĠCALI FORNIA
19 13
Ġtop ic
L aw
p s
ak es
ol ution
198 3
ĠC alifornia
Ġ ext
12 2
ĠL ee
10 9
ĠF in
Ġh igh
el le
Ch ecked
f o
197 6
act er
F P
P re
E A
O lymp
u ter
ab bit
eld ing
12 4
14 0
g ar
25 00
ach us
ar ies
he m
C IN
CH O
S H
OL OG
M IL
pl ic
V T
M ill
ĠP res
ĠT N
io xide
Ġres p
oc ale
eph en
Ġsh ortstop
s w
m all
ĠE ag
ĠPart n
t ext
And rew
RILL IC
ĠS alt
B uff
Col orado
inc inn
03 1
incinn ati
ony m
11 5
achus etts
M usic
ow a
ĠEd ition
ĠW ood
ĠP er
11 8
Ġs ide
um ent
ĠCol lege
B ill
E lect
f or
ant ic
Watch ing
le ction
ist rict
ĠUn i
Gr and
eal and
4 09
D I
M ethane
N ame
Ġb ased
f ess
s ide
Se a
y a
Ġe lement
Ġser ver
St ory
P et
TE X
S R
198 1
i en
k g
3 04
r ay
N O
Ġ att
St ate
ir us
ĠD ioxide
v es
ĠM useum
G elding
A H
E nd
k er
amp le
e asterly
Un known
id ge
ĠR acing
our s
ĠZ ealand
E ffective
CY RILLIC
B Y
c ont
ĠCorp oration
Ott awa
ri ver
Ġs up
ad y
20 4
12 8
HO D
ord s
197 2
O ak
or ld
ĠR ELE
av en
irm ingham
iv ing
ran ge
ens ion
Ġmonth s
5 06
Fran k
or a
ol k
ĠD rive
C incinnati
W e
al ity
196 3
ĠPr int
R yan
let ed
ĠMich ael
ĠS U
ĠSer ver
eg r
ĠAr t
H ol
v el
et y
ĠG roup
AL E
J o
ĠD ocket
ĠLa uderdale
un e
ĠD el
ff ic
ĠB ANK
Prot KB
ĠUni ProtKB
ar ter
ĠC ON
ST EM
enn a
D ig
ec e
IT A
als o
B ook
ar on
ĠS al
ĠA c
ĠF r
Met eor
ER I
Geor ge
11 6
Ġst d
ĠRELE ASE
20 2
ĠA b
em s
O AK
en ch
if fer
a o
l ington
AT E
qu ence
Ġprovid es
end er
Am erican
Spr ing
ĠCh ester
Mar e
onsider ed
og a
olph in
r ence
ĠH yd
13 0
ac y
ĠV A
ET HOD
ĠSer ies
R iver
O M
S S
m s
ĠT HE
ĠSt e
197 0
bor o
19 2
ad esh
GB R
or ia
2 18
uc ation
ĠO N
ĠTech n
Ġ image
Ġe ach
L P
Ġf unction
he im
Meteor ology
P age
u it
v e
12 6
Ġc re
OR TH
ĠTE CHN
App roved
ĠM o
ĠSt udio
ĠP at
S G
port s
16 0
ri f
ĠAnd erson
B U
ident ified
op h
Ġm ess
ak er
Car bon
Sc ott
V eter
l a
11 4
ot or
ell s
ĠCl ub
ett lement
ĠM ad
ĠB all
ĠN J
Ġr ules
Mary land
m et
IR EL
def ect
vent ion
Ġprovid ed
D ocket
l o
ĠF lor
ĠNE W
ac es
al f
197 9
Eng land
ĠS O
u an
op e
ĠHill s
LIN E
at ers
Ġan y
eric a
P res
ear s
IREL ESS
H AR
Q C
arri ors
m ed
ĠD BA
197 3
az z
L L
Th omas
unch ed
A ction
20 3
ĠC or
ab ility
L incoln
iv es
n ie
v al
12 9
rib ute
Ġinclud e
Ġdevelop ers
17 5
Ġautom atic
ĠSpr ings
ĠS ingle
op her
ish ed
rig inal
ĠPro gram
ĠTECHN OLOG
end ed
Cl ass
ĠAm herst
R oad
l oss
Ġb ack
Ġsur face
B E
ĠW IRELESS
ĠJ ack
ĠR h
ent o
St orm
X O
SE A
ĠP ASSED
B irmingham
S er
ĠP ar
qu ip
38 6
ĠR ail
ĠJ ose
A th
os it
ĠPartn ership
y p
B OS
ĠG o
In ter
W V
ĠR ivers
ĠIn ter
ĠTh omas
La unched
ĠJ ones
iv an
ĠO R
IT T
ĠUT C
ĠL inks
T it
ĠO b
ill age
if ication
ra il
sh ip
47 7
Ġapplication s
ĠVer izon
app ing
ol f
ater ial
ĠB en
ĠEag les
ĠP CS
al ly
ĠC ent
11 7
Ġp ass
yl v
H e
ĠAm erican
EM ENT
ĠL A
ĠAug ust
ĠW e
k in
il ar
al a
om ing
ers ey
12 7
ĠPro t
C U
al th
ida e
Par is
em y
K evin
Ar g
ĠM ountain
IC E
b ell
Ġ also
ol ic
CH I
ĠD es
OR D
T om
EN D
C at
l ocale
ĠD avis
197 7
S K
Cell co
r s
ent ina
O m
re tt
B y
v is
re m
he ad
Ġw e
idd le
Ġcont ain
15 2
ard s
u ther
B ull
ĠR ap
ar ch
ical ly
i qu
in ce
ĠA cc
197 1
E ric
Ġ5 5
m ark
op t
av er
2 28
iv irus
UT E
ĠT o
R abbit
ĠE m
Ġpl ural
ph y
Ġdisc ontinuance
i ous
ĠM ary
ys is
Veter ans
Th ree
20 7
ĠF ROM
t a
t ah
he ap
Gr ant
erc ial
ĠManag ement
Ġse lect
P o
3 09
ĠS im
ro y
anc y
H am
Ġ ent
Ġd ist
St eve
ĠP al
v est
Ġc ross
Ġ rod
P eter
197 5
ĠA s
ull ivan
14 5
ĠB C
ĠU nder
at on
Ġp ar
E W
ĠE st
ah a
quip ment
str ate
ĠR ef
w ick
Sen ior
c er
ĠSpr ing
C ity
1 19
ro ad
Ġh ave
ev ada
46 8
ĠCol umb
ĠApr il
owb oys
ING S
D ay
um an
Ġm ile
ĠC ons
4 00
le ase
Ar t
Ġad d
ver t
ent ial
et ing
Bl ue
arr en
ĠR ow
ĠD irect
Ġre ad
ĠC ap
ip e
uck y
S alt
d ale
ĠR O
T PE
Ġs uch
stone heap
P art
Ġch ar
raz il
R US
S im
et on
f ile
Ġth en
od d
N I
17 0
D es
Ġ under
Ġrules i
) )
ĠR obert
T ION
Ġy our
Rich mond
ĠS ilver
ĠC T
Ġd es
ac ific
ub b
Ġd ba
ĠS ept
ind ing
ail s
V I
f c
k k
14 6
Ch ina
C amb
and on
oci ated
Ġs ess
LA PS
c el
ĠP ort
ail y
K ar
ed en
Car l
n ow
al ysis
b r
ĠT er
ĠM ur
G RE
M F
ĠB ur
v ariant
ĠC ourt
CO M
ram ento
Ġcom pr
at ural
ĠT own
OR K
C ard
E urope
Sh arks
es a
ĠM usic
amp shire
G O
onym ous
ourn al
ust om
ĠChar les
arb ara
per ty
os a
C ount
oll ow
ĠR D
ther lands
Ġplural ity
ch e
V irginia
ver age
Ġ em
ĠJun e
Ġt wo
Ġth an
SIGN ING
Ġd uring
ĠA t
aster n
DU CT
ay s
ist s
Mat thew
13 4
ĠGl ide
Vern o
w esterly
C ode
ĠD ATES
K ing
Ġst ruct
ĠCol orado
aid ers
18 1
ĠO ld
u is
13 1
13 6
ab les
ON Y
Ġh ow
196 8
47 6
ris on
rod ome
O ut
X X
18 3
R B
d ogs
ri p
g r
err or
Ġconfigur ed
Buff alo
th e
SD SM
I ll
ĠN e
46 3
ĠN ot
Gre g
p ool
F red
Ġof f
ac ob
ob al
14 2
o id
ro ke
14 9
rov e
Tig ers
W arriors
ot s
is ter
ĠO l
Sp ain
Ġrod s
ert own
Ast rodome
M al
Ġre view
ĠS he
Ġre m
k m
R ob
oc ument
S ystem
13 2
17 2
P F
ĠL ife
P enn
ĠD en
Ġm et
C onsidered
z a
16 5
Ġw as
Ġst ate
Gre at
ĠColumb ia
W ind
14 1
pl ain
ĠT an
3 31
G e
ĠO ne
NY N
d ated
J ay
n in
l ins
ĠR ob
16 7
Ġg roup
re v
ĠSY STEM
as g
Ġp ower
In ternal
Kn ights
Ġ x
Ġ3 29
Act ivity
Ġim p
Ġs ite
Ġw ork
2 10
K ent
19 1
Ġmethod s
ĠUn ion
ipp i
ind a
P ER
ic ut
5 04
R unning
fr ont
UN D
enn ess
B ran
th ony
le as
ec ut
00 4
J ason
sp ect
f e
urn s
19 56
om y
ĠH ealth
if t
r pm
19 12
ord an
e ast
ĠB ran
Ġdetermin ed
ĠF X
ORP G
oh s
Drag ons
47 0
Ġ ident
18 7
SL N
Pan thers
E K
ĠS uper
se y
UT H
Ġass et
17 4
ak ota
eng th
So ft
asg ow
46 0
196 0
ul a
nect icut
New s
u y
oc omp
ĠG round
itt ee
Tit ans
V ict
Ġ i
Ġb ut
Ġd irect
j ar
ab eth
E r
ĠV irginia
Ġinter face
L i
s en
16 1
kl in
Ġhe alth
ĠU l
20 8
197 8
act or
ĠMich igan
A ge
s ur
let ion
W O
S old
ĠC al
ow ard
ĠYou ng
S um
Ġme as
I VE
ĠP ra
W ill
16 6
qu er
P RO
R os
Ġin vention
Ġ8 0
G ets
ad d
B o
al ia
M erc
O ver
W ork
w h
enn is
ĠS l
B I
P oints
ĠRap ids
or g
og g
ost ers
TH ERS
Sac ramento
Ġd iffer
ag on
Ġsim ilar
F ul
iss ippi
os m
a ud
um p
ly wood
in son
enness ee
ile y
Oak land
R Y
ĠM at
Ġc ons
13 8
ev ille
C owboys
ĠG ames
n es
ĠM ead
Ġth ird
Ġn o
ĠMart in
197 4
le ased
se a
Ġr unning
ĠNorth ampton
Spec ifies
Dig te
E els
ĠL ane
UN AT
ĠJul y
and a
ount ed
b our
CA R
Ġp r
ĠV ersion
Ġd atabase
MM ORPG
Bron cos
re ad
SD N
g om
ĠT rain
ATION AL
R aiders
le g
Ġst art
SF N
ĠH art
Bull dogs
u i
ĠR idge
Ġcomp onent
W ait
s k
Arg entina
Ġ199 3
IL LE
Tur ner
il t
i ary
Atl antic
P L
13 3
m it
P T
Ġr un
ann ah
Ph ot
c ed
196 4
act ive
yl er
ept or
H el
St roke
Ro osters
Rabbit ohs
gom ery
ĠG old
L ake
, "
Ġc irc
ylv ania
I F
U AL
bab ly
F e
ĠS E
re at
iv ision
ell a
ĠAG RE
ĠInt el
H un
Ġw he
ĠAGRE EMENT
14 8
P O
16 9
a ction
el ly
IN E
ĠJan uary
ar atus
Ġo pen
17 9
Ġm aterial
ut ter
ĠSt ud
River front
id th
ar o
Ġg r
196 7
Wh ite
or ed
en o
ĠCo oper
ĠP AT
ĠT im
Ġt e
ĠW at
17 7
C re
Sh ort
Car olina
ar ry
G old
arg et
G o
H ard
i rie
is a
ĠM ETHOD
Dan ish
M apping
Direct ory
S uper
s burg
H ouse
ĠM exico
c a
t le
Pro v
B razil
J ournal
Ġd ec
rom e
Ġ199 4
ĠMill er
N Z
ĠP an
16 8
L anc
ĠR em
D oug
Ġfe ature
C res
iz abeth
18 5
13 7
ĠO ut
op s
oft ware
L U
ĠB and
emb ly
S ullivan
K G
in i
17 6
anc ement
s ch
17 8
V i
x x
Ne therlands
S av
c k
196 1
Sw eden
A CT
ĠFeb ruary
O z
Ġl ocation
Ġal teration
Ġo z
s a
" -
ar io
S mith
S AN
am ed
Ġp ack
i as
L ast
Ġa vailable
ĠD on
Ġw esterly
ang u
ĠC ard
ĠO THERS
em ph
17 1
IN D
ĠOct ober
A F
l as
19 4
itz er
cast le
An onymous
WC M
ĠH ampshire
Ġact ivity
Ġup date
M ass
ĠR ad
EN S
uf act
V AN
b ro
16 4
H igh
N ick
Un i
pl ies
C am
Fl oat
J osh
and l
W ater
ch n
ce ed
et ic
R ef
Ġw eb
p ng
D olphin
G eneral
T ools
ing o
at re
ĠH a
ĠJ ersey
ĠV an
ord er
Ill inois
ar ed
196 9
inc eton
onduct or
D em
z z
ĠD akota
i us
n ob
ĠD ev
Ġl icense
av el
O F
ĠR od
19 58
ch ertown
18 4
17 3
her ited
-- -
Ġd om
Mar t
C or
R ay
iv ed
K e
ĠServ ice
A t
Ġd ep
man n
Ġpl ay
Ġ3 3
IS BN
emph is
18 8
Ġl ight
Ġp itcher
ale igh
ree k
ot al
16 3
13 9
ĠE P
Ġm ed
Camb ridge
T ime
IT ING
one y
Ġpro t
I ES
b oard
ĠB er
ĠH AM
ĠSt ation
IN S
ra ham
ĠAm erica
A sh
ad es
196 5
ĠAd d
Cres ton
A verage
L ow
ST R
ĠMur phy
Ġf r
p itcher
ĠR el
T B
ent on
Oper ational
b ased
n et
37 50
19 3
ĠM ac
it ial
Ġthe ir
ĠFor est
J ess
ĠD ownload
ĠM et
unt ington
Gl asgow
ĠS and
ĠD h
ĠD EV
18 2
Ġm otion
45 8
Col lege
B ry
ograph ic
ĠA vailable
pe ed
02 1
W Y
14 4
I owa
ER ICA
IT ED
as c
ĠG e
ID A
M ap
an i
ĠM y
9 09
Ġb usiness
v en
ol ar
14 3
R W
quer que
unt u
ĠI S
196 2
um e
g ary
ĠC r
WA ITING
ou ch
us an
ry st
D aily
SE F
I P
Fr ont
2 20
NY A
M ON
u querque
Ġp osition
uc son
ARI Z
Ġm ult
Ġwith out
Ġ19 82
w itch
ĠF orm
ĠGeor ge
1 199
Ġ ed
ĠCar bon
ĠAd ult
Bran son
D L
R P
p ass
ĠRich ard
P W
Olymp ic
W ar
ĠL TD
ĠGround s
p y
Ġf t
ĠIntern ational
s ylvania
Ġ our
LE Y
CON N
L ittle
Ar k
H ay
ĠS ource
18 9
ER AL
ĠThe atre
FOR T
ew is
ut t
Ġapp aratus
or es
ĠB adge
C om
itu aries
ĠPra irie
R aleigh
f olk
m od
Ġ6 0
Ġreg ion
E UR
Ġs ource
ĠM ode
ri es
ĠW al
ĠL aw
ĠOb ituaries
S ocial
c y
ĠY ORK
C B
ol as
ire ction
ill s
uc le
Ġout put
bour ne
i h
ĠC ast
yr tle
ĠCo ast
Ġass ociated
ĠAn alysis
enc es
ag ing
ist ory
Ġf ace
ost a
ĠAr ch
Hal ocomp
Halocomp ounds
R IS
ĠS ecurity
L B
OR G
MI CH
T ucson
m ar
ĠG ood
c ept
o ther
R S
Ġc u
emic onductor
nob ody
orp or
M ax
Ad am
ĠHe ights
a is
r ich
ĠPet ers
T em
il y
if orm
en b
Ġp oly
Ġ9 78
Alb uquerque
I d
j a
ett a
A IR
F orm
em a
Ġsub strate
P aw
R h
ack s
E con
M C
ĠOr ch
ul u
Ġc o
F ire
ir k
Ġ19 89
ĠPh il
Pol o
leas ant
m m
ĠP e
Ġp ath
Ġst orage
16 2
Sh o
CHO OL
ment s
ĠE ll
Ġv ari
back s
roc arb
ĠBel chertown
ĠS upport
ĠW in
ind er
ĠC om
V M
os ph
ĠV I
Ġc ode
In herited
Miss issippi
Ġdiffer ent
un ity
23 5
B ur
ut ch
Direct or
e h
6 01
ĠD ep
Law rence
ĠRh ine
B EL
Ġ est
r or
ĠM ike
St even
G H
St ephen
ĠR uss
Uni Rule
L ong
ĠM ont
Ġsimilar ity
2 25
aj or
29 9
f ter
Ġsouth easterly
iter ature
m y
ul ation
Ġc ap
firm ed
W ood
g ium
st ein
ub untu
port ation
M ic
n s
el a
ĠA F
et ter
ĠG ran
ING TON
MI A
er ing
Ġint egr
en z
if er
F IN
Ġus ers
L ocation
ĠA p
E FI
al c
Ġv is
ut o
sh all
G C
it ute
J er
ay ette
rocarb ons
id es
ufact uring
ĠS am
ĠCl ara
M oss
ĠC LE
ORE G
D ur
E ver
v ers
av es
ĠHAM AP
ag en
ĠV ideo
18 6
at ory
Ġd r
im it
ES P
a use
18 79
A Y
ĠF ort
AS T
AM ED
re me
ĠM a
ĠMc C
im a
itzer land
Ġm ov
AR K
In tern
g et
EV EN
ĠArt icle
ĠHyd rocarbons
ron ic
7 06
Ġd el
H P
B il
W ay
ĠSc ott
c ester
48 8
ĠDan iel
ĠJ oseph
W R
a wn
il ities
Ġwhe ther
Ġ .
ĠE quipment
A uthor
Ġv iew
osit ive
ĠEd monton
ĠHol lywood
S k
V ILLE
Ġc are
us c
ĠAG ENT
T BA
W aters
Ġ |
ICA L
Ġdef ault
H er
enn y
Ġdef in
S on
ĠB as
uc ed
Ġex pl
Ġserv ice
i que
2 15
D ar
Ġfor ce
Ġh ours
Ġper form
Haw ks
ab led
per t
ace ae
t ain
ĠMuseum s
ĠT aylor
res p
is es
Ġf iles
Ġn e
Cal gary
Econ omy
Ġs ame
s et
OR T
D O
S i
Ġrel ated
B as
P OL
ad en
im ited
RAN CE
Ġ ar
ĠW ith
ĠProt ection
ĠC ab
P U
ud e
ic on
gz ip
k o
ĠI mp
St r
Y S
SY N
lev en
Ful ton
on se
ann el
ĠEst ate
Nor folk
ĠB ra
ĠN M
Ġle vel
Ġacc ount
ed es
ag ue
ĠSept ember
B eth
ĠM od
22 2
roll er
7 00
L iterature
min ist
22 1
ill o
eg er
ĠEng land
Rec ent
G OLD
In st
Pr inceton
umm ary
2 12
Ġ z
ĠA VE
ĠAll en
C ore
Ġ key
Ġk m
O s
ĠB ull
R on
n ection
W N
S ur
Y ork
h ol
ĠL ab
S up
v in
et son
Ġs ch
ie f
Ir eland
ch i
Br ist
) :
ĠF ury
ĠD isc
im um
est ick
ĠH aw
b ug
8 00
ĠEd ward
ĠCont rol
ĠAnt ivirus
T ul
erm ont
R oy
B h
K at
S X
ĠC AR
ject ed
adi ation
ĠO ak
ĠPr adesh
Ġ @
ĠC le
J oseph
an im
Ch r
Ġd esc
andl estick
F air
st own
ĠD ata
ur ther
Ġ7 8
Ġpro gram
Un ion
ock s
M er
3 03
ĠC are
ĠSt rik
ĠI D
Ġe ffect
Ġres ult
8 12
i ece
C andlestick
M tl
V S
19 55
ĠAn n
ĠC osm
ĠK S
ore a
AN T
Comm ercial
SO UTH
G U
il s
ĠW alk
LIN S
iform es
d ies
Don ald
ĠPAR TN
I E
S upport
T ype
i ro
ĠC ategory
out dated
Ġh i
ern and
Ġ its
ĠS ec
19 59
ĠE lect
ist or
H enry
th a
ĠC entral
ul f
ĠH ay
ĠRep ort
Ġf amily
LE CT
S et
iver pool
ĠF erry
at in
ĠSc orp
yn ch
Ġf ate
ĠH am
ĠO ff
Cit iz
ĠM ixed
2 11
m ore
Ġind ic
ĠL l
w orth
ĠN or
Ġc ell
NZ L
re ak
3 05
ĠK it
5 00000
ĠD is
ĠPARTN ERS
Ġhi atus
re as
ĠF ire
Ġsh ort
Mont gomery
ipp ing
ed y
IN T
ĠDh aka
B ank
M un
el t
Ġn etwork
ĠP alm
ON G
b z
j o
ar ge
ĠH ear
48 3
ĠR am
Ber lin
ĠScorp ions
P D
ĠF e
ann ing
AT ED
ĠHold ing
B ang
th ampton
Spring field
s l
Ind y
Sw itzerland
B ig
F err
el son
ĠE leven
ir t
ĠB Y
Ġelect ric
AR T
On line
eb ec
Spec ific
Indian a
D ab
ner gy
Pl an
T ennessee
og le
ĠA pplication
p ur
Ġev ent
P ass
or ies
ĠN on
Rec ord
ĠStrik ers
ĠB ox
ould er
ĠA sh
ĠAss oci
b all
ra ft
Te le
Po ems
ĠSilver backs
B ELL
g n
p ers
il a
ĠW ater
Ark ansas
Ġd irection
ĠCosm os
A udio
J ustin
ĠMead ow
S ing
er i
Ġf il
k t
ĠA pp
ol ulu
ant e
up date
ĠArm ada
7 02
Ġbe ing
C amp
t own
Qu arter
ĠRail Hawks
ĠRow dies
X L
58 0
G al
ĠAF TER
D ue
Q L
ab ad
Ġ3 8
est ra
ĠPl ay
Mid land
ĠBran ch
anc el
ĠA ust
ĠE N
ra ig
Ed monton
T yler
00 7
Ġs ection
ĠJ eff
L AND
es is
ĠC D
ĠC ITY
IC K
Comp leted
A HL
yd ney
6 07
ĠN H
Se quence
ĠI II
46 4
G et
S ol
y e
ĠA D
Ġdom ain
Fran klin
B B
S ettlement
ov a
Dab itch
B UR
P al
V iew
00 1
el f
ĠD evelop
Ġare a
m at
ĠS ection
Ġh and
Pol and
H S
ch t
oc ol
Ġr ed
F O
ĠC ru
2 13
ĠT om
N umber
R ena
ĠM ap
B D
M o
ot o
Ġw r
Br ad
Im age
ĠPAT ENT
Citiz ens
ĠS ol
ĠPro duct
ONY M
ic ip
ĠPl ace
oy d
ober ts
ryst al
ĠI r
ag g
Vi enna
D T
Z E
ĠRe id
William s
2 24
B ru
es ville
SYN ONYM
ĠM att
ĠT ELE
OR IDA
n im
Ed m
ĠManag er
P acific
ĠB a
ĠK Y
Rep l
os ure
ag er
New castle
ĠI f
Ġ19 83
Ġst ars
Ġhe ad
9 78
ĠS k
ĠM E
B and
Ġin put
AS H
Hon olulu
Ġp oint
ĠH E
oc ated
sp aper
K CA
10 11
eg a
ĠP el
Be amer
K al
ĠHar ris
Mtl Sho
ĠS ox
ĠR oy
ĠD et
ĠW ar
he y
Ġl ocal
ell o
An a
6 34
J A
P ending
HI P
: /
F und
ĠPRO DUCT
M ain
H R
R ick
V er
ag ement
acc ounted
G T
T ext
Ġb ridge
Ġwith in
ĠMass achusetts
resp ond
R em
un k
CO MM
Bel gium
506 300
Bro wn
Y ou
ĠP ass
Ġform ed
I O
os p
AN GE
Ham burg
nim rod
on z
ĠR idd
ĠChester field
in ch
ĠF its
ĠR EST
M od
M emphis
R oute
ĠT ue
Ġf ollow
L ove
rid e
8 45
ter pr
Merc edes
O le
Ġcomm and
C op
apt ist
19 57
ĠO s
Ġpro ceed
ens es
Rena ult
Ġ et
Ġf actor
Ġelect rod
ecut ive
it ness
ch er
eder al
New spaper
E U
P ost
ĠM il
Un iversity
Aust ria
oh amm
Person al
ĠR et
ĠU s
h ome
ĠSt ore
P NA
23 1
b j
s y
st ring
98 9
Z Z
um n
R io
Ġ199 2
TO C
UL AR
ĠRidd im
t im
ĠC ross
Ġrec eptor
ĠCan ada
ĠUn accounted
Al teration
ĠEd ucation
oth y
N W
v a
ĠB ook
ze ch
Br andon
tt p
9 25
W AR
Fin land
45 2
PR ES
ĠM ix
ro gen
ef ore
ĠAl b
ush ing
Ġ =
ĠI A
Cle an
D SL
Z ON
at ics
ĠA B
Ġp age
ĠW ill
ĠW ilson
ĠComm ittee
b ox
ic ro
ond ition
s n
Russ ia
M EN
ĠS u
Ġpro perty
ĠInst ruction
19 49
ĠDen ver
O ne
ĠM ade
ĠT ype
un it
W H
Ġg u
fess or
Ġcirc uit
S V
w an
U p
Ġcont act
P ent
19 40
ist a
BA G
K ey
i day
th em
C y
w estern
ĠOr gan
ĠSt andard
end a
rid g
c an
an ch
Ġb inding
w idth
Mar c
CA L
" (
Ġm agn
C ap
E vent
ian o
Ġ order
ĠC W
ĠD R
ur ed
9 00
D istrict
Ġw al
od es
ĠAg ency
er g
Ġpro ject
P or
St e
ĠCOL LINS
ĠC reek
Ġmeas ure
L or
W CH
ĠSt etson
Ġnorth westerly
D atabase
M and
75 0000
Mult i
6 53
O l
p a
ĠM os
Om aha
ee k
ens ive
E AR
2 14
ran g
ond a
45 6
ue z
enn ifer
Ġ emb
ect or
Ġselect ed
Tul sa
ac le
SU RANCE
10 72
ĠH ome
ĠJ ud
h i
Sc ot
Sl ov
ug g
Ġp ress
per ature
37 5
Mel bourne
ĠJack son
not ice
ĠTECHNOLOG IES
d a
Ġn ature
ows ki
D W
L og
ĠN ick
ĠG as
ef t
3 07
U tah
ou pl
10 25
18 90
av y
Ġex ample
oo lean
Ferr ari
z er
ĠP leasant
ĠJ OH
SI ON
ĠNorth west
ab en
olt age
O x
R FC
S OL
ĠM T
he et
ĠO pen
ect ure
G ood
Ġ3 6
ĠK e
3 01
John son
2 16
Ġin c
48 4
Sc rew
enh ancement
plic it
j an
ĠFL ORIDA
ĠN evada
s ee
ad min
ĠMo ore
ic ester
ak i
l ike
19 44
ro e
Ġin ch
ĠK n
Ġre leased
E ll
Ġs emiconductor
pr es
45 7
ĠIn formation
MM ER
2 23
K A
V el
ĠP ond
Charles ton
19 30
ĠT ur
ĠNov ember
p le
ĠB o
Ġ3 4
ĠF ri
Ġs ens
Kent ucky
O ld
w ater
Ġfe et
ĠT w
B ingo
a us
y er
ĠF iction
D ave
H art
P ark
Ġt able
un a
yn am
Front ier
n am
ĠR ev
Brist ol
R oll
W il
ar th
ĠM ED
ĠE nergy
ĠV a
ep end
ib son
ink ing
Comp lete
Ġl ayout
Ana heim
omp son
ĠCol lins
R ON
o form
v ey
ĠW orld
Ġl ong
Ġsess ions
ĠM id
ĠE r
ann a
Christ opher
Ġin s
Ġpro d
Ġph one
ORG AN
2 17
Ġf urther
F re
e k
ĠR om
Ġs o
Ġl i
f ul
and ing
ĠJ oe
ĠE T
9 46
al ian
00 3
am ar
ut r
ĠR eview
A ngel
h l
k ernel
ĠW ire
45 1
ous ing
A ir
ach ine
Pat rick
Ġcross ing
L earn
ed o
ĠT A
ĠL ondon
ĠH ot
i os
ĠO riginal
ick s
ole c
cel ona
Ġcomm on
p ar
Ġ6 6
46 5
ĠIN SURANCE
Car ol
Ġs mall
ĠE v
s un
ac use
ash ire
ĠAlex ander
ĠPeters burg
9 41
H ung
ĠAnd rew
Ret ired
ĠWorth ington
H ear
S ri
Ġ art
ic an
ĠR yan
yr acuse
g l
19 54
ĠPl us
ĠEn field
Ġmod ule
Ġpar am
ĠTrain er
ĠB ack
eb ook
nt ario
umb a
Con c
ĠAM ERICA
IG HT
M yrtle
t ime
ĠR os
ĠI P
IN ING
bor ough
ag h
ran e
urb ished
26 0
Ġpro bably
Ġ u
ĠM d
J ose
19 50
it ing
ing ular
Ġg o
aben ow
h old
er ce
Ġchar acter
ĠPRODUCT S
T ony
ĠSt abenow
Ġst andard
C r
M y
R og
U nder
R om
ĠM al
ĠW ing
C ELL
v et
Ġe qu
cent ration
2 27
c ore
at al
Sal em
Ġs l
Ġg overnment
rod uction
ell er
ik a
V ermont
in ter
is k
ĠB rian
ĠH er
ĠCl ark
S om
d oc
ĠM ov
ĠR I
Ġtrans m
Oz one
P oint
ĠN AME
ĠL icense
id ase
26 5
0000 000
rim ary
/ -
P ET
g o
Ġd eb
Ġg as
W E
el sea
Ġa fter
Wait list
S n
W S
p ark
am on
Ġstruct ure
S ydney
15 98
roc k
Ġth ere
Ch rome
rick et
Pre z
Ġ199 1
ĠMe as
ĠEng ine
ript ion
y o
Ġm ade
Min ute
Ġcor respond
Ġa uthor
ĠO S
ect ed
int ron
Jeff erson
ĠCru z
f in
r l
ĠA C
est ic
ach el
BER T
H ealth
P C
c ell
ĠT ri
Ġ5 6
r c
Ġs earch
Ġh ost
S ite
ĠC ET
ĠL i
ĠWh it
Mart in
u ate
ank a
ch en
Ġval ues
Ġ4 4
ĠClass ic
Ġsup plies
G ary
t rans
ĠC ingular
ĠB est
ĠR eal
Ġl og
ĠBl ue
I AM
J ordan
er a
ĠG rove
48 6
T aylor
Ġb ody
ĠP DF
Mill er
ĠT EL
Ġall ow
Mass achusetts
Ġp iece
ĠW ork
ĠY ears
UT HER
D ata
ard en
Al bert
inn ip
ĠE urope
ra f
ir a
Res ource
302 9
Ġcontain ing
S ilver
U RED
v ar
w w
29 5
SI TE
her e
Green ville
G ran
Ġv ol
ĠD L
cent os
el ine
ac o
iz en
FOR M
ĠTechn ology
L uc
Ġ eng
ist ant
ĠB ELL
ĠAc ad
00 8
ĠA tt
ĠP oint
Ġad min
Ġinst ance
H AN
L y
att ano
ĠPh one
C zech
m ich
ĠL SU
od ing
ĠK ey
St ock
ĠPro spect
Sar ah
attano oga
G Hz
d i
ĠS ub
ĠC ricket
ann on
fe at
H B
L ex
ĠC umm
ĠSt r
ph a
Penn sylvania
M V
ĠP re
Ġs ummary
Mor gan
Ġ20 3
Ġst ring
Ġmess age
ĠOrch estra
p ly
ĠM el
46 9
ĠCh urch
B ay
ĠA PP
ĠR eb
Bar celona
Ġdet ails
m ad
00 9
ĠM iddle
ir es
Ġ19 88
Ġv ersion
Ġg ame
ĠFran k
K O
ĠE nd
ew art
Ro chester
Int ro
an ie
25 0000
ĠCH ANGE
6 04
erd am
Ġfollow ing
D a
ub e
C iv
ĠA IR
ĠM ah
24 7
inn ing
ik i
ĠIs lands
ĠPAR TY
Ġl ot
end s
ĠD o
Ġin hib
Ġv oltage
ra ising
af ety
U RE
ase y
ĠInt l
H K
st erdam
ĠF rom
ĠG ar
ĠV illage
ition al
jp g
PRES CHOOL
+ /-
P ositive
d own
ĠT ools
ĠReg ion
Phot ographic
enb eck
ĠPARTNERS HIP
ĠI m
ĠP ol
ch an
ĠH enry
Ġd raw
Ġm ode
An thony
Ġrec omm
Ġresp onse
H a
ĠN atural
ohamm ad
ĠM S
W ilson
as o
anim ous
ro g
ri ff
18 93
Bo ise
ĠR ou
ĠApplication s
O pt
r unning
ĠP O
18 49
ĠPro v
Con necticut
angu age
ĠTELE COMM
M X
ĠS oftware
ĠB ern
ĠSYSTEM S
v ard
ĠJ on
UTHER N
T odd
am d
T ok
l an
ĠL ic
Ġad j
ĠIS BN
D EN
m o
Ġt est
ĠH ILL
aly t
Ġelectrod e
B or
Ġs ets
Ġc ent
itch ell
yn a
Alex and
ĠArch ives
terpr ise
19 47
10 62
iv id
33 46
au x
ĠDec ember
Ġintegr ate
W on
Ġ3 7
Ġmin utes
24 3
AP AN
23 3
ud y
Cl ark
Acc ord
Commercial s
W or
ĠJ azz
Ġm iles
23 2
:/ /
H or
Lar ry
ĠRef urbished
3 08
V an
ĠW are
ĠV ERI
Al i
G ar
ĠF arm
ĠL EC
ane ous
ĠLl c
ĠSt eve
Ġ199 0
S oph
ĠL anka
Ġcon nection
U ser
raph ics
B aptist
F G
M isc
Z umba
Hal enbeck
ĠB usiness
ĠE X
ess ment
ard o
Ġn ucle
Jon athan
Sum ner
P AL
s ki
ĠP ost
ĠB an
S u
f irst
20 21
ĠT or
23 8
atch er
Ġres ource
at form
A tt
C ur
h r
it izen
uz z
ĠVERI ZON
B on
C enter
00 6
ĠA rea
Ġw ind
Ġn ow
L nd
Ġf ilm
ines e
ĠS ee
Ġt arget
Ġs witch
rib ution
ĠSEC URED
Ref er
2 26
H Y
g a
ĠN ational
bur n
ĠDevelop ment
V ac
b ar
ig er
Ġst ory
vers e
am ental
Ġin fo
Ġm ust
per kins
ubl in
bj perkins
54 08
Ma ine
vest ment
od im
Pro Rule
Ġch ang
ere k
u ce
ĠM AN
Ġfunction ality
Hung ary
M AS
l ation
ĠD VD
Ġw ell
ell i
Ġ6 27
46 1
Ġwhere in
ĠSO UTHERN
B rew
US E
Ar lington
ilm ington
304 6
Ġdr inking
in et
19 53
ĠK ind
Ġweek ly
Card iff
ĠPel ham
ad or
Am sterdam
ĠAn a
Ġconnect ed
K yle
M MA
n ol
AN S
ĠFund raising
Ġ old
27 5
2 199
G en
a ut
r el
Ġcont ent
ĠGl obal
B LA
19 48
ag a
ist ry
K C
ĠG ame
O riginal
ĠCh ris
ph ony
Ex plicit
Ġt im
ĠL E
ĠO ther
Ġl b
Sp ort
19 20
19 52
Ġ4 7
Ġy rs
ans ion
Ed ward
bs k
Par ent
Reg ional
D un
L iverpool
South western
ox ide
2 30
W al
n old
ĠF re
iss a
ĠM ack
ĠB oy
Ġa p
iv en
Ath ens
ĠGran by
58 55
ĠMad rid
ĠP ack
Ġv ia
IC S
Dur ham
L o
ĠM otion
ĠInd ust
BELL SOUTH
i ate
l ess
ĠS D
18 95
em eter
24 2
Ġ4 1
ons or
con firmed
FOR D
Band width
d ie
Ġt em
ra ine
Ġre pres
ING ULAR
WO OD
ĠDEV ICE
ĠLic enses
N ic
IN A
Le ap
ĠCamp bell
P a
ĠCo le
uck et
Den mark
l am
ĠB R
ĠD istrict
ĠC INGULAR
ĠH O
AN G
Bl oom
7 155
M ethod
Ġf in
24 6
Vict oria
7 147
Q west
s es
Ġc itizen
ĠHear t
38 5
oin es
Comm une
4 20
M t
ou x
La ur
Ġprocess ing
CELL CO
Q ue
Ġf und
ĠD ba
ĠCons ent
emeter y
ĠH el
ĠH ead
AL ON
ĠDirect ory
ĠCLE C
S earch
p et
ĠR oss
ĠL o
ĠL ED
ist ance
54 135
Ġch em
509 44
409 49
AR G
50 157
54 1598
57 3346
86 5408
Sup reme
S yracuse
ĠM oines
it o
AR AT
ĠRod rig
B arbara
C ast
ĠS W
amed a
C ros
T P
ĠS ites
ac ed
c ott
ug ene
Ġ6 3
itt ed
V EL
Un identified
ĠCar l
Ġcon st
ĠS oc
ĠC tr
Ġ4 8
ang ers
Ex ternal
509 5855
ĠW es
ĠEx t
C ZE
b ook
k h
Ġ4 6
ĠMan ufacturing
ros oft
l ock
ĠM aps
Ġt otal
eg an
And erson
Dar row
ES PN
Ġy d
og en
righ ton
Ġbl ock
l osed
00 01
Ġro t
Ġsub st
Ġmess ages
a ur
r ush
ĠMed ia
ep ort
Mar shall
ill ips
Comm ission
ator s
A v
ation als
um er
CO MB
c fc
k en
ĠR EC
ĠL ittle
min ated
at o
ep s
ut ler
ĠPl ans
Rep ort
2 19
L ecture
y cl
ĠB E
ĠV el
Ġp ages
Ġw id
Ġ5 7
Sh ar
Ġprov ide
g ress
an ish
at ely
N ational
ar ly
ĠP oints
om in
ĠR og
ĠY OU
ĠChrist ian
Ġli ability
ĠR oom
FL O
J oin
ĠR oberts
AV ALON
ĠTECHNOLOG Y
Ġ3 2
end ale
mich ael
re ase
av ar
AM ES
ather ine
ĠE LECT
ĠTh ompson
af e
ĠWind ows
W y
Ġ error
on ia
Ġp at
yn th
Ġwal ks
W EST
H y
Ġ quest
it ish
ĠB arbara
ĠL ewis
end erson
u ri
in ner
ĠG reg
ĠE vent
us p
if ier
C RO
ĠUn animous
yn n
ĠS ound
EL D
Ġrec ord
ĠWay ne
M ountain
19 39
ĠP ublic
N ATIONAL
al i
ĠFin ance
Ġent ry
D ublin
as y
ug al
ord in
Al ameda
Ġcont ribute
Ġrece ive
W arren
ob e
oad ed
Ġcompr ising
R U
w ide
ĠP eter
Ġ19 87
ĠTe le
Comp onent
Off ice
ĠSU MMER
S B
Russ ian
q l
anc es
L eg
ĠO bject
R L
25 4
Ġ6 4
Ġh it
Dis play
ĠC OR
ĠA h
Ġass embly
H H
T er
ĠS ports
ert ical
g g
48 5
Le eds
ĠCon c
ud d
B ol
I AN
J ean
er ick
ap ter
ann y
orpor ate
ernand ez
19 51
arm a
3 11
ar en
Ġs ize
anc er
uther ford
Fund amental
C ro
28 6
Ġtrans fer
innip eg
3 25
D J
R od
ĠAd ams
Soft ware
P unt
i od
28 9
Ġis oform
Ġoper ation
ro x
ĠO hio
ask et
Ġfl u
ĠL and
d on
i ac
Ġd ocument
Ġm atch
ap a
ĠTe ams
El izabeth
ĠInd ia
BER K
7155 14
ĠR ay
cept ion
ĠWalk er
T L
w er
00 2
4 50
C orn
M otion
m en
it ors
ĠL ong
ĠK han
E st
T all
l ow
Ġs ee
Ġm i
ect ive
Fr ench
Ġre quired
Sac red
an ne
ri al
Ch attanooga
ĠAss essment
ICA TION
3 06
o ir
ot ter
ĠL ion
Christ ina
Ġinch es
d ouble
ĠT y
aw are
amm a
2 29
S igned
46 2
Louis iana
ĠRes earch
Way ne
U MB
est iv
roll ed
Or der
Ġcre ate
i ences
Ġac ross
Sav ings
L ive
W innipeg
ĠS earch
ĠL ove
24 4
ra el
Ġal ong
" $
Ġt erm
ĠW ild
Ġc oupl
ĠH aven
ah o
ĠCOL LAT
ĠB ry
Ġ4 3
op en
minist r
4 04
N T
Ġpro duct
North ampton
Ġpart ic
ĠDay s
Ġconfigur ation
ĠCent ers
W he
p on
v ed
A UT
cl osed
Nor way
Work sh
J P
M ohammad
S erv
h man
ĠM AS
am ber
US D
Ġh alf
ID E
B ack
F ac
ĠA qu
ĠJ im
ess e
ak ers
rif ice
ĠJOH N
ĠG RO
I an
U k
ON LINE
Ġread ing
ĠW right
iv ely
34 0
ĠMon oxide
no arch
Ġch ange
Ġup per
Fin ancial
l ar
ĠC F
it ar
ĠK evin
EN A
45 5
ĠWilliams burg
ĠRad io
ĠP T
ot als
18 85
eg inning
ILL IAM
Ġemb odim
L ee
et o
ĠL IM
ag u
Ġinst ruction
Ġpre v
oun c
ĠKind le
ĠS ar
ĠE ver
anc ed
con fig
I V
P u
W ilmington
ep ar
New port
tt ar
COMB INING
D eb
F ood
Ġcent ury
ou ter
Ġb efore
ĠE ST
M ess
d o
0000 0000
3 26
b es
o am
at ur
ĠM ax
ĠI g
Ġb k
ĠCh arl
ĠSystem s
ĠCumm ington
G ibson
Ġm emb
ĠGr and
4 05
K h
ĠR o
ST L
U D
ip per
m ont
ĠR ES
Dom estic
( )
l i
end ar
ich ita
CH AT
WA Y
ELE Y
Ġcomm unication
SW ORTH
Civ ic
N ET
R ail
ic ate
m n
19 43
ĠH untington
01 3
ĠG eneral
Ġw ay
Ch ester
DC M
ĠInd ies
Har ris
ĠGreen wich
F ab
M AT
m d
x i
ĠJ APAN
ow ers
iam ond
ĠRou ge
St andard
Doug las
ob y
Dis k
Y outh
b ridge
Ġs ecurity
ton e
J ennifer
U B
ch ain
ĠH and
om er
St a
ach ed
az ar
Ġexp osure
K rist
pl us
ĠComp lex
BERK ELEY
s or
le wood
ĠJ ason
ĠG al
ter ations
Ġl ower
Ġinst all
Wor cester
C osta
M esa
m iss
ĠL uc
ok ane
ĠAdd ition
K T
ĠD river
ĠK en
ang er
v ol
ed ford
18 48
ag an
ON D
ett y
ĠSouth ern
list ed
19 42
op p
ĠOrgan ization
D ark
t ype
or f
ĠS n
ĠS ur
26 2
c ol
ĠM ult
SU LP
Spec ial
ĠD em
ĠH C
atter y
S and
b in
W ales
ĠM er
ĠB ug
ust er
arg o
I OS
R andy
V illa
g u
ĠS ant
ig ible
ult y
Comm erce
ĠRuss ell
19 36
ol es
ot ential
im al
Ġdev ices
Ġret ri
L ost
er by
ĠS H
ĠC in
ĠM ic
it i
ĠB rew
Ġb u
Ġcorrespond ing
M ah
s port
ĠS m
ot us
ĠK enn
der land
F all
g ate
s o
Ġm ark
Ġv ideo
ĠBro ad
A k
G I
Z ach
UT UAL
Ġrece ived
Ass igned
ĠPal mer
27 6
28 7
Ġl ocated
ak ing
Ma ury
ĠF ITT
ur st
Ġsh ot
Ġte chn
Vac ant
ĠRodrig uez
CHAT SWORTH
ĠFITT INGS
M ER
S CA
j amin
Ġd own
ĠO ffic
ĠAl i
ĠFlor ence
ĠAIR LINE
S usan
n ame
w r
ĠProduct s
j ug
u j
u v
IN F
ach i
ier re
H ick
26 3
46 7
oo th
w ord
ĠSt an
ĠSt ephen
um ents
Ġun identified
ĠSte el
L at
24 5
Ġ23 91
uss els
M ag
c omm
ĠS r
us er
im s
ĠSw ift
F S
F ile
Ġ rail
ĠC orn
Ġm ax
ber ry
ell aneous
Ġr est
Ġact ive
ubb i
ĠM aster
ĠThe ater
way s
ĠAcad emy
Ġ river
ĠF un
urt is
Trans portation
4 31
ĠF red
Ġs heet
im m
23 4
Ġ7 0
Ġfe at
c ubbi
19 37
ĠB EA
ĠN elson
ut ions
33 8
Ġg l
Ġst ation
Res earch
onsider ation
Carl os
Ġeffect s
C utter
H ampton
g es
Ġh el
Ed ucation
ept ed
ĠCOLLAT ERAL
4 39
S ab
is ode
ĠT ig
ĠD un
Ġm akes
ass igned
ĠChrist opher
ĠPres ident
0 10
C NV
ĠB aker
ri or
ig ital
Ġ7 7
Ġor gan
urr ay
5 01
C ath
C ESS
ĠF eder
Ġo cc
Ġd i
25 5
27 3
CO MP
Bus iness
Prov idence
J acob
MA C
634 110
S N
Knox ville
R el
a ft
Ġto ward
he ville
23 9
Count y
Ġvis it
ĠW all
ow ell
Ġ19 86
N i
Gre ens
Ġres olution
ig g
C ent
J E
ac rifice
24 9
Ġcl ient
yc le
K ings
D j
E ss
W ichita
Ġ ...
th ur
pl oy
ph alia
West phalia
nol ib
Ġf ree
ub a
A aron
b uild
ĠH OLD
ĠK ah
FI X
Ġsupport ed
ĠA udio
AT A
ST E
3 50
N evada
20 41
Fil ed
epend ent
ĠLIM ITED
H istory
ĠC ore
ĠB y
ĠL ist
L es
on ice
om ore
ĠN ic
Rec e
ARAT US
D o
T U
ĠS il
Ġt yp
ĠD ef
ĠN etwork
os ite
Tem pe
3 20
G CL
46 6
Ġcont roller
Ġse quence
ym oo
ĠAir port
Ac quired
ĠTan aka
iz z
For ce
Christ ian
Fe ature
978 925
Mand ymoo
ĠS aint
Ġb ook
Ġcont ains
K ay
L AM
l adesh
ĠL eg
L isa
M os
ĠS ale
st ra
J O
Ġs ol
Ġa ir
our g
Per u
G M
um in
Ġre al
enn ett
Vel vet
E arly
R NA
j d
26 8
Ġcomp osition
uss ia
K im
W ild
ĠC EST
19 46
ing ing
am ie
ĠW Y
ĠO il
AL T
ts ville
Ġph en
B aton
in ton
ĠS o
um ph
AN CE
Lanc ashire
Cam den
ĠS i
ĠInter active
ĠOriginal ly
10 29
us ion
ĠSc ience
ĠN ow
Ġc ache
ack er
IL E
Ġ00 6
Ġcompr ises
) ;
C raig
Y L
m ag
Ġ4 2
Ġ7 5
ĠInd ex
PD PK
Ġwind ow
. )"
3 22
4 02
D yna
R F
U r
d ev
ĠH or
I K
o a
10 21
NC MS
Ġk g
S ev
eg irl
Pro ses
olog ies
WAR E
Hart ford
l ink
28 0
ĠK ent
Ġsh ould
II I
fess ional
A ng
ke ley
ak h
Br adley
Br ussels
ĠCont ent
Ġopt ion
ĠUl tra
ĠG all
ell ow
L eft
Y an
ĠB ru
ĠIs ao
Is ago
ĠF ace
John ny
re c
La ura
m ok
30 11
Ġsess ion
ĠMap le
f ast
10 69
Ġc amer
ĠH at
Mon roe
them ed
40949 98
en ance
ĠE as
us en
ĠU tah
ĠFlor ida
O b
in ase
ĠL ind
ĠG a
Th under
olic y
Si oux
S CH
Z H
d f
ĠG B
ecur ities
s ville
Ġident ify
at as
ĠF ly
27 0
ayment s
Ġnorth easterly
Lanc aster
l og
Ġ earn
19 29
Ġd er
ĠFL ST
ux e
ĠBEA CH
W r
ĠS up
Ġth er
Ġb el
pl ied
GR UND
aint enance
** )
R C
S il
U t
ter tain
23 6
Ġsc reen
Un listed
Con nie
Bang ladesh
UN T
Ġsecond s
Ed in
N am
Ġc r
Cl ay
Del aware
C oc
ĠG re
ĠMin utes
Ġserv ices
ĠGo ogle
ĠDirect or
Ox ford
D u
D EL
E ugene
K rov
ĠB ob
ab y
ab el
45 4
Krov ven
N ancy
P ower
a a
ĠM ir
07 1
ĠG ermany
Cl ar
Ġass ay
Not t
ĠOff ice
Ġcol lection
Dom in
Ġinstruction s
C ab
W M
l on
ĠS I
ĠV is
Read y
sur ance
Tok yo
R est
T roy
ĠM asters
ĠD IS
Ġst atus
SO CI
ĠFr ont
tim ate
W es
j ava
ed ro
24 1
ĠAr ts
EM P
FA CT
ĠCH ASE
amer on
T AM
j e
ĠT ru
CA T
ist ics
ĠOr der
Phil ipp
ancel ed
Uk raine
B oulder
M ember
19 28
ĠL ine
ail ed
ĠSc ot
Se an
ĠIg G
sport e
ĠFeder ation
ĠN ATIONAL
Ġc onsideration
ĠG TX
SW E
Ġcol umn
ĠEngine ering
GRUND IG
Mar ion
Dec ision
Ġst ud
As heville
C FC
Ġ el
Ġ ebook
36 0
ost al
uc ks
ys ical
ĠMet al
sporte egirl
d evel
as m
ol i
33 3
Ġe ast
Ġfr ame
Ġb oth
Pl ay
1 000
Ġ enc
Is rael
D ep
Ġf ull
25 2
4 01
e Commerce
t ux
il ly
ĠT otals
29 3
Ġ5 3
row th
RB K
Lex ington
N ationals
P e
ĠS av
ĠS ess
am i
ĠK as
ĠPro ject
Ġact iv
F ederal
J erry
L uis
U PM
b ie
ĠC ustom
ĠD EL
ĠW olf
Ġd em
uth ent
ĠCooper ation
pert ies
d one
or ge
19 07
Ġb ox
eb all
Sp okane
D iary
ĠG raphics
AL D
ĠCar roll
Ġcon c
Ġse ason
D or
J u
L ind
Ġ ge
18 94
28 5
ill er
ĠAr ab
Ġmet al
c ity
m ing
ear ing
Th esis
ric ia
Land line
N OR
e u
ed ar
ĠU N
Ġcomp uter
we et
Gl en
SOL UTE
4 03
Ġ5 9
uc ing
ink i
Ġk it
Sc ience
SK I
n as
ĠC re
Ġ5 8
form ed
au er
ĠAS SOCI
75 00
rod uced
Ġdes ign
Soph omore
0 15
O bject
ĠG ill
23 7
tertain ment
W D
s v
ĠB ow
ĠR ey
Ġb adge
ĠJ ava
Ġm ain
St inging
op y
ĠYork shire
Ġelement s
ĠOffic er
Ġearn ed
4 24
b o
ĠF itness
ĠD ist
osh en
ĠEl izabeth
BL R
mit ter
Stinging Velvet
4 06
old ing
ĠPro file
F ly
R EL
25 6
RE CT
Ġad verse
ĠComm unity
ĠTer minated
ĠS port
ĠP E
ach er
Ġsouth west
press ion
iqu id
ĠT V
26 4
ene z
ĠAPP ARATUS
B AR
O il
19 38
ER V
ich olas
J ery
R IC
it ter
ĠF ish
ĠB urn
ri me
25 9
Un c
Ġch ecked
els inki
ĠCon necticut
Ġit em
Pent ec
Jery kk
G Y
f iction
ĠM agn
ĠSt ock
ĠD u
ĠU td
og n
ĠB O
ĠG riff
ap h
af ayette
It em
Har ry
U G
ĠM ag
um mer
ĠSen ior
enn es
Ġch annel
ox idase
ĠAssoci ation
S ee
ic op
19 33
ĠT ER
Ġs epar
Ġph ot
cont rib
L etter
b ird
20 99
Ġ4 9
Ġcol or
Alb any
Ġp red
ĠW he
ug in
ut s
end o
Ġan n
ĠAn thony
Ġk n
Ev an
M Hz
R ight
i y
i ber
l it
am an
ĠJ acob
Ġh om
Ġh ousing
ĠAd vis
ĠINTER NATIONAL
umm it
Ġpress ure
R ad
ic iary
Ġw ords
) ."
a ine
v r
Ġ arr
le ton
Ġ19 85
ĠCo ok
ey er
arb on
esc reen
ĠC art
Ġ19 84
PA C
Port ugal
N B
g ers
ĠH onda
28 8
ce an
Ġre f
ph p
El igible
Ġro w
k es
ĠC all
ĠC ert
ĠJ uan
26 6
3 14
v d
z man
ot ide
iv ia
qu are
ĠRe lease
Hun ter
jug ated
ĠP aso
Ġc onduct
urs or
sp onsor
ĠDes ign
3 24
E astern
N LD
Q B
am l
ĠL I
arri er
Refer ence
K I
f red
19 41
ĠV ista
red it
Ġcon centration
eh icle
ĠKenn edy
C he
I mp
l ayer
s ite
ĠG onz
ia h
AA A
ĠJud iciary
J F
Ġus es
ĠAd am
Ġpre c
ĠInst itute
ĠL y
Ġc over
iz er
8 09
C F
ĠT R
id o
rib a
Mil an
Ġwid escreen
3 031
K orea
ri x
17 76
Ġv ariant
ĠRem ix
Ġl imit
ĠMov ies
P om
a um
ap ore
33 6
iz a
Y R
ĠM AR
sh ow
Ġdis posed
Per oxidase
Ġopt ical
B ANK
D S
W all
h t
ol ia
01 00
est in
Ġ5 00
ĠAr riba
ĠCon jugated
And y
olec ular
ĠP enn
IT ION
Ad vent
Hick man
0 11
E p
e le
24 8
Ġwh ile
ĠFin ancial
ĠKah rl
A uto
R ev
W as
p ie
4 10
B eg
H OR
L ux
ĠK ings
ord on
PM ORGAN
raw ford
ĠReb ounds
S KY
c ome
ĠL ight
ĠG il
50157 48
B ell
C P
D i
19 05
Ġs ocket
Ġre ference
Pro tein
G EN
J ake
M ajor
ul ating
chi ev
tux onice
M iddle
Ġd ial
Ġad opt
ĠRe quest
NH L
sn ag
b ut
Ġre qu
Ġ7 6
michael m
Pentec ostal
S a
S ong
e astern
19 19
ĠL imited
Ġa ction
Ġdist ance
ĠT op
Ġp an
Ch elsea
ĠCh air
South ampton
ĠCO MM
C N
V en
Ġp ost
Ġc amp
02 4
ru ic
CD P
ĠTE X
Bh ruic
Ġparam eter
O ntario
T RI
n an
ĠC ob
ĠA k
19 31
ĠH A
ran k
ĠStreet s
ident ial
arc in
Jo an
v an
19 06
pl oaded
oad ing
Con firm
ĠCab inet
B RO
18 47
eb ast
35 6
GL END
Ġpr int
3 15
L ER
M ount
l ad
an on
OR Y
back lit
Ex t
El ite
ĠMy ers
Cros ley
F estiv
ĠM inn
Ġp erson
Ġs ome
Ġc ells
Ġc orporate
Col omb
ĠCount ry
ĠBall park
ĠMeas ures
3 10
B ul
L ev
T EN
Ġd ot
ĠSh are
ĠBe at
ĠDep artment
Kat ie
Ġ ?
ĠV illa
ER N
ug eri
AS even
pl ate
ĠMor gan
G erman
H an
S MM
ĠS QL
ĠM ount
ĠSt ar
San Disk
ĠBl ues
Ġdirect ory
ĠBug snag
D et
IN ES
Ġan other
ept ide
Ma ugeri
Bron ze
Id aho
ĠAust ralia
4 25
I cy
m otor
Ġf re
Ġf ound
az a
ere z
Jess ica
ĠLaw rence
R utherford
Ġl a
itt en
Hun tsville
H EM
R MM
S ale
W P
h aw
en ia
Ġs ites
ĠREC ORD
ĠR elocation
ian s
Ġqu ery
Ġreview s
B all
ĠM atter
Ar m
G er
R eno
Ġm ap
ĠAr ray
IA A
Ġam ount
ĠCont ract
Ant oid
Ke ith
Icy Antoid
L ONG
w y
z en
un dr
Ġto ol
ĠE ric
Ġ9 0
ember g
Ġtrans action
med iate
Ġrecomm it
H untington
h el
ĠV ict
Ġnucle otide
L ET
M UTUAL
Ġ %
19 35
ĠSt ring
ĠF IN
ĠB L
ĠR and
ev a
ert y
All en
ĠTig ers
Nott ingham
7 04
P op
w en
19 34
ig o
eb l
SA CH
ĠOr t
bl ack
irt ual
Ġfund s
GLEND ALE
J uan
f urt
at ar
at io
10 12
Gre ece
ĠAl bert
UL T
G ro
m om
or ter
un ct
25 8
ort on
ost er
ĠSc iences
72 20
ĠPr ice
7147 18
3 12
J ac
un known
ĠJ ane
ĠK r
ry pt
ST AR
ild a
min ors
ai i
ĠD evel
Ġw ild
ne th
44 3
Ġcoupl ed
ĠM ER
ĠR ath
Ġb uild
ĠJ ac
ail and
tt emberg
Ġexpl ore
o op
Ġthe y
Al an
Sh er
Mont ana
ubb ock
Ġpat tern
+ )
B righton
H AM
in er
ol o
26 9
av ier
oh ann
idd les
N ORD
Z AN
Ġo b
ass ee
A ur
R R
V is
ĠJ ean
ra ul
Ġ8 02
Ex p
Ber keley
You ng
D DR
P ayments
S ail
ĠN ET
AM AG
ts dale
Qu ebec
que z
G il
W er
ĠW V
Ġ6 5
Al aska
Dr um
Pr ice
Ġatt ribute
York shire
Alexand ria
u h
Bloom ington
Ġretri ev
H D
S pl
k ay
n ut
Def ens
S ah
d g
in ity
ĠT RUS
ĠH AR
29 7
ĠX I
ĠUl timate
Ġrail road
= =
Y A
f aces
ĠA T
ĠR AM
33 9
Jer emy
Display s
Ġs ett
ĠPro cess
Ġle v
co in
emp or
mod els
Confirm atory
N R
or i
19 32
Ġc ondition
Ġsystem s
Ġdisc losed
sen al
Edin burgh
3 47
P ad
W estern
ĠP ine
emb ourg
ĠD ead
ĠO RM
Le on
ones ia
sy ch
m id
ĠA ff
Ġw est
res h
Har vard
ĠCal endar
Br itish
Bob by
Ġsens or
ĠC isco
28 4
ĠK h
ens en
ject or
eph anie
ME X
ĠMor ris
Ġterm inal
ĠGRO UP
Defens eman
9 199
O TA
T ol
ver ter
Ġ6 7
Ġexper ience
Ġsouth westerly
ĠLa ur
VM ST
ĠElect ric
B RE
D ennis
H U
d b
19 45
ĠR on
27 7
Ġ5 1
Ch uck
H enderson
Y N
ĠM ot
25 1
ĠAr ena
itt ing
Elect ra
F irst
L ubbock
Ġc all
Ġl ess
ĠK ong
IA P
AD ENA
Tr avel
R SA
RE F
Char acter
Day ton
Tele phony
i ency
Ġ und
an ies
ur ance
New ark
Ġsup ply
3 18
F i
G SM
le tt
ĠC oward
ĠB oys
ĠL uis
ale z
Ġg ate
IS YS
ĠAr bor
ai wan
Ġfl ow
ĠKas pers
19 24
ag le
ĠU ploaded
33 4
38 65
ĠP acific
ĠL os
Mar ie
ib ility
ĠIN D
909 9
3 21
C orp
G P
p oint
ter ian
ĠCh ief
by terian
ĠPres cott
Ġrem ote
D ivision
an ks
ĠB right
01 6
ight ing
Cl ub
Green e
for ce
ogg ing
ĠNor wich
8 52
A qu
K ER
] "
ĠW il
05 1
26 7
Ġ3 9
ĠRec ord
Ġant ivirus
Sing apore
Philipp ines
ĠKaspers ky
D av
il er
amb l
ĠSta ff
F ayette
ĠC ell
ĠD ave
33 5
35 8
ph al
Ret urns
agon al
Ġchang es
K el
K ath
l s
ĠP AL
em ont
ir th
oh en
ĠBr it
ĠFor ce
206 190
G iles
r ad
et z
26 1
Ġ7 9
uns wick
ĠPrint ed
Ġresult s
3 49
A f
T ouch
w a
ĠD ur
ab lish
77 3865
Ġlev els
H uman
K elly
N ED
ĠR ose
ĠL if
em pt
25 7
EN RO
Un it
iz es
Ġpack age
% )
ĠSt even
Ġa chiev
ĠJ R
ĠJ AMES
AB SOLUTE
Ġdesc rib
Ġprev ious
SACH US
b oolean
19 14
ĠB u
ĠG U
ĠG i
Ġn ode
ber ger
au f
Greens boro
ĠW ard
ĠI F
Ġin ternal
ag ed
Ġ5 4
44 2
ontinu ed
Tig er
p ens
r est
t es
or ing
19 17
ĠF oot
25 3
Ġ19 81
ET TS
ĠPl anning
B re
m und
or ial
it te
Ġy ard
Ġ6 9
ud son
Car roll
Ġsh ow
Ġj u
ENRO UTE
h ttp
i i
ĠS et
19 26
US SI
35 4
Inter motor
ĠEas thampton
S ask
g s
h our
Ġ2 50
ĠR ick
ah assee
Final ist
ĠHol iday
Nor wich
arc ia
Ġu M
Ġdeb ate
N athan
T ip
U s
v ia
ĠC he
Ġs ample
LA Y
uc cess
Ġrec ording
Charl ott
ĠPal ace
ĠSu ite
FIX ED
+ **
B K
ĠB on
Ġc ount
ĠTr acks
oci ety
ĠPet ition
amin ation
ĠCard in
B P
C are
L ist
ed d
Ġf lex
ĠH VS
28 3
Ġis s
ĠSe a
Ir v
an um
ĠS ite
Ġc ause
Ch urch
ĠGeor gia
pon ed
y ear
ĠB A
06 0
27 8
ort g
IS H
Off ic
ugh es
emp le
Ġmult iple
Ġarr ay
Colomb ia
3 23
H MS
c anceled
ĠM r
Ġc ustom
ers et
47 5
ian ce
rib ut
Ġrem ov
SMM M
B ern
D erek
E PH
c i
ĠF ac
Ġf our
ĠL og
ĠJ UN
oc us
Sp anish
Ġg loss
ous es
ruct ure
Ġexp ansion
D AM
p ent
02 5
Ġin side
Bl ues
ott om
west phal
B RA
G ab
ar an
is l
ch a
ĠJ er
ist ing
yl an
H oly
T y
V iet
at ia
ĠM ethod
et ime
Ġp op
01 7
ĠG en
ĠE DT
ev ens
ES C
IT E
Ġr oute
orts mouth
ĠEl m
Ġind ex
I c
ĠF air
ĠR ating
Ġb oard
29 0
ash er
Ġcre ated
ĠCor ner
rev or
Ġcons um
50944 45
V ic
n chen
19 25
10 22
06 6
27 4
29 2
ĠCar ter
ĠNew s
Elect ric
Ġstart ed
bro ok
g art
ĠH ernandez
27 1
44 4
ĠBl ock
Ġpl ace
ico le
Ġrepres ent
SACHUS ETTS
v illage
z y
and s
ĠW ILLIAM
ial ly
Ġwith drawn
Con n
RA CE
ĠSouth ampton
ĠWeb er
oun ter
Ġsp ell
Pres byterian
ĠRath man
R en
T EL
ĠO ver
Ġh ome
Rog er
D P
G G
Ġ5 2
ĠRes erv
Rece iving
Lux embourg
M ash
is ch
19 00
ĠE c
Ġ8 00
38 9
Ġform ing
ĠAd min
Ġinter s
Ġper iod
Mac Book
E P
G h
L ink
P alm
ĠG oshen
ant i
Ġh ard
Th ailand
ĠAg riculture
AMED ISYS
D ocument
H elsinki
S y
27 2
int endo
Be er
Ath let
Art icle
ĠRO BERT
Pom ona
M R
M ET
19 15
Ġa udio
ĠI C
48 2
Ġr out
Ġun known
Co ors
ĠASSOCI ATION
V ill
g irl
s yn
ĠL ever
35 5
37 4
ane y
H umph
a ac
le e
29 8
Eng lewood
Japan ese
Ġdevelop ment
Ġdist ribution
Sur face
istor ical
Worksh ops
H ot
V ent
Ġb it
ald win
Alex ander
Ast ros
U l
s pec
is p
ĠE p
ia z
ine z
ain ing
ĠComm ission
Count ry
E c
I X
N F
R am
ĠF T
ĠR oute
ĠD own
Ġcamer a
uthent ication
x y
in Th
ĠM un
ro b
ur ich
ul ated
Festiv als
T own
ip se
Th urs
Cl int
Re formed
Roll inTh
RollinTh undr
ĠL IC
27 9
Ġchem ical
h art
am is
CT ION
Wh it
Lar en
Ġret urn
H ead
T ues
ĠH o
36 9
Kar achi
ĠTEX AS
O range
b orn
ĠRes ources
ĠMary land
ĠDet ection
SCA Q
Charlott esville
is ed
Ġd ownload
ox i
lement ary
ERS ON
Int roduced
R adiation
ĠM itchell
ĠK yle
In itial
ĠMar c
S PM
z ip
on ic
19 03
19 16
im en
Ġfil ter
Bru ce
ĠWar ner
ounc il
C edar
N ORTH
ĠA utom
id ed
Ġb eginning
29 4
ĠU se
AR L
IL M
ama z
ĠBl dg
Ġac id
C MS
34 2
.. ..
ement s
Em ily
Ġnon c
Bry an
9 04
ĠC rew
19 22
ĠP R
ch ez
ĠSt ats
ĠW ol
29 6
op le
UM ass
amin ant
ĠAnt i
ĠCent re
ĠSt ars
ĠH ow
erc ent
ĠHe ight
Ġtr ue
Li ens
Tall ahassee
M agn
P ut
ĠM em
35 2
ĠMat thew
Ġne ed
Ġar rang
Corp us
R ate
c ow
Ġt ension
ĠB ennett
ĠW ade
AN I
Dec atur
Las er
ĠPan el
Ġdraw er
ĠSoc cer
Wy oming
er ed
ĠD DR
ĠK le
ĠPro d
125 0000
ĠHold ings
Slov ak
F iction
ĠPl ain
Ġag ain
Con ference
Le icester
Charl ie
De ep
ĠQ ue
Tur key
Intern ational
Ġs oftware
Ġm m
ĠK at
CO TT
SE Y
GRE EK
King ston
Laur en
B uilding
D ades
V ol
ĠP op
ĠP CR
ĠN W
um a
MO V
Ġrel ative
Scot tsdale
F MM
f ox
al le
am ing
Ġb as
oc a
ast ic
Val enc
Bil oxi
uzz le
S ecurity
ĠA tl
Ġg iven
36 1
302 1
Ġobject s
Ġeng ine
Ġpan el
L ith
ĠC hem
ur as
Fil m
uel a
Ġant ib
ĠSpring field
Hor ror
U nd
ĠS ign
it ive
28 2
33 7
Ġman agement
ograph y
B ud
p ub
Ġb eta
ac a
ĠO pt
resent s
Ġclass ified
ĠAcc ess
ĠTRUS T
A z
C asey
P OS
ĠP L
Ġb ro
CA S
34 3
38 0
port ant
cl ass
ang ed
Rh ode
ĠCOR RECT
0 12
l oy
19 04
ĠF ar
Ġf oam
ra ffic
35 9
ZAN USSI
G ame
L ocal
M ALI
h att
x s
st an
Ġp ublic
01 8
ĠJ ay
Ġv ehicle
Ġh ere
Ġnorth west
ĠMed ical
Ġmed ium
D rive
M ED
ĠA th
Ġp erm
ĠJ ordan
IC ES
ĠBrit ain
ar ian
Ġl iquid
Ġgener ate
218 299
Ġstruct ures
B S
D yer
ĠC AN
ĠM GC
um es
Ġfe ed
ĠB ill
Ġs ec
ag ara
Ġl ast
ĠSal on
ĠRob inson
MEN DE
di agonal
F amily
S now
ĠB AR
Ġa x
ĠJ osh
ĠG er
36 8
Pro ject
Phil ip
Ġdet ect
Haw aii
Ġimp lement
aud i
NORD MENDE
E rik
m ail
y aml
Ġp e
ĠL ev
ĠJ ER
OR A
ĠK im
Val ley
We ak
ĠBa iley
Ġquest ion
B ridg
n est
ĠSt ra
iv al
Ġ7 3
sp ace
Ġint roduction
Greg ory
hol m
Beg inner
A ves
S m
T aiwan
el er
ĠF R
ĠD ub
ĠN ote
34 1
Ġle ad
A rea
p art
r as
en burg
ic ates
ro ach
ĠI owa
ĠE arth
im ens
umb le
ĠLe on
Ann apolis
ĠSim on
9 06
H UN
S au
g i
ĠL ead
Ġb ill
Ġb attery
ir ates
F ay
P ORT
w ar
ĠS ERV
ĠC L
ĠM obile
ĠW el
ĠL es
ĠG overnment
ab ly
FOR E
ĠPh illips
For ward
ĠPr ess
Ġkn own
4 27
F V
T urn
19 23
ĠP erez
ch mn
ri el
ĠL O
id g
ew ork
EL O
ng dt
Ġex ternal
Bl og
Ex ecutive
ĠComp letion
fly ngdt
Ġrece iving
ĠBen jamin
VEL AND
flyngdt chmn
B edford
G overnment
ĠS a
ul ator
ĠCap ital
Ever ton
V ertical
Ġ )
ĠF O
Sep h
35 1
ĠTr ust
SG D
Ġgloss y
0 20
4 08
D K
f re
gy pt
Ac ad
Ġmax imum
m icro
p atch
Ġp oss
St ar
47 3
itt y
reat ment
L in
L uke
s el
ĠS oul
19 27
ol ine
ish ing
An na
Ġcont ract
ĠRe ed
ĠWes thampton
i ation
et ch
Ġst r
ount ing
Me eting
B ond
P ub
R OL
k ing
s ec
ĠM otor
ĠB eck
ol ute
18 99
ĠG ard
UN KT
Fres hman
arb or
UP UNKT
Hay wood
Roy al
BLA UPUNKT
D D
ĠE t
33 2
iz ard
Ġk inase
Norm an
ĠHol y
Trans lation
3 17
I f
u ania
ĠH an
35 3
UN ICATION
yd er
Ġal pha
ĠHOLD INGS
I ron
U se
ĠP ick
ĠG raham
47 1
Cle ar
inc ent
ĠCon st
ĠBern ard
J PN
K arl
ĠM K
ĠD AV
47 4
TO W
Ġtem perature
ĠGonz alez
R ank
S ec
ĠD a
ly mouth
St atus
min ster
Ins ide
Robert son
Ġinters ection
MALI BU
L M
ĠA K
ch ool
ach y
35 7
ĠSh aw
Ġle arn
Jeff rey
M int
i ot
m el
w alled
ĠM ess
ĠAss embly
Jim my
Ġexpl os
3 30
4 15
B ri
v ersion
it als
ĠR adiation
ĠD omin
ĠN utr
36 7
Ad obe
sc ape
Pr ince
ĠCamp us
Soft ail
ced ure
L ock
b ach
ĠJ o
ĠG od
Ġm ake
ap el
ĠK an
48 7
Ar c
Act or
Ġart icle
Corn ell
Serv ice
4 12
G S
m as
20 31
en ne
am pl
ĠN ORTH
ov es
39 9
ĠPark er
ĠHol land
Jess e
Camp bell
B ec
M olecular
th ing
it age
Ġo pp
Ġc atcher
ĠH TT
ag ua
ke ep
ĠIn jected
37 8
36 4
36 5
ĠImp ro
ĠBE FORE
empor ary
Seph aro
A WARE
H and
j m
ĠP LC
Ġo wn
em ized
ear l
Ġn ov
ĠK orea
ach ing
36 2
Ġinclud ed
ron ics
unit emized
Yan kee
3 27
T al
le f
is le
04 0
28 1
ĠUn it
ĠLow ell
Cro atia
O d
S af
ĠC oding
Ġm obile
For bes
ĠFX ST
ynch ron
Ġprec ursor
3 16
4 07
B ad
N ear
ĠI K
ĠI V
Ġb ound
ng o
act ory
MD ALE
Mc Laren
ffic iency
Cur ated
C el
F ar
N intendo
O IS
h ar
ch ange
Ġc alc
ĠG arcia
ew here
IN TER
Ġn ext
ĠK elly
son s
37 0
Ġsub unit
fl oat
ĠChrist i
Conc ord
PAL MDALE
4 30
P OR
c s
d sc
ĠM C
ag s
AM A
40 11
Ġspec ify
Ġser ies
utt gart
B aden
W alk
ĠN ame
ĠH op
ĠH amilton
03 750
Am y
Car ter
ĠBl vd
ĠJun ior
L ah
L otus
l ight
ĠM urray
il dr
us ical
Sh aron
Def ect
Ġdo es
Mic rosoft
Ġindic ates
C ook
K IN
st ad
Ġc ur
ĠU t
av or
ob a
UT RACE
ĠQu ad
ĠSec or
ĠTy ne
REL ATION
L ewis
ĠB oard
Ġth ree
ĠL op
Ġc apt
ill on
CHA EL
Med ia
ĠAp ache
Ġmagn etic
rock ett
4 11
K R
P erry
in clud
ew are
ĠU RL
ans field
Ġag ent
Ġapp rox
oz walled
ĠDev ice
ĠBL VD
Aur ora
ed ul
ĠR anch
Mon ter
isb ane
ĠFL HT
Ġhe at
Ġcol ored
ĠEv ans
ivid ual
B u
L inda
N ep
h u
Ġ ride
Ġp unct
ĠK ar
Ġ6 8
48 0
38 7
ph one
Gr ay
omen a
Ġup on
Ġem ploy
Ash ley
Ġhom olog
Ġob tain
4 40
R and
T est
i ri
o is
ĠM ON
ĠB uck
ist ro
ock anum
ser ver
ĠRail road
an sea
ĠS ociety
ĠM UL
ĠT enn
Ġs aid
ĠE le
ert o
Ġcont inu
ari ous
RI G
ĠMe eting
gar et
Sav annah
t m
ĠM AT
ĠSt ewart
ĠL evel
ig uel
Ġl oud
ory ou
ID GE
As ia
E th
g reg
ad ow
ain ts
Co ed
PR U
Tol edo
3 13
M EM
10 31
ĠB al
36 3
Ind io
Sc reen
ĠBr ad
Ġbel ow
Tip ton
D H
H ouses
n i
at ically
ĠW ed
form erly
She ff
ier ra
Ġch eck
ĠEx ecutive
TI P
E H
L ight
g amma
en berg
ig ation
Ch ad
ner d
pe achy
Fl ats
FI ELD
Mel inda
Elect ronic
ĠRoy al
Ġachiev ement
7 05
K in
h urst
ĠC as
ĠP H
ĠB ou
Ġl ow
Ġl ittle
art z
ĠIn fo
ak s
over y
ĠPRO PER
fl ipper
ĠGr ant
cont rolled
Ġantib ody
, ..."
ar es
st ate
um eric
ES TER
aw ay
South ern
Pet e
Sum mer
FORM ATION
U E
ĠC ro
ĠL ov
ĠL uke
ĠH u
Ġ8 4
Bl ount
ELE CT
ĠCooper ative
Ġet c
ebl ood
ĠNutr ition
h ard
ing e
ĠP a
01 4
Ġh yd
ĠSess ions
D rew
x z
ĠC IR
ĠA ng
ĠE ss
Ġl ock
sh i
Ġsp ace
Ġdefin ed
ĠGriff in
L oud
W ELL
b oy
s ub
ĠF amily
un ter
47 2
Cl oud
Ġrel ates
ĠPar is
XX X
nas l
Ġadopt ion
4 16
8 06
o ose
ĠC alif
is ton
Ġs il
ĠJ UL
eth yl
ĠLe icester
Spec imen
ĠMER GER
Pub Med
H oward
L ak
w all
Ġ els
ĠM esa
Ġt sun
ul in
ER T
ry s
enc ing
ĠMc G
CM G
ĠCin ema
Ġtsun amis
B ow
H ail
H ong
J ust
V u
f it
p eptide
37 9
Sh ow
Br itt
inn ers
de letion
Ġj an
Ġext ending
ĠAh med
Ġphen omena
Ġels ewhere
ĠM IC
ro tt
ĠY ale
SD LP
AD RILL
SE ADRILL
409 9
! !
L ille
P ens
R ub
W MAC
Ġ range
re cht
ĠB ase
iv ated
St aff
ash tra
49 9
oy ancy
Bl u
Ġpl ate
Ġbut ton
Ġmed ia
ALT ADENA
ĠTru eblood
ngo ing
H AT
K a
Ġ enter
ĠD iamond
29 1
Ġ6 2
Europe an
607 235
Brew pub
nold s
ĠFace Time
ĠBright ly
Ġexplos ions
B uck
C rockett
R HP
T un
d s
ent ry
Ch ild
ood y
ĠPro tein
Sc ript
TR OL
DUCT OR
FIN ITION
Repl icate
Ġbu oyancy
Ġpunct uate
u art
ĠM ate
ĠR ub
ĠK l
ut ton
AT IVE
Sh aw
Ar ch
Gl obal
Ġrequest s
Ken ya
Lith uania
C ape
T C
b ul
y t
ĠS afety
Ġ- -
Ġcor re
LO VELAND
ĠBrook s
C ourt
D ul
ar ing
ĠS ome
ĠD IA
AD A
DE X
ĠGr ay
deb ian
T el
h and
x ml
ic als
ĠR oll
18 92
AR Y
Mor rison
Hel ical
Ġpoly mer
ĠMED ICAL
Ali ado
R ose
S audi
T erm
ĠM t
ĠL as
Ġl oad
Ġl ines
are z
Al terations
ĠSh ort
Ev ans
ĠHyd rogen
cer ts
ĠBroad way
ebast ian
O ES
p ost
ĠF le
36 6
ang el
UL L
La uderdale
Ġj unction
Ġme chan
ĠWood s
Bur lington
Key board
icop ee
Weak ley
. -
K N
T M
en ham
ĠC ycl
Ġ9 8
37 7
Pres chool
Z urich
f arm
ion e
ĠD ick
ir it
Ġre fer
AM P
ett eville
ĠBr unswick
En terprise
etermin ed
amaz oo
3 48
? )
M U
P ont
m es
MI CON
OW ER
ĠHD D
rif ied
ĠT ower
Ġc ard
49 5
Ġr ule
86 6
ĠEng lish
vert ising
B os
23 75
Ġab ove
Te chn
ĠHE AD
MICON DUCTOR
3 46
m ist
il i
Ġc arbon
ĠH I
18 50
Ġch amber
Ġsh all
ĠCon certs
ĠAct ive
ĠMA Y
NS W
Ġph osph
Ne il
Mr s
ĠHay den
C ov
N apa
p ace
ĠT err
ch em
ĠB ond
ĠR angers
et ers
Ġc ost
Ġ6 04
Br isbane
Flor ence
Ni agara
3 29
in ed
al se
ĠB ul
ĠB ass
03 2
56 0
ĠBro thers
54135 15
J arry
R achel
b rid
i ers
or ig
th on
19 21
ĠM IN
ĠP RE
48 9
3 45
T en
b ool
ĠF D
og ue
act s
Gu jar
ĠMart inez
gn ome
ĠHTT P
W J
ĠC PU
ay a
Ġv er
Ġl o
ĠIn vestment
omm y
ĠCl ar
ĠEx amination
ĠWood lands
enez uela
on i
19 18
CH ARD
34 4
39 0
39 6
GA JA
Sim on
Kal amazoo
mag pie
but ane
B st
_ _
ĠD ynam
SI L
qu ency
ĠCh icago
ST AN
Fred erick
bz ip
ĠAqu atics
C ameron
x t
AM S
Ne eds
OW N
Bry ant
MON T
alyt ics
ĠSar ah
Ġhel p
Ob ion
C as
J PMORGAN
d u
19 02
st anding
ĠSt one
St ud
IS F
lect ic
arm ace
fr ad
ĠStud ent
Ġflu id
ĠHoly oke
4 14
f amily
es us
Ġt ask
ĠMar ia
ang o
An y
Ġcont ext
ict ure
esh ire
comp lete
Sar at
C OR
F IR
G i
O V
v t
Ġ outer
ĠP erry
ĠH alf
em on
ĠCh icopee
Cl a
Ġsh ows
Ġmod ified
oun ced
Gold en
ĠRet urn
4 38
E O
L oading
il ton
ol ved
ĠD oug
Ġc arrier
Ġm ar
De ath
ĠTrans portation
F el
ĠW i
Ġw ire
ip er
37 3
86 3
ORP OR
App le
Ġpred etermined
M ouse
ro om
and ro
ff ee
rou s
ĠPRO SITE
ĠSer ial
ij ing
ĠFr ench
ĠArab ia
b al
h yd
l ie
ĠG oat
em e
ES IS
ĠIn itial
77 0
ĠTown ship
ĠNic olas
Sau ber
Ġto ols
ig e
iz ing
ual ly
ram ework
ĠX ML
enh agen
ĠArm y
Kar en
sur frad
Go al
cell ent
Cath olic
ĠRecord ings
armace ut
B al
C all
M ETHOD
N ES
ch ar
ĠD allas
15 00
ĠJ apan
ĠG ate
ia k
Ch or
Fl ag
Wh en
br and
wh ite
Ġdec rease
mok aren
R eb
as te
ĠT able
02 2
Ġl ike
est yle
yd olphin
uff er
ĠHar rison
bl ue
ĠHO OK
ĠDAV ID
mist ydolphin
H air
P AR
W at
v anced
w ig
ĠS on
ĠS ing
ĠS ong
ĠP age
ĠH osp
Ġm ill
SU I
oul a
Ġadd itional
Ġtim es
rior ity
ogn ition
B rett
c r
j et
ĠC up
ĠB io
Ġh uman
ĠUn ified
Cl if
ĠWatch ESPN
ĠWatchESPN Final
3 28
T u
m ax
ĠA CT
ĠD av
Ġst ored
MM S
Pr ess
bert y
D anny
m ine
ĠS usan
am ent
ĠP rivate
ĠP HAR
ĠT em
ĠF er
ĠW ASH
ec oming
ig en
im p
Ġw alk
ON ALD
lect ric
ĠFL J
NS BY
ĠSuper Drive
zz zz
ĠCoast al
Ġrecord ed
HOR NSBY
J ew
K inder
P sych
W ell
ĠS ab
al ph
ĠC ode
ĠD oor
ĠN D
ich t
Win ston
It alian
ĠON LY
F ield
K am
W orld
c ar
ar ashtra
ĠG irl
Ġl if
Ch inese
CH L
ET TE
Pl ace
ĠSan chez
Russ ell
ĠSand ers
ĠHILL S
4 45
Q LD
Z A
f s
ĠSt orm
ĠB EL
ĠD ar
Ġin ner
Ġ3 00
AT OR
OL F
37 2
ang le
ĠOr acle
Dem o
witch es
Mun ich
eek ly
ogen ic
Ġretriev ing
mid t
8 08
B ass
H F
ul ner
ĠH oward
Ġpro perties
Ġwh o
olog ical
ient ific
Ġinhib itors
ĠCOMM UNICATION
Ġnonc arcin
L an
a q
ĠC ant
ĠC ath
ch arge
ĠB ig
ĠW ide
Ġd riv
ig a
ah an
37 1
Te ch
As bury
Pet ition
Bil ly
Ġfin ancial
ĠSI GN
ĠVis itor
J OH
a qu
f w
ag ar
Ġm iss
ĠIntern es
C rystal
O de
om et
ĠL it
Ġa uthentication
02 6
ew ood
sh aw
Am anda
An ne
Mac on
ACT IVE
ĠBeat les
n ight
or gan
ol an
Ġp itch
ĠL ang
ĠJ OS
ĠINC ORPOR
ĠDe Mint
ĠTr ack
Hol iness
ĠLab or
ocol ate
M aster
k r
ĠD od
ov ers
Ġ7 4
Ġhead er
( +)
ĠS aints
st ar
ad ata
ĠB i
ĠB reak
William son
ĠTechn ologies
ĠMinn esota
ĠEc lectic
f an
ĠF I
Ind onesia
Ex pl
rib arren
Co in
ĠWh en
Ġprovid ing
ĠPres ton
ĠBra un
Ġstud ents
raul g
s m
ĠA y
Ġp oints
ĠW estern
ĠL oc
ĠL earn
38 4
ĠJun ction
Ġpl an
DE FINITION
any on
ĠEn terprise
uther an
ĠShe ff
Ġcomponent s
Hard eman
Ġpoly peptide
Slov enia
ĠEvent s
ĠMAS SACHUSETTS
Mess aging
4 29
7 200
F ighting
ar agua
ĠD AB
Ġm ove
ap ers
EN G
38 8
LA C
3 19
Ġ1 01
ĠD eb
ĠI ce
em i
ĠY ribarren
Ġcomp ound
af ood
Sch ool
ĠPat rick
Ġadj ust
3046 159
S PE
th ey
ĠP u
Mar ia
ug ar
ĠU CS
49 4
TER M
Lat via
C ons
p at
ĠC ur
ĠF ut
ĠR aw
ĠI ss
ĠJ u
LA KE
Ġor ig
Ġen abled
Ġvari able
opp ing
f var
ĠR A
ev o
Jan e
ust ang
39 8
Ġex ecut
Som erset
Ġthere of
Dj Vu
Domin ican
Fay etteville
J oel
M egan
W AL
Y O
d ata
al u
ĠM ull
ĠL P
ash a
Ind icates
ĠMI CHAEL
ĠRE EL
ĠForest ry
Sheff ield
H annah
T wo
s rc
ĠC R
it ude
Ġex ec
Ro ane
206 180
aff e
209 180
Ġprot ocol
ĠRog ers
A PA
I le
R ap
g ran
ĠT el
ĠF ound
ac ola
righ ts
Ġpart s
Ġport ions
MAR Y
Up per
T erry
b h
c enter
ic he
os ing
eg ative
Ġ8 8
CH E
ĠMar ie
Ġse lection
Ġallow ed
Nep al
B OR
K D
M ir
S econd
Ġc ase
Ġb r
18 68
38 2
MI CRO
oy le
ĠOn line
pd ate
ĠMult i
Ġ ut
ĠV EE
Pro gram
HO MAS
OK IA
uck er
Ġexp ected
Ge op
ĠEll is
ĠLop ez
w ur
le en
ĠD I
ĠD ennis
ĠW ell
ĠH RP
ec l
im ization
47 9
ian e
39 2
Mc Minn
plic able
kk ad
ĠMos ch
Sarat oga
S ets
ĠF o
ber de
end rick
ah l
ĠWh ole
atter son
ĠCON TROL
ĠAs ia
Sing les
fin ancial
Ġpartic ular
ĠPenn sylvania
J UN
L afayette
T ax
h o
le c
st ill
ĠT act
ĠB oston
08 1
ud es
roll ing
Pr int
Lar son
ministr ator
Ġembodim ent
Gro oming
ĠLif estyle
R un
i ott
Ġ ep
11 00
ĠT ire
ud a
49 2
Pol ink
tra kkad
Stock holm
aum ont
Geop otential
C GN
G raham
H N
f oryou
g on
ĠB end
im i
Fl at
A j
w ith
ar ecoming
ĠB ron
03 3
AT P
Ġresp ect
ĠTan ks
ww w
Care er
pent ane
they arecoming
theyarecoming foryou
G ain
S ara
g pm
ĠM ARK
od a
CA RE
In hib
att y
minist ration
wur ttemberg
D erby
T AL
m ission
ed in
ĠF all
Ġth read
Ġs k
Ġpro p
FL A
39 5
ĠPet erson
ij ay
Del uxe
Ġhand ling
ĠMem orial
ĠPHAR MA
j ust
al p
ĠA ustin
ĠP ier
Ġs ent
ĠH i
02 7
St ewart
ord e
ith er
Ġ9 5
IS T
86 5
Miss oula
Ġch ild
Ed en
Be ijing
sc ar
HT ML
Nic aragua
ĠJER SEY
ĠINCORPOR ATED
j i
19 01
Ġ7 2
ĠSh er
Gl endale
ĠAct iv
ĠDoc uments
Ġoper ating
He avy
Cre ature
Que ens
Lah ore
4 23
W OR
ĠR ug
ĠR osa
ĠH ughes
18 66
ĠU K
ĠK ath
ĠY ear
90 11
Se lect
RAN CHO
ERI AL
ĠWASH INGTON
f ree
f ish
ĠS now
ĠT ob
ra ke
Ġh old
Ins urance
ĠFl a
Sub strate
ĠET F
Sev ier
berde en
4 34
Y D
u ador
Ġs acrifice
em outh
ub s
Ġst ore
uss ex
4 49
H istorical
I b
P ortsmouth
Z im
le hem
ent ional
ĠH uman
ĠI d
ra h
ain er
ans ing
UR ING
Ġme ans
Offic er
D ead
J ones
N otes
an tha
ĠC a
Ġp rom
37 6
39 4
Ġcomp ounds
ston ia
eng u
Ġhigh way
BUR G
C ob
N P
ĠS peed
ro tein
ĠN ash
Ġl ength
EN SE
TER S
ix on
Ġautom atically
py yaml
Ġgu ide
B enton
N ate
P uz
g olia
ĠS ax
ĠS mall
ed e
ĠA uthor
ĠM achine
ĠG E
ĠG EN
Ġ3 000
RE E
kl a
39 1
SM C
rem en
Intern et
Ly on
itte es
micro SDHC
Pens acola
Ġnoncarcin ogenic
Singles peed
Puz lar
4 17
L F
N ER
d oor
k at
p ower
it an
ĠH en
ag ger
ack et
ampa ign
Ġit ems
unch anged
Off line
Vict or
ĠBru ce
ĠPAL OS
ĠS quare
is er
ĠP ad
ĠF irst
Ġs ecurities
18 00
ĠG Hz
Ġv on
ant es
99 9
Ġcont aminant
olar is
Ġperform ance
ĠDEL AWARE
5 07
I Z
M ansfield
N ob
05 00
ĠH ockanum
Ġw all
iz ations
AD D
Gu ard
Log an
Wal ter
A h
N ature
10 41
ent e
ĠK ir
Ch ile
se ille
ĠCh ild
In jected
39 3
39 7
Coc ke
M OR
in ary
im its
Ġcomp anies
Def ensive
PRO SITE
305 1
Ġtransm ission
4 47
B etty
J ava
J amie
N L
Q atar
T in
T IN
g t
ĠB re
Ġf ixed
ĠH off
AN O
St ephanie
IS TR
enc ed
Gu est
wh y
ĠAD MIN
Ode on
C ENT
R D
g reen
m t
ĠA BO
ĠT u
ch ant
ĠB at
02 8
ĠV AL
ish op
Ed die
ĠEx p
FI ER
Cop enhagen
Method ist
Acad emic
: :
C os
E s
th ouse
ĠC ong
ĠC ave
el kay
MO DI
Bl ind
ĠPh ot
Ġdet ection
BU F
Ġann ounced
elkay why
G IN
L ib
M it
P od
at istics
ĠB et
ur p
ĠH its
ah n
Ġ7 82
our se
Ġtrans port
Ser ver
Ic eland
; "
B utler
N a
R aw
S ign
ĠN am
ut ils
Ġ6 1
Sp a
air y
Ġinter act
ĠMill s
Ap ache
ANA GE
Os lo
4 46
C urtis
V e
h ancement
ĠT rail
ĠB us
Ġf ac
Ġf ell
ĠL ower
ĠIn surance
Un iv
ale y
38 3
EC K
ĠIL LIN
1072 20
G ail
J ON
z i
Ġ1 200
re p
ĠT otal
om al
ĠH on
ĠO x
ann ot
ien ne
E sc
H ill
N OVA
b ilt
c at
t op
ad uate
ĠB art
Ġm ortg
EN CE
Em m
ĠUS B
Wait ing
Dul uth
S ome
ĠC rawford
st ud
ĠW ings
Ġm achine
ev erly
MO ST
Fran c
AU D
ĠWeb b
ĠSw itch
ĠRev olution
ĠHat field
$ $
1 200
5 10
C urrent
U ttar
V EN
ĠP i
ĠR ica
ĠG ro
ist ic
48 1
RO KE
Ad rian
ĠCo x
RIN C
Ġgener ation
ĠTr ade
estin ation
8 01
C ody
K ate
p c
ĠC irc
Ġv an
49 3
int entional
ĠSun derland
Bl ake
ĠST ATES
Ġcurrent ly
ves ton
Ġcap ac
ĠKn ight
Ġarrang ed
A ud
A utom
C hem
ar us
as er
05 000
eb a
ĠIn jector
rap ins
Ken neth
ĠRem ote
High land
Ġvol ume
rel ated
ĠABO VE
L ov
M ail
h ill
ĠA FB
ĠB eth
ĠL in
os l
oh an
ĠCh ocolate
ph osph
Ar senal
Gr ass
ĠSp ain
Be aumont
Per th
Ev il
ĠTer rapins
Josh ua
375 0000
agu ay
K r
O O
Ġ icon
ĠM ANAGE
ro id
st en
ĠT on
ĠF il
ĠB ol
ĠR un
Ġs eg
CA LI
45 9
LE X
umb ers
Ġnorth east
ĠSpr inger
Son oma
ĠMate o
8 51
D AL
R oss
b i
ĠT RAN
ĠB rom
Ġth ese
Ġp rimary
Gl ou
Acc ess
Inst itute
Ġdescrib ed
ĠFoot ball
Ec uador
4 13
C ontinu
N G
T op
T oul
ĠS OL
and o
ĠD ream
ĠL ive
18 35
eb y
48 750
aw k
44 1
ĠST ROKE
LIN C
F arm
T an
le ts
ĠP erson
ĠB US
Ġof fer
ĠL incoln
03 9
ess a
St reet
ond uras
pl ace
ern er
Col gate
ĠCar r
act ers
unt ed
lib c
Tim othy
Ġprot ect
8 07
E FF
Ġ rank
ic les
ĠF ox
ĠW a
ĠL or
ĠJ en
Ġl ibrary
ire z
49 8
Ġr ad
UK R
Ġcross ings
Beth lehem
Ġwr ite
ZZ Z
Ġ1 12
ay ers
ĠA rizona
ĠR en
Ġ4 00
ĠIN FORMATION
Ġsign als
Ġserv ers
Ġlist ing
ĠEdward s
ebec ca
ĠILLIN OIS
4 48
B ah
G roup
H OL
b ow
n ing
in st
ĠS anta
ĠT HER
05 0
38 1
Ġag ency
August a
Ġelect ronic
S ER
Ġ rights
ĠC raig
ĠM oody
Ġd ead
ĠV II
Ġn atural
ait i
Mid field
ĠTur ner
RIG HT
ĠMIC RO
4 22
P EN
W Q
is ions
ĠA J
18 60
Mar vel
od er
ug ues
Ġby tes
af ael
ĠCon n
Ġsouth east
ĠLe af
utes bury
Ab b
ĠUp per
Ġest ablish
Misc ellaneous
Ġap plied
d es
e Re
f ire
r en
Ġ arch
ĠS AME
is o
10 64
ad u
ĠT ennessee
Ġp ubl
RE ET
Am eric
ĠPl ains
ĠBe aver
Ġman ufacturing
B est
H ull
M l
N ik
N icholas
T a
m ic
Ġc ant
ĠV ice
Ġl ive
ĠMar shall
Comp uter
ruct ural
Ron ald
Ġequ al
ĠMAN U
G PL
L W
y te
ĠD ons
Ġs peed
ĠJ esse
ĠG reat
ut te
49 1
ĠSh op
ĠAl so
str ong
State wide
He ather
Gal veston
ĠCob urn
ĠDomin ion
8 57
K l
M ore
w ind
ĠC apt
is bury
ĠB azar
ĠL ud
ort ed
ES H
urg ical
Dem on
Ġfeat ures
ĠAdvis ory
ĠCart ridge
J HL
e a
st aff
ol id
23 54
ĠK urt
Ġr pm
ace y
ins ki
AK E
arri or
ract ice
Ġdel iver
aur ant
B it
O UR
w t
le m
ay re
ch o
ĠH um
Ch i
og ene
ĠTh or
ire ment
AB LE
Gl g
Or th
de leted
fr ast
ander bilt
uter io
val id
Ġcontain er
ĠWat son
Rom ania
Bor ussia
C i
d am
ĠD IG
ĠG O
St ream
Jul ie
49 0
Ġst ack
oy ce
UT ION
Ġtr ack
ĠEle uterio
an es
ĠP ath
Ġv otes
TH E
Ġapp ly
atal ie
ĠLearn ing
u ki
ĠM ail
ĠF el
ĠD or
ug e
ib ia
ome y
amm y
Ab d
ourn emouth
Ġident ifier
ĠNon fiction
J AM
N it
T W
h ab
u w
st ock
ĠB RO
ĠW ells
Ġc ert
ĠU ttar
Ġl inks
49 6
49 7
Ġsh own
press ed
ĠTim othy
ĠRel ations
Ġlif etime
7200 30
frast ructure
m ac
ĠM ath
it ation
ĠSt orage
ĠD ual
Ġd am
16 00
Ġ19 70
En tertainment
Par aguay
ĠMid lands
r in
ĠS CHOOL
th y
om ic
ĠJ ohann
os es
27 500
Ġre b
sp apers
Comm ittee
Tr avis
Ġcap able
UMB IA
Ġopp osite
ildr en
B LE
B akers
N et
R he
p rime
t il
Ġs uper
Mar seille
31 10
US F
Miss ing
Ġun ique
Bel fast
** *
adi ens
Ġconduct ive
Advent ure
4 36
E qu
H onduras
t ucket
le ep
ĠW ales
ĠK ansas
res hold
Ġ9 2
Ġad apt
bab we
Olymp us
ĠGold stein
Cre ate
Repl aces
ĠStan ley
ĠRug by
4 21
4 35
E stonia
S ter
W ol
Ġt reatment
ER O
ĠPro fessional
Ad vertising
Ġint eg
Phot os
ĠMa ine
ĠPROPER TY
L iving
V ille
g or
al og
al ert
it ely
est e
Ġst yle
amp ion
uc er
ath am
Ġprovid er
ms brand
ĠBas ic
msbrand new
4 18
D ub
H ann
P iet
f g
ĠP BI
ent own
18 98
AN N
SI TION
Ġr ate
An sw
Ġdis k
Rep resents
avar ia
Ġposs ible
4 37
W ester
g le
m aster
ĠG ordon
ER LY
AR B
ĠCl ay
On ly
rum ents
Ġgener al
ĠSe afood
Def ender
ĠBull s
ĠMot ors
ĠADMIN ISTR
MODI FIER
4 19
C apt
R PG
T w
o j
ĠD am
ur d
Ġthe m
Mich elle
ĠPro fessor
Con firmed
Ag ent
ĠLa ura
Ġwr itten
Scot land
ĠRI CHARD
B oca
N OKIA
S id
ĠS ky
ĠA TA
Ġm er
Sc ar
Ġun its
ĠEx press
PH JF
Off ensive
Ġchar acters
Wind ows
Mo ore
ĠTER MIN
haw ks
Stud ent
p son
re ater
ĠL ock
ĠL akes
04 00
Ġg et
Mon golia
PI MMS
Ġun l
Ġoper ations
Vent ura
Put nam
ĠMANU FACT
L ab
L utheran
y ann
ĠA ward
il ene
ĠSt evens
un o
Ġin vestment
ran ton
Ġre lease
Am herst
Pl ayer
Ġelectric al
Dep artment
Monter ey
ĠJOS EPH
v ale
ĠC osta
st e
ĠB rett
ol ly
Ġw orld
Ġl ater
Ġh ttp
ĠNew spapers
ĠMA CH
Ġme eting
be k
Ġfr ont
ĠIndust ries
ĠCole man
1 0000
D ES
D over
G AR
H at
U z
j av
w ise
w agen
or ah
ĠC ost
Ġth ence
ĠR a
Ġc ore
um ar
Ġ19 80
ĠK al
form ance
ĠPl ate
ĠCl oud
ign ment
98 750
Ġev ents
Ġun til
Ġtrans c
irc raft
Ġdesc ription
ĠAsh field
607 2354
865408 8
ĠMagn us
I ran
T ogg
ĠM B
ĠT i
ĠR aton
Ġa v
Ġm en
ort mund
ER E
oc r
21 10
Ġ15 0
Win ter
Pol ice
Ġfl ash
ĠRam irez
Su Men
Ġmechan ism
m b
ed a
ĠB utler
Ġp air
Ġc atal
Ġw idth
Ġm ix
od ox
ĠV T
55 5
ĠGu ard
lyn n
JP UR
A E
N icole
S el
as ota
ĠT odd
ĠB eg
ĠR IGHT
us k
ĠJohn ston
umber land
ĠQu inn
Min utes
opt ional
Ġdirect ly
Fac ulty
Ġfre quency
C ustom
D esc
ĠM oon
ĠB or
Ġc al
ep p
ac ent
Ġin itial
iv a
Ġ7 1
Ġev ery
Ġmagn et
Ġinstall ation
A I
H UM
H aiti
J os
N iger
st orm
ĠF ork
02 3
ov en
Ġl anguage
av i
ĠIN TEL
77 2
ax y
El m
rick son
LO Y
4 26
J B
J AC
N X
O C
P ot
r v
ĠR eds
ĠE ach
ĠO p
ew an
ev es
ak en
ind i
Rec ipe
ĠLe ague
hem atics
309 9
Harris burg
Sail or
B urn
E gypt
I l
W EA
ĠC amb
ĠP atch
ĠN orm
Ġd u
Sh awn
mon thly
Ġen vironment
ĠWol ves
hatt an
CALI FORNIA
B i
d ivision
f eld
Ġ que
ĠC row
et ical
ec kl
ĠJ ust
Ġw ireless
Col l
Br ent
North eastern
302 3
Ġconnect or
Dom ains
Ġback ground
ais al
T able
and ra
un ic
ĠL anc
Ġb row
Ġd ie
ĠE lementary
ĠY our
Am ar
Mon ster
Con st
Answ ered
K irk
f rom
r h
ond ale
CO OP
unt ime
Re quest
Ant wer
Ġembodim ents
B a
F itness
M ake
m ap
ou st
il o
ĠB arr
ĠH unter
ĠO ntario
Ġm ouse
Ġm ounted
ug u
Ġst ream
uc es
As pen
Daniel le
Ġdep loy
alc ons
Ak ron
Zim babwe
Piet ist
5 05
A ston
h yp
s ky
ĠS K
op per
ack ware
In Black
HO JPUR
ade on
IG H
Sal isbury
Mor ris
CR ON
ĠTo omey
Gain esville
D am
M eg
S HA
e han
in ar
an os
ĠM ason
and ler
ĠF RAN
id ity
ER MAN
NE CT
MIT K
Ġest im
ĠUs ing
ĠKent ucky
ĠCert ification
Bul gar
ĠEp isode
Ġagain st
Ġlo ans
6 09
D al
T emple
b ai
m u
al ing
ĠC over
ĠH oll
ER ESIS
ĠU ser
all en
Gu itar
MIN N
MAR K
P os
g it
t xt
Ġ {
ĠC am
ĠR i
end an
ĠCle mson
Ġmemb ers
Orth odox
E sp
M ur
N sw
S QL
W izard
ĠP it
Ġp ol
08 0
ĠE qu
est nut
ke es
Ġh our
Sun derland
Ġor g
ĠRes ettlement
Person ality
ĠBur lington
Ġar ound
ĠAtt empt
Ur b
Rad io
Bakers field
4 33
6 06
V f
en y
ĠF itz
Ġc m
Ġc annot
ow der
ut ral
isc ellaneous
ef er
arr ell
Res ettlement
Ġmon itor
Ab ilene
Paw tucket
Ġmov ement
ĠBry ant
Ġmemb rane
0 1250
B eck
C uba
P lymouth
ĠS pe
as i
ĠR est
Ġd eter
ĠG ab
Ġm ail
AR MEN
ĠAb b
Ġtyp es
iddles ex
d is
s ay
ĠF ilm
om an
om es
Ġp aper
id i
18 96
Ġv irtual
ĠK erry
Ġpro be
Ġ9 9
AD O
Ass ists
Ġdefin itely
Irv ine
ARMEN IAN
E Y
L ING
S we
S mall
c ut
ĠA z
ĠM M
ĠB ed
07 00
ĠJ affe
od cast
AT HER
ord y
ens burg
rap her
And rea
Ġrel oc
Ġqu ality
Pat ricia
zer bai
MOV Y
V R
ĠM yrtle
and id
ĠB ab
Ġp res
id el
art et
Ġout side
ett i
ĠFL H
ĠAg enda
Ġresp ons
Ġapprox im
4 28
6 50
E b
J UL
V IS
V arious
k owski
m ouse
Ġ1 000
Ġt er
ĠD ATA
est ed
ĠCol ony
Man it
Wind sor
ĠDis patch
kt op
Ver ona
ĠDIA ERESIS
0 200
C ED
D G
at oon
Ġp olicy
ĠL ions
ĠL oud
AM I
og rapher
Sc ranton
ĠX L
En hancement
ĠRO AD
ht ml
Toul ouse
el ing
ĠT erry
ĠH OL
ĠSh utesbury
ĠMor an
BI KE
LU X
Ess ex
ĠHayden ville
8 02
C ott
S ierra
V AL
f il
07 0
Ġb ird
iv o
ĠK in
fer ase
64 3110
64 2110
ĠIs aac
ĠADMINISTR ATIVE
2 111
4 32
er yl
os omal
IN DEX
ill ar
Ġg reater
anc ell
ĠAr thur
Ph one
apol i
ELL I
Ġim portant
oul s
Post poned
Ġparam eters
rog ue
B urg
O cean
W olf
g io
j ohn
p ack
p rop
w eb
z h
ĠA ud
10 13
ĠP OL
ad ri
Ġc ases
ĠH istory
ig ner
Mar qu
ian g
ib or
Col in
anc ock
Is lam
Ġim ages
DR AM
309 1
get own
ĠImp act
Ġelectric ally
ĠIr eland
mad ison
ILM INGTON
Clif ton
7 25
8 53
M s
O t
ĠS y
ĠS em
ĠM ids
10 74
ĠL ynn
ab i
Nov a
Ġ9 6
For est
Bar ry
Sch w
157 14
Ġprocess or
ĠMin or
lev ard
Nam ibia
Ġprop ag
B ox
C ross
E agle
L ead
IN ESS
St oke
ran ce
ass e
ore ign
rew s
ĠTrans mitter
ĠAlb ion
Ġrout ing
madison rogue
D avis
L TT
M G
N ow
R oma
V ery
b ot
r ell
10 71
ĠT urn
ĠF a
ĠR ound
ĠW ine
ĠL inux
ĠCh ina
omb e
AD E
WI P
ĠSp urs
AND ARD
SO FT
ĠBar ry
Cab in
Bond io
TOW ER
zerbai jan
B aldwin
G OLF
K rys
R ushing
it ut
ad in
Ġt ag
Ġf uel
ĠD ivision
03 5
ip ur
AT T
ast ings
min i
ĠComp lete
Land scape
ĠMiss ouri
ĠNe eds
CB F
Her itage
Fair field
Park er
ĠAC UTE
3046 15
Que en
ĠDynam o
Ib iza
R aj
S ET
f els
g al
m art
n ell
v ada
ĠP ayment
Ġs eal
ĠI MA
ĠPRO CESS
LO BAL
Ġadd ed
ĠShe ehan
PET CO
CAS TER
ĠAth let
ĠBEL OW
Americ as
G ra
as ad
el udes
Ġf inger
yn c
Del ta
Frank furt
ĠFound ation
J en
P NC
X ME
d ing
i ents
u ant
ĠS or
ent ly
ĠR adeon
ĠW ord
Ġs end
ĠE ld
ĠSh ah
ĠBl uff
ATION S
Ġev en
Ġacc epted
ĠComm on
ugh ter
ĠUp on
ML B
ĠCast le
Hann over
C XL
D ale
R angers
X MA
e on
f ect
ĠC S
11 21
13 09
Mar i
ut ual
In vest
ru eger
ĠAg ent
De an
Sch eu
BL ND
RED IT
PET C
ĠBou levard
B W
P uzzle
f a
l b
l ive
ĠP C
ER Y
ĠK A
Ġ8 83
Ġpro gress
88 8
DE AF
Pl ate
enh und
EW E
ĠSk ills
Clear water
F at
F AR
M otor
P ine
X BA
X BE
X BB
i op
l ake
ĠD ou
ĠD igital
Ġs ect
Ġs afety
03 4
02 9
ĠG RA
29 94
Ġl ook
CA A
art s
ran o
ach in
RO W
ĠAl v
ĠST AN
Ġres ources
MB XME
TA FR
TA FG
WC MP
WC BD
Cont rol
GRE EN
PRO CESS
ĠPhil ip
Marc us
WCH C
WCH R
WCH S
ĠELECT RON
ĠELECT RIC
WM ST
Kinder wagen
SPE Q
Blind enhund
B IT
K an
N ap
P UR
b ike
z ie
ep ts
ond er
Ġ13 33
Ġis ol
Ġcomp lex
ĠFran klin
Co le
err ors
ĠSpec ifies
ĠRiver a
dra w
ĠPaul o
ym b
Ġem ail
ays ia
ĠRad ial
Clean up
Dun edin
ĠMANUFACT URING
5 0000
B ase
G arden
L ynn
S ummit
U d
p ol
ĠS V
ĠP ool
os ome
ĠK arl
av an
AT ER
OL A
Ġcomp lete
ĠSh ipping
umb ler
amm ond
LAN CASTER
Med ical
Class ic
ĠMont gomery
Ġgo al
Chester field
ĠMic rosoft
Valenc ia
> >
H M
L EN
Q ld
d et
k ar
ĠS DRAM
re ys
il ia
ĠB oulder
ĠR ico
ur ric
ĠW or
ĠH is
ĠU pdate
Ġex isting
56 250
Ġag greg
Eng ine
Or gan
lin es
ser ies
Non farm
Hol iday
ĠIndust rial
Touch down
L ower
r up
al gar
ed ia
ĠR oper
Ġp in
ĠH P
ab ilities
ess ion
MI D
ĠPark s
ĠFood s
Sw ansea
fl ag
ĠIt alian
Ġant i
Ġconnect ing
ela ide
Core y
Fab u
UPM KY
Bec Fabu
ĠHosp ital
G a
H op
L az
M itchell
b and
e qu
Ġo xide
Ġp ers
Ġh is
og ne
iss ions
Gr aph
rig ger
Buff a
Des ign
ĠTrain ing
igg ins
A frica
C ass
K IT
S ource
T usc
k id
t ico
er iformes
ĠC lean
ĠB uch
om on
Ġd iff
Ġ19 76
Ġn ames
ra ch
ĠCO UN
Comm ittees
IG AN
Sl ackware
ĠMin neapolis
Ġocc ur
Ġmiss ing
ĠBUS INESS
ĠTERMIN ATION
V enezuela
c ab
d an
m ir
z ig
ĠS oft
ĠM aintenance
ĠP ay
ĠB urns
ĠR ice
ĠJ os
Ġ5 54
Ġ23 63
Ġ23 92
Ġ24 06
Ġe quipment
Ph ill
pet ual
Bol ivia
Ġcorre ct
B oy
D one
F ox
I PR
P ts
T UR
T raf
V ik
i q
t est
ĠC ase
ĠM EM
it le
ĠN AS
Ġd ual
ac er
lor ide
RO SE
oth etical
opt imization
Ġvol umes
ĠFarm s
orde aux
B attle
M ik
S us
\ "
ĠC ache
ct ic
Ġf ri
ĠH ouston
ĠH ollow
03 0
ov ich
ille t
amil ies
ĠFranc is
Mc G
oot er
wich es
ĠUN ITED
Sask atoon
ĠSERV ICES
A zerbaijan
F inn
G ener
M iguel
N at
P en
S ell
W au
n ear
q gg
ĠA CC
ĠW ash
ĠH orn
ĠG h
Ġm id
Sp e
Ġst reet
ome z
Se oul
ruct or
Ġdetermin ing
Ġpass word
Ġgr ade
alle l
qgg ino
5 08
M as
P up
S EM
S uz
c up
er k
Ġ1 02
ĠB ear
Ġf ix
ĠH erman
Ġb ank
Ġ19 36
ĠY e
ern et
Car b
Ġcon vert
PM ENT
ject ion
Ġpl ug
ĠFl at
Mad rid
Ġdisplay ed
Ġrelocation s
QU I
ĠBran nan
Ġdocument ation
hyp othetical
B AN
h ang
k Da
t z
ĠC t
ĠC rystal
ĠCo ach
BA C
ĠGroup s
rif le
ĠGo al
ĠActiv ities
J RE
T ommy
a un
b eta
ĠP av
ĠN ik
ĠL at
Ġc redit
ĠO t
Ġ19 14
ah s
Ġst age
ull ah
clud ing
Ġsh aft
Stan ley
Co ffee
Per petual
tr ack
pro tein
218 2994
ĠSE MICONDUCTOR
ĠHaw ks
bek istan
C atherine
K H
S in
ĠS au
ro t
ĠT ree
CH AR
GR A
rib utes
Ġdes ired
Est es
rv ats
A bs
C ert
ro ph
ĠF our
ĠU NI
ie le
ĠCh elsea
let te
Act ivated
Ġopt ions
ification s
Sn ipe
ĠMah arashtra
ĠAutom atic
A X
R ivers
V O
e ign
i ol
n umeric
ĠS ummer
ing en
ĠT HOMAS
Ġt rip
ĠD ro
ĠL ynch
Ġc aus
ĠG ET
30 12
ers ville
Ġ19 77
St at
TER N
Pol k
Em ma
Map le
Cos worth
8 55
F it
K end
K EN
M IS
N AS
U CT
h ide
k ley
10 14
ĠN os
ac oma
ĠE astern
ab b
Ġ19 38
Ġl ayers
eg bike
ult ural
FC C
Res ult
Reg ina
ĠFri end
Leg acy
Saf ari
Traf algar
C ater
L ou
ĠR atio
ĠN ature
Ġs ept
13 750
Ġn et
ĠCh i
ĠAd vent
Mont p
LO EWE
ĠArm strong
King dom
Cap com
Carol yn
ĠFish er
ĠLIC ENSE
Flag staff
Amar illo
F aisal
K i
ic ity
ĠM u
ĠF alcons
om o
Pro te
Ar thur
Dick son
Person a
Ste el
Mos cow
Helical Sequence
H ons
s ja
at aka
ĠC emetery
ĠM eyer
ĠN ich
ĠG ary
ĠK IAA
86 8
ĠCl ient
ĠBl ake
DE B
ĠVal ue
ĠCont est
SY SM
Pass eriformes
Ste als
Ġflu or
ĠBraun fels
H ost
K az
M AM
R ey
ĠB RE
ĠH az
ov an
Ġ8 9
NY J
ish a
ĠSh arma
Bl ocks
enc er
ĠNew castle
ĠDon ald
Ġco ordin
Sport ing
Ju vent
ĠGi ants
Document ation
F oot
P y
a ire
am ine
ch ants
ĠL inda
Ġc onsidered
Ġ19 72
St uttgart
St uart
az on
Ġcombin ed
AP H
Act ual
ref ix
ĠEl ite
roc ery
Ret ail
Rail road
ĠCOMMUNICATION S
ĠHum idity
Uz bekistan
N av
c z
s im
at ibility
as ville
el o
ĠL ar
ĠH ose
ĠO xide
ab lo
ĠK ate
Ġcl ose
ĠMO B
ĠIntern et
ĠAp plicable
force able
Humph rey
it ical
ĠD w
Ġp ul
ac ement
Ġ19 79
eor ia
Ex cellent
BO OT
Haw kins
ĠDet ails
miss ed
ĠCAN ADA
Evans ville
NES OTA
C UL
L ud
V ID
g raph
ĠM as
ĠM int
ĠM ajor
am as
12 11
ot ive
ĠG ay
ĠK irk
ry n
ĠTh er
urs uant
ĠSh ow
77 7
arn ataka
Ġsett ing
Athlet ic
8 56
B end
E fficiency
F ouls
H ills
N ag
an ova
ĠSt eph
ĠB eng
ĠG AM
ab ric
CO T
Bro ad
Mov e
?? ??
ĠSY STE
Oper ating
Ġatt ach
Pres ident
8 54
G ene
H ob
J I
K y
K ill
d el
s d
u or
10 23
Ġt ables
id al
Ġd igital
SA P
ĠInd ian
Ġdisc ontinued
oot s
Acc ept
Prov ides
ernand o
Back end
ĠOx ford
Juvent us
5 1250
N as
W L
f k
p ath
ĠT ax
om s
ri er
Ġc emetery
18 56
Ġd c
Ġw ing
ĠU C
Ġn iche
St ructural
Am erica
Ġe ither
ĠPro perty
Ġres erv
ĠBr adley
COL UMBIA
MIT EK
Er in
angu ard
LECT UAL
Ġspell ings
C Cl
D ome
D oor
R AM
y es
ĠT re
ĠB HOJPUR
Ġth reshold
ĠL u
ess el
ĠZ one
Sc ope
oll ar
ĠMin er
Med ium
Er ror
ĠOak s
UB LE
link ed
Unc asville
Rap id
Ġmortg ages
Glou cester
E rie
H ugh
K ir
N etwork
P ri
l ang
n one
t wo
ĠS ou
ĠW ee
ĠW inners
ĠJ am
Ġm ost
gh an
Ġr isk
Pro p
Pro bably
ĠAl t
ĠRe quired
Char adri
ĠOper ations
ynth ia
Turn over
Ġreb ounds
5 25
R ome
V oice
W ord
b is
m ustang
w ens
ed ora
ĠM emphis
ĠP iz
Ġf oot
ĠH ans
ab s
Ġm iscellaneous
Ġl and
AM ERICA
Ġpro fessor
oh l
ure ment
man uel
Pro fessor
IR R
ĠCare er
ĠAtl antic
Emm ett
ĠINTEL LECTUAL
Ġdeter mine
4 031
A berdeen
B AS
C ancel
V L
ad er
ĠB os
ĠD erby
Ġp ercent
ĠL iverpool
ĠK ra
Ch apel
Cl inton
ĠComp uter
Rec omm
ĠRead ing
QU E
Ġopen ing
ĠAssoci ates
Jac qu
mustang kid
H i
s acrifice
el ley
ĠH al
ac on
ĠO range
Ġ19 37
ON A
Ġl arge
av in
ĠAn ne
... @
ĠX P
lin ess
Im ports
Ġconnect ions
ĠWal ter
sv n
7 000
8 16
9 071
V illage
l ay
n ick
ĠA aron
ĠJ ustin
ĠG ib
ĠG ener
Ġw ere
ber ly
ie u
Ġ6 00
ĠPl aza
Con centration
Man agement
Hel en
ĠRel oc
View ing
col or
ĠScot ia
5 50
L ady
M ead
T umbler
n on
ĠS HI
le j
le ft
ĠB ird
Ġp ix
Ġb ec
ĠJ ordy
Ġm olec
Ġl um
est o
op rotein
Ġh ouse
Ph illips
ĠComm ercial
uck land
Ġ> >>
ĠDisc ontinuance
ĠRECORD ED
ĠLoud ville
Rivers ide
5 12
B an
C US
F al
H u
P ick
S ebastian
T ott
Y ale
o ating
ĠC AS
10 77
ĠR AD
oc key
Ch ief
Atl tico
unt ing
arr ington
Geor getown
NS ON
TR ANS
Ġreport ed
ĠSand wiches
ĠBas eball
WH IT
Event s
Ġadj acent
Cent re
Bridg eport
D ew
P ap
U NC
V F
W rap
ĠC ord
ĠM Hz
ad h
ĠN A
ĠL am
ac co
ag in
CA C
art a
AL TH
68 750
ĠFran ce
ĠEd it
AB IC
Ġdis e
BER G
ministr ative
ĠIND US
Psych ic
B ordeaux
L S
N y
b ig
ĠT erm
Ġ19 15
ass ociated
IT Z
ide os
HO USE
Ġspec ial
LO CK
We ather
Ġoff ers
Ġgr ata
Clean liness
Gran ada
ĠGreg ory
Thunder storm
ĠBernard ino
A pplication
O US
W owb
l ies
Ġ errors
ĠC ir
il ion
11 11
Ġs ynth
Ġl ens
ist ration
AT I
ud ad
CH T
Sh ah
ĠMon ica
La ugh
rov al
Ġprov isions
TI ER
Ġpre vent
Alb um
ister ed
Britt any
Wowb agger
B G
B everly
C ES
D own
R ic
c aster
n l
s jm
v i
ĠM all
Ġf ind
Ġb est
ĠG omez
us a
16 01
IN FO
Ch ase
ĠCh annel
ĠCon nect
Ġspec ifies
Ġro le
ĠDe an
ĠMad ison
War wick
Clark ston
ĠBan ks
ĠWhe el
Prote ome
Tott enham
T ub
T ask
b ase
ĠM erc
ĠP o
ĠR ing
ur on
Ġs ocial
Ġb ottom
Ġ19 78
IL LA
Ex eter
Ġj ust
Ass istant
ĠTechn ical
Hay es
ĠWal sh
ĠCAR ON
1072 10
Ġcharacter ized
ĠWork s
1062 20
ĠEver ton
andid ate
. *
6 0000
B F
E as
J ill
J azz
R idge
ĠB istro
ĠD er
ir ty
IS O
And re
ĠEx tra
SO A
ĠEl f
Ser ies
Ġwork ing
utch inson
aut y
Ġrepres ents
B ons
H ow
K on
T RA
b inding
ĠC ash
ro st
un c
im b
im er
av ity
ip her
rom osome
Ġ8 1
Ġ7 50
Ġpro file
Ro om
rem ont
ĠBR K
Pu erto
ĠRey nolds
Han over
D Y
G AL
G UL
H of
J a
P ack
l bs
en heim
ĠP rem
ĠP OWER
ĠT al
and ed
ĠR ATED
04 2
ĠG ut
Ch air
46 250
ĠTh under
IC ON
ĠVeg et
75 00000
IR GIN
ook ie
Ġrec ept
LO W
Em ail
Add ed
GL AS
Rail Wizard
ĠFR AME
Wester nerd
C ash
E G
E sk
K oln
M UL
Ġs pr
18 91
Ġd estination
Ġm ajor
Ġ19 20
Ed it
Ġpl ugin
ĠDO UBLE
AND O
Thu Ad
Ath ina
Low ell
Shar es
Ġpartic les
Niger ia
7 14
B ir
I van
S ir
S ant
S ud
c lean
Ġc omb
ĠG rowth
Ġm otor
ant ed
Sp encer
qu akes
Ġg ames
Ġg raph
ĠUn iv
Al fred
Sh ane
RO CK
Col ogne
ound ed
Mc Cle
ĠSe attle
Christ ine
ĠIt aly
ĠTrans fer
Out come
Ci udad
B oe
F M
R ing
c ock
ĠF oster
ĠR ack
ap man
Ġ19 17
Ġ19 71
AT H
ie h
Ġg ood
ĠPl atform
uss ion
Man hattan
ĠMark ets
Sam uel
Ġret urns
Ġed ge
ĠCLE AN
ĠTw p
Bulgar ia
6 25
J AN
T revor
ĠS L
el in
Ġf amilies
ĠR ush
ĠE th
ĠK eck
ĠIn ch
se ud
Ġst ep
Cl iff
Ġbe h
AND ER
Ġnon financial
ĠRef in
LB SC
Ġest ate
Evan ston
A x
H udson
L en
M usc
f ax
ad ing
ĠB uff
ĠW r
03 7
ĠJ O
ag ner
Ġm old
atch ewan
Col lection
ĠMar iana
Car r
Ġen able
Ġopt ional
Go ogle
Ġvari ety
ĠWin ter
ĠBack ground
COMP UTRACE
Ġtyp ically
Ġcomposition s
Ġconsum ing
l ength
r us
is ters
am aha
ĠD rum
18 58
Ġd iss
ĠO cean
ĠV ern
ER A
ra cht
ind on
thor pe
ĠWest field
ĠAss y
ĠGr ass
Tem perature
Gen us
B ath
C osm
F argo
M emory
S andy
Z ONE
f ixed
l ia
Ġt ouch
ĠR ight
ĠN at
ĠN eb
ĠK ay
Ġ8 5
inc y
erm ain
SY STEM
Ġz one
icip al
ĠProv ided
king dom
M nchen
S PR
W el
w ords
ĠV all
ĠU SD
ra ction
cl air
Ġe ffective
ĠCo ordin
alt a
emb re
Ġgener ating
Ġinst alled
Sub kingdom
ips et
MON D
mat ilda
Luc as
Ġrequ ire
WOR KS
Ġapproxim ately
Bons ai
! "
6 2500
G ames
J ared
c as
ĠS pl
ĠC anyon
it us
12 500
ĠF ul
orm al
Ġon line
IL D
te lef
Ġg rowth
sh ots
ĠCon verter
Ġph ysical
Ma ur
Val ue
Work ing
Ġmark et
ĠEarth quakes
I MA
K IAA
L ate
L ang
P eoria
R acing
g ames
ĠC C
ĠT ub
ĠD iv
ĠH OS
Ġfor eign
ĠIn s
ish er
ied ad
Ġcon vey
ĠST ATE
sp ur
ĠWh at
All entown
Ne utral
Fin ance
Fire fox
Bas eball
engu ins
1 0000000
F t
G ill
G IS
O scar
R a
m usic
n eg
ĠC ush
ĠC ondition
ĠC odes
10 81
Ġth erm
ĠN PN
ĠL OU
18 97
ĠK ids
Ġpl atform
Ġdis missed
ĠLe eds
TA IN
Int el
ĠWind sor
ynam ic
ĠProcess ing
Ġorig inal
Cott age
telef ilm
B ased
E F
G ulf
M Y
ĠA MD
st able
ĠT H
os c
IT S
ĠIn vest
sh a
Col lins
Con fig
ĠJohn ny
SL AM
Pan ama
ĠFlor es
add le
ĠMETHOD S
EAR CH
K OR
P erm
T K
20 22
ar ium
ĠM P
10 30
ĠD oyle
ĠL amb
ĠE s
ig s
Mar ussia
ell ier
Al t
LE GE
ĠAl an
ĠEn tertainment
olog na
ĠAct ivity
Mil ton
Mel issa
ĠAcc ount
Super division
ĠMod s
Ġquest ions
jd k
Ġcondition s
A ircraft
E arl
L eb
P rimary
R ut
b b
th aca
ĠC ohen
ĠT en
Ġf old
18 87
ĠO d
ow an
St ill
Ġh ad
ĠSh arks
ĠRec omm
PO ST
Ġed iting
Hy brid
isp o
Ġseg ment
ĠLeaf s
N apoli
e un
t or
Ġ1 10
Ġ1 04
ad ev
ate m
ov al
ab e
Ġm ai
AR E
und le
urr ency
Spec ies
osit ory
Max imum
ĠCarl os
ambl iss
Ġunl imit
G ates
K enny
M useum
P ay
R iley
R oberts
W ILMINGTON
X P
c in
l ong
ĠB ag
ĠR EV
17 15
ĠCh ambliss
ash i
Comm on
Sam antha
Sub class
ĠOb ispo
Ġadd ition
Ġstate ment
Ġpack et
ARL ES
asad ena
7 68
A CK
F le
L ife
R fw
W ake
h at
ĠP ER
ĠR ain
ĠH av
ear ly
Ġ5 400
Ch ula
EL F
ĠBur ton
Ġdel ay
ĠJon athan
Ġhard ware
ĠRaw hide
ĠCOUN TY
D og
al an
ĠP ed
st art
Ġth ose
ur er
ĠL IN
Ġb io
ud i
Sp ect
FL EX
Sh ipping
Ad ministrator
itch en
TH ER
AP L
Rock ingham
Ġwe ight
Ġstart ing
ĠIr ish
ĠCharl otte
ĠGal axy
Rest aurant
ULT RA
Cob ra
ĠSax ony
7 09
B EN
E int
E uro
R ebecca
n is
Ġ !
ĠC Y
ĠC urtis
ĠD ylan
ĠN ebraska
ĠW y
Ġin surance
ss a
An ch
amb a
amb ers
Ġinter faces
Bel ize
ĠReg ional
Id ent
Kal b
Ġins ert
trans ferase
Ġdraw ing
Ġcapt ain
ecl ipse
Tin ley
A uckland
B uy
P ull
T acoma
c p
ĠS ullivan
ĠN umber
ov o
Ġm ot
Ġl iter
ell ing
Ġg reat
ach t
Pro gress
Ġval ve
Ġcl one
ĠHar vard
gr ade
ĠRom ance
Ġinteg ration
Cater ham
B art
ĠB utter
Ġp ast
ĠN g
ĠL ink
os is
ov erty
ers e
Ġ19 73
ut ure
ant ucket
AR ABIC
Ġpro spect
47 500
ang l
ĠAd apter
inc ip
Co ach
ĠHigh lands
Li ber
ĠStud ies
Ġne eds
ampl es
5 000
A ly
D oc
K AL
K rueger
W ARD
p in
t i
z ocal
ĠS ide
ĠA f
ĠB achel
id an
ĠG ul
ĠG MT
Ġm aintenance
ĠY ards
ĠSch midt
Ġal tern
Ġmod ules
De Kalb
Ġim m
led ge
Ġpack ets
ĠRichard son
DO C
Ġfil ed
Albert a
open jdk
cab oose
Eint racht
b atter
l at
m ons
r n
Ġ1 05
ĠD ogs
ĠD iaz
Ġb ond
ĠG erman
Ġre pe
ge ther
ama ica
UN ITED
SE GA
ĠGu itar
Gl enn
Ġtrans istor
Ag enda
yr s
Bill ings
Ġte am
ĠAndrew s
6 3750
G OR
N antes
g libc
h arm
m i
s usp
en th
ĠD aw
ĠH T
ĠI SL
ĠE L
Ġm aking
Ġv ertical
omb ie
ĠVeg an
Ph ysical
Car son
77 3
Ġsecond ary
Jo ey
gr en
Hard in
Str ength
ĠEN ER
Ġproject s
Ġphot ographer
Loud on
Boe ing
5 35
k u
l ady
ĠM ob
ĠT BD
ĠF est
ĠR och
ĠN i
05 9
ĠO g
est ant
ill ing
St orage
Col or
Cl ick
enn ie
iqu es
Ġchar ge
Cre ates
Sol ana
ĠSoc iedad
Ġax is
ĠFut ures
ĠBRK WAY
0 19
C ouncil
H o
W RIGHT
k irk
ĠS ens
Ġ1 20
as aki
ĠA AA
ĠP rimary
ĠB attle
ĠB yr
ĠR ace
ĠR aj
ĠR ushing
ĠL ocal
Ġc able
im als
Ġg ene
Sh ake
Ġe ff
Ġass igned
Ex ception
ĠX eon
Ġdis abled
Brook s
Dis abled
Ġsch ema
auf ort
8 50
D ari
M yst
S usp
Y r
ĠS ummit
am o
ĠB arb
om i
Ġf ast
Ġc ar
ep ers
ir on
Mar in
Ġv ulner
AT ING
VA DA
Pro c
ĠAr k
ĠRe in
ĠCH RIS
ha usen
ĠOl iver
Ġgl ass
ĠMethod s
ĠLanc ashire
ĠEld er
8 59
S elf
T ier
s an
ĠS ym
ĠM iami
ĠT ow
Ġs ynchron
06 250
Ġ( %)
Ġd rop
ĠK rist
ĠCh en
Sh annon
Ġan alysis
anc ing
red ited
Pro posed
sc ript
oth ing
agn etic
ĠNot ch
ĠEP AR
umin um
Ġju in
hyd rogen
WHIT TIER
N hl
c opy
h es
y re
ĠC ul
ic ine
st yle
ĠB oo
Ġf avor
Ġp ump
05 7
ĠH ed
id ad
ly s
OR B
Ġ19 16
IT AL
sh ot
ST ON
pen cer
oct or
ener gy
Ġcl ock
ĠGl endale
Har rison
Ġqu ick
Ġhand le
Ġproceed ed
ĠConst ruction
keep er
chem ical
urp ose
Manit oba
UCT T
H LA
L iv
M itt
S ound
b k
i ant
ĠC ov
ĠB it
ĠB ad
ĠB altimore
ul ate
ĠE sp
Ġn odes
ran ch
AR A
ĠY outh
US T
ĠTh orn
man s
ib a
les ville
UT AH
UR L
Fl int
Ġ03 7
mer g
Cont ent
ret ep
386 53
Wil kes
omer oy
Kel sey
Wol ver
7 20
P ON
R alph
S ix
m ode
or able
ĠC asey
ĠSt ein
Ġb uffer
ep per
Ġ19 13
ke eps
Ġ8 2
ark er
ĠAn na
77 38653
ĠSch w
ĠDe ep
BR L
ĠPAR K
Sar asota
Ġmult i
Todd ler
ĠCycl ing
Ġque ue
7 1250
M age
n ik
s i
re ation
ĠP in
ew ater
im ent
qu ist
ateg ories
ĠAnd roid
ipp y
ĠDr agon
ĠPer rott
ĠPar sons
ĠSam uel
asket ball
ĠRES EARCH
== ==
ĠUt ilities
Ġsil icon
Ġexec ution
ĠSOL UTION
D ry
D ream
F SU
F oreign
P ierre
P UNT
R anch
ĠS econd
ĠM IT
Ġs he
ers field
AN CM
ĠTh ere
ens ity
UR S
Tor ino
ĠQ U
DR B
PH IL
Def ines
Ġret irement
kin son
STR ATE
ĠBra ke
ĠGil bert
ĠRECORD ING
ambl en
spec ific
B T
B erry
C a
C umberland
G K
L im
V incent
at ase
ad dy
ĠUn ions
In fo
Ġst ores
enn ial
umb ai
Ġup d
ĠAss istance
oci ate
ĠProt estant
ival ent
3 000
O sh
V IN
n h
r ub
om field
Ġf ocus
Ġp orts
Ġc alled
Ġb ar
ĠG T
CA P
ĠCh ipset
CT OR
ett ing
TO TAL
Ġal terations
ĠRead er
oun sel
Ġatt ached
cont rol
ĠSec ret
ĠHay es
Ġprod ucing
Opt ional
ĠBry an
ĠSup plies
FLA Q
C J
G oat
H amblen
P leasant
X V
ri ots
ĠL isa
ĠL arge
Ġc lean
ĠE con
pr int
ir ley
ĠK N
ess ert
enn an
Ġpl ants
ĠBr ent
Mont ral
ĠMA CRON
Tr ust
Ġph ase
Mc N
MAR IN
Oper ations
ĠWin ston
ĠHot spur
syn onym
Ġrefer enced
ĠVAL LEY
Ġoffer ed
ĠVeget arian
5 16
J esus
M itch
k usen
al ers
ĠC EO
as is
ĠM nchen
Ġs ince
id ing
ET Z
Ġex cept
86 7
ateg y
ĠBr and
Be aufort
ourn ament
rip ts
Ġgroup s
ĠCAR OL
Ġbu ilt
Ġrest art
ĠProd uction
Horror Scope
jet xx
S EC
S MS
el ia
ĠP ot
ĠB B
ĠR ider
et an
Ġp ool
Ġa verage
ich ron
AR C
ord ers
Am es
LA A
Ġr uns
58 6
Pro fessional
An ton
ax ter
ĠCOMP O
lev ision
ĠCON NECT
Af ghan
MET R
Montp ellier
eun ichron
Proc urement
5 20
B ayer
H eb
H ab
M H
P atch
P arma
R T
T ex
o it
v o
et ary
Ġo ct
ĠW hey
03 8
ell ite
ont e
ĠY an
ens us
57 500
Pro cedure
ĠMc Car
ĠCon way
Dan bury
SL R
ĠMiddle field
Ġsubst ant
IRGIN IA
9 08
K INS
L l
M ack
M oby
U pd
Y uk
h ra
m ama
el i
ĠT RA
ĠF AR
Ġm icro
ĠK il
Ġ4 19
rou d
Ġsh ared
Pol y
Sal ly
Mal aysia
ĠMix ing
amon key
oust ic
ĠGRA VE
Charadri iformes
4 021
E nt
F Z
J DK
M u
P HA
b ers
k ers
10 120
ĠT a
ĠR F
07 5
ot ure
ĠG RE
nd ale
Ch eryl
pl er
ru it
58 750
59 5
Ġch ip
Ġcl a
err ill
Ġsub family
Bel arus
VER SI
Ġlist s
Ġent ity
ĠCom ics
ĠHam burg
Rick y
Ġiss ues
Shaw l
ĠLud low
DEB ATE
ĠPerrott o
A ri
K er
V C
Y es
h y
h all
j ack
k de
Ġ rib
ĠS in
ĠC av
st atic
ĠB T
ĠB rist
om ac
ot ype
Ġc at
ĠJ ennifer
Ġm ars
od i
ĠV AN
og l
66 6
lect ed
con nect
Fran ces
AP P
Ġpass ed
ĠAt kins
Er nest
bro wn
Ray mond
Ġinc re
ĠMeeting Place
iop ia
C ase
F er
S ao
ĠM ID
Ġ2 56
ĠB erry
Ġb us
03 6
ec ks
18 67
18 80
AN E
ee f
ĠMc D
ĠFl oor
fric an
ĠWhit ec
LET E
Ġemploy ee
ĠDoug las
Swe epers
Invest or
F an
I AL
S ayre
Ġ identified
as an
10 10
st atus
ĠT ennis
ur l
Ġp ut
ov iet
Ġw ord
CH ESTER
ĠMan n
An alytics
Ġam pl
sp iel
Gu y
oz z
str ation
ps wich
Hol lywood
Li berty
Ġweb site
udd ersfield
Ger ald
Wer ew
ĠHop kins
ĠBRE VE
McCle ery
4 0000
D UC
u er
or chester
en os
ĠS pencer
ĠA ction
il yn
ch rist
ĠB ir
ĠB att
ĠD NA
ĠL AKE
Ġb and
ir ing
av ia
Ġre v
RE A
Ġ16 00
iss ue
Pro perty
NA c
enc ies
Ġcl osed
ush i
Kn igh
Ġvari ous
Ġintegr ated
Ever y
704 3
Nit rous
Ġpropag ated
ĠWhitec aps
5 11
9 55
9 031
D evin
G F
H all
N tt
W ounded
g b
ĠM VS
ĠT ournament
end ations
ood le
ĠField s
ĠAss istant
ĠCH ARLES
evin son
etermin es
Ġback up
Will ie
ĠPhil harm
ĠMAN AG
Mess age
Gujar at
ĠKurt zman
ugu ay
2 121
8 0000
C irc
D enton
I ng
M ILL
R IT
U TER
at ile
ou ra
10 53
ĠT alk
ĠD ism
Ġs uccess
Ġc rystal
ĠH ockey
ig it
Mar garet
ĠK re
if iers
land ers
ĠAm ik
ĠBr andon
Ġpresent ed
Ġvalid ation
Ant ar
Ser b
Ġgovernment s
265 38
Mash iki
ĠLead ership
ĠPick up
ĠJen kins
Hof stra
ĠAmik eto
. :
D evelop
L u
M STR
U I
c re
s ource
s ites
ĠT ol
un av
ĠL n
05 10
15 000
Ġl anding
St ef
37 500
cl ipse
ĠAd ministration
68 78
Ġres in
ĠAnd y
ĠGl ass
Ġdef ines
Sl ash
Ġcommand s
Ġproduct s
ĠSil va
Ġrow s
Wer kt
ĠAuthor ity
Esk anos
ĠISL AND
0 104
7 3750
B ra
H EN
J M
M az
R uth
R ennes
p oly
x ico
Ġ energy
20 91
ĠS ave
ĠC ros
ic ia
it utions
ĠSt art
ĠF ant
Ġt ax
Ġst ill
ĠCar oline
ks y
Re lease
Res erv
Int eger
ĠMI CH
deb ug
ĠVol ume
END ER
ĠTele com
Clar emont
Ġbrow ser
+ +
B BC
J ar
K K
W aco
b def
ed ge
ay ing
ro se
ĠP ubl
ĠT un
ĠF resh
13 57
im o
Ġg en
ĠCh ampion
ier e
ĠCon ference
Ġcom ment
Ġrece ives
Ġpar allel
ĠProspect us
ivid end
ĠConc ern
ĠNET WORKS
Initial izes
pat rick
Nob lesville
Ġcant atas
Ridge field
unav ut
I thaca
g if
m f
w ing
at z
ed on
ĠC HE
ĠC ouncil
il is
ĠT yler
Ġa vr
04 7
ĠE S
Ġm aps
Ġ19 74
ill ard
CH UN
Ġ20 2
In formation
IM AS
ĠMc Donald
Res idential
HL J
Ġant igen
EMP LOY
Ġsett ings
edul ed
705 47
Well ington
Mit igation
ĠLOU IS
ĠSOLUTION S
Sayre ville
6878 70547
bdef d
C ohen
G all
S AL
X T
m c
il ot
ĠT revor
ĠB ud
Ġp refix
Ġa ud
ĠE DW
OR ADO
pl ug
Ġ8 7
SI S
oy er
West bury
GR APH
Ġres istance
ĠPA UL
Can ton
ĠEx pl
Comp letion
Ġcomm ercial
ough keeps
Hol md
HAR T
ĠMat hematics
ĠSav annah
Ġtransaction s
Ġjan v
ĠBrom wich
Antwer p
ĠVern on
oughkeeps ie
7 23
L ED
M ot
O g
R AD
j as
p lement
v ijay
ĠM icro
om ly
Ġc oll
Ġc ancer
ĠH ull
Ġ19 75
ĠV OL
Ġl ife
Un ic
ett le
Gr ace
ĠAnd reas
Ġpre par
ĠRec ords
py thon
icip ants
pet e
Holmd el
8 26
A APL
D ylan
K ING
L ONE
M ethyl
T re
en i
ĠS ales
ĠR other
ĠD ance
ĠG aming
ĠE ar
im an
EN I
Ġ8 6
qu ires
ore an
ĠFL HR
Re leased
SH EL
Ġallow ing
Bon us
hel m
ĠEt ienne
Ve eba
Anch orage
B oss
B ologna
C IS
G ATHER
I HL
T ab
U MA
g ie
as ma
ou ve
ĠM aterial
Ġt urn
ĠD RI
ĠH F
ĠH S
ate ur
ec o
18 82
ov ak
ĠO kla
Ġst eps
LA D
ris e
any a
ĠEx per
Ġinter val
Tr ent
arl ock
Sen ate
Ros emont
ĠApp le
vol ksy
ĠDef ault
809 9
ĠReserv oir
ĠTHER E
Mari etta
7000 10
P ra
W ells
d ep
} }
er ie
ĠC ass
re x
ol ocation
ac et
14 92
Ġm ic
ES I
Ch ico
Ġh istory
NC G
aster y
95 000
Ġpl aced
ĠSe lect
Ġprocess es
WAS H
ĠCharles ton
ĠBer lin
1072 30
MV N
604 060
1062 10
1062 30
Leon ard
Ġlum ire
Progress ive
EMPLOY ERS
5 40
J am
M ex
O ngoing
P oughkeepsie
S ky
f ort
h ot
k an
l ated
en way
ĠP ip
ĠSt and
ĠF ord
ĠD ob
07 3
08 00
im bl
Ġ8 3
Jul ia
0000 000000
iss ed
ĠCar son
Ad elaide
ets y
ivers al
ĠVict oria
stad t
Ġcur ated
ĠMIN NESOTA
Goal ie
ĠBrist ol
C IT
H ers
J e
T ro
p i
p enter
w al
er z
Ġ1 06
ĠM CL
it el
Ġt ree
ĠW arren
eb e
ear les
ĠV anderbilt
Ch eckl
Jan et
au c
Br and
ett o
ral ian
ĠQu est
Gl c
ĠHar per
Gran ville
ĠDun can
Ġter min
atem ala
A ik
c ap
t en
ic z
ĠA PR
ĠP edro
st ation
ĠL anguage
ĠO z
ig ure
op ens
ip h
Ġre action
RE Y
qu arter
Th ink
Ġst e
cl iff
Ġcomp ar
Ġcomp leted
-- --
Tr ad
Ġind ividual
ij i
Cont ains
Ġext ension
Hol ly
ĠHE ALTH
ĠHot el
Sab re
Mash antucket
Ranch o
Ġsubstant ially
ĠRother ham
K urt
L au
S em
Y TON
s mall
on key
an an
ĠP EN
ĠT arget
ĠF at
ĠB ishop
ĠR av
ul ly
ĠJ ets
im ension
Ġm any
ĠV P
Ġn it
ĠY ield
ak house
Ġ23 89
ath i
rid es
act iv
ett stown
Be aver
osh i
Ġsupport s
Mark et
Ġbl ue
304 1
ĠGood s
alyt ic
ouve au
F ER
G ard
G CM
L yn
P otter
u ed
y ard
ĠS AM
ct ica
ch romosome
Ġs olution
ĠL AB
ĠI ron
ĠE D
em ann
us ed
ap ur
op ys
form ing
ĠTh iele
36 250
ric s
Man ager
All ison
Bel le
BER RY
Ell en
Ep isode
Sah aran
imens ional
power clean
Laz io
ĠNAS CAR
hydrogen ase
powerclean mom
7 01
C ord
G onz
H att
K il
S ans
S oviet
V ersion
Y ak
e ater
ĠS MS
al anta
re leased
ĠF ederal
ĠD atabase
05 2
ĠG ermain
Ġ19 68
oc co
Ġl aid
Ġh or
sh an
Mon aco
ĠAr c
Ġcont rolling
Ġpl aces
Pl atform
err ick
alif ax
ano ke
ĠQ C
ĠBel t
ĠAugust ine
ĠGold en
olar ship
ulf ur
ĠJeff rey
ĠHor se
Sev illa
KIT SAP
ĠDism issed
M ESC
R AND
k ov
ĠS UR
ĠC RE
ĠP itts
ĠD om
ĠD rew
ĠD erek
ĠW eekly
Ġs at
ĠL N
Ġa uto
Ġm aint
enn on
57 5
86 4
ĠWh ately
Ġtrans lation
Ġfl ag
Reg ion
ĠBar rett
Ġcontrol s
Ġbl ocks
Cop in
Les lie
Ur uguay
Thunder bird
ĠJane iro
Ġpe ople
ĠLit urgical
Esc orted
ĠSTAN LEY
Cosm o
P LAY
R ain
ĠC V
ĠM etro
ĠF UND
ĠD ark
ur u
un te
ĠW isconsin
ĠH IGH
Ġto i
18 74
Ġd a
Ġd oc
ĠE NS
ĠK arnataka
IL S
Ġan ch
ier i
Ġcon version
ik o
Ġexperimental ly
VER T
lev el
Ken zie
ENS ING
At alanta
ĠOs mond
Fre eware
Gar field
Rhe a
Afghan istan
Checkl og
A y
O f
f oot
en ger
es ium
al en
ĠC old
ĠM iles
ĠT ank
ĠF irm
Ġf alse
ĠW end
ĠL ayout
04 3
us ement
38 750
ef ield
clud es
ĠCol lection
NE Y
oo f
com ing
Ġdisc over
ground s
ĠPer formance
HAR RIS
utt ing
Ġ978 03
Carol ine
Deb bie
ĠCharl ton
Sah adev
Midfield er
ĠINDUS TRI
* "
9 58
A ce
M usical
N ad
b eck
s son
z inc
Ġ1 25
10 99
ĠB urr
ĠB razil
ĠD ividend
07 4
ĠL eft
Ġa ge
09 8
Ġw ant
ĠV ent
oc ity
Ġl ab
New ton
igh ton
qu is
ET H
ib urg
ok er
ĠCol l
RI CH
El k
Ġdis charge
ĠDe er
urch ase
Ġmeas ured
ĠDEV ELO
Beth el
Pal adin
Ġgo ose
Rog ue
ĠSm art
Ġprint ed
ocr atic
graph y
McN airy
Glc NAc
2 1250
B aby
E IG
F RE
J udy
L av
R ated
W HL
v on
{ {
en ner
ĠM and
Ġt akes
Ġf iber
ĠN icholas
ĠL iving
ĠG olf
im mer
ĠV ill
ass ist
CH ER
Ġr ender
att i
86 0
Cal c
ope ka
ĠWith out
Ġdriv ing
Ġdeliver y
Yuk on
5 15
B reak
G as
P in
ĠS ir
ĠN ouveau
ĠW arriors
Ġb reak
Ġb unted
18 81
Ġin iti
St art
EN TER
Ġre pl
ĠCar ol
56 6
59 0
Ad ams
An tonio
Ex ports
Ro anoke
Mad lib
ibr aries
ĠQ R
?? ?
Ġman ual
Trans c
Ġsim ple
ĠMiss issippi
fess ion
Ġmet adata
CAR ROL
307 1
7147 183
Ġocc urs
kr it
Ġut il
Ġmen u
ĠDEVELO PMENT
C up
C isco
L ance
N U
N atural
P Y
S tone
T ak
k c
y ed
ar ay
ĠM rs
ĠP ierre
ĠP atterson
ĠB ody
ĠR u
Ġ( ?)
ĠH y
ac ell
ĠG L
ĠE nt
us on
ĠV ancouver
ĠK a
EN SG
Ġh y
UR A
ition s
Fl ushing
ĠPart s
ĠSchool s
alm ost
ein stein
Card io
ĠHart ford
Ġins ulating
Ġdetect ing
ĠHT ML
B eta
G b
H ampshire
J orge
M amm
R at
S eth
W arlock
s end
er ia
ĠS ussex
ĠT ro
ĠT wo
06 8
04 4
ĠH udson
ate ful
18 89
ĠJ ess
ĠG orge
IN O
Ġn an
Ġ4 000
EN O
Al amar
ok en
Ġex cluding
cl usion
ign on
itt ag
oll a
Ġsc ript
NS YL
TY PE
NIA G
olph ins
Rob in
GH WA
ĠOrt iz
Court ney
B US
H ENS
K U
K ids
N N
O pens
V HS
s g
as ing
ĠM ik
ĠM xico
ing ray
ex p
NY G
ick er
Ġst aff
IS LE
uc a
Ġare as
99 2
ĠComp onent
ald o
107 231
Rep ly
Me at
ify ing
NO X
Over on
Ġprot ective
Ġperform ed
Rel ative
anti ago
Athlet ics
MARIN ETTE
Ġcla ims
Antar ctica
CHUN GHWA
5 3750
L ine
O ON
R an
T ank
X ON
l und
Ġ ..
ĠP ur
ĠP ursuant
ĠB urg
Ġp otential
Ġa ot
Ġa bs
18 57
ĠO regon
Ġm usic
ah aw
ĠOF F
Ġle t
SA C
Le ast
Or t
Comm unity
Sw oop
Ġde hydrogenase
Ġcomm unity
ĠSpecial ist
VAN IA
ĠSol utions
Lo is
ĠDub as
ĠCirc le
Ud inese
B arb
F ion
G round
H alifax
T alk
b rough
h ampton
w s
al ke
ĠP os
ct on
Ġt re
ĠB oolean
ĠN a
Ġc ool
04 6
Ġm it
Ġ19 40
ĠV ERT
Ġl at
ant own
Ġ8 05
ah y
ĠIn j
ne ider
Ġr atio
oy a
ĠBl u
Jack ie
Re ims
ĠRes p
Cont ra
ĠPat ricia
Ġmaterial s
ĠElect ronics
ĠTri angle
ĠBrew ing
Sask atchewan
Viet nam
Ster ling
Carr boro
ĠMcCar thy
B oard
D in
I ra
T opeka
c or
d j
p rov
ĠS R
ĠM oss
it ary
ĠT ours
ĠB eta
ĠL T
ĠE DU
Mar io
Mar co
ĠV ery
av ed
Ch el
ist ent
Ġe asy
77 1
Ġcon fig
ox y
Win ner
rist own
Pl ug
Brook field
ĠRec e
ĠMor rison
rop ic
arn ing
ĠKe ith
Conn or
ĠPlain field
Ġobtain ed
ĠENER GY
C er
C uy
D ouble
H ILL
P ath
e au
or no
ĠS S
th s
ĠC REDIT
ĠT S
ĠD illon
ĠD essert
ĠL arry
08 4
ag her
17 500
oc lon
ant o
Ch andler
EL S
ah oga
Col leg
Pro d
UN G
En ables
Te ams
Om itted
Ful ham
Ġlocation s
Ġproceed ings
ĠProv ince
Worksh op
ĠJacob son
Eas ton
) -
4 3750
9 65
D aw
L T
V SL
b ee
v y
Ġf ib
ĠD ow
ĠD IMAS
ĠL ast
Ġc orn
Ġc ounter
ow itz
26 250
St ore
St udy
ĠIn f
se qu
Ġst ates
Mon astery
und ers
ĠAl ien
ĠMin ing
BO X
Out standing
icip ated
Ġther eby
Humph reys
Burg ettstown
ĠCoordin ator
4 1250
H rvats
N eb
O ber
R idg
f d
ĠT ool
ĠT reas
ĠB righton
ot ic
ĠW as
ĠL afayette
Ġc yl
um o
ĠK DE
pl ant
ann i
Ġ03 16
ott i
ĠZ ieh
Ġup dated
bor ne
oz illa
ĠWe aver
ĠSim pson
ĠPe ak
Brad ford
Conc ert
Ġswitch ing
isl ative
ĠLever kusen
Expl ore
ĠGEN ERAL
% ]
I ce
N UT
T ool
T ube
an ton
ĠS ud
st rom
ĠB h
ĠH arm
ĠE ffect
ig and
25 000
ap es
ĠV and
Ġ14 0
ĠTh ese
Ġr ing
ST RA
West minster
Ġtrans mit
sc reen
row s
fl ow
Ben ch
ĠBer g
asc ript
Sk yd
Ġchem istry
Ġrequ ires
Ġfluor esc
Cuy ahoga
oclon al
5 30
L ip
M ath
M iddlesex
] ,
20 51
ĠP ak
ĠP owell
ĠSt ream
ĠR R
Ġs acks
ĠL ess
ĠJ erry
Ġm at
St l
GN ET
ick i
Ġ[ %]
ĠAngel o
ĠBr itish
Dan a
ĠTr avel
ĠHol mes
Ġj oin
ĠAir lines
SAN TA
Ġorder ed
Att ribute
ĠRoss o
ĠRay mond
Ġtechn ologies
Ġdesign ation
ĠRand omly
ĠCardin als
edd ed
Design ated
ĠAdvent ures
9 66
B avaria
C rawford
J ersey
N ac
W IN
w mu
en ing
Ġ1 11
ĠM ST
ĠL ou
Ġb al
ĠG AP
Ġw ait
eg u
ric ultural
ĠMar garet
ang a
Ġwh at
ĠAr nold
ĠAr ctic
ĠSh ore
ĠNorth eastern
yd en
GB P
Or ch
96 250
Ġinter est
Ġmon oclonal
PH IS
raw ley
ĠPer u
Ġfunction s
Ġ78 205
ĠJac obs
Young stown
Eth iopia
Pont iac
icht ing
Nap les
AMERICA N
Config ures
ittag ong
7 24
9 17
D ustin
G s
L ions
M urray
O p
m ill
ed i
ĠC RES
ĠM oor
ĠH enderson
08 6
08 7
ĠO re
Ġl ate
ĠMar ion
ĠSp a
ĠEn s
Ġcl uster
KS ON
rum ent
ĠSC I
ograph ics
CU MENT
Carl isle
ĠShe et
Ġactiv ities
Vill anova
Ġmer chants
ibor ne
lej andro
Ġprospect ors
ĠSym phony
Sans krit
NSYL VANIA
Hrvats ka
8 05
D ow
D NA
E lement
L V
S eal
S HI
W end
W right
X BRL
u M
Ġ1 07
ĠA TV
re uther
10 17
ĠB ead
Ġ19 69
ut y
ub iqu
aw ar
56 7
ong a
az ion
ĠFL TR
IM E
ĠBr aves
Sw itch
bl og
las mic
atin um
DJ M
Ġdial ogue
BRE W
Ġneed ed
ORA GE
MICRO STRATE
ĠFo il
alp indi
ĠGAM ING
Ġupd ates
Skyd ome
9 05
H IS
J ol
K it
N ice
S ection
X ML
Z inc
p oints
r ington
v ador
20 000
ĠR abbit
et wood
Ġp riority
ĠL ady
ig l
CA M
sh ipping
ĠDO T
app y
Bar re
Ġqu alif
ĠSte akhouse
ĠRam os
Camp us
Ġprod uction
Alexand ra
ĠGard ens
Walk er
Carb ondale
VERSI TY
9 121
B ast
D iane
K AT
L TR
M AL
M oh
N elson
R ust
R ik
S antiago
T ell
W IS
c yl
j oy
ĠM ember
ĠB uild
Ġf ood
18 71
ĠJ EFF
ĠO ri
ĠU r
Ġn ormal
Ġl ib
CH RIS
Ġass ets
ĠNorth ern
ĠAver age
DE U
riz z
app a
Ġreg ard
Ġnew s
Lar ge
ĠWall ace
Dor othy
ĠLever ett
Slovak ia
MEM PHIS
Ġmar gin
armaceut icals
ĠEqu ity
ĠFest spiel
ĠEDW ARD
8 25
D X
D iss
L iz
S ass
c ient
f el
ar is
ĠT ar
Ġc ould
Ġb ranch
Ġm ir
Ġm ounting
est own
AN DE
In complete
ET E
59 9
ĠCol or
ĠST R
ĠST REET
MS FT
ĠBr ass
Geor g
Ġgener ator
ĠDr ama
rev eport
ĠSound ers
ĠLI EN
Lev ante
Techn ical
Ġdam age
GOR MAN
B utte
C PU
F GA
H utchinson
P am
T err
V ED
V anguard
v ak
z end
in rich
ĠC ool
ĠA st
ĠM ust
ĠP oly
ol in
un thorpe
ĠW imbl
Ġc ategories
Ġto gether
18 84
os o
ĠO ngoing
23 00
ĠV incent
ĠK on
ke gan
Ġh ill
Al ger
ree ley
ok es
55 000
56 5
ann ie
UN I
Ġsh ipping
000000 4
And reas
ĠInst all
Ġant icipated
ĠTrans port
ITA CHI
kk o
541598 4
Ext ension
Ġrespons es
5 03
7 07
9 86
9 021
= +
H erm
K atherine
O c
P edro
R X
ĠS uz
ĠM oto
ĠF raz
ĠR ange
06 5
ĠL ith
ĠH wy
um s
he ed
ĠU P
ĠK ill
ut sch
ru id
cl es
Ġass emb
Bl uff
uss ain
Min or
Tr ue
bor g
Reg ister
Ġdet ected
ĠCON FIR
Spl ash
DAM M
ĠReserv e
Ġreloc ating
Gra inger
C ool
F ib
H ancock
K os
L ansing
R ip
S ING
b ins
g ang
j u
v as
ĠM itch
10 19
ĠP oll
Ġp atch
ĠN ext
ĠH unt
Ġb i
ag li
od ia
ĠU NCG
ĠK umar
og an
ies burg
North west
ĠBl oom
Robert o
Tr av
Gu atemala
rain ing
302 2
Met al
Bas ic
JE FF
ĠCath olic
ĠPerson al
ĠThiele mann
7 45
B io
B nh
F K
H V
K AR
M oon
S ton
W arrior
c al
h alf
Ġ1 15
ĠC ream
as per
am organ
Ġf abric
ĠR ah
ĠD y
ul k
ac io
ap on
Ġv ers
ug a
Ġn vt
IL AB
ĠIN V
int a
ĠMar s
ĠTe aching
ĠSp anish
BAL DW
SM ITH
fl u
ĠHe at
Ġfl oor
Im port
ĠFre eman
ĠRog er
ĠAff inity
ĠCORRECT IVE
Chor ale
Ġrespect ively
ymb ol
Laugh lin
neg ie
Leb anon
8 13
B ear
B ridge
B remen
C V
D OU
H oney
L ess
P AN
T HA
W ILLIAM
b g
p rivate
Ġ id
er ton
or ate
ĠS el
ĠM end
st ead
ĠD ixon
Ġc ut
08 5
ine a
ip l
ob by
ĠCh amber
ace a
ann els
we ight
HE BREW
Sal es
Int roduction
def ault
Ġpass port
Rob inson
Shar eware
Pu rified
ĠSteel ers
6 15
6 38
E ld
G ot
P RE
V a
c m
j ud
es burg
le um
ĠM ul
ad al
ĠB K
ĠR oth
ĠL ip
Ġc avity
Ġd ur
ag ment
Ġn ec
ĠK az
ĠK aren
Sp art
Sh reveport
anc o
ĠINC LU
Ar d
OS HI
Ġro ot
Ġrec ords
hib ited
ĠCons ult
Ġpr eludes
ĠPu rified
CARE ER
Raw alpindi
JON ES
Togg les
ĠHOL LY
OUS LY
onkey bell
Musical Rose
7 0000
7 69
A FR
B J
D mit
E Z
T amil
on on
ĠP ear
ĠH K
ĠH us
ĠH ousing
ĠJ SON
ĠO tt
OR GE
ET T
ef ul
ĠSh ip
unn y
FX O
Tr ades
ros is
SY R
och ond
Ben jamin
ha ust
Hard copy
Pass ed
ĠPRE VI
Cla iborne
Living ston
Wau kegan
Warwick shire
Hatt iesburg
3 2500
B ism
G IL
G ordon
M ixed
N ext
T rail
V CM
W ars
r t
in en
at l
ent ion
ĠSt acy
Ġc le
18 83
ĠO PER
ĠV ale
ĠV igo
AS ON
uc ci
55 3
Br endan
erv e
ier ichting
Ġpl ant
any ol
ough t
lib s
Ġen h
ĠSU PP
Ġimp rov
Cor v
Way nes
ĠCle veland
ĠSant os
ĠJer emy
sub mitter
stud ierichting
Ll oyd
SHEL BY
5 2500
A w
B aker
F ixed
H ir
J amaica
K ur
K orean
s ar
ĠS CH
ĠS earles
ad ian
ĠSt ores
ĠF ast
ĠF ramework
Ġs ound
ĠL an
Ġc ity
Ġb uilding
ĠJ ar
ab a
ab l
im in
Ġ19 39
ĠK emp
if ically
ack ville
ĠIn hib
TER R
Ġr outer
ĠSh opping
Ġad equ
... )
we ig
ĠQu artet
Ġhe ating
def config
Book s
ocument ed
Cy ber
Ol iver
ĠMED IA
Ġconc epts
ribut ed
Ġperm issions
ĠStra e
ĠDod son
git id
ĠFriend ship
8 11
D ER
P CC
S leep
g ed
y ers
at ively
ĠC AT
il io
ĠT rop
ĠF einstein
ĠR ights
ĠN ancy
ĠW yden
Ġs pe
05 8
ĠI an
ĠG ibson
ĠG LOBAL
he le
OR S
Ġm os
Ġ19 64
ut z
eg ree
pl ayer
MA Y
ĠPl ant
ĠAd v
Bl ock
ĠMc K
HE AD
Ġapp s
AU G
Kn ight
ĠStud ents
ĠVan illa
Ġsubst ances
Ġsol id
Ġpost poned
Frederick sburg
Ġexecut ed
BOR O
Continu ous
Ġestim ated
rews bury
ĠELECTRON ICS
3 0000
D river
P ul
S even
V P
r il
as a
ĠP icture
ĠV i
Ġl imits
ĠK HAT
ult z
Al ph
Ex tra
89 7
Sw imm
ym met
ĠSw im
NO TE
Ġatt ributes
Ġdep end
Pent ax
Dun can
wr ite
Ġorgan ic
ĠDead line
ĠEss ex
ĠCRES CENT
azion ale
ĠFestspiel orchester
4 2000
4 2500
L ynch
M ason
T ap
V ir
k itty
m eg
p an
ĠC ounsel
ĠP orter
ĠB edford
ur m
07 500
18 77
ĠJ ake
ew ay
ian ne
ĠThe ories
56 1
IC UT
UR I
78 750
Fres h
Fran co
oe ker
PE G
ĠRes idential
ĠAir es
Ġshort cut
ĠBrew er
ĠRick y
Ġbound ary
Ġnatural ist
Marqu ette
Ġadequ ate
5 02
9 2500
A GE
C hey
S IN
S AM
Y AN
h ya
k b
y Grant
20 42
ĠS id
ĠC our
ĠP ractice
ĠD ortmund
ĠN ode
ĠL ines
Ġ19 18
Ġv ideos
Ġre ar
CH S
sh ine
Ġex pression
Ad min
Not ts
err ero
mp eg
ĠFor ge
Ġdisc l
ough ton
BR AD
Non fiction
Ġresp ective
Ser ge
Ġent ries
Stock ton
ĠPol ice
Ġspell ing
Ġpubl ished
Perm ission
Shake yGrant
6 10
6 29
B et
M ORGAN
W asher
b ank
d iff
g con
on adi
ed ule
ĠT ext
ch urch
ĠF U
ĠF ERN
ĠB oyd
Ġf ive
ĠR ams
Ġo x
ĠN adu
Ġa ffect
Ġb its
18 88
Ġin v
av ior
St ra
Ġ14 3
57 6
az ers
GR IN
ĠSch l
Ġcl ause
ĠInd ians
Tr acy
ibr ation
Ġapp roval
Cont ext
Ġext ract
ĠDel uxe
ĠWe ather
hol land
ĠPATENT S
Ġstandard s
Original ly
ĠAthlet ic
music mama
ĠGAP DH
6 1250
8 58
G eno
W ash
w yn
w right
ĠS z
el man
ĠF actory
ĠD X
Ġp arks
ĠW ear
06 7
ĠL otus
Ġc andidate
08 750
ĠO klahoma
ree ing
55 6
ĠCl aud
SC I
Qu est
Ġ00 1
Le ather
SO C
ĠWA Y
ĠSe an
ĠRich mond
Ġem itting
ĠPan thers
Fair fax
ĠAust ria
Ġinhib itor
Sail ors
Und ocumented
Cel ta
ĠTerr ace
ĠMotors ports
Phill ip
C ynthia
D OM
F U
F SS
M EL
b ad
ed ict
is f
el ton
10 24
11 25
ist rano
ah i
ĠY EAR
ong s
77 4
TH EA
ĠVal ve
reed om
Ġrel ation
ĠHar ry
Ġhigh er
ocomp atibility
ĠTri o
ĠThor pe
ĠMACH INES
ĠPREVI OUSLY
C ome
C annon
K o
N unavut
P i
R N
n ard
v A
le qu
ĠC lement
as ons
ĠP en
ĠB AN
ĠB ournemouth
ĠL atin
04 8
04 9
ĠI THEA
18 46
ĠG et
ĠV it
ra k
Ch eck
ist ocompatibility
ĠCh is
ĠMar in
66 0
Ind ust
UN ITY
RI V
ĠPh arm
RA Y
Rec ognition
DA Y
ams ung
rey er
ĠInst ruments
urb an
ĠAcc ording
Ġdiffer ential
ĠTim bers
ĠExt ension
Whe at
Fac ilities
Drum s
Clint wood
ĠLIC ENSING
ĠFO I
Kaz akh
ĠMICH IGAN
BALDW IN
C av
G irl
H AL
S amp
m ale
ĠS eg
ĠC ald
el yn
ĠA uburn
ĠP I
ĠP ul
ĠP earl
Ġth ick
06 3
ĠH U
08 9
ov is
ard well
AR O
ee z
Al ways
ok a
55 7
57 0
ang an
Qu inn
ĠEx change
ĠBay reuther
Re ed
ĠHar vey
Rep ublic
ait lin
acc redited
Ġoper ational
Intern azionale
Ġsch ool
ĠRet ail
Brew ery
Ut recht
ĠMAT ERIAL
WJ CC
ĠGirl s
ĠBron cos
Ġmonitor ing
ĠACC ENT
ovak ia
Hers hey
8 14
F ish
K erry
T win
f iles
j ana
k va
p o
Ġ1 30
as ily
ĠA eros
ĠP CI
ĠT win
ol le
ĠH arbor
ec a
ĠG ym
od ies
ĠU d
ĠK y
Ch ill
Ch ange
Ġpro te
Am b
IS E
ĠIN TL
Ġev alu
rib es
ĠPr inceton
Ġinter mediate
PH P
ĠCap istrano
404 1
ĠContract ors
rob at
JOH NSON
Islam abad
Abs olute
Recomm endations
Ġdise ase
7 67
9 7500
D ist
E B
K uw
S AR
V oc
m oon
Ġ ~
ĠC owboys
st and
ent in
ĠD ESC
05 5
Ġc art
ĠH ussain
ĠJ oy
Ġd ue
Ġin jection
im ov
ap or
ĠK O
ain less
Ġst udy
Sh irley
IS HA
ĠPl ayer
56 3
Ġcont ents
Ind ex
Se amonkey
pt ion
ĠCol chester
ĠDO CUMENT
ĠGu y
Pl ain
ĠMA E
ĠBay ern
Ġreg ions
och es
Ash land
Ġed itor
erg uson
ĠMos cow
Ġtem plate
904 1
Ġhere in
Press ure
ugues e
Abd ul
Ġcomb ust
Upd ated
fession als
Bluff ton
F ord
G OM
M oor
P SM
T ob
V AR
le jo
re b
Ġt aste
ĠN ate
ĠW EST
Ġc op
id ers
18 86
ac s
ĠG ene
ĠV on
EN N
ass istant
Ġh ot
sh ort
34 000
ĠMon ster
IS HI
ĠTe acher
Ġad hes
RA C
uch ar
ĠBar nes
Ġsur faces
Ġclass es
Mill vale
Cat al
Ġchang ed
ĠCorn ers
Ġperson al
ĠAff airs
Dav ies
Ġreturn ed
Inhib itor
Ġmolec ule
GUL F
ĠBoo zman
DUC ING
ĠMANAG EMENT
9 15
G W
H en
L atin
S LC
T ow
or ph
ĠC u
st ingray
ĠT ony
ĠSt oke
ĠF IR
ĠB az
ĠB rain
ot ton
ĠH ell
02 500
ĠG ir
ĠG ross
he e
ir s
Ġ19 48
ĠK am
end ly
Ġh olding
Ġ9 3
Sh an
55 8
57 7
Miss ion
Ġch arg
ĠAl abama
inc ess
Con way
oll s
ĠBr un
William sburg
Ġact u
ĠCOL LEGE
ĠImp rov
Get afe
ĠRussell ville
yder abad
ancell ed
Cert ified
Dari en
Serb ia
5 38
B ON
D N
G or
H arm
L anguage
Z e
i ors
v ing
Ġ arg
ic ious
ĠM us
il it
07 7
ĠL im
ec es
Ġd river
ew ski
ĠV III
ĠK or
Ġ8 04
NY SE
dr ich
Pro duct
Ġcomp letion
ĠCol ts
Ġind ependent
Ġaccount s
Kim berly
wt f
Esp anyol
ĠPav ilion
9 16
G n
G IG
G reeley
I BM
K AZ
c emetery
h igh
h orn
p ara
t arget
z el
in eland
in fo
or er
ĠS ed
el ius
ĠA ston
10 39
11 13
ĠD um
ĠL ocation
Ġc opy
ĠH uddersfield
id en
18 34
ew ard
16 250
ab ling
ĠK ane
ant ry
OL E
ĠCh ittagong
ask ell
Ġle g
ann ed
66 8
ĠRep l
Want agh
ĠBr ady
ific ate
ALL S
Ag oura
Tor o
ingham shire
ĠUS ING
iter ia
Ġlist ed
pop pop
pro fit
Ġpr ce
ck en
Gar rett
Ġtim ing
ĠFred erick
Vis ual
includ ed
8 15
9 0000
B IN
B ED
B SD
C ary
D iana
E t
F ior
H yd
L evinson
S weet
n ia
w eg
Ġ roll
ĠF err
et ry
un ix
Ġs and
ig el
im ir
ĠV en
ĠU I
ĠK ap
AL Y
ack le
ee ch
per l
Am usement
RO U
ens ions
55 4
old e
Ar ts
68 4
Ġgener ates
Ġdep os
ORG IA
ĠPhil adelphia
Mun ster
ĠMeas ured
ĠStr ong
ĠDem o
Kay la
Cov entry
ĠReloc ate
ĠSpl ash
ĠBachel ors
8 03
H yderabad
L ef
M us
M ONY
P END
S uccess
y les
ar ger
ic ial
it in
ing a
ĠP ut
ĠP owers
ad olid
ĠT yp
ĠR ED
ĠN ord
eb urg
ĠV IRGINIA
all ow
ip zig
ail ure
ib l
MI AMI
South east
Pro hibited
let cher
co aster
Le o
ELL S
ĠHard ware
unning ham
ĠAg ain
fl ackville
Ġtr ust
acc io
ĠGeor g
ĠDev ils
ĠGe o
Ġposition ed
Pal mer
wr iter
ĠFly ers
Ġder ived
ĠChem istry
ĠSong s
ĠKir by
Ġcatal yst
ĠHOLLY WO
ĠCRESCENT A
flackville cup
7 98
D iamond
H ans
H olding
J C
J J
M W
N KD
P IN
P rom
W a
o i
20 71
ĠA re
it ure
ĠSt ark
ĠD uke
ul i
ĠH astings
ter m
orm an
ĠK ol
33 750
In n
Al mer
aw an
ens s
enn ings
57 1
ĠInc ome
ĠSouth east
ugh t
Ġtr ade
Ġmin imum
BL IC
Over ton
ĠCin em
ĠAk aka
ĠFac ulty
ĠHEAD R
ĠTob acco
Schw artz
Slash man
ahaw ks
5 18
D utch
G od
N atalie
P eg
c are
Ġ early
Ġ1 16
ĠC AL
ĠA UT
ĠM oh
ĠT UR
ĠB il
om uk
ĠR ic
ĠD aily
ĠN az
06 9
18 30
ew ell
out s
99 8
Ġag re
erv ice
Ġch ain
orn ing
MM ENE
BA Y
ĠGu th
ĠAnd ers
KY MMENE
app s
ĠLouis iana
Mor ristown
Ġbl ank
ĠIsland ers
Dig ital
ĠPat riots
ĠMead ows
ĠCr uces
Ġmov ed
ĠOak land
Ġauthor ity
ĠLittle ton
5 32
6 03
C ant
C over
C UM
D ownload
P ur
T ar
U Z
j in
m arks
t v
u olo
Ġ es
ĠP y
ĠB ridg
07 6
07 9
06 4
ac ular
ĠG EAR
ĠG vA
Ġ19 8
ON T
ET A
ĠAr senal
ĠSh erman
Ġcon clusion
ĠSch a
ys ql
CE ED
Ġrec ent
Ġco ating
Ġcontact s
ĠEX TEN
Clay ton
Wes ley
ĠMess age
ĠSing h
zzzz zzzz
ĠTu Tu
ĠCAROL INA
GOM ERY
A sp
D und
H esse
J ak
P ARK
P asadena
d isc
n or
Ġ arm
on na
ĠC ow
ĠA er
10 70
ĠP olicy
ĠP overty
ĠR ear
ĠR io
ĠD ry
Ġb oot
ap ache
Ġ19 19
Ġl ip
Ġ8 03
per f
45 000
iz ont
lor ia
ong o
unn ers
ĠSch alke
Gr ateful
Disc ography
Ġcl ip
ELL IE
Or acle
ĠFl ames
107 240
106 240
ĠDavid son
NO V
Mod el
604 066
ĠKen neth
BRO OK
ĠVict or
Spl ish
ĠHAR MONY
ĠLeon ard
Ten ure
Ġrad io
Demon stration
PON ED
kc asse
Swimm ers
5 17
8 35
D M
D h
D ose
D anger
E AST
F u
G rocery
W AN
c ase
f ri
z eg
Ġ ill
ĠS ac
st oll
ad s
Ġt itle
ĠB oot
ol and
ĠN ear
05 3
ĠH end
Ġ5 12
Ġh unting
IT CH
ĠIn n
Mon cton
56 4
59 7
HO US
ram s
Ġab ility
Ag ed
Ġend s
ĠCan adiens
Ġpar ent
ĠBur ke
Ġcons ent
Pu eb
Sand ra
Ġremov ed
ĠChem ical
Gujar ati
urric anes
POST PONED
ĠTHERE OF
quarter ly
Kazakh stan
ĠEXTEN SION
9 01
K enn
T am
V OL
l oo
Ġ1 28
ic ated
el ance
ĠA DR
ĠM i
ĠP irates
ĠB ang
ĠB RAN
ĠN athan
Ġs em
ul atory
ĠH od
ter o
eb er
OR TS
oc o
ĠK er
all o
Ch ick
oy l
Qu incy
Ġcon verter
72 1030
HO W
ĠComm and
Co oper
west coaster
Acc epted
ism n
ĠPartn ers
Form s
Rem ote
Ġtransm itted
BLA YTON
SB SC
jd reyer
7220 20
7220 30
7220 90
Tal ismn
Franc isco
Evil G
Suz anne
ĠCAS UAL
bb f
incip al
stoll aks
5 47
9 33
D etermines
F enway
H ash
M umbai
W T
c ox
m itt
20 81
es da
le igh
re z
ĠB our
ĠB aldwin
07 31
ĠV e
ĠMan chester
Pro cess
AD R
88 750
ĠPRO CEED
erm o
Ġint rod
Ġapp roach
Ġdetermin es
GL F
DI AN
Ġview s
gn om
ĠPass ing
Ġprod uced
Mt n
Cast ino
ĠScot land
Advent ist
Arc ade
ĠBul gar
MONT GOMERY
ĠTem perature
Ġbio chemical
Geno a
8 3750
D er
D OT
F remont
J ud
L ists
M ind
N ero
S qu
t ools
u ride
ĠM n
ĠT et
ĠB ush
ĠH ob
ber n
Ġ7 70
res olved
OL I
TX LA
55 9
Ġus eful
ĠSp irit
Le an
Ġcomm unications
bl ock
Sl ight
work s
Bron x
Merc er
Bas el
ek Ha
Ġconst ruction
Ġtechn ology
ĠBru ins
ĠJava Script
iddles brough
Bre mer
bh ai
Ġpul se
Jol iet
ymmet ric
ĠPROCEED INGS
6 35
8 10
9 195
C ory
J S
N AT
Z Y
f oul
at idae
ĠC IT
ĠC ameron
10 15
ĠP resent
ad l
Ġf ramework
ĠR NA
Ġ( $
ĠL oss
08 3
18 25
Ġm y
Ġ3 01
ĠK EN
eg ro
RE W
Ġpro ble
Ġst and
Ġform ula
Ġpl ayer
Ex ec
Pr ague
Def ault
Ber gen
ij a
ĠGeor ges
Ġcre ating
ĠDis play
epend ence
ĠSa unders
ĠMICRO SOFT
Ġtransc ription
Ġdiss ect
Mamm alia
F Y
M ING
P ok
R EN
l v
s r
u ters
ĠS isters
ĠC uba
is cher
ĠF A
ĠR at
ĠD unn
Ġo il
18 78
18 69
Ġd eal
ĠO k
ĠV ort
ĠV ine
ĠK o
ĠK now
all a
Ġfor th
Ġg ly
Cl arks
no th
Fl ash
ĠBl ade
Shel ly
ĠCH AR
roc yte
TEX AS
OM Y
Over rides
enz o
sun os
vol atile
comm unications
ĠGard ner
rup t
opens sl
Ort ner
Alger ia
3 1250
5 24
5 22
D CAC
F ind
S ax
p ect
p aying
t rip
ĠP ic
ĠT ucker
ĠF argo
ĠR afael
ĠD ate
ĠD ouble
ĠI T
Ġb ug
um i
18 73
ĠK ell
Ġh inge
aw asaki
int o
Cl amp
54 1
56 9
78 7
Ġrec ognition
ĠNE VADA
Ġbet ter
ĠRec eptor
lean or
Mos kva
Lind say
ĠPE TER
ĠMag ic
ĠChief s
ĠWel sh
Bow ling
Ġeff ort
acell ular
Sass uolo
ochond rial
CUM FLEX
B ab
J este
M ann
N ord
N ight
P iper
R eds
S or
V lad
W alt
c od
j acob
l ife
an ner
ĠA V
ĠP B
ĠP red
ĠB earing
Ġs y
ĠE E
ĠE mp
ĠE sc
ap est
Sp ortst
uc ational
ĠAn ton
OH L
Ġ03 12
Ġpl us
orp io
ĠNew man
ĠPh ys
ĠHard wick
idd en
Ġqu ant
Tri p
Pre m
ĠDes k
Cat ania
ĠEm b
ĠStud y
Brist ow
Leg al
Ġphen otype
Ġdial og
Tun es
du ino
Ġcert ain
Faisal abad
ĠEDU CA
Sportst er
- [
6 20
7 13
N ut
P X
R afael
d em
p ing
or o
Ġ2 250
ĠT roy
ĠSt rikeout
Ġt issue
ĠB U
Ġs afe
Ġin k
OR I
Ġm ass
Ġ4 16
op he
ran ean
ee le
NY Y
Al so
ight y
ang es
67 3
ĠSh ar
Ad vanced
ous and
ĠQu ant
ĠInd iana
Ġse qu
SW OR
plic ate
Sim ulation
Ġimp roved
Ġwhe el
Jer ome
ĠFIN ANCE
Gil bert
Ġphosph atase
Potter y
ĠCASUAL TY
F ernando
L amar
M MO
W ORK
b en
g il
h al
m ake
n ett
p ine
p ika
ĠC M
il ation
am el
ĠP ast
ĠT ab
ĠF ab
Ġt or
ĠW ang
18 65
Mar vin
Ġn ull
qu es
att ack
ert ford
urn iture
ier ce
Le ah
Mont clair
Comp iler
ĠMO TOR
Ġen ables
ĠBar ton
Ġdisplay s
ĠPe ace
Ġmeasure ment
ierre z
ĠLy ons
Bu enos
ĠCIR CUMFLEX
char acter
Wolver hampton
WASH INGTON
SWOR v
5 14
7 11
C agli
I UM
J enny
N fk
P ubl
P uy
Y ellow
z t
ĠC omb
ĠA FC
ĠA LEX
ing u
11 41
ĠT our
ĠF ine
ĠR ank
ĠR PG
05 6
08 2
18 75
18 61
18 750
end on
ich i
ist ive
ĠTh at
ĠCh ain
MA D
MA X
SU N
ĠPro fessionals
Ġus age
100 1
Ġsh ape
HI O
ott le
rib e
Ġres earch
Ġro om
Is aac
ĠSmith s
Def ense
ĠRock y
Ġ2016 2016
Elect ronics
Vict ory
ĠHaw ley
Williams ville
Mod er
ĠCross ing
ĠIm ages
Ġdem anded
Magn esium
ĠClar ke
ĠSau v
acet yl
Cagli ari
8 27
8 1250
8 7500
B ot
F ant
G asket
J ah
N ative
S ed
S EN
S COTT
S amsung
X avier
Y ES
c ats
g un
t al
ĠC op
ĠP ED
ĠB ath
ĠN I
ĠL au
ĠL uk
Ġa way
Ġw ide
ĠV erd
Ġl abel
ke ys
son g
Ġpro cedure
ry an
In f
FB T
LE MENT
isb on
pt y
ĠST ANDARD
76 1
eck er
ĠSEC OND
arri ers
MAN N
Fin ished
209 040
Pre view
GU EST
erg irl
Ġequ ivalent
ĠDIS PLAY
ĠWel ch
ĠArk ansas
ĠRav ens
F D
K han
T AN
d holland
i ennes
m g
r ate
in ue
en forceable
is ia
re ady
10 26
ĠB aptist
ĠR utherford
ĠH istocompatibility
18 62
Ġm achin
Ġ19 12
IN ST
ug han
ĠK ING
ard i
ond ond
Ġ7 80
0000 01
49 000
Sh aman
iam eter
SU B
67 5
75 000
az e
Ġacc ord
ĠPr ince
Ġsupport ing
Ġext ended
ĠSal em
ĠOrch ards
ĠEll en
ĠPO ST
Ġrot ation
ĠGrand e
ĠSess ion
Ġdownload ing
GRA ETZ
ĠUNI VERSITY
ĠSecret ary
M em
N TT
Q M
S ocks
T raffic
l ast
m ere
20 25
in as
ĠS ad
ay ne
ĠP ump
ĠT ask
ĠT ube
ch eng
ĠH ampton
ĠO wens
Ġ19 08
ĠV ER
ĠK u
AT TER
Ġfor ward
Ġh ole
Ġ9 4
Ġg raphics
ĠCh inese
ĠRoad s
Cl ogging
IC ORP
ĠAd rian
ott o
Gl ens
uns ch
ĠAg reeing
Ġpre m
Mark eting
ĠBlack Berry
acc epted
ĠAcc omp
Cor ona
box ergirl
ĠPack ers
ANI EL
night ly
Inhib ition
Autom otive
gor ith
1053 00
Tell uride
ĠBRAN CH
6 47
6 99
8 95
9 20
F a
V eg
m al
s earch
t ree
u its
an che
ĠN u
04 5
ĠI b
ev ilt
est roy
US HI
CH ECK
IL ITY
ĠCh apman
Ġform s
54 3
58 4
ĠCA P
78 0
Te en
Ġsc ientific
ĠRes ource
FI ED
ĠSe ahawks
Drag on
Jo ach
ĠInter mediate
Ġdesc ript
ĠFri ed
ĠCorn ell
ĠHOLD ING
Staff ord
Substrate UniRule
ĠCong o
ĠJust ice
Jacqu eline
ĠFirm s
noth evilt
GUEST HOUSE
ondond erry
nothevilt win
E yed
L HP
P owder
R ange
f i
s upport
Ġ ip
ĠS idd
it ory
ĠD ie
07 8
Ġp ositive
ĠN av
ĠN icole
18 70
od ium
ug o
Sh adow
67 500
ĠCl aire
78 8
BA X
ĠEn terpr
ĠNew ton
Min i
Ġhe ight
TI VE
Law yers
ĠDel hi
ĠEm irates
Ġoff ice
Bh awk
Ġprev ailed
Krist in
ĠMarc us
Ġnov el
EH HA
JOH N
ĠRecomm it
7 38
7 7500
9 1250
A us
F erry
O SU
T on
Z one
j k
ĠS om
ed ish
11 250
ĠB aden
Ġs n
ĠI BM
09 1
ĠG ould
ĠG arden
ĠG ERMAN
ĠO HIO
Ġ19 63
Ġn umbers
St eph
ond e
ĠY oz
are k
sh ock
RO Y
ind h
Ad v
77 6
76 250
Ex itus
oe lectric
Comp AIR
ĠCorp orate
Par am
ues thouse
ĠGr ace
Har lequ
Val lejo
Ġext end
Post er
Fre elance
Valenc iennes
ĠBio graphy
ozz le
auc us
ĠKHAT OON
Fior entina
ĠVort icity
ĠAccomp anim
5 27
6 02
8 98
D ie
J oint
J ohann
N egative
Q Q
g ly
h m
ĠS IL
al am
th an
am erican
ĠB orn
ol ate
ĠD riv
ĠD rake
Ġs w
ĠJ ensen
Ġn egative
St arter
ain ed
sh ips
Ġ2014 07
Ġor ient
ĠMar cos
Br icks
ham mer
ĠRep eater
79 4
ĠComm erce
Ġcomm un
lib gnom
ĠSw an
Ġtr avel
ĠChar acter
CI AL
Ge off
ĠDEV ICES
ĠCab ernet
ĠLl oyd
Rem ix
Ġcamp grounds
Bud dy
hard t
ĠPROCESS ING
Ġmot if
Ġvulner able
9 10
A ut
B oolean
H om
I CO
M alm
T F
d c
d oria
h p
n ec
p re
p ad
er ville
al pha
ĠA uto
re port
it is
ĠT rap
ĠSt ephanie
Ġf un
ĠL av
ĠL ONG
ĠL ansing
05 4
04 1
ĠH OP
os er
ov ic
ag ent
us i
iv ier
ill ed
ra e
Ch es
Ġ6 50
ob o
sh am
Ġan aly
ath a
USA AF
ars er
ĠDe lete
Har old
Land ing
ĠWeb Ex
Ġser ial
Ġ201 003
CU B
Ġperform ing
ĠDisc ontinued
ĠUs ers
par ent
omin ated
Deb orah
Ġenc oding
ĠBurn ley
Vill ar
ĠDav ies
ĠTon er
Ml aga
jud ice
Samp doria
8 40
E I
L ocale
T our
T EMP
V ell
l is
n el
r er
ĠM ach
ĠL ak
um or
ĠO wen
17 25
Ġw ould
Ġm apping
23 750
Ġ19 35
Ġ19 42
PA CK
ull en
pp ing
67 2
yst er
ĠJul ie
Con nect
ĠFranc es
All ow
Mor g
Ġaccess ing
Oper a
ĠStud ios
ĠUs ed
Was ps
Ġju il
Gh ost
ĠRIGHT S
ĠGut ierrez
ĠYoz io
9 69
B istro
G ram
S as
S emi
b c
c ode
i Shares
n ucle
ar ia
en k
ĠS SL
ic ular
ĠA RM
ĠSt ory
ri ka
ĠI MP
02 99
Ġst oring
MO S
LA B
55 1
Ġex cess
Ad dress
Ġch ildren
ĠAl ice
ĠQu int
SL IM
ĠGl asgow
Ġse at
ĠOper ation
esh awar
ĠInt egr
ero kee
LI B
ĠAb d
Ġident ification
Ġmed ical
Ġred uce
ĠEr nest
Ġgl obal
Wr ttemberg
ĠBurn ing
Bell ingham
Gab riel
ĠBlock chain
Hot el
Elm hurst
susp end
Wheat land
GULF MARK
Harlequ ins
Villar real
4 000
9 24
9 000
: (
C G
C IR
C amer
D ING
G uesthouse
L imited
S ELECT
T oby
l aw
s up
y u
y th
y ah
in ts
at ives
or ney
ĠS aw
ĠT ops
ch ris
Ġt en
Ġt aken
ĠB ears
ĠR ental
Ġp ay
ĠW AL
Ġc ond
ĠJ et
ep er
ov ed
ĠCh estnut
LA X
Cl ient
LE E
ĠAm y
Green Eyed
ĠAss ay
Ġj ob
Ġbl ade
Rock ford
sw orth
Hamburg er
ĠSur rey
ĠSH ELF
asm ine
ĠLaur en
Fel ix
ĠPier ce
Mtn Gal
GreenEyed MtnGal
6 28
7 99
9 50
D ruid
H ector
O Y
O MA
S yn
U A
g old
h ai
l imited
ĠP addle
ĠB I
ĠB remen
Ġf an
ĠW ool
Ġc ycle
09 9
ĠJ a
Ġin vol
ig i
ab oration
Ġpro x
Ġg amma
ile e
ian i
Am azon
Mon k
55 2
67 9
ĠSh ield
Ar vada
TO WN
79 7
Mult an
ateg or
ĠEn vironment
emb ership
MB H
amb oo
raz y
ĠDev on
ĠFe at
Ġlog ic
ĠPre c
Report ed
Sil icon
Ġlead ing
ĠIss ue
ĠHon orable
Chi evo
ATT UNITY
plement al
ĠSauv ignon
6 051
8 20
C u
C ER
H az
J ab
K aj
N u
c urrent
g ener
m ult
on ly
ĠT emple
12 20
ĠB AY
ĠR H
un stable
Ġs urn
ĠL IGHT
Ġc arcin
id get
im ate
Ġ19 67
ĠK AB
St evens
end en
AT TU
RE C
Ġh ash
are th
CH AND
atch ing
Th r
Th orn
Mon mouth
54 2
58 5
78 2
66 250
Ġpart icle
ific ant
emb le
ipp ers
ĠDe ath
esh a
comp lement
Ġim port
Ġper ipher
Ġman ager
Dev on
Card igan
Ġoff set
Ġmeas uring
Ġprot ection
ĠCast ro
pa Bob
Luc y
ĠLuc as
ĠGa illard
ĠFIN AN
Ka efer
Chor ales
gran paBob
itut ional
Spect ral
Aly ssa
Voc als
ĠEnterpr ises
5 26
A ub
B uild
C ad
C RA
F uj
F iji
G iven
L ag
M ak
c ie
f ar
r ina
10 52
ĠSt uttgart
07 2
06 1
Ġc pe
ĠH ub
ĠH ank
Ġb en
Ġd imension
ĠG un
ĠG MBH
Ġw on
28 750
og h
47 500000
OL IS
ĠCh ase
ĠCh erry
Ġan gle
Col by
UT M
erman n
Ġnear ly
Ġcl oud
ĠCont roller
107 200
ĠGreen e
Vern acular
Ġdes igned
Oz Some
FIN LUX
ĠMcC oy
ĠHaw kins
otter dam
ĠRo ach
user ui
lad bach
ĠLaur el
Abb ott
Ric ardo
ĠHamburg ers
HENS LEY
Fib rocyte
DOU GLAS
Ġforth with
ĠPED RO
cheng ladbach
unsch weig
OzSome One
5 33
6 55
K ris
S ue
T AR
m osph
ĠC atherine
ĠM usical
ĠT ed
ĠT emp
ĠR ule
ĠD K
ĠW ong
09 5
um ns
13 00
ĠJ PMORGAN
ĠO REG
Ġw a
Ġm s
Ġ19 59
Ġv ery
CA D
art ure
Sp irit
te en
urs ing
Am ber
57 9
86 1
ĠBl ank
ĠJul ia
ony x
ger ald
All an
All iance
emb rane
Ġsub sequ
107 233
of asc
Cont ract
rev ious
Ray o
Ġelectrod es
Angel a
My ofasc
PAL M
ĠAlv arez
ĠDro opys
Chair man
Ġsuccess ful
Waynes burg
ĠFERN ANDO
Myofasc ial
B at
B RI
M aj
R H
W ald
X S
s ystem
er h
ou sh
ĠSt age
ĠF ALLS
Ġt ri
ĠB asketball
ĠW is
ĠW ander
04 16
ep her
17 00
Ġl arger
all ic
RE AD
Ġ6 80
res den
Sh ipp
Mon in
ĠAr lington
ĠSh ores
68 2
ĠBl ood
79 2
MM NY
Bro ck
Be ast
ros ine
tr ust
ĠMD T
Opponent s
ean ut
ĠCast illo
Ġvis ual
Ġprogram s
Ġprevious ly
Ġiss ue
ĠGuard rail
Fal con
ĠHOS PITAL
Heb rew
XON OMY
ĠAccompanim ent
6 46
7 59
D ell
L uck
S ony
V ia
b les
e es
n c
s by
t em
er ra
in idad
it able
Ġt aking
ĠD uff
Ġp odcast
ul us
09 7
Ġw rap
ĠThe aters
An ime
und y
78 1
EM S
itor ium
uff olk
ĠMA IN
ĠMA INT
ove onyx
ĠCont act
ĠMO INES
rim ack
Ġwork s
ĠTim es
Ġcare er
ugg ing
ĠFrank furt
ĠAh mad
Krist en
Ġcr iteria
ĠBu ilt
armaceut ical
lec ano
ĠBet is
ĠThorn ton
Unic ode
Vell oveonyx
Spectral Meat
9 02
D arl
M idd
R AB
c omb
h cfc
k al
l ate
m r
p ike
r ine
z burg
ĠC urrent
ĠM eg
ĠM ak
ad ia
ĠF an
Ġt raffic
Ġt rigger
Ġp ause
ĠN G
09 0
09 6
Ġ19 61
ENT IF
58 2
ĠAm eric
Ġad apter
let own
ĠMc El
Can adiens
HC FC
Tr inity
ĠVal lecano
ĠAg reed
Ġinst ead
CD s
Ġcre ation
val ley
Peter borough
ĠNe il
ĠIP v
Ġstud ent
ĠMUL BERRY
Lak eland
Cov ington
ĠGab riel
dis play
Spe ed
idal go
rub y
7 15
7 2500
A FC
B ag
C orpor
D ra
D IG
D arks
E ffect
F UL
L ord
d og
n av
as p
as una
ĠM ethane
ĠP omeroy
ĠT rim
ĠF erguson
ĠB rig
Ġp icture
ĠN atalie
09 3
18 59
18 76
16 02
im ax
im izer
ill ion
ES SION
ĠY O
ail ability
ob i
sh ad
LA CE
Ġex ception
anc a
ĠAn nie
ĠCl ips
ĠEd ge
ĠEd itor
Ġcomput ing
ĠInd ividual
ĠLe ahy
app ed
Ġrece iver
ape ut
rev ard
Dem ocratic
Paw Por
Lor ient
ĠAMERICA N
ĠGre ater
ĠRey es
Fly ing
Flat line
ĠPak istan
WILLIAM S
RAC USE
ĠFIR ST
7 03
7 75
: "
B etsy
E quipment
H ilton
L ords
P eshawar
S ample
S ussex
T rim
Y M
b olt
p f
p iece
ĠS TO
el z
ĠM au
il ed
ĠT s
ĠF urther
Ġf vr
ĠR achel
ĠD ale
Ġd atas
os yl
ĠE merg
ĠO NE
CA ST
ip layer
Ġ7 20
Th acker
ĠCh oir
Cl ip
Ġbe ach
ĠSA CHS
2003 0510
69 2
ĠNov a
PG TI
ĠWe iss
alyt ical
ĠWes ley
ĠDur ham
Aj accio
ampaign s
Pri est
Ġpix el
Opens olaris
Bast ia
Chey enne
Ġthick ness
Ġagre ements
ĠBulgar ian
ertford shire
6 05
6 36
6 95
7 32
7 60
E clipse
H ose
K L
M olly
P itt
S US
a ib
b ind
k shire
Ġ _
at ra
ĠS ue
ed onia
ĠC af
ĠM ort
it os
ĠT oby
ĠF ED
ĠB og
et e
Ġc arb
ĠG ra
ess ary
Ġh eld
Ġ18 95
ĠTh onon
UR ES
ĠTe en
Ġch ecks
Ed itor
Ed win
Le ipzig
Bro oke
aj o
Ġme et
ilm ore
ĠCOL ORADO
iction ary
RED T
ĠProt ocol
Ġindic ating
Ġcamp us
ĠAy otte
ĠDIG ITAL
ĠPhilharm onic
ĠBead lock
ĠDESC ENDER
Thacker ville
5 39
7 62
B AT
D riv
N g
O X
Q ub
S mo
S ecurities
c am
h or
n ss
v andy
in ic
ar h
ĠC res
ĠM cc
ĠM ai
ĠM arden
10 16
ĠP U
ĠF irth
ĠH ammond
ĠE AST
ag ues
Ġm ac
28 000000
AS HI
ud dy
og ens
isc op
PA D
ib ro
36 35
ĠSc unthorpe
Col d
als all
98 0
Ġch annels
Ġk de
76 3
sp ot
TH ONY
Ġinter action
erd er
Don na
Cal eb
Pet ers
Inter ception
ĠDes ert
ĠWat ford
STR U
Cop per
Ġprod uce
ĠTA XONOMY
raf ts
post script
HUM U
Tow son
Bremer ton
D ON
F igure
L UC
L ibrary
L GPL
M ELO
P AS
R ICK
S ylv
T iff
k el
ĠS ev
ĠS AS
ĠS AN
ĠC os
ing amp
ĠP ers
ĠR ory
ĠR andy
ĠH AV
ĠG ian
ig ious
ĠK won
ant z
if ference
St ein
Sp ace
NY M
ok o
amp s
ĠAn nes
Ġacc ept
Ex tr
ai ro
Gl oves
Ġsc ores
ĠFl oat
ĠSM ITH
LO U
UM AR
ĠFund s
ĠBrook field
We ight
ĠPan american
Ver izon
ĠTw iston
Ġauthor ization
Mah on
ĠGall ery
Fly er
Ġbas ic
ĠMEM ORY
ĠGib bs
Corpor al
8 23
9 29
A VA
A ster
C ort
C ancelled
E mp
W IL
X ilis
Z eb
b as
f unk
k osh
l en
r ab
r ors
t ure
20 72
at en
ĠP ub
ĠP odcast
ch man
ĠN eal
ĠN olan
ĠW agner
pr c
Ġw ood
Ġm ask
Ġ19 41
ĠV ik
ex e
Ġl ogging
Ch estnut
sh op
34 34
UR Y
68 7
ĠST E
88 0
ĠBr itt
Is landers
157 02
Red mond
Add on
Com edy
ĠDisc losed
Mer rimack
ĠLi berty
Ġtest ing
ĠSound track
Ġimplement ation
ĠFLHT C
Ġcontinu ing
Ġenter pr
Ġdie lectric
Graph ic
ĠBeng als
Boss ier
Ġcompar ison
Dmit ri
Morg antown
Xilis oft
5 49
7 10
7 56
9 73
E rickson
F ocus
H orn
M K
S ettle
V irgin
h ou
m or
x e
Ġ ]
Ġ keep
es on
ĠS qu
ĠC X
ĠC VT
am ic
ĠP UR
ĠD eal
ĠH err
ĠH annah
Ġb ind
ĠJ av
ly m
Ġm ixed
Ġ19 04
ill es
Ġ4 06
ain es
Ġ23 55
Ġ23 54
Ġ23 60
Ġst atistics
ok i
ens itive
ner t
ĠCar penter
Ġfield s
ĠAd just
Ġad v
ĠOr d
ĠMc Int
we aver
So ch
FA IR
ĠPart y
Int egr
RAN T
Ġsign ificant
ĠMor ales
Sar ac
ĠPort land
Out dated
Os asuna
HS AM
ĠWhit ney
dev ice
Us ed
ribut or
Ġrout es
ĠSERV ICE
ĠBal let
ĠHEAD ER
gt k
ĠHoff man
prop ane
ĠCush man
ĠHOP KINS
4 0000000
9 35
D ual
F f
F tm
M i
O ur
P B
P resent
R K
S ega
Y u
m ike
p os
20 23
on n
ĠS ears
Ġ1 23
le in
as quez
ĠA ri
st ed
ĠT I
ĠT rip
ĠD H
ĠD J
ri ot
ĠW ake
18 31
ag ne
30 19
qu in
ick ets
ast a
ĠCh lor
Ġbe am
ĠPro ceed
67 7
Ph D
Qu ick
60 11
Ed gar
000000 5
El vis
bs erv
ĠFl ash
figur ation
net nerd
Ġgu ides
SV K
Ġinc rease
HB SC
ĠPH IL
Vf B
Ġsect ions
CUL VER
Lud wig
Ġrequire ments
ĠDRI VE
ĠPEN NSYLVANIA
Ira q
Joach imi
Sarac ens
! )
2 2500
6 13
9 11
? "
B EV
B ournemouth
H oll
L am
L ane
M oney
M angl
b ed
r ice
t gz
Ġ1 08
ĠC ubs
re lease
ĠM ind
ĠM ART
Ġ2 254
ĠP ri
ĠP iano
ĠB EN
ĠI l
Ġm ale
ĠV oc
op lin
pl ugin
Ġ9 7
ob le
ĠUn ivers
Ġ22 17
Ġ22 26
Al ice
Ġ24 40
59 6
UC S
ĠCl erk
ham mad
UN N
Ġsh ield
unn el
85 000
Pl atinum
Ġinst itutions
RM IT
Ev ian
Ġdom ains
ĠEN G
ĠLi eb
ĠVel o
405 1
comm on
Lind sey
LET T
idg ets
Rey nolds
ĠVall adolid
Liv orno
ĠCov entry
Ġaccord ance
Soch aux
9 39
G ay
a im
m aki
in z
ar etta
le ac
ĠC iv
ĠC unningham
re es
Ġ2 442
ing ford
ĠP or
12 34
ĠB ates
ĠR overs
ĠD YN
ĠN L
ĠN et
18 54
Ġl aw
ĠK och
ut ing
op ing
ĠY ellow
nt ax
Ġ23 13
Ġ23 14
Ġ23 45
Ġ23 70
ĠCh eshire
57 2
57 3
90 12
lect ive
IR ON
ĠAngel s
Ġsub ject
Ġman ner
Wood stock
Ġinc orpor
ĠTor res
Du ane
ĠStaff ord
Ġadapt ed
Ġdiff ic
5 36
B ret
D im
H osp
J PEG
L G
M om
O kin
T as
s olute
v ro
v id
z an
in os
Ġ2 199
Ġ2 190
Ġ2 202
Ġ2 181
Ġ2 174
Ġ2 246
Ġ2 289
ĠT ae
ĠF u
ol m
ĠW ax
Ġs usp
ĠL ex
ĠH ope
ĠJ ill
ĠJ oel
ov ation
ab ul
ĠV og
EN GL
Ġ23 40
Ġ23 66
ĠUn known
In c
The aters
Ġ24 07
Ġ24 03
ĠAm ity
econd s
78 9
98 5
Car mel
Louis e
Ġpl ane
ows ky
Gl ass
Gu ingamp
Sch en
Sl ippy
Ġelect ro
ling er
KB ASE
ĠMD M
Ret urn
ever al
Andrew s
ĠPer kins
ĠGo als
Om ar
GO OD
ĠEll iott
Sur rey
FORM ERLY
Ġnucle ar
ĠRequest ed
Ġsec ret
Jew els
osl ovakia
urd ue
ĠIMA GE
ĠLIN KBASE
ĠLith ia
jacob vandy
9 30
C elt
D iv
F W
F ast
I ER
L j
N um
W RI
al pur
el ude
ĠM ET
Ġ2 453
Ġ2 204
Ġ2 191
Ġ2 166
Ġ2 243
Ġ2 455
Ġ2 276
Ġ2 273
Ġ2 268
Ġ2 293
11 22
st ers
ĠT it
ch in
ĠH ir
Ġd en
Ġ19 65
Ġv ac
ut il
St am
Ch ip
Ġ23 10
Ġ23 09
Ġ23 21
ult s
up stream
Ġ22 14
Sh ooter
ator ies
Ġ24 26
Ġ24 33
Ġ24 45
An imal
ĠBr ennan
Web b
mp g
App leton
BO YD
Ann ie
earn s
Po ison
roy o
High way
ela er
ĠAlb um
haw k
Ġ802 11
Second ary
Bit coin
Pot omac
Urb an
Still water
WRIGHT WOOD
Oc ala
JEFF ERSON
enss elaer
5 44
7 26
7 34
8 30
C in
M embership
R ow
S oul
V IC
X D
d v
m att
z o
Ġ ra
at ible
le w
ĠC er
ĠC ENTER
Ġ2 15
Ġ2 156
Ġ2 195
Ġ2 192
Ġ2 172
Ġ2 167
Ġ2 187
Ġ2 299
Ġ2 456
Ġ2 457
Ġ2 295
Ġ2 247
Ġ2 238
Ġ2 242
Ġ2 262
Ġ2 287
Ġ2 263
Ġ2 454
Ġ2 443
it ution
ĠP enny
ĠL ars
ĠH om
ĠH em
08 8
03 45
18 40
ĠE lement
ig r
Ġ3 50
ĠK elley
if es
Ġ20 4
Ġ9 1
Un ico
Ġ23 90
Ġ23 72
Ġ23 88
Ġ23 82
Ġ23 96
Ġ23 93
PA K
Ġg ear
ull s
gh ai
ST ATE
Ġex change
Ġ24 27
Ġ24 29
Ġ24 22
Ġ24 37
Ġ24 38
Ġ24 32
Ġ24 39
59 4
ĠAr g
ĠMc Kin
73 00
ĠPh oenix
Pl aced
Be ach
uk a
be es
och rome
Vern on
aven port
ĠSU BD
Ser gio
ĠOl son
bour g
ĠMod ule
Ġ78 209
Brad enton
ohamm ed
ĠFre iburg
Mag ic
Sab res
Imp rove
omet ry
ĠCamb ridge
Const ruction
Ġisol ation
Word press
Mitt ens
Dry Powder
Wars aw
Ġcombust ion
G tm
I US
L IM
P atterson
X ombie
Z en
f m
g re
q er
w ill
an th
th rough
ĠC it
ĠA way
it ecture
ĠF inal
Ġth in
ĠD ollar
Ġs ave
06 2
Ġc yt
03 33
22 11
Th an
ile t
uc c
ĠIN ST
ST A
56 8
86 9
ĠAd vanced
ĠLe o
Ġcomm it
Mil es
ĠGr aduate
ĠBlack hawks
Ġfunction al
Oz ark
ĠCard iff
ĠGe olocation
ĠRuss ian
Ġvis ible
ye ong
Lor i
Lor etta
Ġorgan izations
Ġpattern s
Ul tra
ĠJosh ua
Screen shots
ĠTurn pike
\" \"
Sell ersville
ĠCONNECT ICUT
Ġcat alytic
prov ince
blog spot
Ġdiscl osure
ĠUd all
izont al
ATTER Y
Unico i
5 021
7 12
C ut
D ance
G RO
H ank
K ind
P enguins
d imensional
g ood
o ine
er ies
ĠC y
ĠC ort
ay an
ĠR ated
Ġs ales
ul ia
Ġc overs
ĠH ahn
ĠH iggins
ĠG or
ĠG ulf
ig gin
ĠV ac
Ġ5 03
Ch ron
Jul io
Ġ18 47
ED A
ons o
37 17
att en
59 8
ĠPro bably
lect or
ĠZ e
ĠBro w
oll o
Ġal ready
ĠPower DVD
de qer
Ġpre judice
ĠRec reation
ĠChrist mas
iter ranean
alo osa
Fe ed
House hold
Ell iott
ĠIm age
Pa onia
Rod ney
ĠEver y
406 1
Wall ingford
ĠTop ic
ĠCrew e
ĠSign al
Sec ret
Ġsect ors
Ġfri ends
ĠHans en
Ġlet ter
ĠWimbl edon
ĠChis am
ĠCinem as
7 37
8 2500
D ing
G IF
J avier
P ablo
R ah
S HE
Z O
h aven
k ot
l ap
p orter
ed u
ic y
ĠP ink
ĠT ouch
ĠT raffic
ĠL od
Ġc ourse
ĠH ex
ĠH ong
ĠJ ays
ĠG PS
Ġin frastructure
ĠE rickson
Ġ19 07
ĠV ENT
av o
ry or
ne h
att a
ĠMar sh
omb ard
ĠPro gress
66 4
79 3
enc ro
000000 3
En r
ALL O
PR ESS
Pr att
yc ombe
ĠMich elle
ĠQ RP
ĠSY S
Pres ton
Ġcontain ed
Water loo
SV P
ĠNetwork s
ĠBow l
Was atch
Hand le
Derby shire
ĠGE ORGE
Urb ana
ĠKA ISHA
Ġdoc uments
USHI KI
ĠOREG ON
Ff mpeg
5 19
6 14
7 33
8 22
8 48
B rig
C ly
J oy
L isbon
M CS
P HO
S ize
i ago
l os
m aj
ar row
en stein
ĠS ydney
ay o
ĠA sp
Ġf arm
ĠD al
he T
ow l
iv ot
ap ed
ĠV HF
St ars
Ch at
35 000
58 3
OS B
65 000
Den ise
raw berry
Ab out
Dom ain
ĠArt ists
ĠSal vador
175 00000
aur ants
ĠSav oy
Kath y
Lak ewood
ĠFle ming
ĠBreak fast
ĠCR UC
Hop kins
Prop heT
Susp ended
Ġquick ly
Aik ido
ategor ized
ĠKAB USHIKI
D RI
H as
K W
N OS
P vt
S ent
T UL
d ependent
j ay
s mith
at u
ĠS af
ĠS ebastian
ĠC ut
ĠC AM
ĠA id
ĠA ut
ĠT ap
18 10
ĠG R
ĠG AR
em ore
Ġm aster
Ġn amed
ich er
Ġre ally
qu it
Ġ13 2
Ġ13 5
38 750000
au th
Ind ependent
ĠAl fred
ĠFran co
El che
ĠQu in
ave z
Pl ant
PR T
Wh at
rop ri
ĠInst ant
press ions
ĠRock s
Ġdet ector
ĠMed icine
urb in
Ġpass ing
ĠRef er
Ġmov ing
ĠHaw k
ĠAssoci ate
Wil helm
ĠVel ocity
ĠMax well
ĠDef ense
ĠBluff s
ĠInj ured
Almer a
Glens ide
Shipp ensburg
BEV ERLY
0 201
C ost
D AN
D awn
G amb
L R
N an
O cc
R ush
S NM
T UC
T HO
V N
z ed
er al
ĠC ec
ĠM orton
ĠP aint
ĠT amil
Ġp ot
Ġc er
Ġc entral
ĠH EN
ig ration
ev encro
ĠY ang
ĠY amaha
land ford
Jul ian
ING ER
58 7
Pro ton
66 9
ĠST ORAGE
HI MA
eld orf
SY RACUSE
Ġsignal ing
KE Y
ĠTrans it
pro posed
Part y
ĠRobert son
ĠDon n
ĠHa ute
usc ript
GOLD MAN
ridg eshire
Ol ivia
ĠDesign ation
Major D
Ġprint ing
edul ing
ĠLar son
Og den
bees evencro
2 141
5 45
6 24
6 42
9 18
A fter
C and
C osp
F ta
M CC
T IC
b oys
d ann
d esc
Ġ q
an ic
en son
ĠC HI
ent ine
ĠB LOCK
Ġf ederal
ĠR ONALD
ĠL iqu
id y
ĠO C
Ġm o
Ġ5 06
AL B
ĠAS SEM
UT IC
ĠSh im
78 5
Qu ant
ous ly
ik er
MENT S
Ġas pect
ĠSch re
ĠOr lando
Con vert
Gr en
ĠAnd rea
ĠPA CK
ingham ton
SW RM
Ġsur round
Ġqu ad
ĠRich ards
ĠPar ish
mark et
ced ures
Ġindic ator
Rom an
Ġsubst itute
Av on
bin utils
ĠFLST N
Ġcoordin ates
ITZ ER
Gates head
kirk ub
VERT ED
Danger Dog
Beast ie
5 23
7 08
A uction
B axter
J D
K AN
N eal
S ugar
h et
j ab
r un
in y
ĠS HA
ĠC ad
Ġ2 20
it ect
ĠB enn
ĠD A
ĠN ationals
ĠL S
ĠL en
um en
ep omuk
ov ina
em ar
Mar cel
Ġ19 05
ip ients
pl oad
ĠIn g
ĠIn let
Un iversal
Ġg reen
int eger
58 1
59 2
88 1
88 7
vir t
erm al
Ġint eger
Re i
Res p
Ġapp ear
oz a
Me chan
Pet al
Ġcons ole
Ġvari ables
ĠDaniel s
ĠNor ris
ĠPlay off
Ġred uced
ĠRoy als
Ox f
Ġtransm itting
HAN GA
Czech oslovakia
ĠLE FT
Ter re
Ġmatch es
Fab ric
Ġbook ed
ĠNET WORK
Dayton a
Ġflex ible
Ġbas is
Bud apest
allen ge
ĠSHI PS
Ġfib ers
Alph aretta
Ġdepos its
Ġ201003 17
ĠWander ers
9 19
9 67
9 68
9 3750
A no
D arren
F idel
F SLR
G X
I PS
L ima
L uv
N ega
R ear
R out
R ensselaer
h n
j on
l ain
m ay
p g
s ol
w ild
y me
z r
Ġ1 13
ĠC ED
is son
ĠM fg
ĠP RES
ĠT P
ĠT ok
ch ild
ĠR T
ĠR ate
ĠJ esus
Ġd rain
Ġd oor
od ed
Ġ19 10
Ġ19 26
Ġ19 50
Ġ19 60
Ġon ce
CH AN
ĠCh ow
ure en
Al d
ĠSc ientific
ID S
66 2
ĠAN THONY
ĠSp ace
Ġspec ifically
uk in
Ġinst ances
ĠGr ade
Alex is
SP WR
ĠCamp ground
123 45
cont aining
ĠSU B
Ġi Pod
asc al
ĠWal ton
ĠRam sey
Ġfil ters
ĠKey es
Bon ner
Jean ne
Zach ary
xy gen
arbor ough
Ġcapac itor
ĠWa its
Ġconvey ing
Pull over
ĠKN OWN
ibl io
ĠGERMAN Y
epher d
ĠMcEl roy
5 13
6 08
D ED
H J
L ondonderry
T AST
W ine
Y ER
b an
g el
k it
ĠS weet
as ia
ĠA riz
ĠP erc
11 30
ĠT RI
ĠB AS
ĠR uth
ĠR iley
ĠW m
ĠL ike
ĠH icks
ap i
Ġ19 25
Ġ19 24
ĠV o
Ġ5 20
Ġy et
ĠY u
US B
ĠTh u
Am ateur
ern ame
ert ation
86 2
VA C
Ġag ents
78 4
98 7
Ġ03 07
yl ock
Sc ud
TE U
Ġspec imens
Ġal ways
me ir
Mc C
ĠHol t
ĠCOMP LETE
Ġcol umns
ĠSw ansea
Add s
ĠDon caster
ais y
ĠMcC ain
ĠMod el
ĠMal ik
ĠTor onto
Wes ton
SKY W
Ġaction s
ĠKle in
ĠMull ins
ĠGE ORGIA
ĠSteph ens
roud sburg
ĠZieh nert
STRA IN
ĠMn chengladbach
Qub oid
6 11
9 27
D rop
H mf
K ane
L on
R y
S J
W o
b t
e i
h ost
j b
m atch
s ilver
v ens
z on
er ts
ĠC aj
ĠC AMP
un i
ĠL eb
ĠI pswich
ĠG P
Mar ilyn
Ġ- >
im eter
ON S
ess na
Ġ4 03
Nov ice
AT URE
enn ai
UC K
ĠSh adow
Ph osph
format ics
Ed h
Dan ville
ĠPh ill
AP OLIS
Ne u
arri age
ĠGreen wood
lev ue
rict ed
Sam oa
Ġsup plied
ĠAb raham
ĠBall ard
CU MM
ĠCons erv
LU B
Ġaccount ing
ĠSol o
Cap ital
var ado
Da ughter
ounc ement
ĠGall agher
ĠRon ald
Bern ard
FIR ST
ĠLabor atories
JAC KSON
1039 51
Clarks ville
5 28
8 99
J oyce
K ES
K irst
M n
M all
M oodle
P it
T oy
Z N
Z ack
c ogene
ĠC able
ĠM oney
ĠP and
ĠP lymouth
Ġt ape
ĠB j
ĠB uy
ĠD urbin
Ġs pl
ĠL ennon
ĠH air
ĠJ ab
ĠG az
eb ud
Ġ19 34
Ġ19 32
oc ese
ce e
ev an
Ġn ote
if ul
ect ady
ah ad
CH C
og us
Ġ18 31
IS SE
67 1
ĠAm b
ĠCo ch
az er
itch burg
rib osomal
En c
uk u
Ġinst ruments
DA Q
Reg ular
Ġreport s
ĠRO CK
ĠNe therlands
xx xx
Hay ward
PU BLIC
icip ality
agg ie
ĠAcad emic
ĠLev ine
ROL LING
OUR N
rach loride
rn berg
plug ins
Mex ican
Ġmat rix
ĠTrop o
ĠChlor oform
Cosp onsor
7 48
9 14
D by
G AN
N erd
P urdue
b us
j im
m h
m itted
ar in
en as
ed two
ĠM g
ĠSt atistics
ĠF iber
ĠB SC
et al
ri que
Ġp rior
02 39
ers ley
AS A
St ation
ĠIn active
ick y
ick ers
ĠCh arg
MO D
ish i
int rep
99 5
IA C
Ġam ong
TE AM
Mov ies
AP R
ĠWh oles
Ġme an
SW IM
ae ed
Ġrequest ed
Ac leac
pro ject
oph ila
ĠSO FT
ĠDes igner
ĠCons umer
Part icipants
Ġunder standing
Over land
Ġno es
Ġgr ant
mod el
Ever ett
Ġdr ug
Her b
atin ate
ĠStandard s
ĠTA FT
ĠBack up
Gran by
Cast le
lar ation
SKY WEST
Ġlock ing
ĠFitz gerald
Engine ering
ĠMOB ILE
Ja ime
ĠCRE EK
Transc end
CARROL S
Schen ectady
intrep edtwo
Acleac ius
5 46
7 43
8 21
8 75
9 26
9 51
C umm
C redit
H ammond
L ES
L AR
M ade
O h
O ri
P oll
T ake
T ropic
W ard
W ally
b ound
d d
i eg
j ean
u ation
u um
y ou
20 20
in als
at able
ĠM ost
ro wn
ĠP otter
ent a
12 15
et ooth
ĠD oming
ĠH uff
09 4
ĠG oh
ĠE is
ĠE gypt
ir al
ter a
EN ER
og d
Th er
FL J
ef its
56 2
ks ville
57 8
Ġcomp osite
ĠAr vada
air d
69 6
Man uel
AK A
ict ed
ĠInt roduction
Ġant enna
Mal col
ĠPe ople
VM ware
Ġprogram ming
Ġlocal ized
WE I
book s
ĠSant ana
ĠLeg islative
Wr ite
Custom er
Foot ball
christ os
Ġfluoresc ence
Malcol m
6 22
6 21
B ert
B ALL
C ul
C od
D w
F SA
G ING
H is
I RE
M YR
X ml
h ope
l t
ing ers
am y
ĠP antry
ĠB ayer
ĠB ATTERY
ĠR ING
ĠN un
ĠN ag
Ġc red
Ġa ff
ĠH ero
ĠE R
ĠO PT
ag i
eb org
Ġ19 57
AS C
AT KIN
IL DE
Sh ak
ĠSh rewsbury
UR T
Ġsh ip
IR L
ĠMay field
ĠGu inea
ivers ary
Ġprov ince
eng ine
yr us
HT TP
Hal f
Ġprocess ed
tr ue
Ass ociate
oph il
ĠMountain s
ĠAs ian
cy cl
ĠDep ot
Ġgo ing
ĠCore y
Ġrepresent ation
Ġfac ilit
Ml ove
ĠFel ix
Boy lan
6 30
8 70
D raw
D ortmund
F ix
F RED
H old
N ich
P ied
S ex
T OL
g up
r and
t w
u ton
u ardo
v oice
Ġ onto
on j
al on
as co
ic ian
ĠM R
10 60
11 31
ĠT ail
ĠSt ef
ĠF E
ĠD EC
Ġp ipe
Ġ( #
Ġ( ?
18 37
16 95
Ġ19 47
ĠU RI
ie z
nt own
ĠTh ree
ies el
Al tern
Ġst op
ual ty
67 87
ombin ant
ax ial
ĠJohn s
En umer
SL O
Ġsub mission
sc orpio
fl ash
Ġapp ears
Brook sville
Rock y
ĠReg io
Ġmin or
Ġmin ute
ĠMed iterranean
NI PA
Brazil ian
Com cast
ĠGar rett
ĠCarl son
Bol ton
estiv al
ĠBAR N
ĠLoc ust
Ġsk ill
top lasmic
HUM AN
ĠFRAN CIS
Neb ulin
cken ridge
ĠGuth rie
ĠTet rachloride
indh oven
TEMP LE
Sas cha
6 44
9 12
9 07
A IK
B LY
B ucky
C et
F ont
G ON
G riff
G loria
R ama
V ar
W hey
b ear
d mat
h ood
l ord
w at
ĠS emiconductor
Ġ1 17
Ġ1 0000
as im
ĠA frican
10 28
10 87
ĠP OR
ad os
ĠT ah
ĠB aucus
ĠD S
ĠN agar
ĠW OR
Ġc ycl
Ġto x
ep r
em ia
Mar ine
od ore
Ġ19 11
Ġn ozzle
all is
EN ANCE
SI GI
Un ified
Sun rise
Ġan im
ST ANDARD
66 5
umb o
inn y
Not e
ĠCol t
ĠRep air
ĠST EPH
74 00
ĠPh armaceuticals
Pl at
Ġtrans ition
ĠFor bes
Pr elude
107 021
106 250
106 021
Paul a
be an
Ġ201 00
ĠAc robat
ĠEm ily
BI O
At wood
them e
ĠLE ON
Cath y
ĠAdvis ors
Jac obs
Ġremov ing
Farm ington
Ġapply ing
ste er
ĠWee ks
Myst ery
ĠFant asy
BBC N
Ġanch or
Spart an
Peg gy
1070 20
zeg ovina
adl meir
ĠALEX ANDER
Petal uma
5 34
6 59
6 98
7 36
7 78
8 77
9 45
9 48
C ORP
C ache
J enna
K IM
L X
R ab
U W
U ATOR
V l
[ ]
c ue
c irc
g rove
h eld
p al
p aul
s ize
Ġ er
ĠC LA
ĠC redit
ĠM X
ĠM ine
ro ch
ĠP ortsmouth
ĠT oo
ĠR te
ol en
Ġp illar
ĠH endrick
18 72
Ġd ynamic
ĠG ri
ag ram
17 09
ĠV ar
ex ter
Ġl ibraries
av ian
igh bor
ĠIn cludes
ib al
ĠSc reen
cl us
67 8
66 1
Qu ery
clud ed
ĠPRO TE
uk cc
ux kat
Ġlist ings
Med ina
ĠCent ennial
ĠCom ment
Her tha
ĠCle ar
ĠApp roach
ĠJeff erson
You Tube
CAL T
Ġsens ing
ĠRom an
ĠSi bert
Ġcustom er
Ġrepresent ed
Lille hammer
Ġarch ive
ĠGreat est
ĠCrow ley
Vf L
Ġbird s
ĠMiner als
ĠPrem ium
Osh kosh
ĠINDUSTRI ES
gcon v
Pueb lo
Rei uxkat
Nega Death
5 29
6 40
6 57
9 03
9 13
B UT
C row
F un
F itchburg
H ell
J et
R IDGE
T arry
l ared
y ll
in j
at omy
ĠS ummary
ĠC E
00 48
ĠM emory
ĠF ur
ĠB atch
ĠB edro
ĠN rnberg
Ġs u
ĠL AT
ĠL evin
ĠH EX
18 63
ĠE arl
ĠE leanor
ess en
ant am
St etson
Ġh its
ark ana
Ġ14 00
ens ing
Ġr en
Ġex amine
ĠAr royo
67 0
Br it
ĠSh el
98 1
68 3
Se as
ĠSenator s
Ġall ocation
Act ivision
Sw indon
ĠGl en
ĠPROGR AM
ĠAg ricultural
BR IDGE
Me as
Ġ201 004
pro gram
Ġhigh est
DI ANA
Ġweb sites
ĠDownload able
Ġred ucing
Ġsepar ated
rypt ion
ĠAtl anta
iri am
ĠIss ues
ĠKath leen
PHIL Y
Stef an
ĠEns emble
ĠHOLLYWO O
PACK ARD
WRI GH
Tropic ana
6 32
8 18
G D
G ent
M ob
R d
R otterdam
Z F
f ol
h askell
m am
m ead
q bal
y rosine
ĠC ran
ĠC andy
ĠA REA
ĠM ald
ĠM ansion
ĠT am
ĠSt op
ĠB RI
ĠB aby
Ġf ully
ĠR AY
ĠR isk
ĠD olphins
ĠW R
ĠL ac
ĠL und
Ġc alls
18 64
ĠE ngel
ĠO VER
Mar sh
Ġ19 06
Ġl imited
all up
St ark
St adlmeir
pl iance
ern a
59 1
Ġcomp any
application s
Bl ogging
68 5
az quez
ĠAl leg
yl ie
Ġpl anning
ĠSch umer
ĠSch olarship
Ex pression
Man uscript
ALL AS
Ġtrans parent
ĠAPI s
ĠInd onesia
ros ophila
ĠMain z
Em erson
CL ARK
Ġtr ench
olt en
RES OL
ĠRE G
Jo anna
Ġemb edded
ugg est
ĠBan os
RU CT
Unc ategorized
BRO WN
BRE A
ĠPL US
Ġlearn ed
TIP LE
Select ie
Hills borough
Ġdur ation
Dund ee
6 17
7 17
G yeong
I FF
J obs
L uk
O ST
O rog
P ink
P rim
b ra
k ok
n ton
p rod
Ġ arb
re ference
ĠM s
ĠF lynn
ĠB utt
Ġf inal
ĠR oots
ul ates
ĠH os
ter bury
ĠK orn
ĠCh eck
The ater
Ġform ation
Cl oture
ĠCar n
ĠCl if
Qu etta
ĠAv iation
yd ia
AK MS
Ġnot ifications
Ġhe x
arc k
ĠSU ISSE
ĠRel ated
Bru in
ĠLi u
raf ton
Ġidentify ing
ĠWolf sburg
Ġref resh
ĠKat ie
ARB HANGA
ĠFRAN K
ĠFLH X
seud ogene
ĠTow ards
ĠISLAND S
ĠQuest ions
ĠPCI e
HOUS TON
Tarry town
6 58
A J
C ann
C ounter
K ara
P oo
S no
T aj
b at
d irect
i w
p olicy
q t
es ch
ĠS IDE
ay e
ĠD ough
ĠD utch
ĠW ald
Ġb inary
ĠO X
ĠO UT
ew all
Ġ19 62
IN I
Ġy ards
AM AZ
ib u
ST REET
Ġex pressed
99 3
ĠAd ministrative
Gre ater
ĠCl ip
Ind ependence
Fl owers
az i
ubl jana
Ġk now
ĠAug sburg
IM ARC
89 6
ĠGl ory
rum ental
Ġaddress es
Ġrep ository
Ġind ust
MAR CUS
overn or
ĠCor on
VI EW
Wind park
ĠRob les
Ġwork piece
909 1
ĠBox er
ĠTw ins
604 1
ploy ment
mok o
ĠAk onadi
Conn ell
Gi ants
Sign ature
Ġrecept ors
Ġspr ing
ĠFAR GO
Indust rial
para iso
ĠMAINT ENANCE
Midd letown
ĠJav ascript
Orog ogus
7 19
9 31
C omb
L eland
P ike
R it
S olar
b anks
en ey
Ġ1 24
ĠC ock
ĠC elt
it ud
ĠP AN
ch r
ĠSt yle
ĠF IL
Ġt ake
om ics
Ġp ractice
ĠN ott
Ġs ummer
ĠJ oyce
ĠG w
ĠG ilmore
14 00
Ġv iol
oc on
ug ger
ut a
Ġ4 12
Ġr untime
IS HER
ĠMan or
59 3
IA K
ĠSh ot
Fl oating
alt y
ĠPRO DUCING
Ġspec ies
Bro omfield
For ever
And ers
Dr ama
aj a
ĠAss n
ĠGr aves
Ġpre fer
Lar edo
Ġqu al
ĠFX D
Work s
Cor al
Roy als
DW G
ĠKey nes
ĠWild ner
Whe aton
Ġcamer as
ĠGriff ith
GEN ERAL
Whit ney
Lock port
ĠMUL TI
Ġinteract ing
Togg le
ĠNorm an
Ġcaus es
Kend all
ĠFul ham
HART FORD
ĠMaterial s
Hir am
Ġtor que
Puy allup
dann ylock
6 33
6 37
7 86
F alls
I ss
M ama
M other
R G
T RO
Y our
] [
f ac
n amed
p es
t ip
u que
x on
on ica
ĠS ig
ĠS us
ĠA le
ĠM ee
il ing
ad ise
ĠT riv
ĠT ILDE
Ġt ube
ĠB ing
ĠR amp
ĠD amon
Ġp riv
ĠN igh
Ġs elf
ĠL em
ĠH inrich
ĠJ ON
ce v
av n
Ch erokee
In valid
Ġr and
cl ay
ĠVeg a
ĠAr duino
67 4
Ġcont rolled
ins ky
77 9
ĠAl a
ĠAl am
79 1
ĠST RUCT
ĠPlan et
Ġal uminum
ĠQ B
Ġrel i
LOS ED
Ġen vironmental
ĠCan ucks
Ġext ends
Ġ978 04
Ron nie
LAND S
ĠVa ughan
Albert ville
Az usa
ĠHu ang
Jew ish
Ġthread s
Desc ription
Stat eline
Ġqualif ier
Ġvers ions
ĠMarin ers
Ġevalu ation
+ ,
5 31
7 95
C able
F ent
G rim
L oad
P ac
R ound
e o
m ost
at ric
es ar
ĠS ki
ed ith
el on
ĠA fter
ĠP HP
Ġt ank
Ġb road
ĠJ oh
ĠE ugene
em er
Mar ty
Mar tha
Ġ19 66
ut i
qu iet
land er
Sh ield
ĠIN VERTED
ind y
aster ed
Ġwh ite
ĠPro perties
ĠNo chman
Car negie
Ġad vert
yn ski
MM ORTS
69 7
ĠZ ar
88 9
Green wood
DE PEND
Fr agment
Sw iss
Pol ish
bert o
Ġinst ant
LO T
mond s
Int eg
ĠChrist ine
Ġident ifies
TB D
ĠForm ula
ĠPhil ipp
enz ie
Her bert
ĠMil waukee
Ġrecomm ended
Ġswitch es
Ġretri eve
Ġsepar ate
Franc is
phosph ate
ERO X
ĠPiz za
ĠKra user
Rut land
Ġbond s
gorith m
6 27
6 41
9 36
H ughes
J al
O yster
P UT
P itcher
R ach
T il
Y U
Y ifes
c raft
n om
s pr
w ol
ĠP all
ĠP ipe
ĠT RE
ĠF eld
ĠD og
ĠH as
ĠH amm
13 33
ov ar
Ġ19 56
Ġ19 53
Ch erry
op es
op ol
ack en
Ġ20 7
ĠIn formatics
In ner
37 000000
iss er
TX T
ĠMan han
58 9
ink le
68 8
ĠBl unt
Ġsh are
79 6
ram er
ĠMc Mahon
ĠAv on
Relocation s
ORE A
As ian
HT S
Mor occo
CON SIN
Ġreg ulation
Hel ena
VAN CED
avel ength
Ġcap ital
ns ley
Str as
Str ong
Bang or
agg s
ĠAlb any
ĠOpen moko
ĠTur f
ĠIndust ry
ĠExt reme
ĠDist ribution
db g
025 222
Gh ana
ĠPlain ville
ĠQue en
ĠCro wn
ĠLov efield
ĠDar by
Ġep it
Pup py
ĠTerm inal
Musc ular
Trust ed
ĠCOMPO SITION
ĠLAB OR
Ġcool ing
Ġcyl inder
hp iano
ĠSears ville
Fent ress
L ion
N IC
N avy
T omas
T oys
W ITH
c oh
g as
h oun
i eve
l ook
Ġ roller
es ia
ĠS ara
ĠS ector
ĠT ak
ĠB ic
ĠB alls
ĠB avaria
ĠD ew
ĠD EN
Ġp et
ĠN ev
ĠN ut
ĠN ak
ĠN SW
ĠW igan
ĠH agan
ĠH ERE
id ance
02 27
ĠO PEN
Ġm utual
ap y
ant age
St ep
rom agnetic
ĠCh apel
ester s
58 8
ĠDoc ument
ĠTr acy
Dick inson
ĠCan al
ĠTrans ition
BY D
COM FORT
ĠRob in
ĠSl im
sch ool
War ner
ĠAust ralian
Mod esto
Bor is
CAT ED
Imp lement
ĠLight ning
stan bul
Tech ie
Ġadapt ation
ĠBuch anan
Ġbec ause
ĠGrass ley
Euro pa
Lynch burg
QM JHL
Stam ford
6 000
6 67
9 59
B ari
B uk
C essna
D ot
D ir
D eland
D illon
F N
H il
L VM
P osition
R te
T rey
U mar
j en
k ill
n atural
s ign
20 32
re ct
ĠT ake
ch arg
ĠB undle
ri ft
ĠW alt
ĠW ycombe
ĠL EE
ĠH ER
ĠH ost
ĠH owell
01 30
ĠJ ennings
Ġ19 00
ug et
ev ent
Ġl id
Ġl oading
AT O
ass ium
per c
RO SS
cc c
99 0
99 7
Pro spect
Br uno
ĠAl varado
MENT AL
ĠQu ebec
Christ ophe
VER N
ĠCent ury
Part s
Ġrem ove
arry l
Ġdefin ition
ĠBra unschweig
Ġindic ated
ĠDevelop er
ĠMED IUM
Hear t
ĠAC QUI
ĠSur vey
Fly ers
ĠAlbert a
Ġcount y
Offic ial
ĠFLHT CU
TERN AL
ĠChampion ship
Tank ersley
Ġmir ror
Moor head
ĠBaz y
Veg et
RESOL VED
6 18
8 17
9 23
B rid
B inghamton
D ancer
J U
P un
W i
X A
X C
h in
j un
an u
00 49
ĠSt ones
ĠF ont
ĠR ud
ot ine
ĠW IS
Ġs everal
ĠL OG
ĠJ ew
ĠG em
Ġ19 43
Ġ4 15
art y
AL EX
ian na
MO B
cl ient
Ġcomp let
rid ae
78 3
68 0
ĠCol ise
ĠSch neider
ept idase
Fr isco
Te levision
ĠWilliam son
Res olved
Gu adal
Sal ina
Ġim plant
CD ance
ĠSw indon
Ev anced
Im ran
Mat shock
Val paraiso
Black sburg
ever age
OD AK
Ġatt ack
By ron
Bull s
NI K
cel isk
Ġcirc uits
ĠMet re
Bur ton
Civ il
ĠFLST F
Ven eto
ĠSteven son
Ġshow ing
Ġcorre ction
Continu ation
GPL v
Equ als
Ġpers ons
CIT ICORP
ĠBurg ess
ĠINV EST
Ġtrust s
Fidel ity
ĠCED ILLA
Scud eria
ATKIN SON
celisk ing
5 48
6 48
9 77
A lejandro
E ye
H aley
H ITACHI
K x
O w
O THER
R attle
T up
T oo
Y as
n ames
n umber
in ical
at ial
ĠS ex
st ick
ĠF unction
ĠF ULL
Ġt ab
ĠD ana
ĠD ANIEL
Ġs uit
ĠL OW
Ġc ulture
ĠH utch
ĠI v
ĠG OLD
ig ua
ĠU SE
qu a
Ġ9 3635
Ġ07 43
ĠSc rew
oy e
99 1
Pro f
Ph erson
Fl oyd
NA P
Ġch urch
let in
88 4
ĠMay o
ĠSouth end
Be elz
Sw an
LAT FORM
ĠGl enn
TR Y
ĠAR C
aff er
ĠMarket ing
ipe i
Phot o
usc le
ĠMil k
ellow ship
Aqu arium
ĠHen son
ĠBol ton
Nik ki
ĠPiz t
ĠCondition s
Liber al
ĠDaw son
ĠTUR NED
Kaj etan
ENTIF IC
8 31
9 28
9 49
E indhoven
I EM
P el
P NY
T s
T ru
` `
l abel
m ens
u u
in ct
Ġ2 10
ĠB ih
Ġf all
ĠR up
ĠN y
09 2
ĠJ ared
ĠG ol
Ġin tern
Ġ19 33
ĠV irtual
Ġn ick
Ġl oaded
ĠCh ambers
Ġex act
Ġex haust
ual ity
UR R
Ar ab
Ar nold
OS S
SA INT
SE MICONDUCTOR
ys sey
vent ory
Sw edish
ĠSpec ific
ĠMe chan
Acc ounting
Sub urban
Black hawks
ĠChar ter
QU ID
Ġext ra
ffic ient
azz o
Ros son
angu ages
Str ategy
Cy toplasmic
ĠOil ers
Ang l
Che atham
Sher iff
Ġmill is
Scar f
SYSTEM S
ĠYan kees
Ġnec essary
ĠGir ard
FUL TON
ĠHAV ING
TUC SON
ogd oches
epr int
Beelz ebud
7 16
7 55
8 19
8 39
8 43
8 71
9 38
D ou
F ga
H ook
O k
P FF
V ERS
W ATER
X I
c ool
c oupl
f un
m and
m ount
t k
t ex
w as
w ald
Ġ ir
Ġ ens
an ion
ĠS HE
ĠS yracuse
ĠM ex
it led
Ġf er
ĠR alph
ĠW erder
Ġs ale
Ġs ends
ĠL INE
Ġc arry
02 24
um ann
ĠJ AN
Ġm olding
Ġl igand
ĠK ODAK
Ġ4 08
Ġ5 140
pl and
Th ompson
Ġst im
riv al
Sh erman
ime k
Br acket
ĠCount ries
SA Y
69 3
88 2
TE CH
Man or
ĠAnd hra
arr el
CS KA
De utsch
Bel ton
Ġme ets
VER Y
Ġreg ular
Ġreg istered
ĠPort ugal
Out side
Ġimp ur
ĠFX DWG
Ros well
ĠMat te
Ever green
Ġz ero
ĠElect ronic
sl urm
Ġwr iting
Cy per
307 113
Ġsmall er
308 113
311 111
Ess ential
Kath ryn
Cas per
inst all
ĠRein hart
Tex arkana
ĠPitts burgh
ĠSac ramento
Ġ201407 02
Ġdiffic ult
ĠWax man
Ding man
7 53
9 22
K as
K ennes
L obby
M CD
T ib
f ive
m eyer
m ozilla
s al
v ideo
v ious
20 93
ĠS ylv
ĠM UTUAL
st ars
ĠF M
Ġf ailed
ĠR asm
ĠD ONALD
Ġp or
Ġs av
ĠL il
ĠL iver
ĠH ab
ec ula
Ġd on
Ġd ifference
ac id
ag han
ab o
OR LM
Ġ19 31
ĠV M
ĠV in
ort e
ĠK not
ist ence
ub le
ud ley
ach es
ile en
Ġr ack
An ser
Ġass ist
Ġass oci
Car n
Ġk ernel
89 00
Fil ter
Ġup stream
Ġsub sc
sc omb
Re quired
Tr ack
Ġgener ally
lib gnome
TOR Y
Val id
ĠRos ario
Ġconst ruct
ĠStan ton
ĠChair man
hel p
Ġfeed back
includ es
ĠRub io
ione er
ĠId ent
ĠHoff enheim
Ġav oid
Graph ics
HOW TO
Ġintrod uce
STANDARD S
ĠSTEPH EN
ĠColise um
Kennes aw
9 40
9 57
A re
B iblio
C ork
C ensus
D EC
L et
L ength
R as
R ae
V ENT
W OL
Z ero
d rive
g roup
l ers
l aney
t otal
or ra
ĠC ities
ĠM ILL
10 27
ĠP AD
ĠP ena
ent y
ent os
ch eck
ĠF SV
ĠB ury
ĠR ent
ĠD oh
ĠL ah
ĠG ru
17 69
IT P
40 12
MA CO
dr ac
99 4
ĠAl drich
GR G
Men u
Port uguese
89 2
ĠComp uting
En um
AK I
Ġrel ay
ĠAll an
MT L
Val erie
Black pool
Black burn
He at
ersey side
Po etry
Great est
ĠTan ner
Cre ative
Ġperform s
Kat y
Cap itals
Ġauthor ized
innip iac
Ġpat ient
Ut ilities
ĠTER M
425 00000
isl ava
spec ify
Walk ing
Run ner
ĠBRO AD
web master
pol itan
Ġbeh avior
Ġhor izontal
Ġconfig ure
ANDE Z
ĠConsult ing
Bism arck
trip le
Ġsurn ames
ĠGaz ipur
gup fer
ĠACQUI SITION
5 1500
8 72
9 111
A O
C anyon
L af
M etro
N ar
O ro
P v
S xe
T G
T ESS
g ir
k iller
t urn
er oy
in f
en able
le eve
is ited
ĠP resents
ĠP riority
ĠF ive
ĠF ernandez
ĠW alsall
ĠH ag
Ġb ought
ĠJ ui
Ġd an
Ġd ynam
Ġd iameter
ĠO lymp
end e
end as
SI E
qu ire
Ġpro xy
ĠTh ings
ĠCh attanooga
ss kk
oy t
ĠCl iff
Qu innipiac
Bl ank
back ed
olog ist
ĠWest minster
ĠIs le
ĠFor ward
Pol icy
ĠHe avy
As imov
Ġaccess ed
Ġreg ister
ĠBel gium
ĠRE PUBLIC
ĠPat ton
Ġdec ision
ĠEN TER
Bru ins
Por Sal
ĠEr ror
Opt ion
Gen eva
aut iful
ĠSn yder
ĠFred er
Ġdem ographic
ĠChe f
Sy ria
isp anic
ĠAccess ories
Ġsec ure
ĠMUL TIPLE
Table t
Ax is
enth al
Ġnit rogen
quis ition
ĠResp onse
ĠDonn elly
sskk ccc
" +
8 04
A val
D arrell
D resden
F g
G ate
p end
s ley
s ru
20 61
ĠS eal
ĠS ushi
Ġ1 14
th read
ĠB illy
ĠD HC
ĠD iffer
ĠD ARBHANGA
Ġo xygen
Ġp df
Ġa ut
id ian
03 07
ĠG an
Ġ19 58
ĠV ari
Ġ3 60
est y
end or
Un named
Sh a
ib e
CT OURN
ĠPro b
67 6
An atidae
98 4
ĠCO M
ĠCol on
enc ia
ĠEd win
ĠMc Gu
AB B
ĠCon nection
ĠPA C
All ston
lin ks
ĠAg u
Sch a
ĠTO W
DA VIS
CR IT
Ab raham
ugh n
UK I
ĠAlex and
gar h
GO ST
ĠOl sen
Ġcirc um
Little ton
Ġpath way
Bang kok
ĠTele phone
Yan kees
raul ic
Ġbro wn
ĠCost ello
Ġdeploy ment
Bir ch
Ġprepar ation
Belle ville
Ġlat est
Serge ant
Ġmachin ing
ALLO CATED
Pied mont
ĠColt rane
Gyeong gi
6 12
7 40
7 58
7 52
8 28
A PI
B og
C W
D UR
G ol
H ump
H astings
I v
J asper
P oss
V anderbilt
W idgets
Z hang
b reak
c d
f inal
i u
j er
m j
at ro
ĠS ay
ĠS ul
le pool
re ction
ĠT ay
ĠB ert
Ġth us
ĠD ise
Ġp ension
Ġs ending
ĠH ann
um per
ĠJ e
ĠE TH
iv as
all i
eg e
end ars
SI C
Am ity
Ġan alytical
Col chester
99 6
Ġle ts
min ute
68 9
ĠBe auty
yl het
ĠST EVEN
BA CK
Port age
ĠAngel a
89 1
Ġsc ale
Ġinter ior
ĠInd ependent
EV P
Tr enton
eld on
ait lyn
Ġcom es
ĠSw eden
Ġrep air
Ġother wise
Ġtr acks
Olymp ia
ĠSim s
ĠSim mons
sur f
cy t
Ġmov es
istor ic
Get Type
tim ing
ĠPO INT
Special ty
Ġdesign ated
Ep iscop
ĠOpt imizer
ĠFle etwood
ĠJapan ese
ĠCant well
Ah med
FAR M
Host ing
ĠLam bert
JM ST
Moder ated
Cet acea
Anser iformes
4 071
6 90
8 24
9 44
F our
G ust
M oline
S ial
T CU
T ennis
V U
V ES
V ekHa
d orf
r ar
Ġ Ġ
er ite
ĠC oming
re ich
ĠM egan
Ġ2 11
10 50
ĠB ike
et ric
ĠD esc
Ġs ports
ĠL U
ĠL yn
ĠH ook
ĠH omes
ep pe
he el
17 23
Ġw avelength
CA MP
ES RI
Ġon cogene
form s
CT G
Mich el
OH A
66 3
98 3
AD S
HO MA
Port o
OP EN
PH ER
ract or
Im portant
press or
ĠRE AL
ĠDel ta
BU ILD
Ġent ire
ĠOl ive
Penn y
ĠAdd itional
Tem ecula
Ġco il
Os aka
Set lock
ĠWhit field
nol ly
ĠDun bar
JE CT
ĠBob by
Irv ing
Bos nia
det ails
Ġtrip le
Ġclean ing
ĠLines man
BRAD STREET
ĠDK FZ
ĠASSEM BLY
Whey Fit
Ġmillis econds
4 121
9 71
D ALLAS
F ILE
R ice
T ah
V IA
W ade
W sm
c ount
d x
g ore
l ov
r uck
y i
at ures
en ko
ĠC ly
el an
ĠP ap
ĠB arker
ĠL F
ĠH eb
ĠH agen
ĠI R
17 95
im es
Ġn av
eg os
US PS
Ġg ap
ĠCh ad
FR AN
au h
ĠMar ley
ĠSh aft
OS A
inc k
ĠMc Kenzie
ĠBro s
arg as
FA CE
CY TK
SP EC
Ġman aging
ĠSO UTH
ĠMary s
Hel otes
ĠOrch ard
alian ism
ican ism
Opt ions
Ġfin ished
ĠLo an
Rece ived
ĠGer ald
SIL VER
ĠDeb orah
Ġmix ture
Lau rie
ĠPB Is
ĠHERE BY
Kx mode
Rattle head
Angl icanism
Episcop alianism
Sial kot
. (
8 76
9 64
C LAY
D id
F uture
J AY
J AMES
K DE
M ine
M achine
P earl
b unted
c ss
m us
r m
u id
on er
in on
at um
ed ited
ed ral
is tone
00 04
ĠM iguel
st reet
ĠF ind
Ġt w
Ġt urns
ĠB S
ĠR y
ĠD ES
Ġs ides
Ġc utting
Ġb eg
02 10
02 25
18 33
13 13
ig u
Mar lins
ab il
Ġm em
IN C
ug r
Ġ5 01
AT IC
New town
Ġ6 750
ĠTh r
Sh aun
ĠMon roe
Ġan sw
IS ON
ric o
int una
Ġwh ose
ĠCol leg
AD GRG
ĠMen u
RA ID
ĠEx am
Ġim aging
ĠDr ag
ĠCOMP UTER
lib bon
Ġreg ulatory
Del hi
Ġconfigur able
for c
Bo one
ACT UATOR
VAN AG
ĠLaw son
enz yme
Ġsearch ing
ĠBoy er
Ġcoupl ing
ĠHand book
Lat ino
Eth an
ĠBrad ford
Ġorig in
mt stud
Ġpix els
ĠCONFIR MS
Ġill umin
trust intuna
0333 96
CUMM ING
Spartan burg
Ġarb it
itud inal
sru he
6 54
6 52
7 35
9 72
A ward
B AD
B udd
E ngel
G us
H ack
H ARD
M ets
N Q
R amon
U RO
V ert
Z y
_ (
b rik
c v
g ett
at islava
en an
al ore
ĠC annon
el ps
10 20
ion a
ĠSt rawberry
ĠB ut
ĠB irmingham
ri ef
ur se
ĠW aters
ĠL ord
ĠL akers
um ps
ĠO G
ĠV R
oc ke
ia o
Ġn ative
ĠK ot
St op
ud get
CH EN
Ġst at
ens ed
uc key
MA INE
Ġe asily
ĠSh ane
ann is
ĠCo ed
John ston
Fl ames
az ine
yl a
IM P
ĠMc Cl
uss en
Be at
ERS ED
ĠMA GNET
CS S
ba o
157 01
125 00000
Im ages
rict ion
Dod gers
108 49
Ge kko
Ġdirect ed
IF K
Ġposition s
ĠCab r
ĠAnn iversary
ĠFire bug
ĠWill is
Ġmatch ing
igg s
ĠRoll ing
ĠLess ons
Diss ertation
nec rosis
Ġperipher al
brik tal
6 16
6 23
7 30
7 31
7 44
9 32
B ed
C alif
C ondition
G un
G em
I con
W ife
g ado
m ysql
n b
s um
v ell
v ine
in th
or us
ĠS HAR
ed ie
ĠC any
ĠM OR
ĠM erseyside
it as
ĠT ots
and in
ĠB ingo
ĠR unners
et r
ĠW BA
ĠL oo
Ġb er
02 12
18 23
18 52
ĠJ ournal
ac i
os en
ĠE SP
ap shot
ob l
ĠCh apter
ath away
ĠCA D
UT ICAL
ĠInc omp
Br aves
Ġass umes
ik es
ĠSch n
Ġpart ition
MN ENE
Pl ot
ĠGl amorgan
ĠVal id
Res id
Ne uro
Bel mont
Bel levue
umm ers
Mel anie
Ġ201 009
Fred eric
Ġpower ed
Dem ographics
Sk ill
303 9
ĠKY MNENE
ĠInstruction s
da q
Ġlong itudinal
ĠTA IL
Ġart icles
avar ro
Ut ica
Det ached
Ġax ial
KN IGHT
ĠREV ERSED
Colleg es
NUT R
Nac ogdoches
rer as
drac ut
7 28
D if
E Q
F ailed
G reek
H ALL
I stanbul
K oz
M atch
N ak
N UTRACE
O TT
P LOW
R ING
W W
Y amaha
Z AF
f ont
m agnetic
ĠS ugar
Ġ1 03
as ible
Ġ2 12
it on
ĠT ester
ĠSt er
ĠF edora
ĠB ah
ĠB ach
ĠD orm
Ġc urrency
02 53
Ġd ated
ĠV enezuela
Ġ4 99
St udio
op ac
AR S
form er
og y
ĠCh aney
ED M
ST ROM
South aven
ath on
ĠSh aring
North western
ĠBl azers
Se qu
HI EU
iver y
Ġ04 25
88 3
ron o
oe h
Ġro bot
Ġint ended
SL P
CE UTICAL
ush a
Rec alled
ĠAss et
ĠAg endas
Gu am
ĠHe ath
Sal am
Is le
ĠBlack burn
Ġdisplay ing
DET A
ĠAc ker
Ġdist al
Ġdist ributed
Sim pson
ĠWal let
ĠAsh ley
Ġinhib ition
Lo op
ĠTele communications
ĠConc ord
Whe ther
Nam ara
Clar ence
Ġel ong
ĠMAR Y
Catholic ism
McG raw
block ed
Celt ic
ĠRefer ence
ITZER LAND
NUTRACE UTIC
7 27
7 54
7 64
7 65
A u
A le
E au
G ES
J iv
K AM
S ig
Y o
m ember
s oft
w here
ĠS v
ĠS ounds
ĠC ER
is ius
ĠA UG
ĠM AK
ĠP ines
ĠT ra
ĠT IM
ĠT CU
ĠT umble
ĠB ak
ĠB LA
ĠR aiders
ĠH WY
Ġb anks
02 500000
ĠE UR
pr us
ĠV IC
21 00
ill i
Ch ampaign
ass ette
ick en
gh c
ind ex
ĠCar per
ĠCar lo
ĠMar co
86 250
ĠPark way
Ad apt
und a
68 1
aper ville
ĠSch ultz
sp ection
TH Y
Co al
Ġcl ick
Ġtrans d
BER TY
ĠAb out
ĠPar am
Ġwe ather
XX V
ĠDaniel le
Ġview ing
GU ARD
Ġsl ot
ĠPack age
ql Fragment
ĠSup ply
Ġcount ry
Print ing
umbers ide
ĠNich ols
Ġapproach es
Vlad imir
ĠSidd iq
Abbott abad
Ġenterpr ises
Household s
fol io
_( %)
3 159
5 21
7 22
8 90
9 62
B eginning
D OW
E asy
N olan
O rang
R AL
S z
V G
V ice
V ari
W igan
d al
d ot
l uv
o il
Ġ ide
ed ra
ĠA I
ĠA US
11 27
ĠT av
ent ley
ĠF olk
ĠB ot
ĠR oh
ĠD M
ĠD ol
ĠI qbal
18 20
ĠG rap
ĠE AS
he x
ĠO P
ow ler
ĠV itter
IN TE
ĠK ur
Ġ4 05
Ġ4 09
ell ig
IT AN
Ġ9 26
Ġ18 0
Ġ18 98
ĠCh ange
Ġst atic
MO UNT
MI CAL
ans wer
MA PT
Cl ermont
SU RE
Ad ri
ox yl
ik h
ico the
Web ster
Or d
CE O
All ows
aj i
Par ish
ĠCont aminant
ĠTr ad
TI F
ĠWeb ster
Mary ville
Em b
ĠRec overy
view s
Ġen forceable
Ġsp ect
Pat riot
Ġresp ond
med i
ĠDes ktop
head ers
Eric a
Bran ch
Ġmov able
Ġprogram mat
Ġins ulation
Fre eport
trans c
Ġrot ating
ĠSn ell
df sg
zy k
zy me
Queens land
Ġhold er
Ġcapac ity
Ġpres ence
pack age
Sud an
Ġtherm al
Ġrepe at
ĠTreas ury
HIS TORY
bern ate
ĠMcInt yre
Ġprogrammat ically
6 31
9 37
9 42
B oth
C Z
D iet
J ur
J APAN
L atter
M ord
S b
X B
b ak
b ron
d ual
g eme
n ys
v l
ar ina
ĠS ix
as ley
ĠM ol
ĠM ous
ĠM ohammad
ĠM iddlesbrough
ĠP rom
ĠP enguins
ĠSt ead
ĠSt uart
Ġt yrosine
ĠB anc
ĠB ald
ĠB ardwell
Ġf ish
ĠR EL
ol ition
Ġp ounds
Ġp urch
ĠW onder
Ġc ategory
ĠI O
15 000000
Ġd ry
ĠG os
Ġm ountain
Ġ19 27
Ġl ith
Ġ5 19
og o
iss y
omm od
ĠSc ript
ĠMan uel
Cl oth
Cl aud
57 4
ID IA
ĠZ hang
Sc ale
Ġpl asma
Ġall oy
ĠSp elling
ĠIs olate
Can ucks
Rich ie
Ro ch
ĠCont reras
Mc K
Ġfe asible
Bar nes
COL LINS
ba um
umm y
ĠMO D
ĠBar th
ĠAir ways
Ġbl ood
Ġsur g
Ġoper ator
Ġman ip
ĠEag le
ĠMad d
Card inals
ĠGold man
ĠGe Force
ryst all
Ġmult iplayer
enb ach
Rh o
ĠFe ed
gl ut
MAS SACHUSETTS
ĠSD K
Ġdown stream
ĠFly ing
Ġactiv ation
Ġconsum ption
Ġbro kers
ĠBuck ley
ĠPhot os
Ġcal ibration
Ġfri endly
1077 04
1077 03
Ġfold er
Tap perc
1052 12
ĠSOFT WARE
Jiv aro
Tapperc ise
5 37
8 49
B one
B ella
C ald
D MB
F ahad
K ov
M UR
M utual
N K
N ail
P aint
R ural
U U
l il
n ica
al yst
12 21
Ġt ub
ĠB utte
Ġf erry
ĠR DI
ĠD ER
Ġs uff
ĠL ori
18 53
Ġm ut
Ġm olten
Ġ19 49
all for
Ġre hab
Ġpro cedures
45 000000
ob ics
Ġg el
34 000000
uc in
ph ones
Ġ25 00
UN TAIN
ĠBr uno
oin ter
NS P
ĠSpecial Kids
agn ost
Alb ion
ĠMin ors
EX TERNAL
BL U
Ġcompr ise
ĠNe ed
Ġimp rove
ĠDev ices
Bur well
Mic hele
ĠTom lin
ĠHer bert
Edward s
Ġconst ant
Wy k
MAT HIEU
Ġtechn iques
Ġder iv
Domin ic
ĠUN IT
ribut ing
Magn olia
Ġver ification
Cla ire
Goal keeper
Sus annah
ĠUC LA
ĠGener ation
Pra irie
Ġtre ating
ĠInhib itors
Kuw ait
Hash Code
Ġcarcin ogens
Dra ugr
Ġepit axial
URR ENT
allfor games
6 45
7 47
8 37
9 76
9 7500000
B ury
B oz
D um
E aton
G y
H enn
N AM
T orn
Y uma
g ard
i ya
k ol
m ong
p ink
s peed
v ik
es ne
ĠS ER
ing one
ĠF REE
ĠF rost
ĠW E
ĠW ille
ĠL B
Ġc ath
ĠH OW
ĠJ PY
ep at
ĠO le
Ġw bk
Ġ3 20
ĠK os
ĠK itchen
AS HE
ES CA
ah oo
Ġre plication
PA CE
Th ird
ĠTh row
Al ison
ĠSun s
ey ond
Bl ood
100 5
69 1
ĠZ w
ĠZ imm
88 5
88 59
ĠMc N
af ter
Ġsc ripts
Ġtime out
ez ingone
fr ame
lib ghc
MT B
ĠDay ton
ij ah
MAR TIN
aps ule
ha us
ĠVol unte
ĠSal ary
ĠEm ile
309 3
ĠCap itals
Ġ329 14
News stand
War p
ĠMil ford
Ġwal let
hi bernate
Conc rete
ANS AS
Shar p
Ġmi RNA
1029 07
log ic
ĠGill ingham
ĠProcess or
ortg age
ĠMatthew s
Ġestablish ed
Ġcatal og
Ġimm un
ĠByr d
ĠSchw artz
Mu hammad
ĠHEALTH CARE
BED E
Driv ing
Cytoplasmic Sequence
- (
. ),
7 46
8 33
9 56
9 43
B H
B ooth
B ishop
E lementary
N OT
N aperville
O B
O rono
V ega
g d
g est
p ot
t om
y et
ar el
ĠA P
ĠP F
ĠP ain
ĠP eanut
ad oc
12 12
ĠSt ep
ĠB omb
ĠR ust
ĠD U
Ġp ets
Ġp urpose
ĠN U
ĠW arrior
Ġs id
Ġb undle
Ġd igit
17 13
Ġ19 09
IN DIAN
est ad
ell ers
ell ie
St ell
up e
Al v
LA HOMA
Ġcomp ens
ĠCo ffee
ey ton
ĠBro ck
ĠBro omfield
arr ant
Be am
Rec ipients
Ġse a
TI ES
Nor weg
ĠPet e
ĠAR ROW
PP ER
Ev angel
HER LANDS
Haw k
Mill s
ERI E
Cat fish
PO INT
ĠEll ison
Ġmov ies
Angel s
Som erville
ĠCharl ie
ĠSant iago
SCH E
Clar ke
Di ego
ĠCell ular
Gab ri
Ġreloc ates
Tusc aloosa
Ġbank ing
ĠHaz ard
Ġattach ment
Accept ance
Ġinsert ed
Ġshe ets
ĠEcon omic
Ġdeal ers
Prem ium
neh aha
Ġqual ified
Stras bourg
coupl ed
DETA ILS
ĠRDI MM
8 38
9 21
9 53
9 039
A er
B ak
B rod
C aitlin
D ag
K IR
M oz
M GM
O Z
O asis
T Z
W F
b el
f our
l op
s pecified
z ak
ĠS UN
el ph
ĠA H
ĠA w
ĠA ur
ou ple
11 16
11 51
ĠT rist
and e
ĠF emale
ĠF letcher
ĠB ER
ĠB antam
ĠR OD
ĠD ucks
Ġp olar
Ġp iez
Ġs ix
Ġb d
Ġb earing
18 29
ĠJ ur
ĠO m
us o
Ġw ash
ĠV ie
ev ery
ĠK E
av ers
ill ermo
ra j
pl ified
Ġpro tr
Th ousand
ED DC
Al pha
Sh im
Ġr ub
IC KS
thor ne
Br enda
ĠSh a
98 2
UN ION
Ġ/ /
AD MS
Con v
we il
ĠQu arter
Ġcl amp
ict ures
ontinu ances
Be auty
Ġrec ombinant
Mil ford
Gu errero
Ne ed
TI AN
Ġrel ocated
Ġact ually
apt ors
Nor a
Don caster
ĠSY MB
pro cess
Ġselect ively
uy en
ĠMat he
Ġgr anted
Rem astered
Ġlog ical
ĠGreg or
Ter minated
325 00000
306 1
uts che
Ġrepresent ing
Od yssey
Test ing
ĠKl ob
ĠDonald son
Tub eless
ĠByr ne
lys ine
ĠBrent ford
ĠMCL s
ĠMCL Gs
RICH MOND
Shan ghai
ĠCres cent
ĠSaf ari
Seas ide
Cyper aceae
6 56
C rawley
D estroy
E arth
F umble
M ode
P ee
P ilton
R udy
S th
S ammy
c le
l uc
n ibro
s f
z ynski
Ġ ion
Ġ ice
Ġ alt
in h
ĠS N
ĠS ql
is en
ĠA RI
ĠM ale
ĠM ans
11 29
ĠT ONE
ĠSt anding
ĠF actor
ĠF arrell
ĠB od
ĠB irth
Ġs qu
ĠL ot
ĠL etter
ĠH och
Ġb arrier
15 95
03 15
ĠG res
ĠO sw
ig ator
ter ior
Ġ3 03
oc yte
ug as
Ġl oop
Ġl aser
ber gh
ine e
op ee
ip t
ack i
SI G
ge on
ĠTh une
ock ets
iz ards
IS S
ef ord
ĠIN STRU
Ġex port
ĠMar ino
oss a
ĠSh ad
itch ener
Ed dy
ĠFran ks
sp awn
Can adian
Ġtrans lated
ĠAct ress
ient ists
fr zr
Em il
120 8
ĠFOR MING
ĠIt em
adi us
To String
plic ity
enz el
ĠDisc overy
ĠTor o
ali ers
Ġconc urrent
Ġbr acket
Ġprom ote
Scar leg
zend i
ĠAer obics
ropri ate
ĠWIS CONSIN
ĠFreder icks
CRIT ICAL
ĠKlob uchar
" =
7 49
8 46
8 41
8 74
B V
B eng
C ow
C RI
D NF
H ispanic
J G
K EL
L iam
R ita
V irtual
W are
W erner
d ish
h ole
r r
s u
Ġ <
201 9
en egro
ĠC apps
ic ello
is al
ĠM iddlesex
ĠP k
ĠP eg
ĠT Y
ol fo
ri ks
05 18
ĠH anna
18 45
ĠE rik
Ġ19 45
orm one
AS SIGN
if th
ee th
ee ee
ef it
Ġex ists
LE ANS
act ivated
tt y
Ġ03 45
ĠBe er
69 4
ĠZ appa
Ġ04 39
ĠEd die
erm ott
Ġsc an
Can al
Min nehaha
PE ER
ĠOper a
lib virt
ze k
Ret ri
Pre c
Sim ple
andon ed
Hay ley
onz o
Clark son
ĠConc rete
Serv ices
Fac ebook
ĠWhe at
ĠCook s
Exp edited
syn cev
ĠHan son
earl ier
Ġbound aries
ĠWi Fi
ĠFI RE
osl av
Access ory
ĠNik ki
10120 4
10120 5
cap ital
Lip scomb
ubiqu itin
Ġactu ator
ĠOrd ers
Ġsav ings
syncev olution
/ "
6 39
7 29
7 41
7 57
7 42
7 90
B ally
G ap
G LOBAL
H ip
H erman
H wy
I BANK
J oker
L SI
R HMS
S aeed
T rev
k ha
q i
r ent
s am
y y
Ġ ;
Ġ ign
ĠC ounter
ic ast
is che
it ol
ĠT ul
ent r
12 31
Ġf ew
07 500000
ĠL amar
Ġc ation
04 28
Ġd ig
ac ion
ĠG AS
ĠE H
ĠO y
em en
Ġm uch
Ġm elt
ĠV S
Ch annel
ĠIn frastructure
Ġ14 40
Un released
kl er
ok ed
ohn ert
oma ine
ENT ON
by te
Se ason
Ġsh ell
GR ANT
Sc i
Char ley
NE XT
ĠMc L
Gr aduate
Le od
Spec ify
TR ON
Ġcom pression
Non financial
Pakistan is
ĠBrook lyn
ape ake
Pres cott
Part ial
br uck
Uni que
ĠOs borne
ugg ets
ĠBo ar
ios k
ĠMov ement
Ġinstall er
ĠMic ros
Mah arashtra
Gil ford
ĠKat z
ĠEss ential
rott le
Ġtask s
ĠTact ical
Tan ner
Ġmagnet ization
Burn ley
NAS DAQ
ĠCros se
ĠFUND ING
ĠKemp ff
Chill icothe
libgnom eprint
Enr aged
quit lam
vens ka
Ġdynam ically
" [
D amon
F TR
G ly
G avin
H urricanes
K M
K OS
M ist
O OD
P ure
T raining
U CH
V CU
b ay
b ient
b ottom
c ycle
g ing
k ris
Ġ keys
Ġ earlier
al ex
th usi
ĠC rop
ĠC LI
ĠM ORGAN
ĠP S
11 250000
ch arter
ĠSt all
Ġf ire
ĠR V
ĠR ET
ĠR unning
ĠR ules
Ġp ush
ĠN OR
04 10
03 04
18 09
ĠG ap
ĠG DDR
ag lia
28 000
if old
end ers
ip itation
Ġ6 770
Ġ16 0
46 250000
Ġg ross
ast al
ĠUn limited
ST EV
Ġex ist
les on
Ar ray
ĠAl tern
ĠRe asons
HO ME
HA G
Fil ip
MP SON
Ġdef ine
ĠMor eno
Black Rock
Law ton
Ġatt empt
ĠAcc ounting
Camb odia
ĠTown send
ĠCal vert
Ġcons umer
Ġstart s
Ġte ams
ĠMac Donald
Rh onda
Ġindic ate
Cast ing
ĠMult iple
Ġconduct ivity
ĠQue k
Bri ef
ĠURL s
ĠPHARMA CEUTICAL
ĠBart lett
Tusc any
Nas daq
ĠBit coin
==== ====
ĠRu iz
ĠComponent s
BJ RI
ĠAUT O
Ġprem iere
Ġsuit able
ĠIncomp lete
answer ed
ĠSYMB OL
6 43
8 44
8 86
9 54
9 75
G rafton
H av
J eu
J oplin
K NOX
L amb
N igel
N ominated
O UT
P oc
V od
W AT
h off
v c
Ġ1 26
ĠC zech
ĠC afe
ĠA VEN
ĠP REMI
ol z
ĠD ON
ĠD uty
ĠN orton
04 06
ĠH eal
08 01
Ġd istrict
ĠG rim
Ġin cl
ĠO AK
im ar
ear ney
ĠV ander
Ġl in
ĠK iosk
est ar
St ories
up p
Al to
Ġex hib
fer ences
ĠPro f
Ar ma
ĠZ ach
Ex xon
RI P
89 3
ĠComp anies
ĠSer ge
Tr inidad
Ġpre p
ĠSe ason
SW OM
ĠAs m
Ġunder st
Ġed it
Ġcap abilities
Ġresult ing
Get HashCode
ĠWar wick
osp el
ĠRom ero
gl ob
Albert o
Pa ige
Ġdi ode
Ġ802 10
Vol ume
Just Visual
ĠGate way
Ġep isode
gon j
Tw ins
ĠFLH RS
ĠAthlet ics
agin aw
Shah id
Kil r
rizz lies
ĠClaud ia
ĠBrow ser
ĠLiqu or
Shak opee
6 19
7 21
9 34
B omb
D ID
D ANI
F ur
G ib
K m
M ut
M alta
N ex
N EC
O wen
R oth
c atcher
l ocal
p age
s il
Ġ orders
en ed
ĠC ENT
ĠM ission
Ġ2 560
ro ff
st ander
ĠF ILM
ĠD rain
ĠD awn
ĠH B
ĠH ess
Ġto ken
18 43
Ġd ose
ĠG overnor
os i
em iah
ĠV IS
Ġ5 07
nt il
res olution
Un answered
ult aneous
ĠCh at
Jun k
ure ka
ĠIN S
Ġex cellent
ĠSh o
ix ie
Ġ03 85
OK C
ĠMc Namara
Gr ants
Pr eludes
uch esne
ander ing
Cal vin
Ġmin ors
Ben edict
QU ARE
Will is
ĠSE P
Inst all
Support s
Mun icipal
Ġlog in
NET H
Ġorgan ization
Wild one
Sa uget
Ġstr ength
Karl sruhe
Rand all
Techn ology
iak os
Ġsuper family
Ġstreet s
ĠNich olls
Ġsat ellite
Ġspe ak
ĠQuant ified
ĠAdjust ment
Bari entos
8 47
C rist
F lex
I gn
K awasaki
L ill
N OP
P SU
P HL
Y a
Z P
e ol
s ession
z weil
201 7
ĠS ach
ĠS ayre
ed icated
ĠC od
ĠM IS
ĠP f
ĠP t
ĠP IN
ĠP sych
ĠF t
Ġt ip
ĠW ars
ĠW ait
ĠL ance
05 000000
ĠH ugh
ĠH acker
ĠI gn
02 28
ĠG ust
Ġin coming
os ki
ĠO h
eb an
16 21
Ġm useum
Ġ3 02
ĠK ern
ell es
Ch an
EL LA
In ver
cl aim
EM N
Ġsh ift
Ed ison
con f
ĠGu est
ĠCon nolly
Pl anned
eng lish
ĠFl oyd
ĠRes ort
Sch eduled
ween ey
DU LE
Cal endars
ĠUp ton
OU GH
ĠCor al
ĠCor bin
olic ies
ĠRO VI
Ġem pty
Ġte le
Ġdefin ing
Ġelectric ity
ager stown
Rem ove
ĠExt ended
Ġfour th
ynchron ous
!! !
ĠDod gers
rah im
Eb ner
Nag ano
Beaver ton
ĠEDUCA TI
thusi ast
7 18
7 39
9 081
A W
B ANG
D y
D UN
E g
F OL
N AN
P LAN
S quare
T i
T emp
T emporary
T rigger
Y ea
i Pod
k ish
l ass
l owski
or b
es p
ĠC el
ic ient
ĠA ce
ĠM om
ĠM yst
Ġ2 25
ĠP ercent
ĠF encing
ĠB ooth
ĠR U
Ġs venska
ĠL amp
ĠI E
03 28
18 51
Ġd ensity
ĠG ros
ĠE ye
17 90
Ġm oney
ect s
St ay
ub ilee
ok ie
ĠSc r
Mon ica
bur ne
Cl ovis
SU NG
IC ER
ĠCl ose
An imals
not e
ĠCol in
ĠComm unication
ĠHard y
fl ict
rie u
Hal on
Ġbl ack
We apon
Inter mediate
Greg g
Ark adelphia
Hay den
Sho aib
Ġmov ie
Ġits elf
ĠRam on
ĠApp aratus
Ġcharacter istic
fin ished
ĠAPP L
Ha as
Bon nie
issa uga
ĠWild er
Ġmark er
ĠDIS TRI
ĠCre ative
Middle bury
Det ected
ĠJac inta
Ren ee
ĠPop ular
Ġlearn ing
MOR ENO
jav adoc
Motor ola
ĠSCI ENTIFIC
Honey bee
ĠCoch ran
ĠCany ons
Ġunderst ood
8 42
9 47
9 051
B od
C rew
C urt
D LE
L K
M sy
N ave
O wens
P ercent
S ummary
Z v
Z ER
c ia
d oug
m k
p ear
s ervice
Ġ ult
ĠS EM
ĠS olaris
ĠC rist
ĠM ets
ĠP G
ĠP itt
st ract
ad z
ĠT ON
ĠSt able
Ġf etch
ĠR IO
ĠD ept
ri o
ĠW ise
06 25
ĠL ength
ul um
Ġto ilet
ĠI mm
Ġin active
Ġm iddle
Ġ19 03
Ġ19 01
Ġl ed
Ġ4 50
ke h
St roudsburg
igh ter
Sp here
AM C
ons ored
Ġst ations
LA W
MI C
ĠCar leton
ĠSun set
anc ies
ert z
thor n
ĠCl app
HI GH
HA W
ĠBr andl
En chant
AP E
Web er
Ġtrans formation
EV GA
Pol yn
oth ers
ason ic
TA GE
ĠTr avis
ĠMark s
Ġj oint
ibr and
Em ery
Per iod
oun ge
Ber g
Acc ount
ĠReg istration
Cont emporary
ĠFin ish
ĠJack ets
Po aceae
ĠRod ney
CB J
ĠBas in
Sup plemental
ĠDisc ussion
Ġlong er
Ly nd
uri el
Ġmi Script
ĠLind bergh
room s
Kam ran
epp ard
ĠMob il
ENI OR
Ġarg ument
8 29
B urr
F UN
H endrick
J ade
M ES
M old
P ier
P LATFORM
R gle
S ap
S BM
T EC
T anya
V s
Y e
g overnment
or row
ĠS andy
ĠS ecurities
11 19
11 17
st ore
ĠT AS
ĠT reatment
ĠF ors
ĠF usion
Ġt arg
ĠB ec
ĠD etroit
Ġs itu
ĠL AN
ul o
ĠH ack
ĠH ass
Ġto gg
ĠG ig
Ġv ar
ĠK i
Ch eshire
Ġ6 60
Ġ18 97
In v
ST AL
att ie
San ford
ĠAd mir
Ad a
90 20
ĠCo al
evel t
ĠZ rich
ĠMc Laughlin
oll ower
AB E
ĠFull er
que ous
ĠAss ignment
De er
Har vey
ĠQ t
rain ed
ĠHar old
oul t
DA VID
str m
Fin ish
Ir ish
ret urn
Pre vious
vis ed
ĠAs k
Fred die
VAN GUARD
ĠGe of
ĠHay nes
ĠJud ge
ĠJOH NS
ĠEv an
ĠMah m
IDE O
ĠBrew ery
Ġfeat uring
1069 01
ĠRand olph
Ġthey re
ĠMun icipal
Ġbro ker
Rand olph
Court land
hand gun
ĠDick inson
ĠClay ton
Capt ain
Sid ney
Islam ic
Hab ib
Ġcorn ers
ĠEmp ire
IAK OU
Til burg
ĠVM ware
3 121
7 7500000
B ird
B oys
B fs
F J
G ina
H omer
H agerstown
I MS
L ite
L ook
N oel
R ot
T m
W orth
W ies
Z X
a ic
b est
d ec
f ers
h of
20 29
ar ella
le ases
ĠM aj
ĠM ohammed
ĠP urpose
ch ing
ĠSt at
ĠF i
ĠF RA
ĠB rod
ĠR PM
ri en
Ġp y
Ġp en
Ġp airs
Ġs ecur
ĠH ent
ĠH ut
ĠH umberside
Ġb ert
18 41
ĠG ear
ĠK OREA
AS AN
eg al
pl an
Ġh tt
Ġ20 5
sh irt
In active
Al ly
Sh r
ric ts
Ġ26 81
int ank
ction ed
ĠSh awn
ĠTe j
Ar men
ins k
ett ings
EM AN
ier arch
Ġpayment s
ott a
co e
ĠAv atar
TE P
En ahs
fl ower
Bar net
uch i
ĠTE CH
uel le
Kn ow
Ġdetermin ation
ĠCON VER
ĠPat el
ĠColumb us
ential ly
Ġmet ric
ĠPAT TI
Hard ware
ENS EN
ĠMa ur
Si ena
ĠCare y
BUR Y
Ell is
ĠFri ends
ĠMov ie
ĠFarm er
miss kitty
Wild wood
ĠFLST C
Dor is
ĠCert ified
Ball park
Gil man
GP Y
Ġcalc ulated
Monter rey
ĠHu ber
ĠId aho
HOL O
Kl imek
ĠFork s
from intank
ĠFa ith
ĠAccount s
Rut gers
ĠSens or
Mot own
Yak ima
ĠFraz ier
ipl om
Ġaffect ed
ĠAeros pace
ĠKEN NETH
Mann heim
ĠENG INE
ĠCabr era
gest artet
fromintank itchen
9 61
B our
B och
B revard
D aly
D avenport
F anta
K yr
K oval
P irates
R ICE
S OLD
S ulfur
V Y
Z ac
b et
c ons
c rest
s qu
t ab
ĠS mo
ĠC ourse
ĠA IF
ion ing
ĠF RANCE
ĠF reedom
ĠB LU
Ġf aces
ĠD ent
ur ry
Ġb rick
03 02
Ġd iv
ĠG SM
Ġin ject
ĠO ber
ew a
im edia
OR N
ĠK yl
NC I
ob ject
Th ur
up o
Sh ows
ĠMon ths
Sun ny
Ġr ating
Col lin
ĠSh an
ĠSh annon
98 8
ik al
NE P
ept ion
Ġpart ial
Gr ade
Sw ift
ĠDr ug
Rep airs
bl ing
ĠPet ro
Ġcom pressed
Alb ania
GER T
ĠReg ina
NEW S
cont ent
la us
vis ible
ores istive
Ġsch eduled
ĠFe ature
ĠIr vine
ĠStore house
ugg s
ĠBow man
ĠLI FE
ĠGU I
ĠHow ever
Ġexecut ing
MICRO SOFT
ĠAbb ott
Ot is
Ġcaus ed
uor ide
Lang ston
Ġfavor ites
ogl ob
Ing lewood
SELECT IVE
READ ME
Ġrand om
Motown Mama
Koval ev
3 295
7 66
B earing
F ET
I ow
I OM
L ad
L erner
R av
S eg
S FR
T ina
c alled
j evo
n st
r k
s pl
x f
Ġ ol
ar ters
ĠS ylhet
Ġ1 09
th is
ĠC rane
is garh
el ong
ĠP am
ĠP une
ĠSt arr
Ġf ar
ĠR B
ĠD N
07 01
ĠW IL
ĠW itt
Ġs ort
Ġs yn
ĠL uther
ĠH R
ĠH ours
ĠG SE
ĠG HE
ĠO L
ĠO ur
em ary
Ġv ary
oc ating
CA NA
est amp
US N
Ġpro files
Ġ14 6
In fin
iz olde
RO CHESTER
aw ai
rou ble
ans ett
old er
ft p
98 750000
tt a
Ġch ronic
yl transferase
Green field
ĠDO WN
Ġsc ore
app le
ĠLow e
ĠNOT ES
ĠMin i
ĠRock well
Ġ201 008
pop pler
ĠInter face
Ġno ise
Com erica
Ġpath s
eh icles
ĠSam antha
Inst rumental
Ġequ ities
Refer red
ĠJim enez
COMP UTER
ĠSi eg
oli aceae
ĠPE TERS
Arm ory
ĠSteven age
imens ions
Lewis ton
WELL S
Lib xml
Desc ribes
Broad way
RIT TER
Ġaud ience
ĠJEFF REY
Kos umo
Ard more
Ġcharg ing
AVA YA
DEPEND S
Lobby ists
ĠAPPL ICATION
ĠGeof encing
0 109
1 201
6 49
9 70
B old
E ff
F TA
F etch
G rove
H um
H ub
K ol
L il
L ON
M is
P f
P LE
P aso
R az
T rap
W ing
c amp
d ancer
m il
in ja
ar at
Ġ1 21
le i
ic er
it ance
ro ot
ĠP ons
st age
12 14
Ġf ishing
ĠR an
ĠD anny
ĠD ETE
ĠW ick
Ġs alt
05 06
ul ations
Ġa pert
um ed
ĠJ oint
ac in
ĠG REG
ĠO mar
ĠO scar
Mar g
24 00
Ġw atching
AS P
op ed
ver ts
Ġh er
ak is
ob ar
ĠTh om
Ġst udio
ib ly
LA PEER
Ġan alog
RO C
Ġex posed
pp s
Ġbe y
ĠCl air
An im
ett es
TO M
Ed uardo
Con roe
ĠDO M
ĠSp inners
ĠAct or
rough t
me andering
Brook ings
Em ployment
ersh ot
DU AL
Ġsp acer
ĠBel le
Ġreport ing
pro t
Ġopt im
LD P
val ue
ĠCons ole
ih u
Ġ978 14
Mic ron
Beth esda
Cy prus
Ġcharacter istics
Ġthere in
ĠCumm ings
gu ard
Oxford shire
ĠCre ate
ĠWhe eler
Arm or
ĠFac ility
ĠFair field
ĠLead er
Kin ross
Buck ley
ĠBi ology
ĠSnow e
ĠExp enses
Chem ical
NX GPY
Ġseal ing
ĠWor cester
ĠThunder bolt
MUL ATIONS
Maur ice
ĠSecond ary
Ġincre ased
Herm osa
ĠSuz uki
ĠOPER ATIONS
moon erz
Ġadhes ive
jin shi
Ġtox ic
Meas ure
Ġpiez oelectric
B UL
B oom
F ound
H off
L is
M au
M yan
M iriam
O UL
P ers
P omp
P ilot
U b
V ulner
Y am
Z rich
e ine
f ix
k om
m ethyl
z ad
in ental
en ame
en berger
ĠS utton
ĠA A
il dress
st rike
Ġt alk
ĠR C
ĠN ike
ĠW eek
Ġs ampl
ĠL uck
ĠL LP
ĠH af
09 03
Ġin vert
os evelt
ĠE ND
Mar l
ĠU k
Ġ4 10
ub ble
ass is
ĠY ates
Un san
ric a
ST O
ENT S
54 000
ĠAm anda
OS H
Ġad ministration
ĠMc Don
Ġinter connect
So f
110 1
ano id
Ġen cl
Ġreg istration
PG T
Lar amie
Ġant igl
Trans port
QU IN
akes pear
Ġhigh ly
Ser ial
ĠDen mark
leg ate
Bry ce
Com edie
ĠDis k
Ġcorrespond s
Cros by
izz ard
ĠMir pur
ERN ANDEZ
Aqu atics
hatt isgarh
Ġfeed ing
mas ih
Ġtrack ing
Ġdeploy ed
Meg han
ĠAud itorium
Organ ization
GIS A
Ġampl ifier
Ġste el
Ġwait ing
Orch estra
ĠRah man
Ġcle ar
Extr acellular
Zy X
ĠAVEN UE
Ġbert ugas
Ġbey ond
Unsan ctioned
Ġantigl are
A frican
B ates
B enn
B rain
B anks
H G
J h
L oy
M errill
R ou
S oh
S ymbol
T ING
d in
g uy
l m
s amba
on ado
ar z
ĠS ENIOR
le ukin
ĠC FO
re ach
ĠM AD
ĠT urb
12 16
ch annel
ĠF ill
ĠR untime
Ġo wner
ĠW NW
Ġ( )
ĠL H
ĠH ere
Ġb ias
ĠJ ak
ĠG C
od or
all ax
ip ient
AT ON
ĠY am
IT O
ĠCh amp
49 40
MO DO
Ġr ise
uc ible
Ġout come
ual a
ENT AL
ors et
ĠAl to
ets k
af l
ĠASSIGN EE
ĠBr endan
Ġsc ope
ĠWh is
ĠWh ites
Pl ates
Ġal igned
Comp uters
Mil ieu
Ġfl oating
EE P
hem at
ms ford
ĠClub s
ĠPort folio
Carl ton
ns bruck
GC MD
Union dale
ĠNor folk
Sol omon
Fund ing
ĠStr and
ĠGar age
kh tar
Cro wn
Greens burg
izz o
Lind en
ĠGill ibrand
ĠBO ARD
Det ails
ĠAlbert o
906 1
ĠGod win
SIL ICON
ĠCoach es
ĠTRA CK
ĠTyp es
IRON MENTAL
abul ary
Grim sby
pend icular
INDIAN APOLIS
5 031
8 181
9 60
B attery
C art
D akota
J ohan
M SI
N ation
R us
T INE
V V
f u
h en
j or
m w
s uper
w aster
w ulf
at k
ar p
ĠS OT
th rop
le af
ĠC ann
it en
ĠT ip
ĠSt ainless
ĠB ios
ĠB attery
ĠR ut
ĠR ebecca
ĠN epomuk
ĠW ass
ĠW ein
Ġs ulf
ĠL emon
Ġa uthent
Ġto o
ĠI van
um ines
ĠJ C
ĠG RANT
em atics
ir ation
ĠV ald
St acy
Sp urs
per ial
ĠCh ang
up s
Sh ared
ET S
ib bean
Sun d
Ġr adiation
ĠThe o
ST ONE
ST AG
ator ial
Br ing
Ad ata
ĠCl ine
yst eine
Ġ03 99
ĠJul ian
ĠMc Connell
DE VANAG
Ġpart icip
ĠX C
ĠNew ell
Web logic
ĠFl ood
TR P
ref r
Bel chertown
Nor walk
ĠAL L
CR UZ
BM C
Acc rington
Ass ay
LI BERTY
elle her
ĠRO Y
Mal aga
Sur f
Mun icipality
Ġhead ers
Log o
ĠAtt ack
Ġrecomm end
uri ed
ĠMer chant
ĠWolf gang
Ext ended
ĠOrt ega
ĠNET HERLANDS
Drum waster
etz oeker
Ġdescrib es
Ġimplement ed
Lin ear
ĠMON TH
ĠDiamond s
ĠFil ter
Capt cha
fil ing
Ġdiff usion
ĠPay ne
CHAR GE
Circ le
ĠCros by
ĠCHE MICAL
Ridg ewood
OLE AN
Cant ata
ĠKING DOM
Fuj inon
ĠVik ings
ENGL ISH
Dw ight
Rit ual
Boz eman
DEVANAG ARI
2 2000
8 34
8 32
8 79
8 73
9 74
B LO
C ay
C LOSED
F ol
F ellowship
G ond
G one
G erry
H IC
H ui
L TU
M Z
O CT
U g
W ILL
Y Y
b oot
c argo
f le
k ik
t ec
t ie
v p
ĠC RY
ĠM erry
10 18
11 24
ĠT ran
ĠF estival
ĠR itch
ĠW H
Ġs ink
ĠL ag
ĠL ath
Ġc ast
ĠH ancock
02 17
02 58
ac cess
ĠG rams
os em
pr a
ew ing
iv i
Ġ19 44
28 00
Ch ain
Ġ7 37
Ġ6 06
50 11
ĠIN DIANA
Mon etary
Cl ack
ĠMar ine
UT ES
Br unswick
ier a
Aust ralian
IR A
Ġpl astic
Full erton
con ference
ĠComm unic
oo ley
Le esburg
ĠServ ers
Dr Evil
sc ience
ĠSpr int
Ġph ones
FA Y
FI U
ĠLouis ville
Sch we
Wh ites
Ġact ual
lib yaml
Def ined
under bird
la ughter
ĠRow e
ĠFX DC
Fe at
Wood side
FIN AL
ĠMix er
Ġequ ity
ĠHer itage
go ing
Ġdeb ugging
Ġap plicable
Ġsubst ance
ĠConc ert
Pe ople
Leicester shire
ĠLO B
ĠFXST B
ĠAng us
ATOR IES
Ġtransport ing
Some thing
ĠCapt ioning
Ġmail box
ĠPOL Y
SET UP
Gener ic
ĠFresh ley
Gard iner
Pam ela
angan ese
Pok emon
ĠQuint et
ĠCaf es
ĠBenn et
ĠHent ai
ĠCaptioning Video
C X
C EL
D oyl
J IT
K or
O ME
P LA
P OWER
S ebast
T ag
T PS
W eek
c ard
l ip
r at
z ki
ĠC and
ĠC oy
00 05
ĠA RA
ĠA berdeen
ĠP HO
ĠP lease
11 12
ad ay
et i
ĠD DS
Ġo pens
Ġo bserv
Ġp oll
Ġs ole
ĠH atch
ĠH oughton
ĠI SO
01 31
Ġd egree
ĠG unn
Ġin valid
od b
Ġl amin
ĠK w
ail ing
ick et
Al le
aw i
Ġout let
Cl one
ĠAn cient
ins ula
Win chester
ĠJan ice
ĠSp ie
ĠX avier
Le ague
Pl ano
Mont icello
Comp any
PR IN
uct ase
Nash ua
eld er
gy z
Ġtr ay
pro f
ubb ard
Ros en
add ing
Ġkey board
Main line
arth more
ĠWork station
ĠLand s
Est ablish
Ġsepar ately
Ġfre ely
Philip pe
Arc ata
ELECT RON
LEN NOX
Phill ies
Ġpercent age
Wel come
Tro jan
athi Ace
ĠOFF ICER
ĠInstall ation
Ġmeet ings
Ġpurch ased
Ġlith ium
Joker it
Kilr athiAce
Doyl estown
6 51
8 0000000
B atch
F lynn
F ISHER
H ilo
I pswich
L ed
P s
P ite
P red
S yd
S ylvania
S aginaw
c g
f rey
k ara
m ell
q HTS
v n
v rier
w iz
z ing
ĠS ob
ĠC ond
ĠC ry
00 47
Ġ2 17
12 19
ch uck
ĠF uel
ĠF acing
Ġt ackle
et rap
ĠD iane
Ġp ad
ĠN S
ĠN avarro
Ġs amples
Ġb elt
ec ke
ĠO wn
em f
ig ion
Ġm ight
Ġv essel
ĠK id
Ġ9 00
Ġ9 05
NC IT
ĠCh ap
37 000
Al icia
ull a
MA ID
als k
Br ady
ĠCl inton
Bl ip
100 2
Sc ol
ĠEd mund
af one
RI PT
Ġdis pers
ĠWest brook
Ġal arm
EV ANS
Ro ther
key words
De utsche
TR N
Sal on
Mark us
Im m
Mat ilda
Pan ich
Ġsim ultaneous
Frank ie
ĠTer ra
gr ad
Ġdefin ite
Beth any
Ġcircuit ry
DW ORD
WE EN
ĠReal ty
Ġadj ud
Bloom sburg
Ġwid get
ĠSign aling
ildr ens
includ ing
ĠPROPER TIES
Rub en
ĠRub y
Wat ertown
ĠLoc alytics
ĠFut ure
Ġstack ed
ĠFitz patrick
Alfred o
ĠEth ernet
Reserv oir
GRAPH IC
ĠEar phones
ĠFLHR C
Ġbal ancing
Publ ishing
ĠTriv ia
ĠLABOR ATORIES
ĠGirard eau
nys ide
Evangel ical
Fanta z
8 78
B j
B alk
B etter
C e
C ongo
D eport
E HC
E ureka
F ed
G ir
I WAN
I FIED
L em
L ever
N ed
N ina
O ce
O TO
S ib
S ession
W B
W SH
b ull
c ro
f alse
n ab
t able
w anted
20 92
ĠS AL
ĠS HO
ĠS ize
ĠC HA
ĠC oul
ic um
ic ensed
ĠB one
ĠB utch
ĠN AG
ĠL ights
ul s
Ġc orpor
04 29
ĠH il
ĠH ung
ĠH EW
ĠE NV
Ġ19 51
ce eds
ug an
Ġn m
Ġn ight
Ġy outh
ĠY ard
Ġg old
ĠCh es
ĠCh andler
Ġst ats
Sh am
Sh erry
CO MO
au ch
LA K
ru z
44 12
by stander
ĠCl ue
Ġch ance
ik el
ĠRe ich
ĠSp ark
yd e
ĠAnd re
Ġtrans porter
And r
Ġal gorithm
ĠSpr uce
DB C
ebr enner
Ġapp ropriate
BO OLEAN
Ab by
GER MAN
bab y
Ġext r
ĠMad hya
ĠRh odes
ĠRivers ide
Sim ply
Count ed
Ġoff ices
sk ar
MON TE
Cop y
ĠMil itary
ĠRev ised
ĠStr ateg
ĠGar field
ĠPol and
ĠLo op
Ter esa
Ġterm s
NET T
COMP LETE
stra ction
ĠProject s
Ġsepar ation
Kath leen
ĠBio Assay
ĠFI ELD
Bah rain
JAM IN
Ġcal endar
Coll aboration
Antwer pen
ĠOt is
Ġaltern ate
Harrison burg
ĠGRE EN
Ġrender ed
Corv allis
ĠVerd e
SUB ISHI
ĠMART IN
ĠPand emic
wat kins
Vl g
ĠNott inghamshire
TRO J
coh ol
Ġimpur ity
ĠDHC P
cyt ochrome
ĠSiddiq i
ASHE BORO
ĠPREMI UM
Boch um
ĠPETERS BURG
Ġcorpor ations
2 200
A CO
A lec
D SA
E ster
F ollower
H ind
M ez
N az
P LY
S OR
Z NF
b watkins
d av
g ew
g ill
n eck
o ile
o ley
p rom
p erson
s ort
ĠS um
ĠS QUARE
ĠC P
ĠC ulture
ic key
ro be
11 20
Ġt ags
ĠB axter
ĠB landford
ĠR OL
Ġp ose
ĠN ap
ĠL ew
ĠL andon
ul ators
ĠH elsinki
ec an
ec ast
17 79
OR ING
27 500000
26 00
ĠV argas
ĠK ick
Ġ4 28
ip es
AT HAN
Ġh oles
Sp ac
ĠCh avez
Al pine
au a
39 29
Ġan atomy
ĠSc an
ther eal
Ġbe ans
UT SCHE
Ġass ign
Ġcon ference
SA V
ari us
El kh
Co ch
Mont e
Ġal ignment
ipp o
EV IN
ĠHe id
ĠSe ed
Reg gie
alm ie
BR AND
DU E
ĠCamp site
urt le
104 101
press es
Med ford
ĠPer fect
309 2
ĠCourt ney
Ġi Phone
RY AN
ĠBer ger
ĠCr ack
usan ne
ĠGood win
ĠWin ebrenner
ĠMont e
Dur ango
ĠFort une
Brown sville
ĠKn ights
ĠWorld wide
Ġins ertion
miss ions
Wall ace
Sher idan
HU A
List ener
.... ....
ĠKle ar
Ġrefer ences
Ġhold s
Current ly
des dale
ĠSem inar
Hills boro
ĠMID DLE
MILL ER
ĠFraz er
Kur zweil
Ġprote ase
Smo Object
ĠWOR LD
SIE GERT
osem ite
Rother ham
6 26
C oy
C indy
D IN
E nergy
G SC
G ift
H ood
K ok
M ESH
N ode
P oz
P etro
T HOMAS
V X
W ire
W md
Z o
b re
b ag
d im
g ae
k w
l u
s ulfur
ĠS ak
ĠS ERIAL
al ias
ĠC oc
ĠC yan
ĠC ora
ĠC LUB
is i
00 45
11 33
ĠT ommy
ent i
ĠB D
ĠB ith
ĠR as
ĠD c
ĠD omaine
Ġs uggest
ul na
Ġa ward
ĠH ole
ĠH athaway
Ġb order
03 27
Ġd eg
os in
ir chen
OR ION
Ġv ector
ut an
Ch ude
Ch apman
Ġy r
Ġ15 4
SI DE
qu almie
Ġ20 6
Ġ9 28
ust ers
IL TON
ice k
Sun nyside
LA G
ĠPl ug
San kt
oss ible
Ph arm
Ad j
ino ok
az al
ĠAl ison
MM SC
ĠZ ero
ĠEd in
af a
ĠIs rael
Can terbury
ĠAND REW
quest a
uk h
yle eg
Pan el
Cont act
ĠMed ium
ĠTrans mission
Jon ny
Ġimp acts
CAR L
ilt shire
sa uron
ĠRod gers
Little Me
Ġoutput s
Ġ978 007
ĠGran illo
Ġview ed
Cy press
Ġsens ors
Health care
326 1
ĠMer kley
SN CA
Ġebook s
Vis itor
Rank ing
ĠMON ICA
du plication
Aj ax
Nob le
Dub uque
mb H
mart in
mart yleeg
Ġconvert ed
tz data
ĠPrem ier
Len ovo
ĠOg ier
Frances co
Gonz aga
Chel msford
Tool tip
ĠCour thouse
ĠCIT IBANK
ĠAsp ar
ĠPaint ing
Ġ(? ).
ĠCandy land
Sno qualmie
ĠCoron et
Ġpriv ile
opac idae
ĠMous etrap
ĠStead man
ĠThrow back
Scol opacidae
ĠBith orn
8 000
B edn
B ody
B ears
B ennett
C GY
C ourse
D irty
D rosophila
E sch
E gg
F actory
H EL
H ttp
L ok
M ia
M ach
O doc
R ash
R ace
S HT
V in
d h
l och
in one
en ade
ĠS UP
ĠS FF
ĠC ris
el n
ĠA TH
ĠM eter
ĠM oe
Ġ2 23
ĠF earing
Ġt otals
ĠD odd
ot uck
ĠW eg
06 26
ĠL UC
ĠH amp
Ġb o
15 87
ĠJ amie
ĠG mbH
ĠE EDDC
ĠO ps
ab elle
Ġw inding
ĠV iet
ON DA
ĠK ast
ver y
ail a
Sp ark
ak o
Ġg ro
Sh ays
LA P
RO E
aw s
Ġr pl
ans ki
ĠAS U
ST EVEN
fer encing
ĠSh epherd
act ic
ĠAm or
Fl a
Ġch art
ik ov
100 6
tern es
ron ingen
AB RI
La usanne
ĠAct uelle
Comm unications
VE Y
Ġup coming
Min istry
Ġmod ulation
Sw arthmore
ars ing
Ġph armaceutical
Ne ill
Mad Boris
ĠSan pete
Ġper pendicular
ĠBar ber
Ġsp aced
Real ity
ĠUp state
Cont acts
Richard son
QU EST
firm ware
ĠPres ley
Ġmess aging
Inter view
Ge o
Ros eville
Ġstart up
ĠSand ra
CB B
ĠSupport ed
BEL IAKOU
ĠREST ful
ĠBook s
Tok en
Hor ace
Nic otine
ĠLand rieu
ĠLeg ion
uts u
ĠWil cox
ĠCell ars
Ġiss ued
Ġaudio books
Ġstr ong
Ba iley
ĠSK U
Lead ership
ĠBeng al
ĠReloc ates
ĠBuff a
ĠBuff alo
hot el
Prod uction
Wend y
ĠWAY NE
Ġcommun icate
Ġpodcast s
arh us
Okin awa
Cumm ington
ESCA LE
HOLO TYPE
Kyr gyz
Ġadjud ication
oile us
Odoc oileus
2 152
9 63
A ero
C LA
D ixon
G AM
H em
H ousing
J Y
K LDP
N ING
W agner
b p
b one
b red
c one
j al
n ic
w ait
w olf
er on
an l
ar as
ĠS COTT
Ġ1 31
00 46
ĠA VA
it em
it ator
ĠP ush
st oke
ĠSt o
ĠB ash
ĠR out
ĠR AP
ĠR azz
ĠD ot
ri ed
Ġo thers
Ġp eptide
ĠN P
ĠW u
ĠW AR
ĠL ib
ĠL IG
ul er
ĠH Y
ĠH esse
Ġb atch
ec ai
18 32
ĠJ E
ĠJ enna
ow ay
Ġl oss
ĠK op
ĠK iss
ĠK atherine
AS SI
St rik
Ġ7 00
Ġ7 340
CH ASE
AM PS
45 00
Ġ18 45
Th ai
Ġg rid
Ġg raham
ĠCh an
up py
35 00
ok ine
Ġr ound
ĠMan ning
ert ed
ĠMar tha
ang ana
ĠSh ake
clud e
ĠJan et
ONE K
Char ity
Ed ucational
Ġpl ans
ĠBro oke
Ġpart ner
Gr undy
Ġab le
ALL Y
SL M
All ie
Comm and
lin ed
LIN N
ĠOper ating
ĠRes olution
ĠMO DULE
Em ory
Ġrep urchase
BR YAN
rop shire
BO UR
osition s
ĠMart y
ĠAt kinson
Prov inc
board s
Fair banks
Repl ace
ĠOrgan izations
ĠKn app
Ġli abilities
rock box
trans lated
ĠBoy nton
ĠHel p
iac s
ĠBroad cast
MER MAID
izz y
Ġcr itical
Ġconc ern
Di ocese
avor ite
Lewis burg
Rub y
WAL KER
ĠBab cock
ĠELECTRON IC
ĠConnect or
Maur it
osc ius
Wake field
Ġsynchron ization
ĠCul ver
ĠArc ade
Cyber link
Ġproble ms
ĠStafford shire
ĠMcKin ney
Arab ic
NSP EC
ĠHEW LETT
9 52
9 79
B in
B ax
C SC
C af
G US
J uda
K ec
L ots
P ipe
S ED
S ui
W is
W arr
W eekly
Z ro
] -[
b irth
d at
f inger
i Phone
l ore
m ut
m ak
p and
t iger
ic inity
00 96
ĠP ac
ad ers
ĠSt rick
ĠSt okes
ĠSt eele
ĠB ound
ĠB RA
ĠB oat
ĠB ottom
Ġf ailure
et um
Ġp rim
ĠN r
ĠW asher
Ġs aving
Ġs ector
ĠL ey
05 08
ĠH ertfordshire
Ġb rake
Ġb udget
ac ity
ag reb
iv el
Ġw ave
Ġm ins
Ġ3 23
ER R
oc ate
Ġn ights
Ġl amp
ra ist
Ch ambers
AT LAN
AL A
ff ey
pl ane
SI D
Ġ14 16
33 00
Ġ18 96
ary l
Ġ2013 0201
Ġ2014 1014
Ġst rip
ree ze
ET IC
Col lect
ru le
cl ock
Ġformat s
und o
EM ENS
Ġsh aring
yl on
HI BIT
Ġpl asm
Ġpart y
Ġpart ially
Ġun translated
aul k
ALL I
ĠPh ase
ĠSP E
amb o
ipp ed
ĠCont esters
ĠAg es
De V
ĠDr ink
Christ mas
107 250
107 140
107 130
str ates
302 4
Ġen zyme
ĠBank ing
Me an
Tim ber
Trans action
ĠCON T
ĠBen son
uther land
Ham den
Ġdes k
Ġstruct ural
Ġimp act
ĠWat ts
chn ology
Ġed ucation
303 2
umn i
Cy cl
Log in
Ġu pload
Opt im
Ġtest ed
Oil ers
but ton
Ġcamp s
ĠLog an
iaz za
ĠKle en
ĠFXST D
ĠHosp itals
ĠSab res
Ġparticular ly
ĠKath ryn
Bah aw
1064 20
1064 10
1064 30
ancell ation
1074 20
1074 10
1074 30
1071 20
1071 10
Ġcorrect ed
Kir ksville
ĠRAD IO
Reserv ed
ĠExper ience
Ġsat isf
Ġhy brid
Pur ple
ĠRat he
Sax ony
Ġdescript or
Ches apeake
CIR CLE
PAS ADENA
Fabric ated
1060 10
1087 40
ĠSTRUCT URE
Veget able
Award ed
ĠMARY LAND
ĠEAS TERN
Vod afone
Juda ism
B erm
C ec
C UT
G REG
I sh
M ega
O keh
R anger
T IG
T arget
V all
Z oeker
a udio
d ist
f all
g ra
g rid
i Pad
l ibrary
z ania
on o
es pie
ĠC urt
ĠC ape
ĠC edar
ic ons
ĠM L
am oto
ĠP ORT
Ġt emporary
ĠB in
ĠR oz
Ġp ivot
06 30
05 04
Ġc ursor
Ġa f
ĠH agg
ĠJ olla
Ġd ro
ĠG ospel
em ark
ir y
ĠU PS
ut down
est a
ess ing
31 00
Ch and
Ch atham
Ch ennai
art ney
Ġg ms
ĠCh uck
ies e
IS R
ĠAS P
Ġ06 700
int egr
Ġe in
ĠSh elf
Ar row
Car rie
ĠBl air
ĠAl aska
rod ucing
rib ed
Con nection
ĠBr ant
Ġdis able
Ġdis pens
Ġnot ification
ELL ER
Can on
eng a
ĠEx hib
ĠEx ternes
ĠSpr ay
gin ine
ĠAg ents
ĠHol ly
kn ight
ats u
Me etzoeker
ĠAlex andra
Olymp iakos
Hol land
ĠSte am
ĠProgram ming
Ġdist inct
Ġread s
Matthew s
Rob bie
ĠFX DL
ĠWal ters
Mic rob
hol z
ĠPlay ers
Ġeng agement
ĠJon o
Laur el
Cent ennial
ĠLeg al
Det ective
Aqu a
Ġboard s
sel inux
Gray son
ĠMcG owan
Clif ford
MOR RIS
Ġfac ilities
Autom atic
ĠSou p
ĠPip es
ĠDom ain
Ober lin
Seven th
nucle ar
Present ation
Torn ado
mong odb
Myan mar
ĠCommunic ati
raist rick
9 013
B org
C IA
C DC
F encing
G az
I EN
J K
K HL
M unch
M aggie
O A
P ala
R u
R CA
R AMA
V ult
W SM
Z ip
c fg
j s
j am
k ie
v ill
Ġ ..."
es y
th underbird
ĠC otton
ĠA x
it ers
ĠSt ructure
ĠF ugues
ĠF ernando
ĠF ruit
om ar
ĠD eg
ĠN ation
Ġs un
Ġs ure
ĠH ur
ĠH eck
id yl
ĠG amb
ev ol
ev ie
ĠU NSPEC
av ista
ber ra
St age
iel sen
pl ifiers
Ġ15 6
SI MULATIONS
ith a
Ġ18 99
ame y
up iter
urs ery
ib b
Mon o
Cl ose
Ġ2007 08
ION AL
ied er
ĠCl amp
ix x
ĠCol o
ĠZ ack
GR IFF
enc o
rib utions
DE F
ĠBro ker
TH UR
ĠX T
El aine
ai ian
TE E
UL O
En thusiast
Dr ug
ĠFl oyer
ĠVal iant
PE P
Mc D
ĠHe ather
Ġend urance
ĠRec ording
ĠMin ers
def ined
acc ident
Ġ201 005
No ah
To day
ĠPan ch
ĠCr ash
ais er
Long view
Ġgu est
Cr abb
ĠRI VER
ĠEurope an
ĠMel bourne
ĠEX PRESS
ĠVel asquez
Krist ina
ĠTR X
GG F
__ _
Gi ant
ĠCant rell
ĠMath is
ĠJohann s
ĠJohann es
ĠMACH INE
Ġaggreg ation
Hob oken
Ġbeh ind
ĠCHRIS TO
ĠProduction s
Ġrib osomal
Ġrepl acement
Ston y
GIL BERT
Lag una
ĠVoc abulary
ĠUnivers ities
Sb Zro
Ġsurg ical
akespear e
9 032
B ee
C ubs
D uss
E mer
E rika
K ap
M its
N CAA
R auh
S inger
U CHL
W ins
c ross
d mm
h ob
p atcher
q p
t c
w orld
20 43
in it
at ine
en l
ĠC ory
00 76
re fer
ĠM ab
ĠM errill
ĠM SCI
ĠF ry
ĠF rid
ol dr
ri y
ĠW ilmington
Ġc ached
ĠH ood
ĠH orton
ĠG ur
ĠE ck
ĠO ro
17 36
Ġ19 02
ĠV ers
ĠV olt
est ine
Ch ildren
pl ates
SI A
GN U
CO ST
Ġan nes
ph ant
55 55
ester day
41 00
ĠMar key
WA II
ĠSh ooter
Ad ministrative
ĠCl oture
ix el
ane z
ĠCo ons
Ġspec ification
Ġsc ientists
amb e
Comp anion
Ġde leted
idd y
Ġcomm unic
na ud
Alex a
SP G
ĠRed line
SY S
BO T
106 25
enh avn
Ant i
ĠInter vention
Ġselect ing
ĠUnder ground
ĠRow ling
Penn ington
ops ie
ĠDon na
mar sh
Max ine
Form at
Mic ro
Mer edith
CAL M
Ste aua
don ald
Ġsol vent
Coc on
ĠVict ory
Nottingham shire
Sy k
Bridg ewater
Cook eville
ĠFo ley
JUN GA
ĠCapt ure
Ġmagnet oresistive
Ġaggreg ating
ĠMu eller
Py thon
Hob bs
Ġmolec ules
Pap awai
Ġsynth ase
ĠKil gore
Ġlab els
Calc ium
Sleep y
cod on
ĠSIL ICON
ĠAmeric ans
Kirst en
Integ ral
Neuro science
bak alsk
Ġcath ode
ĠSql SmoObject
CANA DA
0 196
A OS
B uch
D rex
D arryl
G uild
G wen
G areth
H unt
H ein
M ul
M ank
M ORE
M igr
P ICK
R MB
R osa
S RM
T ord
Z R
b aden
c do
g ets
k ah
l av
n orm
s aw
y on
20 53
an ese
es q
es boro
th ias
ed itor
ĠC ri
ĠC ain
ĠC ody
00 86
ĠA U
ĠA ch
11 14
ĠT ut
ĠT ill
ĠT aft
12 23
ch ia
ĠF RE
Ġt ennis
ĠB inding
Ġf uture
ĠR ural
ot i
ĠN eg
ĠW ray
06 27
Ġb in
Ġb ulk
02 49
Ġd ivid
ĠO cc
ĠO CI
16 76
ev al
ĠK G
ĠK eller
ut en
ut ely
op f
ub en
ass i
RE V
ille y
CH OL
ĠIn ventory
ust r
NY R
She ila
ĠCh o
In nsbruck
TER MIN
Ġst er
ans om
LE ON
UC I
SC RIPT
ĠCo oke
TO ANO
ĠAl d
ĠBe h
Read er
rew ery
Port al
TH EW
Ġall ocated
Bro ken
ald i
Min ion
Par allax
Ġph oto
eds oe
OP TI
illa ume
PH Y
ĠSw itzerland
lev ation
AG L
Mat hematics
Red ding
Ġ201 10
Ġman age
ĠFin land
elle fire
ĠAb straction
By te
ĠSim one
fe iffer
CAR SON
sch ematics
Bur ke
225 00000
ĠSam oa
Inst ant
634 140
634 130
ĠTur key
ĠBo opsie
ĠRev isited
Cr us
Lo ire
Mag na
rec ated
nas ium
ĠLy man
edd ing
ĠLeicester shire
Ġprom ot
Ġcert ificate
ĠNorm andin
Kan ata
ĠDw yer
Pay roll
Ġband width
Ġgen es
rex ham
Permission Set
Hosp itals
7300 10
Ori oles
ĠPOR TION
clus ive
ĠAlleg ro
clay more
spr ing
Ġ201009 30
ĠSter ling
STEV ENS
FAY ETTE
Ġsole ly
Vult ee
A ber
B oyd
C ox
E PS
H amp
H eld
P RI
P OM
R ex
R ox
R ough
R oland
S ave
W ES
W rexham
f iona
n ar
p kg
201 8
ĠS EA
ĠS weeney
th al
ĠC ontinu
re h
Ġ2 14
10 42
ro at
ĠP unt
ĠP LAN
11 87
ad am
ĠT OR
Ġt weet
ĠR ig
Ġo p
Ġp ick
ĠN ULL
ĠW ien
ĠL j
ĠL AP
ĠL SP
05 09
05 29
04 03
ĠH enzel
Ġd ark
ĠE PA
ĠE LEMENT
he in
Ġ200 206
ew alk
OR ED
ap pen
Ġ3 47
ĠK UMAR
op ic
AR P
Ġre act
ain a
ob re
Ġ17 5
Ġst ress
MO UTH
ET SU
ens ch
44 00
MA GNET
Ġad ult
NA D
Ġch ains
ors che
let a
Ġacc ommod
ĠGu ild
ĠAM ER
El f
rig er
Gl ad
ĠSP EC
Ġamendment s
aj ara
Tor i
oth ian
ĠAss oc
De el
Mad onna
ĠEl s
Bel t
ĠQ ML
Ġcol lect
With out
Ġcom ments
Ġen abling
Off ices
NO AA
Super PAC
Water ford
asc ade
ĠWin chester
ĠMcC ull
POL ICE
ĠCle ary
ART MENT
ĠSol omon
Log ic
gl uc
Rog ers
Cros st
Whe eling
ĠSH ORT
Hick ory
Ġsol utions
ĠRand all
ĠKh al
ĠAutom ation
Ġcontinu ous
Wat ford
ĠPhot ographic
Lov eland
ĠDream s
Ta os
More Luck
olid ated
ĠBB Q
Ġdiscover ies
Ġrender ing
ĠVERT ICAL
Got eborg
Ġrelation ship
Jak arta
ĠShield s
ĠPrec ipitation
ĠFINAN CIAL
Ġsuccessful ly
Sylv ia
Than Skill
wild blue
Blank et
Ġnav igation
ĠPetro leum
Bahaw alpur
MoreLuck ThanSkill
A WJ
B rom
C MA
D ADE
G LI
H AS
J oh
J ubilee
K iss
K amp
K itchener
L OR
L ike
M GC
P omeroy
R J
R aul
S ym
T ran
U m
V it
W HA
b ob
c N
j ee
m ael
p arser
u ano
w d
Ġ raw
20 9020
er le
es ome
al in
th am
ĠC ynthia
ĠM ile
ĠM ines
ĠP ett
ĠP rison
ĠP ablo
11 23
ĠT ammy
ĠB uffer
om ber
ĠR ab
ĠR ina
ĠR oma
ĠD as
ĠD orado
ĠN ad
ĠN ames
ĠW alf
Ġs m
ĠL ef
Ġc ouple
Ġa queous
ĠH umph
03 06
03 24
Ġd at
em ies
17 20
ow e
Ġm ount
ort ier
IN WM
St ack
EN CES
Ġ15 3
Ġ15 8
qu ery
ak ar
og ram
Ġ18 3
Ġg all
FL S
ĠCh hattisgarh
Ġ2014 04
ne z
ne um
ĠPl zen
ĠAr b
Ġcont inue
Car ole
ous ew
ik ely
az ing
100 4
ĠRe el
Sc ientific
HO ST
alt z
IM ED
Stan hope
eck el
AND S
AND ERSON
Ġun wanted
ĠWh itt
ĠEx pert
ward s
Ġinter ested
Ġrec ess
SM U
Pol it
arl ing
Ġfl at
FE B
ĠAir y
Ab u
Ġnon profit
Ġoper ate
ĠWe i
ĠEm ma
Ġadd ing
ĠPra ha
read me
ĠGood man
ĠMcC orm
Ġz oom
Mun cie
pur ple
ĠDR AM
Ġtransm its
ĠVel vet
UMB ER
ĠDem ographics
ĠLeg end
Ġscreen shots
Ġphot os
ĠRemix es
ĠGU IDE
Ġconsum ed
Ġdetect s
fre esboro
ĠCIR CU
Ġadjust ment
ĠTel angana
ĠGro ove
Ġseg ments
Ġrank ing
Ġpubl ication
ĠDIG IMARC
ĠPath way
ĠChi ara
ĠIndian apolis
525 00000
ĠRomance CR
Fer ndale
Ġprepar ing
Harm ony
ĠDum ortier
ĠSom erset
Ġorient ation
0299 13
CHAND AN
Ġsubsequ ent
ĠTit ans
desc ender
ĠRasm ussen
ĠMcGu ire
Mord ecai
geme ente
Crew e
Gond ek
Simply Monk
Microb rewery
wildblue ink
A arhus
B utter
B XL
F ERNANDEZ
G ross
G OP
J ov
L ot
L ub
M ant
N ON
P ic
P end
P leas
R osh
T app
U H
V NR
W itt
Y un
b enhavn
c f
m is
m adge
p ositive
r Sr
s ensitive
v m
w ine
w eekly
z one
an agan
ar ily
ĠS ug
ĠS usp
as than
Ġ2 40
ĠT od
ĠT all
ĠT ang
ĠT AK
ch arl
ĠSt ill
ĠSt ell
ĠF v
ĠB Sc
ĠB ram
ĠB eef
ĠR aza
ĠD im
Ġp ark
ĠN ever
ĠL ie
ĠH it
15 26
02 45
Ġin let
Ġin herited
ĠE fficiency
ew ind
ĠV irgin
Ġv ert
ĠK ov
ĠK ara
ĠK oscius
ke ith
St and
ra int
Ch ampion
ip ers
Ġre in
Ġre ct
Ġby te
IL Y
oh y
In frastructure
Al am
MO THY
Cl ara
ild e
ĠRe jected
ĠZ oo
AD ING
ĠFran z
ĠDO U
ĠSp ence
ĠAv g
ĠBr enda
En ter
En able
Ġpresent ations
For ged
Ġmod els
sc apes
me ier
Tr out
ĠCont emporary
Sal Gre
ĠHar ley
DR ESS
Ġ100 01
ĠAL LEN
off ord
Pitts burg
ĠMed ina
urb ank
Book marks
ĠFr aser
ERI ES
Om ega
Ġgr ad
ĠBer keley
Com ment
ĠMcC artney
Ġ78 232
Tele phone
ĠCru iser
ĠJOH NSON
ĠAMERICA S
Rom ance
go ogle
Ġap plies
ĠHel en
do i
Ġenc oded
ĠBurn ett
ĠDu kla
Rev erse
Ġcamp sites
ĠFac ilities
Ġstr ings
Ġcalc ium
ĠDav ila
Ġut ility
Ġprom pt
ĠTrail er
TW IN
Brent ford
prop rotein
Ġdise ases
Ġsynth et
KAL AMAZ
Guy ana
Ġtax es
Ġtermin als
Ġassemb lies
Robinson ville
Corv ette
Stra ight
Ġblank ing
Jud ith
dem o
mosph eric
ĠDuff y
ĠLod ge
Cly desdale
Resp onse
Rout ine
Stark ville
ĠOG ONEK
Norweg ian
ĠPk wy
Enchant ed
Wies baden
BXL T
KALAMAZ OO
B ard
D ess
F ive
H iro
L amp
M FC
N FL
O EHHA
P ima
T yr
T ucker
U EL
Z ion
k as
m embrane
p revious
w idd
Ġ ul
at he
ĠS ET
ou jo
11 55
ĠT ide
ĠF unk
ĠD il
ĠD ee
ĠD ash
ĠD egree
Ġp urp
Ġp owder
ĠL ap
Ġa us
ĠH un
ĠH ew
01 10
ĠJ orge
Ġd eck
ĠG ent
ĠG og
ĠE ch
ĠO ST
ĠO EHHA
ig ar
eb bins
23 24
Ġ3 30
Ġ3 34
ĠK ul
ĠK endrick
end ez
ist ed
ff ord
pl t
Ġ15 00
Ġ7 200
Ġ13 3
PA W
Ġ17 4
ast ique
ash ion
ST RAN
ĠMar r
eth z
oss er
North east
Fl o
100 7
ĠSch e
ara i
ĠSp arks
Ġun finished
Gl amorgan
Ag u
amb ique
Ġinter view
Sw ord
Ġde let
ĠFl ah
Den is
sc ill
Ġapp oint
ĠDi jk
Indian s
Ġim ag
even ue
Ġcom ic
ĠRed ding
ĠBar n
ij n
Del aney
Tur bul
Ret ainer
Ġ201 11
Ġac utely
Mill an
409 1
vel ope
ĠDel ivery
alth am
aver icks
km d
Ġpr ice
Hel p
Jess ie
ĠGe ological
mod ules
Son ic
Mer le
reas ing
ĠHear ts
Tele com
ĠAD VANCED
Ġgu idance
ĠPond s
ĠHer zegovina
ĠRog acki
Ang ola
DEL AIR
ĠOrder ed
war z
ĠPH Gs
Pont e
ĠTerr itory
ĠFer ris
Fox boro
ĠYe ah
sim on
ĠBag shaw
Ident ity
ĠSin atra
ĠINCLU DED
ĠSUPP ORT
Ġdepend ent
ĠSwan son
Remix es
Malm o
far ley
ĠBrig gs
Ġincorpor ating
Ald ershot
Ġprefer ably
Ġpor ous
ĠDise ase
0253 23
agnost ic
DANI IL
afl uoride
ĠSpie ker
Seventh irty
Crabb ler
ĠWalf ish
) (
3 0000000
B OW
C airo
D errick
F IC
F PS
G AS
G ian
H it
I B
J Z
J etta
N ampa
O E
P une
S ide
S ey
V ail
V ocal
V ince
W X
W ir
W INTER
Y ang
b efore
d w
g eneral
i Tunes
k us
l inux
n n
p uzzle
s ys
t ing
20 95
ed ad
ĠC ome
ĠC RF
ĠA AC
re ce
ĠM CU
11 34
st paul
ĠT iger
ch ed
ĠB erman
ĠR iders
et up
Ġp olicies
ĠN aw
ĠW att
ĠL ump
Ġc rop
02 26
Ġd ra
ĠG ot
ĠG etz
ĠO w
ig ail
16 05
iv ar
ĠV ision
ĠV ermont
ĠV ehicle
Ġv Sphere
oc cer
Ġl anguages
ess andro
Nov i
SI P
ain wright
ĠCh ill
Al f
Al do
riv acy
ĠMon th
Ġr ich
ph alt
Col ton
ĠMan chin
ĠIN DEX
MA O
Ġform er
Ġform att
pe th
Ġle ague
Ġle agues
ĠTe levision
Ġcont ribution
Ġ03 857
Sc ore
iple x
ĠSch ol
ĠSch auer
ĠOr r
BA H
ĠCon vention
ĠCon rad
Ġint roduced
Pl us
Can berra
ĠServ ants
CE AN
Ġde ath
FX ES
De uce
BER D
dom ain
CY CL
Alb recht
LY N
aff a
Ġtr ace
Mid lands
ĠDE P
Bill ie
ĠTer rain
ĠOl ivia
ĠShe a
Fe eds
IDA HO
MICH IGAN
ĠPeters en
ĠPlay back
Sol o
Sol ano
ĠMal oney
inter leukin
Soph ie
Ġrot ational
FS EN
Ġbel ong
CAT EL
Ġann ular
Ġtool bar
ĠHow e
Ġemploy ees
ĠLit ers
gran ny
Lab or
ĠIMA GING
ĠDw ight
Mead e
Kon ami
Fle etwood
ĠJess ica
Ġmit ochondrial
ĠReserve America
Trav erse
ĠGym nasium
term inal
Param eter
yth m
oush ik
Falcon iformes
apeut ic
ĠEmerg ing
lym ph
ĠHEN RY
Lion el
Tup elo
Ġfer romagnetic
WOL FXES
Scha ub
FARM ERS
Deel gemeente
ousew ife
ĠKoscius zki
stpaul chuck
7 3750000
B orn
B ush
C z
C ine
F ID
N ay
P orsche
R iv
R itz
T EM
b um
d l
d igit
h ail
j ad
m aint
n j
r zt
s ual
on ge
ar est
es i
Ġ1 29
ĠM ats
10 67
ro eder
am ous
ĠP rim
11 18
st at
st ant
ĠT CP
ch ers
ĠF al
ĠF ax
ĠB aird
Ġf ont
Ġf ta
Ġf vrier
Ġp ull
Ġc asing
ĠH istoric
Ġb is
Ġb olt
25 80
17 80
Ġm olecular
ĠV IN
ĠV aries
ĠV ivo
ev ine
ĠK us
op ers
AL O
Ġre vised
ord a
Ġh ol
Ġh eter
io let
Ġ13 4
se lect
ĠTh rough
48 750000
ure au
In let
ĠSc i
ric al
ĠMan i
own a
les h
ĠSh affer
An ita
UR N
SA H
ONE Y
her in
Gr ays
ĠEn c
Man iacs
Le ighton
Ġse en
ĠSM ART
Per fect
302 113
Ast oria
Ġmin im
Jo anne
309 113
ĠCons ort
gr aduate
km al
etter ing
Bas que
Str at
Ġkey word
ĠControl s
303 113
303 420
sun shine
ĠBan ner
311 113
STE IN
3011 13
Ġge ographic
Ġfre qu
312 113
Electric al
Ġnonc orporate
Ġarrang ement
Sm art
bul let
Cons ole
ĠJu arez
Es per
Ġ92 123
Il ves
Mur freesboro
Beck er
john oel
BAN ON
Ġcoordin ate
ĠDerby shire
Ġmajor ity
SEC URE
ĠKre ipe
cre ate
ĠPos ey
ĠBlu etooth
Ġfood s
Bet ween
Ġadhes ion
Ġproble m
Camer oon
shad ows
ĠOPT ICAL
avian flu
VERN MENT
Amity ville
Budd ha
Resid ency
ĠVolunte ers
hemat ical
STEVEN SON
sual ian
. /
2 112
7 51
C ir
C REDIT
D AR
D exter
G TT
G roningen
H af
H appy
L ac
L AS
P ed
P CI
T LE
T ings
V iv
W inn
W iki
Z EL
Z oo
b n
d ir
d iplom
e ur
g ol
g res
n ud
s outh
v ic
w il
w ear
ĠS ang
ĠS urgical
ĠS uffolk
ic ians
ay ton
re on
ĠM Y
10 32
ĠP ere
ĠP ayments
ĠP ioneer
11 15
ĠT WO
12 18
ĠB oc
ĠB asket
Ġf ail
Ġp i
Ġp p
ĠN ar
Ġs ymbol
06 00
ĠL D
ĠL ook
ĠH arb
ĠH rvats
Ġb rief
03 10
02 13
ĠJ ah
Ġd ress
ĠG y
Ġin spect
ĠO LU
17 75
Ġm amm
AT S
pl es
ass o
ĠY es
FL ORIDA
ial og
35 000000
cl aw
thor se
Br as
ik en
Sc arborough
Stan ton
ĠOr b
eck i
Ġres on
ĠX ml
AB AD
ule an
Man i
ĠIs lam
ELL BAS
sc ale
ĠLe op
ĠLe Bus
TR AN
Ġpre proprotein
Ġsign ature
OP OUL
CD DL
?? /
oot ing
LY B
LY OND
HER E
ĠReg ister
sw susp
ours es
Book mark
ĠSal le
ĠAc id
ench re
ĠInter est
ĠNot ts
Ġ329 07
wh itel
Cre ighton
ven ing
Rh ineland
DO I
FO X
ĠAB SOLUTE
ĠOrgan ic
inter face
Ly ons
Worcester shire
Ġtechn ique
Kings ville
STE VE
Ġbook marks
ĠDist ricts
ĠDur an
Light ning
ĠLabor atory
lem enchre
urric ane
ĠGh ost
ĠCondition ing
Pull man
Poly gon
Circ uit
Platform er
lund a
Cer ulean
ĠHarm on
ĠPul ley
Plain field
Lef lore
ĠMOTOR OLA
Emp oria
Dim ond
ĠLars en
Ġcommit ment
ĠDoming uez
ĠNigh thorse
Guadal ajara
ĠMex ican
Ġdon or
ĠPAC s
ĠScr uggs
Extracellular Sequence
Migr ations
Tings ry
diplom ov
ĠHrvats ki
LYOND ELLBAS
) ..
/ ,
8 36
D ob
E rick
E thereal
G olf
G oshen
H asan
I ch
J AS
K id
K oushik
L ie
L BM
M TN
N ever
N othing
O sw
Q R
S ak
Y on
Y AM
g ame
t itle
z immer
en ers
ĠS olar
ĠS IP
ĠC ELL
ĠC ancer
ĠA lejandro
10 54
ĠP ence
ĠT ou
ĠSt up
ĠB N
ĠB ri
ĠR S
ĠR ac
ĠD ogg
ĠN ix
ĠN apa
Ġs ongs
Ġc rystall
ĠH arg
ĠH YD
ĠH idalgo
Ġb ony
Ġb ounds
ec on
ĠG le
ĠG ates
ĠE MS
ĠE yes
ĠO ch
ir is
ly te
17 59
26 500
ĠV iol
ON ES
ĠK ob
ich o
AR M
Ġh ormone
IT L
ĠIn iti
ak ov
ust on
Ġ18 2
Ġg irl
FR ANK
RO B
ask in
San ct
Ġe fficiency
ĠMar a
ĠMar cel
Ġ0 20
WA ITT
NV W
Ġass istance
70 11
AZ AR
Ġpart icipants
El i
ALL EN
ILL IN
ĠEx cel
PR K
ĠHard ing
adel ine
oth e
ĠMich elin
esh ot
Ne ese
ĠHe in
ĠSw oop
ĠRed man
Ann ual
Ir win
Ġac oustic
CU BU
Grant ed
ĠBur en
Hard y
ko an
pres ent
ĠTA IWAN
Ġhost name
HB F
HK D
Van essa
ĠMack ay
ĠMic hele
ĠBO X
Hunter don
Ġadjust ed
Ġsk ills
Kill ian
ĠBos well
Dew ey
Fle et
Ġfavor ably
wal ter
Trad ed
Ġcyl ind
Kit koan
ĠOri ent
ĠHerr era
ĠTI MOTHY
Quant ity
you ng
ĠPROTE CTION
fac ulty
wol ves
ĠLoo fa
ĠNU YS
ĠGres ini
ĠPHARMACEUTICAL S
Nation wide
kik ko
Provinc ia
A head
B oo
D ade
D ONALD
F ear
F eth
F ountain
F REE
H ays
L acey
M es
M GA
S SA
S CHI
T ut
T ang
[...]
