#version: 0.2 - Trained by `huggingface/tokenizers`
2 0
20 1
e r
o n
i n
a n
a t
a r
o r
e n
e s
" "
Ġ S
Ġ 1
a l
t h
e d
l e
Ġ C
a s
i c
a y
i s
e l
Ġ A
20 0
1 9
o u
Ġ M
1 0
r e
201 5
Ġ 2
i t
0 0
in g
i l
r o
a m
i on
1 1
Ġ P
c t
201 2
s t
Ġ T
a d
en t
201 3
c h
1 2
an d
o m
Ġ F
Ġ B
o l
Ġ f
ĠS t
Ġ t
Ġ R
Ġ D
Ġ th
r i
e t
0 7
u r
Ġ p
u n
d ay
201 4
o t
Ġ o
0 6
Ġ (
0 5
Ġ N
u l
Ġ s
Ġth e
0 4
Ġ W
Ġ L
Ġ c
i d
0 8
at e
Ġ a
Ġ I
Ġo f
0 9
201 1
Ġ b
Ġ H
0 3
0 1
0 2
1 5
Ġt o
1 8
e p
u m
e c
at ion
Ġ d
1 3
a c
o s
1 4
Ġ G
Ġ J
o v
Ġ in
h e
Ġ E
p r
e m
3 0
Ġ O
i r
Ġ 200
M ar
i g
2 5
a g
er s
1 7
Ġ -
u s
e b
e w
1 6
2 4
i v
o w
Ġ and
a b
201 0
l y
O R
i m
2 3
es t
Ġ w
Ġ m
2 7
2 6
2 9
o d
Ġ V
Ġ1 9
i a
e ar
Ġ 3
I N
or t
E R
2 8
a p
Ġ v
A pr
2 2
e x
c e
O N
es s
o c
u t
or m
2 1
U n
m ent
a v
C A
al l
e v
u g
Ġ K
t er
n d
t on
il l
A S
S ep
. "
Ġ n
Ġ l
el l
b er
O ct
19 9
Ġ 2015
k e
Ġ 4
S t
an t
e ct
A N
E S
it y
i f
N ov
ad i
3 1
s on
ar t
i el
Ġ 5
is t
C h
o p
r a
A T
ic h
in e
en d
ar d
Ġ y
ou t
adi um
E N
r an
ĠSt adium
200 9
on t
i p
f f
e g
A R
es day
ac k
u b
iel d
Ġ1 0
F eb
E L
ou th
A L
U S
on d
as e
Ġ1 5
Ġ Y
or d
as s
S I
i e
Ġ 8
N ew
M ay
a il
a h
v er
g e
R E
Ġ re
iv e
Ġ h
a in
Ġ 7
Ġy ear
u d
e e
Ġ1 2
Ġf or
ro m
Ġ 6
l and
C H
n t
i th
A M
l l
Ġp ro
ig h
il le
q u
p l
ab le
ar e
Ġ1 6
om p
ou r
G N
o g
I T
ĠSt ate
Ġyear s
ar k
Ġ on
as t
Ġ1 4
f orm
3 3
ĠI n
o b
I L
A ug
Ġb y
5 0
i o
Ġ 9
at ch
t e
N C
Ġ1 8
r es
S p
N Y
w n
D ec
J an
u st
SI GN
a k
J ul
Ġ1 3
p er
Ġ1 1
19 8
v ille
Ġ2 3
P A
4 5
Ġ 20
or k
S he
ic k
r y
Ġ1 7
s e
id e
ag e
am e
it ed
Ġ g
ar y
3 4
ul t
al e
or e
u c
is c
She a
ĠT h
T h
o h
Ġ 07
or th
Ġ Un
4 6
k l
4 7
Ġ 2013
Ġ2 1
C O
Ġ U
Ġ is
3 5
at es
T V
F L
Ġ 2012
u e
ur s
ot es
i re
at ed
J un
i al
E D
a ch
s h
3 7
m an
Ġ2 2
n g
ic e
u re
n e
p h
ĠC h
F R
3 6
en ce
as h
Ġf rom
or y
M O
F l
on s
i an
p p
i es
ul l
le y
ĠM on
4 8
3 9
L A
T ER
200 8
Ġ 2014
S at
S h
ail able
3 8
R O
I n
re e
i z
Ġ &
T X
ri v
is s
4 9
o od
A l
o st
S un
. .
E T
00 00
i b
a w
t s
Ġ an
ou nt
200 7
o k
a u
S T
3 2
A m
er n
4 0
ex t
u esday
ed n
in a
en s
Ġ st
on e
T he
edn esday
urs day
r ou
Ġw ith
g h
am p
om m
M I
em ber
i le
SIGN OR
19 7
oc k
ic ation
Ġv ot
om e
Ġ are
M A
Ġ200 9
ĠT he
ri day
an s
oh n
) "
Ġ at
W atch
Ġ19 9
as k
ĠSt ates
ing ton
Ġ r
O L
Ġb ase
Ġ2 7
Ġ2 6
ĠA S
r ic
in d
e ad
I S
ĠR o
Ġ2 8
Ġ or
ĠY ork
ur day
4 4
e f
ĠI N
r u
ir st
5 6
igh t
ĠS en
end ment
Ġ 06
Ġ out
Ġ 30
5 5
C l
th er
c l
ĠM an
IN G
Ġf orm
ort s
Ġ 0
is h
i am
Ġ 2011
C ol
u al
om a
EN T
Ġ2 9
Ġ ex
200 6
Watch ed
ow n
Ġ2 4
5 1
e le
S an
ĠC ar
b ur
at or
ĠC ity
ĠS un
ĠS c
5 7
in t
f ord
US A
M on
an c
ac e
6 7
4 1
5 8
en n
ct ion
S outh
4 3
riv ate
re et
Ġb e
Ġ 2010
L E
C T
at h
Ġf ield
ĠT uesday
Ġf irst
9 9
Ġ2 5
ĠTh ursday
ĠW ednesday
ĠP ro
p e
Ġn ame
t ion
f er
ĠMon day
ff ect
ĠC A
Ġv s
o x
O H
5 3
at t
M ich
ur n
s s
5 9
ĠSt reet
V A
AM E
ĠM ar
c ess
F B
ĠO F
e th
s p
ah oma
kl ahoma
Ġ200 8
ĠS at
b y
5 4
os ed
I C
ex as
i ew
ĠSun day
I A
u p
om b
S U
ĠA n
o y
O klahoma
k s
an g
a ct
W A
G re
Ġt ext
19 6
Ġ us
ĠA d
ĠP l
Ġc omp
ĠF riday
Ġa g
Ġw h
r ed
N V
ĠP ark
ent er
it e
ES T
200 5
an n
Ġform at
ĠF ree
ic al
4 2
wn er
ĠSat urday
ĠUn ited
f t
ĠA r
Ġd ate
th or
Ġ200 7
ro ll
P ro
L os
ol d
or n
ar l
5 2
ffect ive
8 6
ing le
P h
I ON
in al
L as
ĠV eg
C le
N orth
im e
A d
ĠC l
FR AME
U C
U R
Ġ 08
ou is
RE EL
AS SIGNOR
B r
I D
Ġ le
y st
is b
ation al
r ess
T exas
A n
v ailable
ĠS h
ig an
200 4
m outh
pl ication
ĠVeg as
an ce
av id
Ġvot ed
in n
ou se
j ect
an e
d er
in s
A r
est er
ig n
re g
9 0
i x
id a
U T
ĠS p
ĠF ield
form at
w ay
Ġp rivate
er v
7 5
ĠN otes
ĠRo ad
Ġth at
G A
ĠIn c
ĠN o
n otes
N A
00 0
isb n
6 6
at er
e y
l or
ing s
ec ond
p en
Ġ ass
h am
ri d
ag es
Ġ3 1
ay ment
al s
y l
I nd
a ke
e ch
ĠI NC
f ield
o ol
Y ear
Ġ200 6
it ion
M ENT
i ed
am a
Ġc ont
J ohn
S C
il d
7 8
r is
ĠA m
ĠE ffective
on g
et t
9 5
et er
ec if
O S
r al
i k
S e
art mouth
um b
R o
Un ited
in o
t t
ĠS A
ĠC O
T O
N E
omb in
Ġp ayment
ol ina
ount y
Ġ ch
ant a
on n
6 4
yst em
Ġ /
ter n
rou nd
ev el
Ġf ee
ou s
ĠC o
PA Y
W est
P M
ber t
at a
av ailable
6 2
c c
Ġ 09
Un available
F PAY
Mich igan
Q u
it t
Ġv al
Ġ ad
B l
au thor
i er
Ġ k
ĠMan ual
. ;
e al
. ,
ov er
L C
W in
in k
M S
Ġ 03
Ġp m
D avid
m in
ran s
reg on
6 5
cl ud
Ġb all
7 7
ĠR ep
l ic
ĠB l
8 8
O wner
n ot
10 0
200 3
M iss
ash ington
ĠC ounty
ers on
7 9
E C
Ġ am
A vailable
T N
st on
ap er
ON E
e or
U N
ot t
n o
Sp ell
A ust
A ct
form ation
am il
ĠIN TER
am es
6 8
ĠC ol
200 2
b ack
ĠSen ate
re am
ion s
y n
Ġ Z
t l
ĠJ un
Ġ e
en c
un d
ĠSc roll
O regon
Fl or
C ar
7 2
te in
ag o
ad a
7 0
or s
ow er
L ouis
a z
on a
ĠA l
6 0
200 0
ĠCar olina
6 9
R ead
n ew
P ort
Ġ ev
200 1
ou nd
in c
H ome
Ġ 04
it ch
R A
Ġag o
an k
l es
i ke
Ġ 01
ĠA ug
ire ct
ĠJ ul
Ġ 05
H I
M ult
ĠB e
F inal
od e
Ġs h
AS S
S c
Am endment
un n
Sp orts
bur g
d ress
a x
ill iam
ri gh
AT ION
Ġs p
a ir
ĠN Y
9 8
en er
ng el
or p
r ist
ay lor
ĠA N
c o
er t
M D
Ġ 02
H A
ep t
ĠINTER EST
Flor ida
er e
F ull
S E
ar i
ĠF ran
W ashington
Ġ as
ent al
u le
- -
Ġin clud
R I
e am
ip le
ĠE n
M en
h io
ar a
er y
M M
ĠS ch
m kl
re w
mkl z
S D
7 6
r am
O K
O T
OR P
ĠS T
8 0
W ant
Ġp l
W I
oc ation
O pen
m son
N J
Ġl ine
Ġs econd
ri ke
ĠA ver
Gre en
ĠO ct
er man
ĠN ight
ĠJ an
Ġin formation
ĠR e
ic ago
ond on
os e
D E
ĠI ll
le x
ou ri
r on
7 4
8 4
ĠF L
Ġ un
8 5
ĠN ov
ĠP RO
ĠL LC
on f
ES S
H O
ĠAS SIGN
F res
ĠD ec
Louis ville
ro d
P I
us s
u pp
rike out
od y
ĠAver ages
ir on
our ce
ĠM c
ons in
D ONE
E x
isc onsin
ĠASSIGN MENT
al k
iv er
on ent
y d
it s
it u
Sh el
6 3
C o
N ot
7 1
Cle mson
ĠO r
A D
F ran
St an
Ch icago
st rikeout
et s
ab ama
O hio
ec k
ĠNight ly
al t
ĠP M
a i
a el
ap plication
righ t
Ġ all
L SU
E d
O n
) ,
r ad
l o
ĠAS SIGNOR
Mult iple
8 3
ĠD O
ĠA ngel
A Z
ĠD artmouth
v iron
W isconsin
viron ment
ĠE d
G R
l ine
b s
id ence
M P
ĠB ro
omm un
A tl
ĠSen ator
er ic
7 3
M N
ol og
T H
Ġ200 5
.. .
iv ers
it or
E n
Miss ouri
Ġ X
ĠJ ohn
Al abama
a f
AN D
ĠASSIGNOR S
p osed
J ack
em ent
ĠM ay
y s
at ure
Ġcomp ut
ĠF eb
res ent
F ri
Fres no
Shel by
el s
ĠG u
p ort
8 7
Ġwh ich
ar s
ri b
ĠP aper
om en
Ġto wn
Ġ 00
on y
A B
r ing
I R
l in
Ġex per
T ot
ĠP A
o o
iam i
Ġ [
isc o
os s
ar b
M ale
at ing
i or
ot e
8 9
ic s
In s
ub lic
le t
UC LA
el and
an y
ĠT X
ic o
199 9
vironment al
Ġc ombin
Stan ford
L ondon
S A
M iami
l d
ut e
fer red
M an
ĠAngel es
uc k
h er
ĠN orth
L a
Ġ res
ate g
B A
G r
as ter
E ng
o ok
T E
on c
ri z
eth od
el ess
ĠA pr
ow s
B ro
g er
Los s
B aylor
Ġpro tein
ET TER
v ent
ĠM en
E l
ĠT ech
Ġs ystem
ĠA M
A ub
Ph il
v e
a ul
8 1
Jun e
w ood
y pe
iv ity
Ġin t
ĠL ETTER
Ġexper im
p m
Ġcombin ation
in u
al if
ĠC enter
ĠPaper back
ĠC ORP
ri g
Ġin ferred
8 2
ir eless
Ġexperim ental
9 6
M B
st ream
M ov
er r
Aub urn
ĠF ull
Ch arl
ĠFran c
p t
Ġev idence
G l
av e
ĠF ile
A P
Ġc l
H E
ĠA nd
ol l
Ġp resent
em b
ul ar
Port land
ĠW atch
ĠS ep
I F
U L
uc cess
o in
Ġcomput ational
ol s
ĠM ore
w e
Ġs ub
Ġw ee
AL L
D an
ino is
ap ol
Ġpro posed
ĠC omp
ar m
ĠN ew
ele ct
D IS
y c
P AT
ĠT ime
n er
K n
Ġpro v
A nd
ĠB r
199 8
o ice
Ġ Qu
rid ge
M in
ĠW est
al d
) .
ĠI L
6 1
C an
G E
F or
ay er
ĠBe ach
Mar ch
er ry
er m
ep h
Jul y
Ġn ot
C C
V E
Ġon e
Ġp art
Ins itu
A K
D isc
ĠAd dress
en e
F riday
ot a
o ct
O r
Ġre c
en g
Ġs c
ĠS P
Ġ im
Ġc an
M E
Ġ *
199 6
S uccess
IL L
K Y
riz ona
is e
ĠP h
upp ort
h ouse
as es
ect ion
T uesday
Ġp h
ateg ory
ĠA PI
W ednesday
o e
Ġd ata
Col umb
David son
u ild
Ġ #
C ell
9 7
p ro
o at
199 7
Th ursday
Mov ie
b ject
Sep t
Ġd e
D C
F il
is on
m er
an a
5 00
ic es
ain t
L e
ĠFranc isco
ers h
sh ire
us e
C it
IT Y
ir d
Ġval id
F r
apol is
M ont
O VA
l er
Th is
u ff
C E
o ber
Ġ200 4
Ġc enter
att le
Atl anta
ĠH igh
er os
S w
ĠP art
ĠI s
Mon day
ĠU T
ĠH ill
am b
ĠW ireless
ar r
oct et
A ll
Ġth is
ad e
Ġr el
F C
P l
CH ED
S L
Fl ask
24 0
ĠS outh
Ġ al
m ith
9 2
er tion
ĠE x
ĠRep orts
ad el
Apr il
ad o
ro w
um ber
Ġa c
i um
un t
a j
Ġle ft
ĠW h
Ġw ill
9 4
ast ers
9 3
ĠF or
P IT
C S
r ap
DIS PAT
A rizona
DISPAT CHED
D irect
Ġ200 3
il ity
ur al
qu e
P E
199 5
ĠM A
W eb
Ġass ertion
er d
g an
Ġd is
ĠA ct
ur r
erman y
ear ch
9 1
Ġam endment
Ġh as
Ġsp ecif
e ff
R ep
k i
Ġp re
t ask
ER S
as ed
C omp
u ary
P ol
ĠI nd
V D
Ġ right
A eros
D en
S o
l ish
ost on
id ent
w ard
ro s
G B
c es
* *
Ġm ethod
Ġa b
et a
P R
riv e
Ġt rans
ph ia
es h
Aeros ols
b a
D r
ud io
adel phia
alif orn
Ġ up
ort st
R ec
re en
f ace
ec ial
I G
ip p
i ence
Ġvalid ated
aliforn ia
F X
A g
Th u
25 0
N orm
on st
v en
M c
ri an
ĠF ood
ĠPl an
ĠIll inois
ans as
ĠN O
ent s
ch ester
T or
p plication
Cl osed
ĠL e
Ġa cc
le ment
ĠH ard
us h
ide o
ĠPRO GR
u ct
rou p
pr ing
P S
G eor
7 50
F ort
ĠAN D
ask a
N S
ĠC orp
I M
ĠS erv
1 10
Ġd ev
ne y
le ct
ortst op
F rom
R es
D B
e as
ir m
ro l
ation s
ĠA ss
Aust in
P ar
itor ing
Ġprov id
amp ton
ĠD oc
ar g
m e
ĠF l
L evel
ou ston
ersh ip
ĠL a
Jack son
E V
Ġin ter
Phil adelphia
ĠPROGR ESS
EL L
S O
A way
I I
Ro bert
at ive
15 5
Sat urday
Green house
R ich
ĠG ases
ĠV ol
201 6
al y
onn ect
ASS ED
o th
T ue
ing ham
ou l
qu est
er c
L IN
Ġg round
O ther
Ġ he
K S
m p
W ed
B oston
R IN
Ġ day
Fl oat
en a
ĠG l
C ategory
ĠCORP OR
Se attle
W illiam
Ġ ,
ĠV iew
ĠR es
em ale
T A
in es
ĠD e
M asters
ĠV al
oc ial
I CA
b le
o int
ev iew
b or
IT H
c omp
ov e
T o
ĠG A
D e
L AT
an o
ĠA g
w in
our ces
land s
ĠMon itoring
I t
ent ral
Act ivity
y r
olog y
ĠCORPOR ATION
EL E
all as
W C
AR I
us ic
at ic
Ġ200 2
p art
N ash
Norm al
amil ton
ommun ication
P r
evel op
ĠD B
at us
ĠK ing
ĠW illiam
g in
ĠN E
S en
ke y
Ġwee ks
G ermany
ĠB ay
ap an
D F
on es
H ouston
er iz
N e
B ar
Ġ ro
I nt
r ick
M il
ru ary
B O
Ġd ot
ĠD C
o le
ĠY ES
Ġg ener
d y
ock et
Ġvot ing
T ON
S M
ĠD r
oc i
ly n
ral ia
Nash ville
Ġn ear
ic a
Cit i
u k
Sun day
ess ion
Ġs ingle
ĠL ake
ult ure
F emale
ĠC ont
ĠR ec
ol y
T r
ĠGu ide
om as
S anta
d t
OR E
Aug ust
Oct ober
u es
amil y
ĠF C
F A
Dec ember
Ġ Q
p tion
er ver
ro ss
M ad
ĠB HA
O P
ASSIGNOR S
ĠW t
ĠO H
re te
onf ig
ĠP r
ĠS EC
ond o
il es
ĠD i
eb r
Ġ* "
st r
s c
Nov ember
ont o
c om
Mich ael
ro c
w are
m a
f ly
R e
N one
c over
id d
ap p
CH N
e at
B el
Can ada
w on
s ingle
199 3
Ġl bs
ĠPart n
ar ri
ur es
199 2
uild ing
u ro
rou gh
m on
S al
ĠT r
ob ile
el d
ob s
ĠA ge
th ly
et ro
ivers ity
w est
D allas
H L
Sept ember
igh ts
199 4
id er
er ly
ex ico
ton io
eriz on
15 4
s om
L and
S F
R ule
ĠHard cover
M L
ĠAm endment
North ern
ib r
ur y
Ġan not
pl ay
10 7
C omm
Ġ3 5
ic t
Fil ly
H amilton
os h
Ġinclud es
C ombin
V ER
ru ct
C L
if ied
eric an
i ent
t y
Ġannot ation
198 8
o f
m ond
ĠP ower
M IN
ebr aska
ĠM I
C ondo
ir gin
ow f
all ed
ir ed
ur ing
Ġc om
est on
eb ody
u ke
u ch
Combin ed
ĠEn vironmental
Ġ j
ĠM ich
ĠPartn ership
w alk
0000 00
ĠSp ecial
g round
at s
som ebody
Disc rete
Ġin st
ĠA G
ra in
Ġm od
0000 0
Ġ u
Ġs outh
R el
k ins
av a
H ar
Tot als
ĠS M
UC F
ric ulture
w owf
wowf ie
ĠW ITH
R AN
re f
ĠL ouis
ĠM ark
Jan uary
Ġab out
eg o
er g
10 6
Ġh h
Ġp ort
k n
ĠO wner
amp a
is ion
it z
Ind ian
G u
ĠE l
if f
or ado
S ch
D A
d e
B C
J apan
ap t
P H
A s
Ġl ink
et te
Bro ok
enc y
Ġ US
w ork
an ia
ic le
ĠAn tonio
11 1
Ġval ue
Mar y
C K
Tor onto
O W
N or
Ġp er
M a
EN E
ĠH ouse
ĠO n
ev e
B ER
199 0
as on
D artmouth
P rivate
198 9
Aust ralia
W h
m l
3 00
Kn ox
b on
oc al
ut om
CO L
M inn
n a
ĠO per
F unn
Ind ia
Ġvot e
ĠA f
N ebraska
ĠS mith
Ġa ct
yc ow
Funn ycow
Ġdev ice
199 1
ĠG r
if ic
irgin ia
re ed
Mon thly
tern al
ĠT E
y an
Den ver
Ch rist
it ies
Direct ory
ec ur
en se
Ch ris
B e
Ġd ba
ill er
ont inu
it er
t d
M AN
ĠH e
j p
AR D
B us
bur gh
Am dt
Ġa pp
ill a
Read ing
Ġl ayer
Ġbe en
J eff
ĠT est
ĠW omen
Ġm ember
all s
ist an
A lex
AS E
u per
p ut
ĠH ar
Ġn orth
ommunication s
Ġt ime
Act ive
le ge
ĠA ll
3 02
ĠC H
oin ts
K ansas
Ġv oice
ke e
Cell co
g ram
at i
Ġ :
l ing
v eland
19 09
10 1
k a
ev in
J ames
M ike
v ed
O G
f r
in ess
o z
ĠH ol
ric a
H T
e ed
e z
Ġ it
S P
d om
E m
S l
ot te
Ġs ources
d ate
ĠH all
Ġs et
ou ble
ĠSch ool
Ġ3 240
RE G
S aint
urr ent
Tot al
ĠS ource
Ġ +
P et
Ġd ef
Ġ elect
rap h
ut ion
20 6
ĠManual ly
Ġm on
A U
unn ing
y le
LAT IN
Ġ en
S ingle
ev en
ri e
ĠT eam
198 7
N H
ĠB uilding
o ard
ound s
12 5
Ġ200 0
ĠI I
D VD
a id
ĠV erizon
o ft
ĠM or
T I
o el
R eview
u z
ĠE ng
OR N
ĠT O
U M
Ġin d
un g
ot ion
ĠC omm
E F
K B
S r
a ff
Ġd isc
T Y
P L
im age
198 4
ĠS w
sp ecif
P ublic
es ota
a it
Ġc ol
Ag riculture
l ar
es c
ĠR ed
ĠD ame
Ġre g
FR A
g ia
ark s
i j
N M
ers ion
Ġa pplication
? ?
ra ct
AN K
Rel ocation
A st
ĠP DB
S W
et work
ĠCO MP
kn own
Ad ult
v iew
St ring
sp ort
il ver
ĠSM ALL
ĠJ obs
ĠServ ices
ĠA L
bur y
Eng lish
el y
T ed
ou gh
s w
A pp
Ġpro cess
Ġevidence i
ĠS C
M or
Ġo ther
Mar k
if e
ĠDi ego
ĠRe form
Ġm in
M T
198 6
Not re
ĠB ar
Jackson ville
H C
ĠC amp
comp onent
u el
ĠT N
11 3
k y
Ġu M
ĠM ain
Cle veland
ut es
op er
A C
H al
l ost
W omen
Ġn umber
S R
ir c
ign ed
id s
C D
I s
Ġth rough
19 11
o ot
ff ic
iss ion
er o
Ġf l
Ġ end
Fran ce
P er
ĠR iver
20 9
N D
ĠN C
ĠR ead
Col t
d en
Ġus ed
al m
we en
ord ing
e an
ur face
L OS
ĠD ay
Feb ruary
ĠW A
T eam
ĠJ r
b l
re y
ul es
C ON
ĠW eb
ĠC ommunications
Ġac cess
R eg
En vironmental
Ġ200 1
A A
** )
ĠB ell
ĠBro wn
ibr ary
Ġl ist
am in
un ch
V al
it ts
B ob
B rian
C al
D ef
Ġ199 8
ĠC at
15 0
W il
Ġf ile
un ction
os ition
ĠTh is
Ġb et
ĠMan ag
PIT AL
T ampa
ĠO R
f l
ĠP et
ĠP aul
ra z
our n
ou n
ĠQu ick
and y
ĠN OT
Ġn ew
19 10
Ġt ype
Columb us
Ġsc ience
uro pe
d ra
av is
Ġ ant
10 4
18 0
Ġm ay
J r
Ġs ign
Ġd rive
ĠM O
L AN
o en
G EL
ac ing
ri a
Ġ199 9
u x
eal th
ĠCl ass
ug h
Ġus ing
H aw
r ation
ĠCh rist
ĠSEC UR
ĠP AR
ol n
lo ad
ĠS ocial
at ab
Ġre t
ain s
e in
P ASSED
iz ation
ag n
M r
An n
ĠL ow
B AL
Ġt est
Ġs erv
D el
Ġre quest
ĠSECUR ITY
A G
1 20
g l
R ed
itch er
Ġs upport
b it
CA N
Al b
M AR
aw a
ST E
x ide
and er
Ġday s
eth ane
ĠCA PITAL
Brook lyn
Man chester
Ġd evelop
ĠF OR
P G
M et
t r
Ġwh en
J im
M IT
ant s
d ef
Ġto p
im ore
M obile
a e
ĠB ank
12 3
Columb ia
ĠUT C
ĠComp any
K E
N o
oy s
L O
Ġon ly
Ġad dress
Ġag reed
ĠOper ator
Minn esota
B Y
RE E
s econd
ĠAf rica
st er
ed ia
ĠAN GEL
ĠM art
ath er
eter min
P an
W ith
L Y
ON SC
B R
e et
Ġ1 00
ONSC ENE
alt imore
IF ORN
T R
F OR
D R
Ted dy
ri k
ĠANGEL ES
ĠP CS
d eb
sh ortstop
A c
ĠPro ject
and ard
it al
Charl otte
E nd
erd ale
ol ph
Ġle ast
IFORN IA
ud erdale
g en
Ġc ons
ĠY ou
Ġbet ween
o or
15 1
H AR
J R
D ick
I r
ir l
le ans
.. ."
A b
ontinu ance
C Y
P aul
ib le
onfig ur
P K
p on
E X
E v
u thor
ry st
s er
S am
ell s
Ġm ore
G ER
ĠVal ley
Ġb l
ord s
atab ase
ĠC AL
St ory
A ss
es e
12 1
Ġus e
ĠS Y
land o
ĠI t
Min ne
Ġa utom
M at
Ġint o
ĠA ir
ĠL td
OL D
c ast
ro p
ĠC on
P DF
C r
h an
w o
en h
It aly
M el
ĠP ASS
w au
ĠA c
ĠUn iversity
Dan iel
ĠBl ack
specif ied
ĠN V
19 0
P ak
ecur ity
Ġo bject
V ideo
ĠC an
st ate
ept or
ĠS e
ĠA ve
P itts
I E
a ult
ber g
l ist
an ge
um m
g z
ĠA Z
B M
AN Y
198 5
S ON
mon ton
I P
Ġw ater
B er
Ġre ce
S ub
ur a
ĠM o
I m
G O
ar c
wau kee
RE MI
F in
ĠS pr
15 9
B altimore
it es
ĠA R
C R
itt le
S pring
re al
ĠC alifornia
Ġ199 7
Ġd et
f or
l ed
aster ly
Ġ5 0
Bl ack
C entral
th ers
i et
Ġ USA
al es
ĠR ock
eck ed
R uss
qu ence
ĠOr leans
use um
R eal
v el
P at
ic tion
ĠCh arl
St alled
Ġs im
ĠG reen
y p
Bus ch
etro it
O D
ĠAr m
B en
o ff
act or
ow a
Mad ison
ou d
ĠD ID
re m
ill s
Minne apolis
un specified
ear n
fer ence
10 5
rig ley
. )
oen ix
R et
av ing
A V
ĠSt udio
A nt
D on
W rigley
ar n
Ġus er
ĠM D
sh ip
ar act
Ġc omm
C alifornia
T ig
E ast
h k
Ġ4 0
dra wn
Or lando
d f
um ent
it a
ĠB el
inu x
ur t
198 2
ĠD an
C ase
ou ver
NE M
Ġ qu
Rep lic
own load
inc oln
Replic ate
ment s
T S
ĠM od
C ont
am m
E E
Ġacc ording
Ġ 201
inc inn
Ġ ele
ĠKing dom
ic ense
incinn ati
D ro
Eng land
198 0
o ad
D U
T T
ĠW ind
Ad d
c onst
Mil waukee
t ar
ĠSt a
ĠM at
anc ouver
ĠM in
our t
ĠE ast
ol a
Pitts burgh
ing er
w ich
20 5
ri m
AT ES
al o
ĠG eor
B L
es ign
O pp
ed er
th ew
O U
M ethane
os eph
Ġall ows
Ġex p
iz e
ian a
W AS
D etroit
jp eg
S ar
Ġcont rol
part ment
00 5
Pak istan
ĠAr t
irm ingham
op h
ind ing
ac ific
ov ern
P P
h ib
T im
ĠW ay
C M
g ar
D od
M exico
Ġgener ated
ĠT ele
CH A
ur g
Geor gia
or ation
av en
ĠS an
Dec lar
H our
T est
ĠJohn son
Ġcom pr
ĠW I
ĠRep ublic
Ġc onfigur
O bject
L ar
ap s
ener al
C incinnati
20 4
Pro t
og a
T D
ur ch
10 8
ĠJ ames
S ac
le an
e q
pp ed
11 2
Opp onent
ĠM iss
n ess
ĠWilliam s
ĠCAL IFORNIA
T em
ap e
og s
Ġy ou
Ġ >
N on
ĠNE W
A partment
ĠF alls
ĠO f
10 9
Ġm an
ĠD avid
re t
Ġcl ass
is m
ar ter
Ġport ion
ra w
ĠL ibrary
J oe
ac c
y m
H ER
RE D
Ġdis play
Ġ if
Hour ly
ad ley
ari ant
Ġ $
10 2
ict or
is ing
ĠHigh way
Cl ass
Q U
r d
D ate
rib ute
e k
Ġc onnect
10 3
r s
re ad
D uke
O tt
ĠR ich
Rich ard
ĠAn ch
19 5
Ġo ver
u ction
Ġo per
H ol
Ph oenix
ĠCOMP ANY
ev er
NE W
Ġph one
HO U
ĠIs land
Indian apolis
w ell
Am erican
io xide
er ies
AT E
Ġinclud ing
Ġf il
c on
ĠG roup
O ut
u f
h a
ric t
ow b
ran sport
ens ion
ix ed
R ock
Dro pped
L aw
ĠAug ust
ĠS U
C P
Ġf ly
K en
ĠV A
198 3
G L
P HI
ay out
ool s
OR K
V ancouver
Ġwh ere
C IN
15 3
Ġ199 6
orn er
C am
bor o
al ly
ĠC T
T urn
in ks
M att
vent ion
ĠR acing
Ġmon th
3 31
J ava
Ġt r
anc ial
al a
S Y
Fran k
u th
el le
W V
11 5
Ġ4 5
en ry
Ġre p
ol k
end ing
or age
S AN
us iness
ust in
ĠS ystem
Ġ199 5
le te
ĠD ioxide
ĠW il
ĠO K
u a
ar ies
Ġ 2016
T PE
ac y
Sen ior
O ff
al ity
V ote
Gr and
og raph
r um
ĠP er
ĠAnch eta
O ak
12 50
ĠUn i
John oel
Ġrec eptor
Watch ing
Ġat t
u it
09 9
RO M
ran ge
i en
ĠV ote
ĠS he
ĠR eg
Ġspecif ied
ph a
45 3
B OL
ond uct
A US
03 1
Ġd o
Mar e
Dr ag
ĠLa uderdale
AN A
ĠIn tern
ĠO b
n y
eal and
Jun ior
ys is
197 8
iv es
CH O
Ġd etermin
th ird
T OR
or a
Ġc urrent
yl v
e ature
m d
ĠZ ealand
iz ed
m s
op e
C I
Ġh aving
at ural
B E
ak er
C on
Sp ecif
V T
197 6
Un known
15 8
T RE
S H
ĠH yd
eg r
ĠV oice
15 7
t a
y a
c ont
F ree
ath an
Ġd ouble
em an
14 0
ĠUni Prot
o ch
ĠUniProt KB
5 06
G C
Ġe ach
os it
our s
And rew
t ra
ĠIn ter
arb ara
Ġr ules
D is
W e
Ġun it
15 6
ri p
r ence
out e
ĠW ood
eld ing
Ġc re
F T
i qu
ĠMar ch
amp le
o ke
ĠR E
ern el
Ġc on
F I
H on
ĠM N
act ive
M usic
St ate
D ev
U K
Ott awa
Dod ger
B uff
US C
ĠT HE
L incoln
and a
f o
ĠR ivers
F P
Ġ ext
13 4
197 3
ĠA nt
ĠR d
198 1
V ern
d uct
Ġre port
Ġp oly
ĠS pring
12 8
ven ue
m ark
U t
ST R
Ġsh ortstop
al ysis
iv ing
Ġautom atic
str ate
Se a
For um
ĠSpr ings
ĠM useum
p op
12 2
AT L
ly mp
ĠCl ub
11 4
s ide
Met eor
ars ing
J on
ri ver
olph in
ĠP ar
D ig
ing ular
R B
Ġs ite
ĠJ ack
ĠD E
s ch
v al
B irmingham
G elding
il ar
2 10
C ons
d ale
N ame
197 7
Col orado
CO M
ĠP ol
ent o
t ext
end er
IT A
T om
11 6
ach e
ĠR O
ĠD el
ĠM ary
A cc
Ġf unction
ĠR ELE
st one
ĠU p
46 0
unch ed
ĠA venue
ĠL ee
eph en
m all
ip s
E ffective
o om
197 9
ĠA lex
ĠE m
ĠE ag
r ay
u ther
13 0
M ac
Meteor ology
l ike
R M
Sp ain
13 5
S G
Ġim age
he im
qu ired
ad ge
OL OG
ab bit
11 8
ĠA b
SA X
Ġro ad
N ational
ro ved
R iver
os ph
M ed
Mont real
ount ain
ĠRELE ASE
B ug
Ġb ased
Ġspecif ic
Ġf amily
ĠC ON
H am
ain ing
B ill
La unched
19 12
M IL
V eter
ĠBro ok
ony m
oci ated
TRE BOL
HO D
Ġtop ic
M F
ĠC ent
ph y
ĠF r
l a
Sc ott
m et
20 2
am s
Ġad d
ĠP arsing
TE X
id ge
C arl
e h
ot or
Ġprovid ed
Ġf actor
P age
ĠS ingle
ĠMark et
C LE
ol t
E A
st it
ang u
op her
l ington
12 4
ab ility
ĠCol lege
Ġf r
ĠAnd erson
20 3
Ch ina
ĠI nt
air s
ĠF in
B y
ver t
H P
ĠB ANK
ĠR h
Ch ecked
ĠTh omas
Geor ge
is ter
Par is
Ġre ad
ĠCorp oration
ĠTE CHN
ester ly
ĠN J
12 7
u an
Ġapplication s
Ġinclud e
Ġm et
ĠJ ones
ĠI m
ar on
R ILL
ĠF und
anc y
def ect
Ġh igh
raz il
19 2
ĠC OL
ĠTech n
ourn al
b ell
Ar t
Ġan y
z a
Th omas
ĠM ad
ant ic
Ġrules i
em ic
arri ors
D I
17 5
16 0
Ġprovid es
um an
l ib
ĠG o
ater ial
ET HOD
E urope
ĠPro f
S K
let ed
at ers
With drawn
ol f
P re
Ġsign al
Ġ z
O lymp
Ġs urface
ĠY ORK
ĠJ ose
p s
14 7
AL E
App roved
19 08
ida e
ru ction
als o
ak es
Ġdevelop ers
S alt
12 9
Mary land
o form
G H
6 00
ical ly
re a
Ġp ar
Ġpre c
c pp
ed s
le ction
ri pt
ĠTECHN OLOG
ĠMich ael
Ġd om
Ġn o
, "
12 6
P eter
ir us
Ġwee k
m ed
ĠM ur
ther lands
B ook
Ġ em
ist rict
ĠR adi
ĠC ap
25 00
R yan
197 5
ĠP at
EN D
in son
ĠR ap
em y
Veter ans
Ġd uring
LIN E
ĠP ort
ĠF ROM
Ġr un
or ld
) )
ro ke
D ET
em ory
Th ree
C ard
11 7
Ġo pen
i as
app ing
ĠS al
pl ic
T it
ĠSY STE
uc ation
e el
L i
onf irm
Ġh ow
ĠR ow
pr int
ĠF lor
if fer
ah a
ul a
Ġm ess
ĠD irect
kl in
J o
P N
P F
he m
ran ch
Ġs e
ĠCo oper
P erson
GB R
ĠS ilver
ĠR ail
em s
ot s
ĠC ingular
ĠWh ite
p df
ĠS im
L P
14 5
O M
ĠHill s
al th
ĠB ill
ĠL ife
es a
197 4
L inux
Car bon
ed en
C at
ay s
ĠA s
en ch
ruct ure
Ġ ident
ĠL A
ĠRo bert
v is
overn ment
al c
end ed
M id
ess ions
ail y
D ou
ent ina
re tt
o on
CA L
ĠS E
ĠT exas
k er
20 7
Declar ation
od d
eric a
197 2
P res
I VE
196 6
Ġre m
K evin
ĠP ASSED
P ER
ĠT o
Ġmethod s
ĠJun e
A H
Ġin vention
r pm
A ction
B ull
om in
ram ento
Q C
IN E
ĠEag les
Ġmonth s
W ater
t rans
ard s
ris on
ĠS erver
D ay
ĠB ur
St orm
he ad
ĠD rive
17 0
Ar g
1 19
A th
C U
os m
Ġl ight
V irginia
amp shire
E lect
W ill
ob al
Ġw e
b r
Ġpl ural
R ob
ĠB and
Rich mond
ri f
Ġb ack
c el
SD SM
ĠS ept
l oss
Ġs elect
ĠV irginia
ylv ania
F ul
ĠS ol
c y
15 2
os a
Ġsim ilar
197 1
S ystem
4 00
d ated
C amb
O ver
Ġs erver
W O
se y
F F
aract er
3 04
ust om
ĠJul y
m ar
R abbit
ĠO N
owb oys
et on
enn a
en o
14 6
u y
Ġ ent
P enn
ĠC ons
s a
uc le
ĠM ass
Ġ also
ab out
et y
m y
E r
Ġ ar
ST ON
20 8
OR TH
V ictor
Mat thew
ĠPro t
ider ed
R ef
Pro v
Ġrel ocation
rom e
LA PS
v ariant
in ce
Oak land
Test Case
In ter
itt ee
ĠD avis
Ġp ass
R Y
13 9
ot o
ĠR ob
a ction
SIGN ING
S S
Ġh ave
W ind
ĠD ep
per ty
St eve
ell a
M ON
D D
ĠW orth
IN S
Ġplural ity
17 4
oc ument
Turn er
16 5
P o
St roke
H ard
P acific
u is
P oints
ĠD ATES
ver age
Ġs uch
Ġn on
ist s
ĠD ocket
ĠR D
s en
i ous
R US
ĠManag ement
S im
Ġy our
ĠD ownload
ĠM usic
e er
Ġis oform
ord an
b oard
ĠT im
19 56
ĠC al
D ocket
ĠOn ly
ut ter
pl ain
U P
ĠB en
ak ota
v es
re at
ĠP al
ec e
d ogs
IC E
ĠAr ch
ch est
18 7
ĠUn der
18 8
Ġcomp onent
J ournal
c a
C B
16 1
ĠC entral
ĠC ourt
al f
ĠUn ion
n in
l ess
13 1
ĠG round
T ION
14 2
14 1
b e
o id
ĠE P
N O
le g
18 5
urs or
ĠC om
ĠH a
B OS
B razil
ĠRap ids
ĠB all
ers ey
p ool
18 1
enn is
fr ont
Ġre view
aid ers
197 0
ĠApr il
CH I
ĠH ealth
ew is
Ġd ep
W R
B U
b ased
Ġth an
ING TON
ĠT own
Ne therlands
Sh arks
O AK
Comp leted
s ylvania
ord er
ol ic
l ins
ĠL inks
ĠW e
ac ob
Gre g
Ġc or
av er
ĠTest ed
us an
um p
IL LE
R em
ect rum
17 8
ĠG old
itz er
Tig ers
F red
if ication
el ly
iv ision
ale igh
R P
Sac ramento
se a
ĠO ut
Ġs ource
02 1
46 3
Buff alo
L ake
Vern o
m it
13 7
Ġg roup
EN S
M ax
ak a
S a
ab eth
er b
and on
th ony
k k
Ġw ork
R unning
ly wood
Ġs ide
LE CT
err or
I Z
S old
l ad
Gre at
Ġhe alth
" -
ill age
ĠA F
Ġd irect
13 8
erc ial
C ommun
er a
b ab
ount ed
eng th
ent ial
as c
V AN
B o
H igh
Ġa vailable
196 8
pr ess
Ġsub strate
at on
X ML
uck y
13 6
ĠR uss
A ge
Ġc orner
C ode
v est
W arriors
Pan thers
L D
K ent
17 2
Ġsouth erly
ARI Z
ĠI A
WA IT
ĠT rans
Sw eden
ro y
Ġun der
ĠK n
ĠS l
ail s
19 67
Drag ons
ĠP rad
K ing
B I
Un i
K ar
ĠO l
OR T
j ar
rod ome
16 6
UN AT
on z
ion al
ĠW at
ind a
ĠK ernel
ĠH AM
en b
16 7
eg er
iv ed
idd le
14 9
ad d
P art
ra il
G old
13 3
R os
ar w
g om
Ġof f
S print
p le
og g
Ġth en
Ġm ult
ter ation
ab les
v ers
ac es
g ow
ĠMart in
LE Y
p ass
L AND
M C
ING S
13 2
ĠK Y
Car olina
T ri
Ġ our
ĠR el
Kn ights
Tit ans
ree k
W ait
r ich
O m
ĠSt ud
SE A
itu aries
yl er
I ES
AS T
R ES
ĠA t
ic ut
ĠOb ituaries
ar o
ĠL aw
oh s
47 6
19 1
t o
Ġ199 4
urn s
roc arb
ĠMur phy
Ġs ol
V ol
D olphin
st ring
L anc
s ur
gom ery
al ia
E ric
w w
th e
River front
Ġm aterial
D es
ip e
NY N
ĠSp ectrum
ou ld
ĠM iller
Ast rodome
18 3
Ġp r
as gow
Ġl icense
C owboys
ĠD akota
arr en
ĠAm erican
SD N
onnect icut
Br onc
rad e
ĠAn alysis
Bronc os
ĠE le
R ay
Ġass et
R aiders
iz abeth
38 6
A sh
is a
I owa
ost ers
ĠB ridge
C and
ĠM exico
B B
Ġt wo
iv irus
A F
b our
chest ra
P T
om y
in ter
onym ous
WC M
if t
if y
O per
ut t
ear s
J ason
ĠCol orado
S av
ĠP AT
ĠF orm
SF N
ĠD ev
47 7
ĠR od
Ġinter face
Ġb inding
re v
E els
O s
e ast
So ft
CA R
Ġc irc
anc ement
em a
om ing
ĠT rain
ev ille
H e
Bull dogs
Ġth ird
18 4
S k
or ed
ĠAG REE
ĠH ampshire
Ġd ist
ĠYou ng
47 0
M erc
N ick
Ġprec ursor
ĠAGREE MENT
ĠO TH
R aleigh
Ġc onc
oll ow
Ġele ment
Ġv is
Ġst ate
ri ption
ann el
ĠN etwork
ĠI D
t im
16 4
k o
ag ing
00 4
196 9
O z
ĠEd ition
M al
Ro osters
14 3
WAIT ING
D aily
Rabbit ohs
Ġd atabase
ent on
SE F
Pol and
Arg entina
inc eton
ĠO ne
-- -
ĠP ra
ec ut
ĠPrad esh
ĠCar bon
Ġp ack
MI CH
arg et
ost a
17 9
ATION AL
Dig te
Ġd iffer
em ph
ĠArt icle
ĠS upport
oc omp
C or
ar atus
ĠC ard
G ets
47 8
V I
he ap
Ġp ower
OR D
SL N
14 8
g y
S uper
18 2
L L
16 9
ir t
E W
Ġrel ated
am ed
19 4
Ġ5 5
in i
U p
man n
K ey
s burg
2 25
un der
qu er
B UR
R U
R h
sh all
ag en
F ire
ĠS k
ĠD en
16 8
S mith
Ġw as
at re
Ġ199 3
f olk
Ġo z
ist ory
Ġdom ain
ĠS and
az z
ORE G
Ġor g
C om
c k
ĠB ack
Mar t
rocarb ons
2 15
16 3
ĠR idge
en z
ĠM ed
ur b
or g
ĠAn n
ĠAF TER
ĠOTH ERS
C re
itzer land
ĠA vailable
ra ham
18 9
I ll
ech n
Cr eston
17 6
av el
LE C
an im
Ġup date
S ol
if er
17 7
Ir eland
op s
196 3
stone heap
Ġw he
ĠAm erica
K G
ĠM AR
et ts
i us
ch e
emph is
F it
ro gen
ĠCol umb
Ġd el
L ow
ĠRich ard
ic ip
Ġl i
: /
R S
roc k
St r
D ar
cast le
ĠMod ule
at ter
back s
G e
N I
Ġp osition
w h
H ay
G eneral
im it
p itcher
ce ed
el a
ĠM ob
Disc ontinuance
Col lege
Camb ridge
ĠHyd rocarbons
Uni Rule
her st
14 4
CHO OL
Cons idered
P O
i ary
Ġd ig
506 300
In ternal
17 1
ĠR I
ri es
ot al
Ġst art
Ġpl ay
2 20
I d
ĠGround s
T rans
3 09
ĠU t
ĠIntern ational
enn ess
ĠCh ester
ĠFor est
J ess
M ic
M apping
Ġm eas
37 50
ĠEd monton
ryst all
C onn
Ġ x
ind er
ĠF its
Rec ent
i h
Law rence
H el
1 199
ĠHe ights
D ub
Dan ish
Ġc o
Wh ite
ĠGeor ge
i rie
2 12
ĠV ersion
196 5
B ry
IT ED
it ial
ĠH am
ĠPr int
Ġass ociated
ĠCl ara
ud e
Ġdetermin ed
at in
ay ette
A verage
B D
Ġb ut
S i
uc son
c ed
g ary
6 34
196 4
emb ly
Ġserv ice
t est
ĠG ames
M un
Ġm emory
New s
W Y
j a
ĠG ro
ĠHAM AP
17 3
ay ne
196 0
ĠK S
Ġ3 3
ĠA VE
ĠF X
c omm
ar ge
ĠM E
g ium
ĠPet ers
19 3
id es
D j
ow ard
pe ed
R og
ĠAd ult
iv an
V M
ĠM ac
ĠThe atre
Olymp ic
osit ive
Y S
il y
ir k
45 8
P aw
RILL IC
Ġsimilar ity
Pol o
rig inal
Gl asgow
ĠEng land
ipp i
P RO
ĠC ast
t x
ĠT el
Fran klin
OR G
Ġmin utes
L ast
ĠD EV
Ġ6 0
T ools
Ġ8 0
Ġconfigur ed
l est
ch er
ĠU l
eb ec
Haw ks
ul ation
ĠA cc
L ong
Ġf iles
W ood
Ġthe ir
tt p
R adi
S ing
ĠCharl es
y cl
ar io
Ġm otion
enness ee
Ġev ent
a is
M ass
16 2
in ase
ĠM e
Ġw eb
Ġrep airs
In tern
46 4
ĠG e
G o
) ;
B il
uc ed
ĠGl ide
ĠC le
F orm
T ucson
ter pr
an i
ĠJan uary
N Z
Ġnorth erly
W ork
g et
qu ip
ĠC are
ach us
Rec ord
us c
ĠM ETHOD
is es
y er
S um
D L
ar ed
b ox
CY RILLIC
um ents
ĠB ranch
enc es
Ġo ption
ĠW ashington
18 6
p ond
iss ippi
Atl antic
T ype
Sw itzerland
at ory
ĠL TD
ĠN ot
quer que
aj or
A X
R C
ĠK it
or c
ack s
ĠServ ice
ett lement
yd ney
D em
U D
V ILLE
ĠA pplication
Ġc ell
ĠV ideo
BO STON
stit ute
av es
st ein
u querque
il a
B ur
A uthor
ar ry
Ġc ap
F air
18 90
C onc
72 20
Ġact ivity
Ġfor ce
n et
2 23
ER ICA
ĠM et
ĠMuseum s
ĠPro gram
H z
Ġwith out
S ocial
ĠS am
ish ed
L ittle
AN T
ĠMich igan
ĠC D
T ul
min ist
el f
L B
ĠI II
ĠM a
enn y
oft ware
Ġint egr
Charl es
angu age
rystall ine
K e
ul f
ĠF ury
ĠSc orp
ist or
Ut ah
ĠC r
Ful ton
An onymous
Ġe ffect
orp or
ĠM S
ann ing
achus etts
L ayout
ron ic
J osh
ull ivan
ro ad
Br ist
5 09
ER AL
ett a
S erv
ĠCan ada
A t
V i
ĠH adley
Ġdiffer ent
K A
3 05
ĠP res
Ad am
ĠB ull
s k
Ġapp aratus
M oss
Ġv ari
um e
ĠC osm
AM ED
unt u
ĠScorp ions
ĠSt rik
H S
Ġle vel
S n
ĠA ust
Ro ad
ĠE N
Bro wn
sp aper
Ġ ed
2 29
Ġf ace
Ġ i
ĠSept ember
O F
ĠPh il
Ġpro t
ĠO ak
oy d
3 03
D T
ĠV an
bour ne
Nor folk
B eth
d ies
Ġd r
AR E
Alb uquerque
v in
el son
ĠT e
pon se
Ġe asterly
Ġdef in
Ġreg ion
x x
il t
Se quence
ĠO ff
Cle an
CT OR
ib son
U AL
Ġr ed
P NA
v ard
M od
ĠO ld
L I
D a
ĠJ eff
Sc ot
W aters
ra ft
ĠPra irie
ĠArm ada
ul u
he y
Ġg o
Ġc ross
th a
ĠM ike
Ġ3 8
ĠMob ility
Ġper form
H enry
her ited
IC K
ĠJ ersey
Cal gary
New spaper
ĠEle ven
ĠC or
Ind y
ag er
uf act
2 11
Mont gomery
ĠColumb ia
Ġpro gram
ĠStrik ers
ĠFeb ruary
f c
ĠG ood
CON N
um n
b all
ĠL ab
ed y
Ġb usiness
gl as
erm ont
i que
ept ide
ĠCosm os
es ville
4 06
Ġv iew
ĠM y
ĠSc ott
D ur
ie f
ĠHol lywood
ĠSilver backs
C amp
UT E
B ran
im um
ĠD evelop
ĠRow dies
ĠRail Hawks
ĠRh ine
B eam
r or
ĠB adge
Ġd ec
Ġm ov
ĠB as
ph one
MM ER
ĠOct ober
ĠM ill
ch i
C ur
Ġout put
ĠB Y
E as
5 00000
sp ect
F und
ann ah
Ġin hib
lest ick
A f
umb a
quip ment
IN D
Gr ant
Ġ key
ĠR em
ag ue
ĠH old
ĠJ oseph
Bel gium
Ġh and
K at
le as
Ġp itcher
uther ford
Cand lestick
2 14
Ġelect rod
Pr inceton
Ġl ocation
ĠB ra
Spring field
t ain
z ech
il ities
ĠJack son
Ġwhe ther
id ase
Ġf t
St ephen
r en
ru z
erg y
G et
196 1
ĠEd ward
ĠS O
ĠAG ENT
ĠS uper
ON G
M o
Y ork
ell o
ĠL ine
Sen ate
ut o
R oute
ĠM ont
is k
B as
ĠB er
Specif ies
AT ED
Ġin c
R oy
s et
ĠW al
L iter
Ġind ic
W EST
a use
ĠC ITY
ol as
em p
ens ive
os ure
m at
k t
b ro
ĠC reek
m od
up date
Ġn etwork
Ill inois
Ġd esc
eg inn
Wait list
z ip
Ġin ch
ian o
Ġc ode
h ol
el t
ĠV I
ub untu
ĠP an
Un iversity
ĠN e
ĠDan iel
196 2
Ġdef ault
m m
ĠS ession
EL ESS
ĠMc C
ed es
ĠE LECT
onduct or
St ream
ount ry
SD HC
Ġp age
West ern
E U
ĠL ane
EV EN
d a
s y
Qu arter
A Y
B EL
i ro
Commun e
Ġf in
Ber lin
E state
Ġw al
ess or
E vent
e asterly
Y ou
ut ions
per t
ĠW IR
22 2
ire ction
ĠC onc
ICA L
iv id
Ġy rs
im ited
ĠW alk
ĠS ecurity
F all
per ature
ition s
Ġc are
M iller
one y
Br ad
ou ch
G U
ĠL ondon
ut ch
ĠD R
ĠM T
rid e
ĠA B
ock s
L ost
46 8
ĠA D
ov a
Ġh om
Ġst ud
terpr ise
Sh o
K al
V u
7 00
IG HT
w itch
10 11
ĠS eries
am on
MI A
P U
P C
anc el
T EL
ĠJ ud
og en
w orth
ĠM ov
L earn
et ic
ĠWIR ELESS
ĠA v
St even
C ity
H er
ĠArch ives
J ay
Hal ocomp
Halocomp ounds
M ER
Ġf eature
out dated
ĠP e
ac le
ĠE ll
is p
Z umba
NY A
B ig
k in
Ġus ers
:/ /
ĠSt andard
An a
John son
19 06
ryst al
ore a
G OLD
R om
ur ther
Mar c
ĠP alm
Ġst ars
or es
im a
S B
k m
Bran son
n es
Ġpro ject
ĠC ross
re ak
Ġp ath
Ġ est
pr es
st own
id th
ĠF ire
AR T
ann a
2 26
UN D
23 5
R ON
Ed monton
Ġex pl
William s
ON LINE
3 07
10 25
ĠComm ittee
k g
ĠR ef
ist a
D ab
) :
BA G
Ġ et
Cit iz
Un der
ob ody
Aust ria
g n
onfirm ed
ĠW ater
19 57
B or
A W
j o
iver pool
Ġg u
enb eck
ank a
B h
X L
ist ant
ĠManag er
ĠS ox
ipp ing
ffic er
W H
Ġs essions
2 24
IA A
19 59
Ġs ch
Ġwith in
Bl ue
Beam er
at form
Ġm ile
Ġse quence
y t
Ġ rod
h ome
Ġim p
m ore
AN GE
2 28
acc ounted
ĠB ook
Liter ature
G ood
G al
ch t
W r
ĠD ata
Dj Vu
H K
00 9
Ġ its
or ies
ĠM ade
5 01
ĠWil son
ĠM GC
er ence
Pro f
S ydney
ĠN ational
P or
C ore
ĠI r
Ġd es
ĠW ill
New castle
ĠH art
ĠE X
ik i
Tul sa
ĠM ead
ĠI f
ĠH ear
W CH
Int ro
ĠAm herst
J oseph
res pond
00 7
ĠE v
ond a
ĠR ev
ro e
37 5
S ri
Ġb ody
ran e
roll er
Ġ emb
Ġp ages
ĠM att
enn ifer
B ank
Ġs l
ĠRep ort
S on
22 1
In herited
Ġform ed
Hal enbeck
2 18
c an
ĠH aw
ra ig
IN F
B arbara
D ave
P ost
Miss issippi
ĠPl us
rid g
19 44
B ru
S upport
ĠM il
Res earch
n obody
ĠT er
or f
et ter
Ġcont aining
ĠUn accounted
Ġacc ount
19 58
a us
Comm ercial
C op
L og
Don ald
Christ opher
od ing
Sl ov
ĠD isc
ep end
Ġpar am
Dab itch
con omy
M emphis
8 00
ole c
ĠS earch
ect or
2 13
ĠL l
ĠE lect
ou pl
b orn
ĠB o
23 1
ĠR eview
ĠPl ace
ef ore
Citiz ens
ĠT aylor
k ansas
ev ada
ĠProt ection
B ang
2 16
ĠSt ation
t own
T ext
ĠD esign
F err
00 01
T ony
Brist ol
ad en
at ics
F S
yn am
Ġh ours
ĠW ork
cl osed
art ment
ab ad
ĠS ub
Ġret ri
er i
p oint
19 14
O l
Ham burg
3 01
ĠB ern
Ġal pha
A CT
ol ution
T BA
oul der
P ower
ĠCl ark
Sar ah
m ission
Ġres ult
Comp lete
ri al
ĠM os
V iew
ick s
T yler
eder al
un k
L ocation
A udio
p ect
og le
Direct or
ĠAll en
w an
ĠD istrict
iz en
h old
AS H
Ġex ample
ĠR EST
Car ol
Wil son
R ena
ĠN or
P ass
O le
am ental
t le
ĠM ag
3 25
ĠA p
ĠT om
ob e
eg a
enh ancement
Ġ art
C zech
cel ona
b j
Ġpro ceed
O ld
ĠR os
erd am
A HL
oo lean
er ce
Person al
ap ter
Ġs ame
45 1
OH N
ĠL anka
H ealth
J er
ano oga
W inn
S u
h i
G T
b ug
att anooga
ush ing
P ositive
Br andon
2 30
Ġg as
ĠC AR
H un
SI TE
st erdam
W N
19 53
ĠW ith
ĠA pp
T ele
48 8
ition al
ill o
ĠPAT ENT
ĠAl b
Ġin put
ĠDec ember
Russ ia
r el
Ġ order
Un ion
Ġbe ing
EL D
Ġb eta
ol ulu
ir a
ann on
ĠF ri
Ġdisc ontinuance
f ile
L ove
P a
ĠD on
2 17
M tl
ir es
row th
D O
U B
Po ems
ab led
n am
ĠInter active
C ap
Ġad min
4 50
ĠD es
ĠO pen
D ue
omp son
10 62
B ell
et son
ard en
Ro chester
Sc rew
G RE
P D
Ġsh ort
4 34
unt ington
NZ L
ĠE T
L or
onn ection
ufact uring
Ġcirc uit
2 19
p eptide
48 3
F E
an on
WO OD
Ġr unning
B RO
ĠS u
at al
00 3
uz z
T B
ident ified
L ex
S usan
plic it
ommun ity
ĠCol lins
ĠAg ency
ĠApplication s
H art
ik a
yr tle
19 55
ĠH ay
ĠM id
ern and
00 1
M y
L y
ĠV a
UT H
un a
Ġa f
ES P
ic ro
V an
ep tion
ĠIn formation
E UR
ĠM el
it ing
ĠRe id
Ġmod ule
ink ing
ch en
Ġth ere
Ġc u
75 0000
4 07
M oh
v ey
V S
emic onductor
iss a
M ill
v a
ĠMo ore
arri er
ĠB rad
G ibson
ak i
ĠIs lands
Ġpro d
Merc edes
6 86
ud i
ĠDevelop ment
BER K
PR ES
os p
ĠHar ris
O ne
yn ch
19 40
C iv
N umber
ĠEn ergy
C RO
ĠBr it
A tt
R on
Rena ult
St ock
tx t
Ġc it
ĠNov ember
ĠM d
45 6
27 5
L ist
P al
29 9
Ġ =
00 8
EF I
ĠE r
Min ute
h yd
Ġl ong
oc ol
Om aha
ĠF ort
ran g
ecut ive
am ma
rod uction
Ġs upp
ĠC ategory
apt ist
eet ing
I AM
U RED
ELE Y
ĠAnd rew
ĠH er
Ġl ocal
ad es
MM ORP
Ana heim
Ġ3 6
ĠTECHNOLOG IES
T aylor
Ġelect ric
yr ac
Ġselect ed
Ġ19 88
ĠPro v
ber ts
Ġp oint
an ks
ĠB L
oin es
yrac use
Q L
ĠAss oci
P ot
E ver
M er
T ur
ĠT ue
ĠE urope
Pre z
ĠEd ucation
Ret ired
ĠAnt ivirus
Ġs ee
un e
Ġelectrod e
6 04
Ġst ructure
ĠM oines
Ġ .
S V
i ac
as p
ĠPeters burg
Land line
ad y
19 07
Penn sylvania
ĠN ick
J ordan
ach ine
ĠM edia
o ther
ĠAss ess
Ġh i
ĠU s
0 10
Ġe qu
24 7
ession al
on ia
19 13
ĠL ong
BERK ELEY
ent ration
T ime
el sea
anc er
h l
_ _
ub e
A ngel
O x
int ron
Ġdig its
Ġs ens
Fin land
ĠR et
Bar celona
ĠPl ay
ĠRec ord
s n
P ET
Mart in
oth y
29 5
c ell
Ġfr ame
T ennessee
Ġweek ly
M MA
G en
Ġw ords
D EN
P ark
ub b
ĠSU MMER
V ermont
ĠAM ERICA
m oo
ĠA C
ĠM ountain
BER T
Ġcit izen
9 09
ĠN AME
SI ON
h t
I O
Hon olulu
R utherford
Ġf ate
4 05
ag on
Sh ort
ĠP ass
itch ell
Ġcomm and
Ġmeas ure
I V
S ullivan
Ġ eng
id o
Im age
Ġ @
Ġt arget
J ustin
Ġhi atus
R ick
Charl eston
ed o
ag ement
as m
Ġst ring
ĠK ey
ĠFran k
w esterly
26 0
Mtl Sho
ine er
Ġw r
IC S
not ice
Ġcompr ising
ver ter
25 6
ID E
ĠPAR TY
Ġinch es
Ġf urther
ransport ation
" $
19 50
b ar
IN T
ĠS ec
ĠCamp bell
Indian a
ĠR am
Ġin s
H ouse
ĠPro duct
od im
re c
re as
bs k
E ll
A v
P ub
S et
and ing
Sal em
ĠC tr
E conomy
W ar
D J
C N
f amily
ĠR eb
B P
F re
ĠB arbara
ĠSt ab
Ġn eed
Pro Rule
ĠL SU
ĠY OU
c er
M e
list ed
ĠC ruz
ĠB rew
Ġst orage
i day
K O
ĠN M
ou x
634 110
ĠM eas
ĠO s
Ġrod s
Ġaf ter
Q ue
ĠE state
ĠWind ows
ran k
X X
ĠP DF
MMORP G
ut er
ĠSt ore
im m
IN A
en ow
D W
ef t
Oz one
el ine
Ġcont ribute
ĠB rian
ORG AN
nt ario
Ġare a
ĠP T
Ferr ari
yn th
19 51
ĠD river
33 6
an ie
J ean
00 6
Ġk inase
ows ki
ep s
end s
ar th
ig en
end erson
Fund amental
Ġwal ks
ri ff
Den mark
Pat rick
ĠB C
ur ed
Ġpoly peptide
V el
ap le
ĠNorth ampton
j an
M ag
W on
Am sterdam
Ġhe ad
Ġd eb
Bl oom
as o
Ġread ing
ĠH E
ug ene
al ian
ĠD ur
ĠWh it
ĠSEC URED
l i
M ain
M ethod
leas ant
G I
y o
T odd
f ul
46 5
De ep
ĠS n
ant e
Y L
20 21
P ending
ash ire
ĠS ER
Ġ6 6
ĠM aster
Ġhom olog
ele ase
ĠD et
Ġp at
r ush
ĠL i
Ġs earch
IZ ON
L uc
Ġ3 4
ect ure
46 9
23 3
an ne
Ġvis it
ĠR yan
19 54
ĠF il
ĠRo y
D un
S CH
p y
od es
Cl ark
R IS
ic an
ĠV ER
Ġ19 89
ad min
23 8
J u
z y
if ier
Ġdet ails
302 9
2 27
J A
an ch
z e
au x
Ġd irection
Ġn ucle
38 5
Z E
ert own
Res ource
P OL
IT T
Mel bourne
ĠB ox
ells outh
gz ip
ĠT w
oc ated
PA C
ĠSt r
ĠJ on
23 4
om er
ask et
a wn
ĠE ST
ĠFlor ida
Mult i
Ġ3 7
Ġval ues
Ġv ia
Ġst andard
Alex and
ĠS W
l osed
K CA
ĠTele comm
vers e
pl oy
On line
26 8
G ary
ines e
Ġall ow
H or
Ġ |
ĠPl ans
at io
LA Y
y e
RAN CE
ug g
Ma ury
Serv ice
ĠO ther
ĠF iction
3 08
ĠM al
ĠC art
ĠIn st
Dub lin
25 0000
Gre ens
le tion
Ġm ode
4 02
ĠAssess ment
Ġre pres
Ġrec omm
anim ous
un it
ic on
Ġs o
ĠCH ANGE
Ġmess age
Ġch annel
n im
g a
p ur
ar en
per kins
bj perkins
ĠD BA
ag a
er on
ĠA sh
ĠD o
ig er
Ġpro perty
Ġ3 2
Green ville
ew art
B ay
9 78
il s
An thony
ĠOr chestra
B ellsouth
Ġf ollow
Mass achusetts
n s
Nor way
av y
Ar m
ograph ic
FOR D
Ġ4 4
ĠBl ue
Ġn ature
48 6
Ġor gan
ĠAc ad
ĠT or
ĠT err
B and
Ġc ity
m ington
ĠStab enow
ell er
Ġ199 2
Ex plicit
Ġmod el
W arren
ak ers
l am
M X
L nd
19 20
L eg
ĠP ack
ue z
TO C
at ur
ug al
Vi enna
Ġh ost
Ġk g
Ġac id
Dou glas
ed ford
DC M
bab ly
19 47
Bo ise
yn n
ĠI P
M ess
Ġ199 1
R L
Card iff
Ġfl u
Ġch em
AN G
ee k
ĠN atural
ĠW orld
ĠH ot
S ilver
ĠG ar
M isc
18 79
19 49
48 5
ĠC F
ject ed
amm ad
B ack
ĠG ran
Ġconnect ed
G ran
U RE
Ġa uthor
ĠP eter
ĠT ype
ĠSYSTE MS
S N
f eat
ĠP H
Mor gan
Par ent
G ar
24 2
a ut
19 41
ĠW ar
ro v
Ġcor respond
Ġad j
18 96
ĠSe a
ĠT y
ĠP O
anc ed
Ġintegr ate
nim rod
Ġcont act
s v
u ate
D atabase
Ġcomp osition
itt ing
Ġdr inking
ĠDen ver
H AM
W orc
Har ris
ĠDay s
19 39
ĠP oint
T ok
C onnecticut
Ġs ection
J ose
ĠH aven
AP AN
And erson
ut r
ĠG RO
P W
Ch attanooga
d ie
ĠA qu
Ġm ade
a ur
Ġprocess ing
Ġfunction ality
ĠE as
Ġv olt
ĠR ou
C ro
ĠM ED
it o
ĠM ix
ĠSt etson
MA C
ĠFL J
am ar
Ch rome
ip per
ĠDirect ory
Th under
ist ry
i os
Ph ot
Ġa ir
19 30
19 52
ĠTrain er
19 42
p a
ĠCar l
ĠG re
ĠS oc
D H
W ayne
ard o
ĠH el
Ġl og
ous ing
s l
Ġb ox
fer ase
28 9
if orm
H y
I ER
ach el
ĠC ET
UN T
B aptist
K yle
Ġg ame
Ġv ersion
Object To
g r
H ear
s ki
ĠD em
ĠSystem s
u ce
Ġtest ObjectTo
Tem pe
N W
New port
B ol
24 6
45 7
ĠG ermany
45 2
Al bert
o op
ĠJ oe
H H
ĠF arm
ect ed
ane ous
ad or
2 199
Br adley
ĠH O
3 11
Soft ware
jp g
Mar shall
Ġt able
ĠB usiness
ĠH enry
bur n
P oint
PRES CHOOL
Ġres ponse
S yracuse
Ġg r
he el
ai ley
Ch ar
ĠD VD
u i
ĠL uc
i ece
Ġwhere in
amed a
arg o
N T
ech an
f irst
O riginal
Ġal teration
ĠR oss
Q west
rib ution
A p
Ġc onst
Ġprov ide
Ar kansas
ĠG reg
19 48
ĠR ay
P ent
op ro
24 5
ĠCh urch
W E
d own
D SL
yc le
aly t
ros oft
er ick
ĠAn a
W S
ones ia
ĠCont rol
a o
Ġm atch
AT T
Ma ine
om et
Ġm ed
Dur ham
c eption
G M
Ġw esterly
ather ine
d oc
ĠHear t
AR K
ĠS ites
ac o
Ġ4 1
ĠF re
ah ar
Ar lington
ep ar
Ġ5 6
ag h
S er
Ġf eat
v et
19 36
W y
l an
ĠH ILL
La ur
L iverpool
U r
k en
ip eg
33 8
4 01
ĠL and
minist r
ar es
ĠCh ris
W al
ĠP enn
ann y
Ġp ress
ĠD un
ĠJ im
3 15
Sav ings
ill ips
V illa
25 5
Jeff erson
ĠR og
Ġpro duct
righ ton
eas on
Kent ucky
ĠR om
ri x
Jon athan
end o
J oin
ĠD ef
A k
n ol
ĠUn animous
L ive
ac ed
ant i
ILL IAM
I AN
S oph
Ġ199 0
T IM
ĠW all
Ġemb odim
4 35
Sp ec
Ġcre ate
ere k
B RA
H a
R MM
H R
v ar
N ic
n old
19 00
b oy
R od
C he
Ġv ol
ĠS er
ch ertown
ud d
Ex ternal
x y
F G
ra ine
m o
ĠGro ve
Ġs mall
ĠK e
g s
ĠDEV ICE
Ġt im
arr ay
Ġcont ains
s ee
H ung
ĠInd ust
Ġf und
ĠJ ason
ang er
4 09
00 2
Winn ipeg
ol es
D omin
Ġa p
ĠL icense
ach ed
pro tein
4 12
Ġinst ance
ĠIm pro
g o
D eb
Ġt otal
ĠMov ies
El izabeth
ĠTECHNOLOG Y
C NV
Ġcont ent
ĠF un
V IC
EN N
S PE
Ġc ond
S earch
Ġc arrier
ĠS ound
ĠRadi o
24 3
eg an
Sp ecial
ĠS D
ON Y
ĠA T
ĠL ewis
Ġy d
HI P
Ġfil m
C ast
em perature
Ġch ang
ĠS o
Prov idence
Ġ7 0
ann er
ĠT ri
Ġ19 87
it i
ĠTh ompson
T RA
ur f
ĠG al
Ġc onnection
R NA
24 8
ĠB O
af e
ĠCo ast
ĠR eal
Civ ic
25 9
Dar row
26 5
33 9
46 2
ist ance
ĠRes earch
Al ameda
ĠK enn
Ġs emiconductor
46 1
K rist
nol ib
Comm erce
ĠP oints
ĠR ES
04 1
ess e
ĠC in
Ġ enc
ow ell
Green e
ĠA tt
ĠI g
WA Y
10 00
A CH
48 2
Ġact iv
op tion
le ase
P AL
ow ers
IN ING
Ġb efore
tim ate
H U
Ġc oupl
um er
D ata
ĠClass ic
Ġbl ock
Ġp ost
ĠAlex ander
p ng
Ġpre v
at o
ĠSp orts
B rew
Rep ort
ĠR idd
L ee
t ed
F IN
Acc ord
th em
ĠN elson
Ġexp osure
Ġin fo
ruction s
Ġm emb
ĠWalk er
F ile
re me
Ġd er
ĠX ml
ĠE ver
Ġcont ain
19 43
N ancy
ĠV illage
Ġb k
O b
Ġsecond s
Ġinst all
Ġvolt age
ĠM er
ĠJ OHN
ĠE quipment
23 2
P u
P ORT
18 95
or ia
ĠG as
ah o
South ern
ĠSouth ern
Commercial s
ic ester
ol ved
Ġro t
Dis play
t ime
he ville
US D
Ġ el
II I
Ġh it
m ont
25 4
ĠK han
Fr ont
er by
ĠAd d
Ġcompr ises
Ġ6 3
w ord
t el
Ġpart ic
Ġh yd
j amin
w er
ĠRo om
ĠB y
A UT
H and
ĠM otor
ber ry
ĠSt ars
48 4
i od
AR L
ĠRidd im
ĠK ind
Ġent ry
l ation
p ark
AR AT
atch er
w eb
an ish
26 7
Ġ4 8
ak ing
AM ES
C orn
Ġf eet
ĠWay ne
ar ly
Ġre f
ĠM ax
am d
19 37
epend ent
Ed ward
ace ae
Z ach
ĠCent ers
Ġs ets
C ros
E ss
ĠS oftware
ĠC L
op p
I an
P unt
T er
ĠD EL
Ġass embly
33 3
10 69
aw are
ĠC ell
ĠK evin
K h
Ġw ell
Wil mington
Ġb u
ĠCons ent
Ġw ind
Mon roe
25 8
ell i
ĠPAR TN
g ate
Mar ion
Ġm ust
ĠRod rig
D ep
E ugene
Lanc aster
I AL
N ATIONAL
itt ed
ox ide
T e
yl an
al i
ĠGl obal
18 93
ott ingham
o is
3 06
DU CT
Key board
T RO
Ġg l
ĠTechn ology
ch ain
Ġd ocument
26 6
Ġ6 4
E c
ICA TION
q l
ĠB est
Ġt ransport
Ġs ize
Fr ench
M AS
Greens boro
ĠSt ock
ell ow
ĠM ack
ĠL ight
anc es
ĠS H
C osta
Ġo pt
ĠL ove
ĠG eneral
s un
Ġ4 7
m ich
ĠS alt
oun c
ĠPARTN ERS
Ġr est
ul in
For ce
Ġdev ices
A z
iv al
en ia
Ġt yp
Le eds
ĠM otion
ab in
ar ch
ĠOff ice
J ennifer
Ch ild
Ġeffect s
N ap
iv ely
Ġ4 6
Lar ry
im al
Ġoper ation
A ir
T all
Ġmess ages
M otion
19 38
Ġo cc
ach er
C ath
eb ook
ĠK en
Ġcol umn
Ġl b
U s
Ġ error
ang ers
Si oux
V er
ĠP ost
Y A
) ."
U G
olog ies
ĠB ut
ĠW in
ĠS r
Ġre quired
18 92
ĠH ead
i ate
T L
ĠL IM
ĠH ome
ĠBel chertown
opro tein
le wood
end ar
Al aska
rif ice
R ol
ĠI owa
30 11
R est
Rec e
ĠCooper ative
M os
Worc ester
ol ar
arm a
ot als
Ġl oad
01 6
v r
am ber
v t
pon ed
G iles
L at
ra f
ĠH onda
ĠEx t
L ewis
S and
t ype
uck et
Ġch ange
ĠJ APAN
m ad
f il
ĠF eder
REE K
d ouble
M ountain
ĠF red
ter tain
9 00
R IC
Un listed
U k
it ness
Ġt erm
Ch aracter
Ġn et
Ġli ability
w ide
Ġl imit
Cam den
Ġt echn
eb all
Ġph osph
4 20
f ast
19 33
g ers
ys ical
en burg
Ġm agn
S ite
25 3
Ġconfigur ation
iv en
og n
20 41
ke ley
26 2
33 4
H istory
s ite
end a
ett y
ĠN H
b es
in ton
ĠS ar
ag an
ĠBr un
h man
Ath ens
Ġm ark
Louis iana
Ġsouth easterly
26 3
Ass igned
is ton
et o
Ġf ree
Ġreview s
19 03
af ety
S ev
ap h
ĠSt e
ĠMad rid
us en
pl oad
ust er
K C
he et
Ġrece ived
Ġk m
AR G
os ite
vest ment
Ġc r
0000 0000
ans ion
ĠInd ies
Eas tern
6 05
ĠK ent
Ġsh ould
S CA
ĠP re
R R
i ences
27 0
Ġl a
Pl an
N evada
ĠT ru
La ura
iqu id
es is
19 46
ĠG all
ĠB oy
North ampton
Ġserv ices
Ġcomm on
Moh ammad
Ġ19 86
As heville
K ath
ator s
K I
B ut
ĠD ou
h yp
Ġk n
ĠP el
UL AR
Knox ville
ineer ing
ĠCo le
ĠB ob
C utter
27 6
w idth
10 21
m ok
ag u
irt ual
V is
19 34
3 10
K ay
Alb any
F ayette
ID A
it ors
ĠP ublic
FL O
ĠShe et
ĠP leasant
eth yl
a ft
p ar
ĠSt ephen
4 08
ĠF ish
ĠO bject
ĠRou ge
ier re
ĠGr and
U ser
et ical
erv e
Christ ina
F eature
ra el
Cl a
75 00
ub a
ĠB ru
ur st
r l
int endo
Ġ rank
rim ary
5 30
ĠS ee
ord in
O il
Ġsub unit
G PL
i i
ĠC ase
ĠAcad emy
ok ane
Ġfollow ing
Ġm e
Ġ5 3
op y
e Commerce
27 3
Port ugal
19 28
24 1
iam ond
Br it
S igned
ian s
tertain ment
ich ita
s or
A ng
FA CT
ĠL E
end ale
FOR T
as er
K ings
Ġ4 3
Al i
RE ET
W as
Ġth er
Hart ford
Ġs ett
ĠYork shire
Ġm iles
Ġch aracter
ĠInd ia
ĠB ry
urr ay
R andy
45 5
b ut
ĠM AN
G P
ider ation
c onfirmed
ol ute
ĠMeas ures
ĠGeor gia
J erry
Dou g
ap ore
l ow
ĠPh one
W all
ĠMar c
ĠO il
roll ed
RB K
C ounty
33 7
Y an
20 99
th ur
ON D
Fin ancial
ĠF erry
ib ility
l on
Ġc ommunication
ĠG ill
ĠChrist opher
ĠB EA
ons or
3 031
ĠLl c
Ġ quest
23 9
D om
Hung ary
ac rifice
H B
M esa
ĠS I
Ġs witch
Lex ington
z er
Se an
AS even
ĠV el
ĠA PP
Ġs ecurity
28 7
ĠOr gan
v d
enc er
d one
D ark
M ount
Ref erence
ĠB ug
28 0
48 0
ĠH D
ĠMead ow
23 6
N OR
ĠAd ams
iform es
ĠFeder ation
Ġ5 8
N ED
c onfig
10 72
Ġele ments
Ġres ource
ĠTeam s
der land
m ag
SU LP
ĠDirect or
E lement
um in
P eer
ĠChester field
K im
Russ ian
ĠM aps
j ug
ĠT A
ord on
d rpm
ĠE nd
9 25
am ie
9 06
u ri
ri or
3 24
s o
ĠT ig
R eno
m und
Or der
Ġparam eter
23 7
Ġpat tern
B N
p ie
Ad obe
H AN
ĠB ow
th ampton
ĠD evel
Ġcl ient
b ridge
mich ael
J ery
ĠG ame
orpor ate
l ink
ĠO hio
West ph
Jery kk
ĠAr ab
oc ale
H ampton
ĠFin ance
ecur ities
d ele
z h
Ġc onduct
M R
M t
AT A
+ )
k de
o am
ĠB a
29 3
Victor ia
ĠH and
ell aneous
M ember
SU RANCE
4 03
L AM
Ed ucation
G S
u j
ĠL eg
ĠIN D
Ġit em
m iss
Ġ7 7
ĠC OR
Westph alia
ancel ed
9 36
S KY
C enter
Ġre ference
E st
N i
Ġad verse
ly ing
ĠJ acob
Ch r
uss ia
o a
yc rystalline
NC MS
45 4
ĠSen ior
A aron
ĠC am
iv ia
ĠA k
um mer
ĠAl i
ed ar
Sp okane
A IR
3 50
oth etical
3 17
B AR
Ġm ax
ogg ing
V ac
ia h
D or
28 5
i ot
ak h
CO MB
Y outh
19 45
ĠPRO DUCT
us ion
f in
ĠM ess
ĠL ittle
f ox
Gl en
R io
Ġcomput er
Comm ission
Ġ ge
mit ter
S om
ĠB enn
ernand ez
Sp ort
ĠTE X
hyp othetical
ĠF air
is ed
Off ice
ĠB aker
ĠS et
19 15
D ocument
T P
ĠU N
Ġb oth
Ġs epar
ud y
ing ing
D ear
ĠH or
Ch ester
ĠCOL LAT
34 3
ĠW olf
w r
ĠC re
F irst
ĠS a
ident ial
Ġcol lection
ot us
N F
E AR
10 29
Dec ision
19 16
ĠL ind
W ichita
ĠR ating
h ttp
U E
ĠSt eel
ĠSp ecif
ab el
Un c
Ġ5 9
Ġmet al
Del aware
Ġv ideo
TIM ORE
Ġ8 00
eg irl
Ġcorrespond ing
W M
ai i
Ġident ify
3 20
ĠA h
l og
28 6
o ir
im s
ograph y
d b
Peer less
w ick
pl ate
ST L
24 9
ĠKind le
C oc
Ev an
Ġfil ter
ĠBL VD
ro g
G il
ĠO regon
B aton
ĠW right
Ġdisc losed
m n
27 9
qu are
L es
M yrtle
Jess ica
ĠC LEC
ĠPol ycrystalline
ĠS il
ĠO fficer
Ġl ower
ept ed
ost er
B ANK
Ġ23 91
ey er
National s
min ated
B all
d on
B ul
ĠR ey
ack er
Z H
N B
N intendo
Ġ4 9
K R
ĠG i
Ġdis posed
F ederal
v ol
ĠG a
m art
ĠG il
ĠPro d
ĠM asters
IT E
b in
h ere
46 6
oo f
ĠE vent
T AM
D P
BAL TIMORE
46 7
an el
ĠBern ard
ĠM ount
ail and
m id
ens us
Ġus es
ĠM ode
19 29
Col omb
ĠUl timate
D i
Ġre qu
ET T
F amily
Q B
umm ary
c ome
Ch elsea
34 0
ĠCh air
i ley
ur ora
ost al
St atus
ĠD L
ph osph
H ead
Ġsp ell
Tok yo
0000 000
ĠF itness
Ġm ain
R F
V EL
R ank
V erizon
24 4
ĠV ista
ph ony
red it
as y
26 4
ĠV illa
John ny
f urt
av ar
Ġpl ug
Ġh alf
Ġrec ord
p et
ĠT op
k es
ĠChrist ian
arc in
FI ELD
B edford
SK I
Ġd own
ĠAc cess
ĠE ric
ĠAr ena
pl ied
istor ical
C ZE
ĠM iddle
ĠIN SURANCE
Bloom ington
form ed
ĠMat ter
ĠN on
m en
ĠPro spect
yn a
ĠTele phone
36 2
You ng
Ġapp ro
Lanc ashire
ĠLIM ITED
ĠX I
Ġact ive
AA A
ĠC ommunity
ĠMon oxide
G EN
U MB
s yn
5 12
ĠC orn
ab y
47 9
ĠU td
Gl obal
Ġlist s
Ġ %
sport e
ri me
ul ated
Object From
u v
To ObjectFrom
Ġtest XML
ĠtestXML ToObjectFrom
K el
01 3
uff er
ĠKenn edy
ĠS ur
ĠM em
ĠG riff
Ġant igen
L ecture
ĠH OLD
26 1
H D
S il
Ġinst ructions
m ing
amb l
ric ia
g ress
L ind
US T
ĠAd am
sporte egirl
n ame
ĠT RUS
Phil ipp
ARAT US
25 2
over y
ĠThe ater
ĠCooper ation
lad esh
9 03
B os
Ġd esign
ce an
Ġst atus
Ġf ull
bor ough
ww w
F ab
b ie
G Y
ol o
ĠL uis
in burgh
IL E
ĠEl izabeth
ĠF rom
ĠA rea
Vel vet
J acob
Dear born
RE CT
S pl
or ge
B oulder
E P
Ġ5 7
ink i
ĠBrit ain
Ġh el
L S
ĠF T
Ġb ridge
William son
sv n
8 16
Ġs eason
al pha
Specif ic
g u
sen al
ĠS ection
ig o
rick et
17 76
VM ST
Ġam ount
ĠT urn
Ġup per
S MM
Car roll
ĠBEA CH
D yer
19 35
olec ular
ĠFr ont
3 12
ĠJud ic
C ELL
% )
C ent
ĠAd vis
st ra
l ock
Sing apore
a ine
Robert son
ĠPrint ed
N am
c fc
ĠT otals
01 5
Ġst ory
Fil m
W ales
Y N
Al an
ĠF IN
trans ferase
ĠIg G
206 190
Ġ4 2
ĠF e
Fil ed
pert ies
S y
ĠC ustom
Ġrel ates
Bus iness
J ake
le tt
Cl ay
AN CE
Sum ner
ĠCar roll
EF F
Ġcons ideration
fr ast
ĠM ethod
ĠInd ex
ĠST REET
L isa
ĠGo ogle
R ev
Ġl ayout
ĠRo berts
ĠAn thony
it ter
ĠF ut
els inki
ĠWest ern
Ġs ites
ĠK ah
we et
19 19
em eter
ist ics
ME X
ĠK ings
eas tern
ĠAir port
H enderson
SW E
Uk raine
at ely
iz er
ĠAr bor
Ġle v
27 7
Christ ian
ul ating
Carl os
ĠM ult
ĠP acific
om ore
Ġk it
N ottingham
Ġ19 83
F iction
Ġa ction
ĠR EC
pr ession
ab ri
ES PN
We ak
X O
ĠLaw rence
Ġb ar
T ol
us p
ox idase
Ġb el
Pro tein
amin ation
frast ructure
ĠB urn
ĠTr acks
N atural
ĠP ond
Ġ19 85
Rog ers
Work sh
Ġfl ow
ild a
9 199
J W
Ġform ing
ĠTig ers
ĠOn line
Ber keley
ĠDep artment
ĠSt an
Ġpr int
Ġd i
ĠCh ild
I X
ĠC all
Mc Minn
ĠN ATIONAL
Ġ7 6
Mil an
ĠJ uan
S ee
Ġrece ive
ip ton
Ġ00 6
H an
Ġb as
ĠSp ort
ĠC he
E arly
Ġb uild
ĠRuss ell
Ġdefin ed
emeter y
P op
v ia
ĠH C
Ġsub st
rod uced
L uis
EN A
oh en
Ġr adi
4 24
Las er
i y
Ġl ocated
Pro te
ĠJudic iary
ĠB ills
ĠFin ancial
ĠCOLLAT ERAL
P om
US E
9 099
AL D
P alm
eb ast
Bang ladesh
ĠPres ident
ep ort
Ġch aract
Pent ec
y th
ĠL o
le en
Ġc arb
St inging
Ġp iece
Stinging Velvet
EN G
G RA
M Y
ĠN ow
Elect ric
St e
Ġrepres ent
It em
M ET
R ail
CA T
sur ance
B ern
s r
Ġo b
36 6
UL L
Colomb ia
os ome
ich olas
G erman
S OL
B ow
ĠD ead
Ġst ruct
Cl ick
Ġal ong
ail ed
Ġind ex
ic he
ĠRodrig uez
W D
au er
ĠS aint
ew ork
Th ailand
48 9
Ġp oints
Ġb ook
ĠAr ts
" (
AL I
COMB INING
ĠP aso
Ġs up
Ġf lex
u h
Ġdirect ory
at ar
Ġ7 5
ort on
ert ical
gar et
ĠC ycl
Pentec ostal
ĠPro cess
Ġc amp
29 0
36 0
ĠCont ent
Ġsystem s
ĠB i
ĠOr t
Cur ated
Ġ earn
Ġ19 84
ĠINTER NATIONAL
Al teration
onn ie
ugh es
Radi o
H OR
8 06
Ġ old
uc ks
J ac
W ild
eb l
OR Y
Ġ5 00
w ater
sp onsor
Ġconc entration
K rov
w a
Ġhe at
ach i
MO D
ic op
Krov ven
Ġg ate
ĠC umm
CO OP
ĠAust ralia
25 1
Soph omore
ĠC ob
ĠJ ane
Ar ch
Id aho
Cros ley
ag g
Ġch eck
33 5
ĠR AM
ed ro
ra ul
on ic
Ġpack age
ts dale
by ter
I cy
Ġ6 5
02 4
M ajor
P ut
18 94
ĠF RAN
at ia
All en
sy ch
AT ER
Cl ar
Ġlev els
or ial
Ġc over
Kat ie
iz a
ĠTEX AS
Prote ome
Ġf re
Ġn ow
C raig
b ird
ĠSt even
G overnment
is l
ĠT V
il ly
ĠD AV
Ġs ome
ST AR
Ex p
Ġmult iple
g es
S ab
byter ian
ĠT ELE
01 7
Ac quired
ĠSYSTE M
ĠC EST
07 1
f red
ivid ual
Ġ ?
ĠR ose
Ir v
h ra
B eginn
et ch
Pl ay
S ecurity
19 32
St eph
ag le
26 9
ud son
lo or
Ant oid
sur f
Icy Antoid
M andy
ĠBl ues
ĠMat thew
N onf
b uild
En terprise
Wh it
ĠF O
OS E
Ex t
rev or
Ġc all
18 87
4 23
Ġh ere
CH AR
02 5
Har vard
S urface
U PM
af ayette
And y
Alexand ria
01 8
48 7
enn es
ID GE
ĠR elease
ĠIn stitute
MI CRO
ĠQ ue
r as
Day ton
Conn ie
r est
n ut
Ġan n
Min or
ac a
B S
ĠC onnecticut
ĠB R
02 7
AM AG
A sp
ear ing
ĠReb ounds
ĠN ic
ĠW ILLIAM
01 4
STR AT
s ville
il i
Ġp red
L ink
p ent
37 8
g g
atter y
ĠRem ix
S ale
ĠD own
Car ter
T EN
: (
ĠPenn sylvania
SMM M
Ġcross ing
V ill
Ġprot ect
29 7
IS YS
ens en
Ġnorth westerly
Ox ford
ĠSc iences
Co ors
AT P
ly c
K N
ĠGRO UP
Ġb adge
Ġrem ov
Ġd em
ĠSc ience
Charl ott
V ic
Ġc apt
K ER
Ġs ec
Nor wich
Ġsupport ed
z z
pl ies
ĠS i
ĠR ath
Ġph en
jug ated
G SM
old ing
U l
AM P
UT M
Weak ley
3 22
ed ul
rel ated
G IN
04 0
G CL
uc c
02 6
Dec atur
ĠPark er
H MS
d ev
Ġst ation
4 10
en berg
Ġcre ated
L uke
ĠC alif
b oolean
Ġres pect
c ow
est in
c ott
ul ator
uth ent
F ood
oot ball
Art icle
ht ml
ĠN ote
Ġy r
w y
ĠH A
Ġan other
ĠProduct s
ĠM un
35 4
ĠM inn
inal s
ounc il
ene z
ĠL I
B u
v an
Ġj u
ĠM agn
ĠD ave
Gre ece
Ġcoupl ed
CH E
J uan
ĠG U
uc ing
Is rael
Ġc alc
L ev
M AT
Ġto ol
28 8
ASS ACH
Hay wood
44 4
M iddle
Ġ5 1
19 31
Th urs
T roy
Cl ub
ĠSt ar
un known
ev a
OW N
Be er
Ġ ...
44 3
MM UN
South ampton
ĠAl bert
en ger
19 27
ĠW ild
ĠLa ur
ĠAPP ARATUS
19 05
Mont ana
EF ORE
Ret urns
Read y
4 30
Ġst r
ĠBack ground
Ġearn ed
C MS
ĠCar ter
ĠWorth ington
C all
i ber
ĠW ing
in er
] "
j e
k h
Wy oming
us er
in ity
ro b
ĠB AR
Ġret urn
ĠCon jugated
x i
Con ference
arc ia
+ **
T ues
sw ick
Per oxidase
ĠSh are
ĠRes ources
ĠP L
g irl
ĠAS SO
19 17
ĠCont ract
SY N
m el
Ġis s
Act or
orts mouth
ĠCo ok
ĠPl anning
IL M
ĠSpring field
N HL
ĠI V
Ġflu id
ĠE lement
Ġimp lement
oo th
Ġrem ote
an ies
Brit ish
le ton
06 0
05 00
ĠO ver
Ġwind ow
ĠM ER
ch ool
4 17
L U
Ġc ause
sh a
Ġatt ribute
35 6
V N
reat ment
C are
H um
B righton
G h
SE Y
Ġart icle
Pub Med
ĠW ed
ot ter
for ce
ch a
18 99
Ġpro bably
Ast ros
ĠM r
uss els
ĠSol utions
Ġp op
38 0
ERS ON
hyd rogen
ĠB EFORE
Ġs ample
ux e
D erek
G er
Ġl ow
ĠSt eve
our se
ĠSc ot
M ah
v anced
ch em
ĠW are
Sac red
ĠSu ite
C onfirm
Ġs ession
CA S
ĠProf ile
ĠC AN
ĠU CS
umm it
H ill
Ed inburgh
ĠJ R
ĠBro ad
Pet ition
ĠR ick
35 8
ĠFL ST
D S
ay a
et ime
t es
Tig er
ĠMary land
ĠPal ace
Ob ion
rom osome
Ġwh ile
Ġdesc rib
b ook
ass igned
3 23
19 04
ol i
IA P
25 7
ou ter
Per u
Ġ7 8
Ġass ay
ASSACH US
Ġfund s
ĠTer minated
ĠComm ission
ĠRO BERT
Ġb oard
am i
Ġcol or
y te
av ier
ens es
ĠEn field
Pres byterian
ol in
W ireless
e u
I c
ĠD ist
302 1
Radi ation
47 5
b o
Ġv otes
Tr avel
ch ange
Ġretri ev
ĠM itchell
ĠK orea
C F
M ash
T ransportation
Haw aii
P e
M ap
125 0000
ous es
Val ley
3 14
D EL
ine z
clud es
Hard eman
ar ian
Ġ9 0
ĠASSO CI
Ġw ay
29 8
Ġstart ed
ĠPRODUCT S
R am
Sp anish
New ark
C edar
ĠComp lex
ĠCart ridge
ĠC a
44 2
Ġch ild
ai wan
ĠCent re
ĠW es
8 04
C orp
19 24
ĠF I
ĠG onz
br and
Charlott esville
D istrict
Ġar rang
ET TS
Philipp ines
S PM
T ipton
Ġc ache
ĠCh ief
UT UAL
D u
Ġn ode
ĠL os
l s
chi ev
ĠCH ASE
L ONG
27 8
ĠMor ris
sn ag
raw ford
aw ay
ĠBl vd
ĠPARTNERS HIP
Rece iving
n chen
ĠNew s
Ġdevelop ment
Ġsupp ly
De ath
them ed
H uman
W P
ĠD I
ĠL y
ĠCal endar
P ad
ĠJ AMES
ĠW V
ĠL imited
Ġ8 4
OT A
ot ide
Ġthe y
Sing les
Ġtrans m
ĠBug snag
ĠB u
ĠPr ice
Ġw ild
olog ical
w en
ĠE DT
ĠG ard
ox i
Qu ebec
A uto
y b
h att
Ind onesia
Ġcons um
ĠRadi ation
ĠP E
iz z
L oad
K elly
eh icle
8 12
ĠB oard
ico le
ru ic
H ot
ag ed
G REEK
Bh ruic
Ġ19 82
L ock
Ġtrans action
d o
EN RO
Bob by
ĠL ocal
18 80
Eng lewood
O ption
10 22
27 4
b eta
Ġs eries
Ġg overnment
Ġch ecked
ĠS ale
34 7
ĠL if
St art
CO TT
ne th
27 1
19 21
Ġrece iving
ĠTRUS T
4 39
19 26
Ġcont roller
ĠBl ock
urt is
M EN
ric an
Scot tsdale
06 6
ĠJ azz
op le
M yst
st an
Ġre al
Ġant ib
ĠK at
Ġim pro
aw ks
36 7
20 31
ĠC PU
E K
D esign
ĠH ow
Ġinc re
S ask
am l
ĠD u
Ann apolis
id ate
ĠOr acle
Ke ith
Ġrecomm it
ĠA IR
ĠF ac
D yna
it ar
ĠP oly
Ġin ternal
Cro atia
B ELL
Pr int
ĠR and
Ġc ustom
Ġass emb
Slov ak
Ġchem ical
Confirm atory
3 29
AK E
CHA EL
Ġdeb ate
York shire
ry pt
ASSACHUS ETTS
it ive
6 50
T M
Ġh ome
ENRO UTE
( )
i ency
z en
ĠP a
am ent
um a
St andard
c anceled
Ġp anel
ĠK yle
ĠSoc cer
D ennis
MI D
itt en
Singles peed
ĠI l
ĠOr der
H elsinki
35 7
cl ass
az a
Co ok
ly mouth
Ġpro f
D AM
ĠL og
Fl at
M edia
ĠG B
Ġ5 4
idd les
ĠN ad
ach y
ott om
Ne il
Ġobject s
Ġprev ious
B ridg
Ġ range
ĠC onn
4 04
vert ising
0 12
Mic rosoft
ĠK IAA
ĠCont est
AW ARE
AL ON
ĠT enn
Sh er
La uderdale
Ġac ross
ur ich
Ġ3 9
Pet itions
AN S
ĠD ig
ayment s
ĠDev ice
Bil oxi
L ocal
H ick
ass ee
ĠMan ufacturing
g art
S ail
ĠGr ant
E p
Ġ array
ur as
AMED ISYS
O range
ĠS ant
Ġpl ate
ER N
ĠN W
ĠL ist
ĠK ong
37 6
ans field
ĠAssoci ation
Ġl iquid
Jer emy
ĠKah rl
ĠEng lish
209 180
Ġqu ery
Prof essional
m es
ĠA th
ĠH AR
a ud
ĠJ apan
ĠPAR K
om al
Jim my
3 30
Ġ ens
ĠL ead
Ch uck
Ġph ot
C ensus
ĠD omin
29 4
Scot land
ĠU pload
tt ar
206 180
am an
Ġc orporate
oc us
H untington
ĠP ress
W er
ĠJ osh
4 25
ol ia
Ġa x
ub lish
bro ok
Ġm i
ĠG E
ert o
29 2
PD PK
Br ussels
ĠBra un
Pro ject
Ġim port
7 06
33 2
O C
ĠM IC
us k
ember g
L inda
k Da
ĠN ET
CO MP
way s
Ġ3 00
FI X
Mess aging
ĠC ountry
arb or
28 4
Ch urch
ĠPal mer
Ġsc reen
Ġsub family
0 100
| -
ĠM obile
ĠEn terprise
Ġn e
ain ts
ĠY ears
ram ework
Pom ona
Mandy moo
Ġinclud ed
0 11
ain der
I K
ĠC ab
3 21
B ri
ap el
9 05
M etro
ĠB ou
ĠMc G
ĠRath man
F ield
Th und
Ġsens or
med iate
Pres chool
Camp bell
G raham
J F
Le on
r in
ig g
cont rib
Tur key
F ay
ing o
3 18
hol m
N ET
O ntario
V iet
Un it
ke ep
ĠM ir
For ward
Oper ational
ĠVER IZON
at oga
B ec
m ail
ĠD eb
Bl og
W he
4 15
34 6
que z
Ġ7 3
29 6
28 3
Bry an
E th
tt emberg
ĠFor ce
34 1
ĠK elly
ir it
Display s
ĠI mp
19 25
S ur
ĠMar ia
P erry
Sh ow
ĠB al
un ct
C y
op en
id ed
Ġag ain
Ac ad
Tol edo
Hun ter
N ear
S X
ĠMor gan
M ETHOD
Ġn onc
4 40
Int roduced
Y D
AR Y
34 8
LIN S
T echn
ar p
ĠS ing
ĠA tl
ĠM ah
28 1
ele ction
ĠF ly
ol ly
H oly
IN ES
ph al
Ġstud ents
umb le
Em ily
O IS
ĠC W
ĠL or
Ġexper ience
BRO OK
le v
ĠC any
Ġm echan
27 2
CH ARD
IS H
ĠAqu atics
ĠAd min
Hor ror
38 9
ĠP AL
ari ous
ĠTr ack
Band width
or gan
p ace
akers field
Ġf our
ĠH DD
Ġm obile
ĠHol iday
D et
ort g
N athan
Ġ2 50
ĠN ORTH
Ġin side
Ġl ess
Ġchang es
ĠJ ordan
28 2
enc ing
is ode
ĠR ub
Ġs er
Ġc ase
ĠE c
em ont
3 16
T y
ro id
Ġo pp
34 9
let ic
ĠAg riculture
Re formed
ĠRob inson
m om
ale z
ING ULAR
michael m
C OR
S up
ĠMon oc
ight ing
3 45
J P
ĠD is
amin ant
ĠB ul
W MAC
Laur en
Bl ues
Co ed
Charl ie
ia z
G ro
R eb
ĠE st
Ġint roduction
oun ced
ĠJ ac
Ġh ousing
ĠEng ineering
ĠCOR RECT
g amma
Ġ6 9
40 11
Ad vent
Ind io
Ġk de
ra ke
Har ry
Ġc ost
ir ates
ĠU se
Ġp erm
ĠK asp
erc ent
p o
iv ated
ĠK im
D ivision
SW ORTH
ĠC isco
ĠB ailey
Ġto ward
CH AT
t il
ĠP LC
In itial
Rh ode
ĠG overnment
Val enc
W es
Un identified
PM ORGAN
Ġle arn
Ġ6 2
Wr iter
ĠH o
ast ic
UM ass
10 12
ĠK h
ĠTy ne
B K
K orea
Ġc ells
uzz le
35 9
Sar atoga
ĠL evel
ĠLe on
ĠG en
O d
47 3
Phot os
N P
Pr ince
surf rad
CH ICA
SCA Q
ĠDAV ID
Ġd ownload
36 1
D esc
ĠK r
Ġg rowth
D o
Ġ rail
ffic ial
P AR
ĠS anta
ĠW OL
an sea
Ash ley
ĠC INGULAR
ELE CT
ĠPel ham
B ud
U se
39 9
Kar en
5 04
PR U
EN CE
Ġ7 9
ĠRe quest
w ar
ĠJ ava
ĠDet ection
D iary
is le
Bl ount
ĠBall park
Ġd ial
ĠJ er
c ription
ff ield
n as
Def ect
Ġexpl ore
29 1
Ġh ard
ron ics
mag pie
id g
Ġ6 7
AN I
Mac on
ang o
Rem ainder
res h
35 5
K IAA
s ub
z man
ĠSt ats
ication s
7 32
j i
ĠS QL
uck er
R FC
R atio
Ġa chiev
ĠJ AX
In st
A urora
ĠEv ans
ES C
o ose
SU I
ĠA utom
ah assee
BUR G
c ore
pe achy
ere z
Rep l
AV ALON
V EN
on i
ĠF R
att y
S em
im en
Ma ug
ĠSw ift
SG D
S ource
en ham
ĠCamp us
Yan kee
Ġ1 12
ĠM esa
Ġquest ion
F ac
Ġ6 8
Ġ enter
ĠI d
T aiwan
39 0
ĠAs ia
36 8
Intern ational
CHICA GO
h ard
G F
TEL US
I ron
N ER
ĠIn itial
CM G
P OR
Ġ5 2
Jan e
west phal
Ġm m
57 8
p ons
ov es
Lar en
6 18
O UR
Ġ )
Harris burg
CELL CO
7 200
F est
ĠDoc uments
ĠMonoc rystalline
Reg ional
MAR Y
hydrogen ase
F MM
Ġm ot
Ġexp ansion
B st
B RE
onn a
er ts
S ER
ag s
Pet e
Rol lin
Maug eri
k ing
ST AN
enn ial
Ġsp ace
ĠInt el
L eft
ur ance
h el
Ġdo es
Ġadd itional
ĠPar is
ĠBenn ett
. )"
ĠKasp ers
al le
ĠBen jamin
Thund r
Rollin Thundr
R AM
Ġ row
Ġf ound
ogen ic
c ent
eed s
L in
d es
( +)
ĠH at
Sep h
ian ce
bl ack
utt gart
ĠMy ers
on er
ĠL uke
ĠJohn ston
L T
st ad
ĠSt aff
18 97
Ġcomp lex
ĠGran by
Ġb ill
Corp us
ist ing
mok aren
02 2
IS P
\ ""
art z
.. ..
Domin ican
h our
ff ee
IF IER
C ESS
Ġs k
Sh aw
ĠTechn ologies
E H
ES TER
36 4
N ORTH
VIC ES
L ak
T AL
Alex ander
w ith
ĠS CHOOL
ĠV ictor
IG H
Bru ce
Ġnucle otide
but ane
D AL
V ent
ĠS ite
old er
ogn ition
T IN
ial ly
ĠMet al
K F
at as
36 5
ĠUt ah
C ourt
Ġm ake
ĠC ath
ĠJ ean
Case y
19 22
ĠE ss
Ġper iod
Beginn er
at ically
ĠG arcia
35 1
ĠEx amination
I mp
ĠB right
OR A
uc er
Ġpartic ular
R SA
H ouses
C FC
ĠP op
Ġn ov
ĠC rew
ĠJ ER
4 099
K a
P vt
Fl ats
R W
d g
in ed
Ġ3 29
Sc ience
C irc
S ton
um eric
ĠMiss ouri
em pt
ag ua
i ation
ĠY ear
ob a
at ase
ebl ood
Ġh ttp
Ġg reen
ĠSim on
ĠUn it
36 9
h ar
oci ety
ĠCap ital
An na
3 26
ount ing
ministr ator
K arl
Roy al
CHAT SWORTH
C el
t m
Ġl ike
37 0
ffic iency
4 11
MMUN ICATION
en ance
Ġv ariant
35 2
sp ace
n ight
ab lish
Ġm akes
ane y
SW OR
BL R
E MP
ĠT ob
ĠUS B
19 02
ill on
ass ociated
04 00
ĠC onst
aw k
B re
resent s
ĠPh illips
Ġde hydrogenase
C IS
ĠM ic
art et
Conc ord
Tall ahassee
ĠSI GN
SWOR v
34 4
a um
19 01
it als
O X
Ġpress ure
ew ood
38 7
10 31
ĠT R
ab b
Bl u
omet ric
J PN
L etter
19 23
Ġg ene
est yle
ĠK l
LA B
Ġindic ates
Ġopt ical
Seph aro
ĠL ED
23 75
ach ing
ts ville
Ġinter act
Ġresult s
ĠW el
ev ens
ald win
R and
ent ry
ol ves
ĠH amilton
SI L
E M
ĠE p
ĠO riginal
ĠSh ort
ĠF RU
ĠB ond
raph ics
ĠM aple
C ov
Tr avis
ĠSER VICES
l ie
ĠH I
For bes
Ġ ebook
am is
ĠAnt i
ĠCast le
3 13
B uck
Ġp oss
ran ce
Ġpro of
ory ou
OW ER
ĠV AL
aint enance
B oy
Ġs aid
ĠS ong
ab ly
p ub
S ign
og ene
B i
34 2
Mun icip
Ġmax imum
au ber
Ġdet ect
ĠT ER
Ġp ix
St a
6 15
Ro ane
ĠFRU IT
N G
T erry
Front ier
Corn ell
mid t
47 2
5 18
ig e
Sum mer
i ers
iz ard
ĠTru eblood
st orm
Ġs uper
L otus
d i
ĠM IN
ama z
Ġelect ronic
ĠC oding
ĠPl atform
. -
D ades
ĠPRO SITE
sc ape
35 3
clud ed
ĠCin ema
ash tra
Rog er
C ape
er ed
ĠL ever
St aff
N otes
ĠG raham
Ġsh ot
SO UTH
Ġretri eve
ampa ign
ĠM ON
$ $
ers et
Ġtrans fer
ĠG irl
ONY M
arw ick
P ont
Ġst ream
av or
il er
ud a
iz ing
ĠM ate
ace ut
18 00
Am y
GL END
Ġpoly mer
Ġs heet
b ach
f ixed
w all
ix on
4 16
L M
Ġant ivirus
SYN ONYM
ug ar
H istorical
Ġl ast
Ġbel ow
ĠA ff
Ġp erson
, ..."
47 1
arm aceut
A qu
D anny
G roup
er ite
qu ency
iz es
Ex ecutive
Fred erick
ĠU RL
5 05
amp ion
Ġa udio
N OS
LA KE
Ġag ent
ĠASSOCI ATION
h urst
Ġm edia
49 9
B on
L ith
ian e
oc a
F i
ĠH untington
Gr ay
ĠMI CHAEL
Ġtown ship
Greg ory
us ical
RI ST
c ol
ĠN ame
Ġg iven
ic ates
ĠH TT
Ġb it
M olecular
h r
ĠG od
Ġor chestra
ett eville
19 18
et ers
Mor rison
Ġ und
N ES
39 6
ĠMin utes
arw al
H ong
is ch
P sych
ĠK ar
Rom ania
M UTUAL
s olute
al ph
A ves
ash er
Ġadj ust
eg ative
Ġh uman
act ory
Br onz
ed in
An ne
3 19
CT ION
3 27
ra ffic
ĠPRO PER
ĠRecord ings
ĠUpload ed
p ack
St ar
ĠBe at
R achel
it age
ĠW Y
Read er
rock box
ĠKaspers ky
OR IDA
R en
ad ata
ĠAct ive
Ġup on
NS W
ĠLow ell
On ly
Ġdist ribution
W alk
ĠPro tein
ĠJ o
SE M
Jeff rey
ĠET F
L an
comp lement
ĠFlor ence
j m
F ar
N R
Ġt emperature
AN O
ĠWOL FE
ĠC ore
iv a
Spec imen
and ro
Ġthere of
Bronz e
Ġw t
sh ow
ace y
Bry ant
u art
ed d
ĠAg arwal
W AL
ĠA rizona
Ġterm inal
8 59
ĠE arth
ĠMart inez
re cht
ch romosome
Ġa uthent
37 4
ĠL ev
AB LE
d r
) -
B ad
L o
ĠB oys
ĠY ale
ĠB oston
ĠW inn
Japan ese
ĠComp letion
B uilding
37 7
ĠMAR K
8 57
ĠB EL
Slov enia
M int
ĠM urray
Ġc atcher
ap ins
Ad vertising
Hick man
Ġch amber
B enton
P ens
ĠS av
min ster
Ġun identified
W L
ĠRe ed
ĠPh ot
st anding
Ġv ocal
ath am
ĠElect ric
R ub
ĠG er
ĠLab or
9 04
H ail
Ġf inger
H oward
Ġcomp ound
raul g
b inding
10 7220
Ġs oftware
36 3
Nap a
ĠH u
ĠH an
ĠREC ORD
Hel ical
ĠSar ah
Fire fox
ar ing
ston ia
C rystal
Ġinhib itor
Ġproof read
am as
ĠH un
47 4
ĠJun ior
7 01
c ano
j et
Ġt ension
Ġd raw
Col lection
It alian
Bil ly
ĠS ign
ĠN D
Ur b
g al
18 86
ĠW ard
ĠL P
em outh
ign ment
Int eger
ĠTerr apins
ĠC ant
ĠR oll
Ġd riv
SE AD
utr ition
ĠB at
Mc Laren
SAN TA
4 31
ĠBrun swick
ip k
ĠIn fo
ĠAss embly
Haw kins
King ston
ĠMem orial
HOR NS
ber ger
ET H
SEAD RILL
SD LP
HORNS BY
4 26
Ġp ublic
ĠOR M
ord e
Ġad option
inc ent
A h
oul a
Su Men
TO W
HAR MA
Ġ6 1
OL F
u ania
ĠT an
38 8
ĠWilliams burg
M agn
B al
M egan
k ay
ot ential
Lat via
O ES
d s
Ġwith drawn
mod els
ynch ron
ol ine
ĠD ynam
uel a
ĠGreen wich
rif ied
in ch
ĠR on
rib ut
Ġantib ody
Ġc m
Pro perty
eginn ing
Z Z
ĠS essions
ĠD ub
Russ ell
XML Stream
str uments
f ort
isb ane
Deep esh
ĠMER GER
ĠC ode
ĠEx ecutive
7200 30
ĠB end
Jul ie
ĠM K
ch ez
Ġc ard
ĠH on
op l
w ig
Ġfeat ures
D Y
d oor
ĠAd vent
ement s
ahar ashtra
J O
37 9
Ġf eed
Phil ip
ĠK an
Ġtr ue
ĠC lean
lo at
F arm
ĠS urface
fl ipper
ĠBernard ino
ĠX ML
C ountry
MIN I
ĠRog ers
Ġkn own
P ap
ĠS mall
39 8
Ġcomponent s
Ġhand ling
ĠH osp
d sc
Ġnonc arcin
ec oming
Ġd ie
ist ic
I f
ĠT rail
Ġf oam
ĠD iamond
our g
L oud
3 28
j av
ĠP ine
Ġfin ished
Ġ1 0000
ĠP RE
D DR
M U
ĠS m
Care er
N ature
itt y
ĠHTT P
4 29
D ead
Norm an
Mr s
b al
c ode
ĠSt ring
ĠD ivision
ch mn
ng dt
fly ngdt
flyngdt chmn
Ġp olic
ĠMED ICAL
m ine
ar is
Flor ence
ĠFut ures
Z urich
ĠF irst
4 45
Ġt reatment
DU CTOR
G i
l ocale
ut ral
eric as
u ki
49 5
n i
Ġs ynth
ĠProf essor
Mid land
R ight
ro wn
im ension
omm y
4 14
ĠS oul
ou c
Ġo wn
Ġl ines
Ġsp ec
ebast ian
ĠM ixed
ag ara
Ġ que
99 9
ubb ock
MO V
TI P
ĠCumm ington
Ġ7 2
co in
Ġm ix
ish op
th ey
W ell
Ar c
10 64
Ġtim es
ĠChrist i
Ġem ploy
p at
MOD IFIER
P ortsmouth
37 3
ĠHOLD INGS
B end
ĠS ome
re ct
F ly
ĠSt eph
Ġmod ified
ĠMed ical
G ame
L ER
j d
Ġ outer
and s
Europe an
Ġclass ified
ĠB uck
Mar ia
ĠArab ia
ĠM eeting
ĠV is
Ġprovid ing
D ul
ĠC ur
ig uel
IT ION
ach es
Intern et
E rik
T ouch
ĠF amily
ĠST ATES
deb ian
CO MM
bert y
RA Y
Ġrequest s
ult y
RIN C
ov ers
ĠW ASH
oh ann
In stitute
AD A
Ch inese
ĠMan n
Ġth ree
enh agen
Ġfr ont
J ust
a ugh
St ewart
ĠTr ust
aur ant
ĠT em
Que ens
H annah
P ack
R ap
Win ston
Acad emic
T C
ĠA udio
Ġc ur
She ffield
UR ING
GLEND ALE
02 8
ĠWar ner
39 7
Mich elle
M ED
ĠJun ction
Ar senal
App le
Ġman agement
ĠGonz alez
west ern
amon key
ĠW EST
45 9
og ue
Ġz one
4 13
AL T
Val ue
P ayments
ĠWood lands
ter ations
Fay etteville
ĠE t
ual ly
ĠD isp
ap ers
C apt
Mark et
ĠD IG
em on
og l
G ain
ĠF ox
ĠN am
ĠH ernandez
ĠG oat
ia k
Ġw alk
Ġspecif y
ON ALD
cl es
Comp onent
Z im
St ud
ĠELECT RON
P EN
Ġab ove
ic y
ec kl
Ġ9 2
l anguage
arm v
Ġstruct ures
C UL
ĠPat rick
T in
ĠM int
49 0
ict ure
nold s
Put nam
ĠC osta
ĠSt ewart
Ġrel ative
L ight
c ut
ĠP i
ĠH oward
ac ola
Dr um
hatt an
39 3
J ones
s el
ĠG Hz
Fl ag
minist ration
s ource
Ex pl
Fair field
ĠR anch
pent ane
5 07
J AC
08 1
ient ific
ĠWood s
Myst ery
Declar ations
Mid field
Ġembodim ent
c urrent
d u
re es
86 8
f oryou
ĠP R
ĠF ootball
ĠK ansas
ĠNor wich
v ersion
ĠS aints
ĠR ica
if ton
urg ical
ĠEdward s
T op
Ġv ehicle
37 2
86 4
37 1
Jess e
4 27
n ie
ar ecoming
ĠC IR
49 2
Gold en
they arecoming
theyarecoming foryou
Ġs il
AD D
6 01
ĠN utrition
Am anda
r unning
ĠG L
MO ST
Def ensive
ĠDEL AWARE
ĠGriff in
ĠMate o
10 41
est ic
90 11
Fres hman
M Hz
Ġor ig
ĠWh en
ĠW heel
ear l
oc r
St at
ĠAr ray
f an
ĠT act
ĠMar ie
86 3
Sa udi
ĠBas eball
Q LD
ĠF le
Ġth ese
omen a
Ġex ternal
in st
Br isbane
ĠCOL LINS
T ech
Ġ river
ev es
am pl
ĠWh ole
An y
Ġun l
HO MAS
ĠMIC RO
ĠB ass
E s
Ġs ocket
os omal
A le
K inder
ew here
air y
ĠC ert
ĠC irc
Ġe ast
ĠO S
38 2
T un
f ish
ib b
Sc ript
umber land
Coc ke
Ġ ut
ĠF o
Ġc ent
7 20
B aden
ĠAh med
C ash
Ġautom atically
PRO SITE
ĠF all
p ens
ĠSh aw
ĠHold ings
ebec ca
Ġeng ine
ĠM ull
ĠH istory
J arry
W ELL
ab e
ĠGr ay
Ġ ep
R ushing
39 5
LY N
y ear
ĠB ig
ĠL ic
ĠT ur
P os
a a
ack ware
Ġst ored
Lar son
Ġexpl os
L ubbock
m ac
u ador
um es
ĠG EN
ĠB ase
g t
ĠK le
ang el
Sub strate
IR GIN
N L
ĠP HARMA
ĠD ylan
ith er
Br itt
h ill
Sail or
Ġl if
m as
ĠD ennis
18 91
ĠT HER
Miss oula
ĠRes ettlement
Ġ1 01
Ġp unct
ĠKn ight
F el
al se
Res ettlement
ĠDep th
O fficer
T al
Elect ra
Ġcap ac
ACT IVE
Soft ail
M ir
Ġm ap
son s
g or
h and
ĠG TX
ĠC LE
od a
Ġv an
lect ic
IN TER
Ġl ength
oy le
Bl ind
a ac
38 4
ced ure
D erby
m t
ĠV er
Os lo
ĠWASH INGTON
ib or
cont rolled
ĠH VS
49 1
State wide
|- |-
B est
i ott
S af
Kar achi
ar agua
ĠB et
Ġnoncarcin ogenic
F IR
R oll
ĠI ss
39 1
Ġcol ored
? )
Ġr ule
Gl endale
Wind sor
Cath olic
g ran
h oof
ann ot
c r
ĠC hem
Ġs election
03 5
ij ing
S auber
ast e
D av
le e
ern er
GA JA
az ar
Sc reen
ĠFX ST
ĠCell ular
armaceut ical
ĠB on
Ġcomp ounds
esh ire
375 0000
N ik
l ight
Ġt ask
ĠR A
l oy
v ale
ĠH ughes
02 3
Ġconduct ive
Ġ ride
am ine
ĠB eck
Ġs ent
Ġin ner
op ez
Ġretriev ing
Dis k
ĠP ad
m ist
form ance
af ael
ĠS y
ĠY our
ORP OR
E stonia
ans ing
ĠLif estyle
IS BN
R he
ĠBro thers
ĠBru ce
ain er
ĠMinn esota
v ision
w alled
ĠB reak
Ġbu oy
N ep
VAN IA
Pens acola
ĠRO AD
ĠRuss ia
B rett
K IN
M otor
le hem
Sav annah
brand new
Ġdist ance
P UR
ĠP u
ĠR osa
ĠL it
me an
ms brandnew
ĠRet urn
ĠBel ow
H UN
ag ger
ĠPan el
ĠT able
ĠD av
ĠJ ay
0 20
R HP
le ased
anti ago
am anda
K in
T U
T wo
ĠB I
Pol k
ĠD oor
Ġof fer
osh en
ĠSal on
49 4
ĠHol land
Steph anie
ic les
18 98
uss ex
NS YL
Jo an
High land
Bul gar
Ġspell ings
re ys
Ev il
ĠA ng
And hra
ĠHyd rogen
Stock holm
Le icester
Method ist
V AL
h u
AN E
ĠA uthor
ew are
Ġsh ow
8 52
N et
ĠP BI
Ġs acrifice
Ġn ext
omb e
Br ent
305 1
8 53
oz walled
alyt ics
ĠA K
umb ers
LO Y
Ge ometric
Load ing
amaz oo
or ing
ĠH op
AM A
J oel
ĠIn vestment
ocol ate
ĠC t
21 10
Ġl oud
Sev ier
D avis
V ED
Ġc ert
Ġre pe
ĠNad u
bab we
it ude
ĠIL LIN
ĠUl tra
T u
Z A
ĠS on
Ġb r
ab i
ĠRes erve
Ġmechan ism
Lith uania
ĠF ar
39 4
gy pt
ist ro
ĠCO MMUNICATION
s an
ah l
MI CON
ad ow
ant asy
ĠAugust ine
J I
in ary
os is
ĠC raig
ĠP age
ĠP erry
iv ery
44 1
Ġachiev ement
Leg acy
Brew pub
KF Z
S elf
ĠB RO
Ġp e
Ġw all
38 3
B LE
31 10
ĠFl a
ĠB ol
Fran c
Ec uador
R ose
Ġs ecurities
RI G
ĠINC ORPOR
arr ell
W Q
Ġl ock
Ac cess
ĠD ick
i ri
Ev ans
Ġexp ected
ĠMad ison
Sl ackware
Ġcont ract
8 15
ĠU K
h art
ax y
ĠSand ers
K l
L ux
N UT
z b
Ġdescrib ed
M ansfield
h o
j ava
38 1
Go al
D rew
M ouse
R aj
d am
ion e
Mar vel
ale y
bl ue
EC K
ĠSt one
ust ang
Bar ry
ruct ural
B etty
C ustom
ĠC oward
ourn emouth
C as
02 9
39 2
C abin
Ġg et
ĠAD MINI
ĠSt age
ĠN umber
Bur lington
Ġt sun
NSYL VANIA
I b
R oma
V ertical
Ġl o
ĠAp ache
Ġphen omena
R T
ĠV II
P ur
is bury
ĠTrain ing
C GN
Ġs ummary
ĠL earn
Ġm iss
49 8
aff e
p son
ĠL O
Ġ9 6
sh i
L ah
N ob
ĠT alk
ĠF E
Ġ9 5
ĠHar rison
specif ic
Ġtsun amis
ĠM ASSACHUSETTS
Ġt eam
18 49
cell ent
L im
T oul
ĠSouth ampton
Ab b
ĠAcc omp
G AR
Ġad apt
rock ett
ac et
Ġbuoy ancy
ĠS usan
ĠM achine
ĠH en
ĠFL HT
M OR
ĠBrook s
ĠGo al
H ann
L ynn
ur on
Ġ9 9
Ġint eg
ay ers
ĠT H
18 89
Hol iness
e Re
es us
ĠPr eston
MICON DUCTOR
N sw
W orld
ro ph
Ġc ore
em e
Ġst d
AU D
As ia
Dul uth
Ġexplos ions
est e
sp ar
ĠCl ar
yl transferase
ĠMos ch
ĠDomin ion
ĠBright ly
I le
M ur
N OT
Ġ7 4
ak s
ĠEx p
ch ant
Ch i
BY V
ĠOrgan ization
Ġtyp es
ĠB A
Ġopen ing
Ġassemb led
Ġpunct uate
g ie
an tha
ĠA ustin
Cam eron
Wind ows
Kal amazoo
ĠP ick
et z
ĠG ener
AT OR
ĠRE EL
al u
anim ent
Fit ness
Att ribute
Ġarrang ed
F AR
Ly on
Tim othy
erite ch
ĠST E
unt ed
Nic aragua
ĠMAN U
Ġp rom
ĠDe Mint
Ġinstall ation
V O
ĠR ound
Ġl ibrary
ĠO ntario
unn er
yd olphin
mist ydolphin
MAR K
V HS
ĠS quare
ĠC as
anc ell
Ġnorth easterly
S econd
ĠD AB
ĠW ell
u w
ĠG ate
Ġle ad
Ġgu ide
ĠAccomp animent
C onst
Ġa v
ĠUn ified
kk ad
ĠPl ayer
rig ger
Hum ph
8 55
ing en
Ġpro te
Ġcont aminant
Ed die
ĠMar shall
act s
syn onym
V en
il ton
onn y
Cre ature
Ġinhib itors
ĠL ang
f e
ent ional
49 7
Am ericas
D am
x s
Sh aron
ĠILLIN OIS
or ary
ĠIn frastructure
tra kkad
R EL
ag ar
UR L
jar at
7 58
48 1
Ġcomp anies
Ġpl an
Q atar
Ġpro perties
ier ce
Wal ter
c at
N K
ĠP erez
ĠWork s
M ore
ĠC ir
ĠM P
ĠM etro
ph p
emb ership
ĠCycl ing
S ome
T a
Ġc ount
ra ch
Worksh ops
ruct or
uther an
Sim on
4 22
X MA
oun ter
Ni agara
ĠT otal
67 6
Ġsh all
hoof d
ĠL in
Ġm achine
ke es
witch es
Vent ura
Ġ7 1
8 07
C uba
w agen
ES H
ier ra
ĠForest ry
ĠR oute
Ġar ch
ĠHILL S
t f
B urn
m u
Ġd am
Comm ittee
Zim babwe
A rea
Ġm at
Ch ad
Ġman ufacturing
Beth lehem
ĠT u
ĠJ os
ans k
Ic eland
ĠS AM
Ġc atal
ĠV i
S elect
ĠD or
ĠC orner
Ġr ate
Son oma
f s
Ġoper ating
Ġdetermin ing
B ox
V ille
iv als
ĠCl a
en ing
ĠD IA
Br on
ev o
IRGIN IA
ien ne
Ġmemb rane
S ec
ĠD ar
Man hattan
ĠD am
Bor ussia
ĠB eng
ĠHO OK
st ar
Ġv irtual
IS F
Ġmagn etic
g reg
A pplication
T able
R ate
x im
Min utes
a qu
z ie
ĠC ong
os l
FOR M
Ġext ending
Thunder storm
STRAT IVE
ry s
ĠCl ay
Ġ els
ĠJ OSE
ĠLe ague
y aml
ĠR angers
ĠA P
Ġex ec
ĠBl dg
Ġdis k
7 23
Ġ19 81
Ġme ans
ĠI F
ĠH RP
ĠJ esse
58 0
link ed
K am
K ate
Ġet c
ĠMid lands
ĠTown ship
L ille
L ead
g it
SI TION
Gr ass
Cre ate
Ġembodim ents
ĠP EN
ond uras
ah n
Pat ricia
Ġfin ancial
Ġels ewhere
ĠA ud
Oper a
c enter
ĠC row
Ġp aper
18 88
im i
Ind icates
A j
N AT
ĠG ordon
Cop enhagen
N ate
ĠC E
ĠPet erson
ĠCol lection
ess a
Be ijing
ĠJER SEY
H Y
b ow
and idate
ĠF er
Ġ9 8
Ġwh o
Ever ton
P lymouth
ep ts
ĠFL ORIDA
ĠRI CHARD
clud ing
Post poned
ay re
O f
n est
Ġn atural
Ġl ater
Ġ8 02
edul ed
ro tt
ip l
ash a
Design ated
St oke
se ille
int entional
Ġhel p
Ġlif etime
r us
ĠS ociety
Del uxe
C os
om es
Pro gram
4 28
ĠD h
ĠH alf
ĠIn jected
min ors
Bel fast
7 36
Pol ink
ĠShe ff
ĠS ax
adi an
Ġgener ate
C ass
z i
ra ising
6 07
m icro
ĠINCORPOR ATED
ĠMANU FACT
C rockett
ĠH off
iz ations
ĠBur lington
Sn ow
ĠT ower
Reg ion
Ġsol o
Ġdesc ription
ĠEc lectic
Ġen vironment
CAL IFORNIA
Ġmot if
C ody
in ancial
kt op
rior ity
enez uela
RE F
Ġallow ed
ĠBr and
B ond
n an
or ig
le ts
ang le
ĠSp ain
8 09
J E
ĠB ear
ĠD ons
Ġd ise
Ġre fer
Ġ1 000
ol ver
QU E
Win ter
ĠEl m
Fest ivals
K ru
ĠC over
ĠB art
Ġf ac
ĠDig ital
P Y
or ah
10 000
eb y
ĠU C
arw ater
Ġm ove
ĠG reat
Hun tsville
B ase
R ik
33 05
Ġ9 78
ĠArm y
GRE EN
5 10
sw ered
Ġob tain
ĠC rawford
49 3
Ġcont inu
ĠC Y
Ġint ers
B eck
b b
it an
ut s
V R
SL AM
Ġsouth west
As bury
10 74
St orage
AM S
ĠSh ow
ĠB rom
Ġby tes
4 18
Ġm ortg
Ġre b
ij ay
Ġfre quency
sh aw
ib ia
etermin ed
T w
V IN
f eld
ĠCh icago
Ġex ecut
ĠStreet s
Se amonkey
is ions
it ation
ĠH uman
Ġre lease
ann ual
PAL MD
Ġident ifier
8 56
R oss
ĠL akes
om ic
August a
Log an
P ts
Ch ile
rad uate
Ġqu ality
6 06
FIX ED
N OVA
s upport
is o
ĠDownload able
Ġann ounced
ĠS OL
arr ington
Ken ya
ĠA y
ĠG RA
ĠBl uff
En tertainment
UM AR
or i
ĠL ower
K ING
um ar
rou s
Ġ !
ut ure
For est
Mel inda
wh ite
st ock
ĠCle mson
PALMD ALE
s im
OR ITY
orm an
ourn ament
ĠA ward
Ġv er
orm al
res hold
ĠSec or
ep p
de en
Def ender
ĠFr ench
ĠPhil ip
M EL
end rick
ĠCom ics
ĠKent ucky
ĠA CT
4 19
7 02
ĠCar r
J amie
10 71
and ler
ĠB re
os es
roll ing
Ġw orld
FL A
H onduras
ELL I
P MID
Ġmed ium
W J
ĠS ab
ĠH its
18 85
64 2110
64 3110
Ġsett ing
L ov
ol an
Cl oud
Se al
Ġj an
S HA
Mon ster
boy gan
f ree
AD ENA
Misc ellaneous
A E
L F
ĠT RAN
ĠTh or
N at
M l
10 30
Se oul
4 21
Ġpro p
emb ourg
Ġtrans mission
ĠK ath
Ġserv ers
Frank furt
estin ation
I ran
ĠAdvis ory
D K
h ancement
at ibility
en ne
Ġw est
le ep
Bulgar ia
7 000
ĠW ings
ĠO klahoma
Ġ4 00
ĠF ound
ut sch
ov an
Mun ich
J os
ĠM all
4 47
c ity
ol id
ĠD od
CA A
Ġvari able
Mo ore
D own
os ing
ub s
W OR
W ake
y ann
ut ual
W EA
ĠB or
ĠB ron
ĠPROPER TY
ĠLic enses
J PMORGAN
P iet
X M
en y
eng u
Ġcarb on
le vel
ĠT erry
ĠL n
ins ki
G G
ĠB uff
V arious
Col l
E Y
ed e
ĠC emetery
CA RE
Asp en
th y
ack et
lor ide
Ġp ers
ĠLe icester
Ron ald
Ġcomposition s
A ber
S LC
ev erly
49 6
ch o
Ġs ur
ant es
irc raft
Ġp itch
Sal isbury
Ġit ems
ĠReg ion
ĠMass achusetts
ĠGi ants
Bl ake
C ENT
o j
Ph one
Gl g
Er in
ew an
Ġr oute
att erson
az on
ait i
Pan ama
f w
f re
Ed en
Ġagain st
I l
ĠB US
ĠL opez
ass e
ah an
ĠU pon
ian g
Ġsign als
ĠUt ility
L afayette
T rip
BI KE
Ġb ound
ĠO p
Am eritech
And rea
b i
ĠS AME
ĠSt orage
Ġb eginning
ĠH ouston
ĠCON TRO
ĠW i
ers e
ĠTurn er
ra h
ĠW r
ov en
Wh en
ĠSw itch
Ġperform ance
4 38
03 0
ele te
ĠADMINI STRATIVE
E qu
od cast
ent e
OH NS
Ad rian
rem en
it ely
Sh awn
ĠMa ine
Ġequ al
ist ed
Ġport ions
B it
ĠBro w
Ġadd ed
ĠI ce
PH JF
cy t
agu ay
ĠR i
ĠCh ocolate
dra w
ĠIN TEL
Off ensive
ivid end
Sc ar
ĠL AKE
AT O
le m
Ġb attery
Mar i
oh an
Per th
Ġf ix
B urg
H all
ays ia
El ite
Mos cow
ĠImp act
3 099
F ighting
ĠSh ipping
Ġprovid er
s ec
ill ing
Ġg amma
Ġev ents
G OLF
R a
w ur
Ġl anguage
art a
Dec l
f aces
IG AN
A ston
O US
ĠP ER
18 75
ener gy
Ġpl ace
apol i
M itchell
ĠUp date
ĠBrook lyn
Toul ouse
ĠL anc
ĠI K
ĠJ u
B ah
ĠS em
03 2
She boygan
Ġcontain er
ers ville
ure ment
ĠPark s
Ġmark et
ĠFRAN CIS
G ra
P uz
Ak ron
T amil
X ME
and ed
ore ign
Ali ado
ĠM ills
HT ML
4 32
M ik
g i
om s
ac ement
= =
ĠK ir
North eastern
lin ux
str ong
Puz lar
ĠM ason
ind i
Ġdet ection
Stud ent
ow e
AD R
ĠComp uter
4 48
ĠM ajor
ĠT ools
ĠH P
ĠO x
pl ace
emb rane
MON T
Bol ivia
D G
R ome
k at
ĠL ar
av i
wur ttemberg
4 36
Ġy ard
G ard
S m
Ġm icro
N iger
c ar
ĠH oly
Out come
Ġunl imit
E agle
b ike
en os
ON A
opp ing
! !
4 46
5 38
N AS
ĠL oc
Ġres pons
ersh ire
ĠProf essional
8 51
B AS
S QL
Mar garet
RAN CHO
CB F
Trans lation
ĠK ra
ĠFranc is
C ricket
th ing
Ġth read
AR A
Ġr out
abri el
ĠT odd
ĠJ oy
est ershire
Co ffee
F Click
Ġin v
Ess ex
are z
ĠFran ce
Res ult
Tele phony
H F
M ake
g olia
AR AB
Gr aph
Ġpost poned
ĠNic olas
i op
Col gate
Josh ua
WH IT
Ġpred etermined
Ġm ounted
VER IZON
ĠPres cott
m ouse
ov o
Ġun til
B LA
C XL
ort mund
ĠA BO
ent own
... @
ĠSP R
ĠRichard son
ĠJAX B
S ara
Ġ8 5
ĠFil m
Ġvol ume
ro st
ĠT HOMAS
Ġs eal
ĠW ells
l bs
al og
D M
P ON
ĠK A
Ph ysical
C onfig
s erv
ire ment
Ġbut ton
Ġm ill
ult ural
An swered
X BB
re ation
ĠF ork
Prov ides
H ob
M ail
Ġc oll
ir th
ATION S
L az
Ġst ore
Ant wer
ĠRel ocation
4 49
ĠS peed
ly s
Ġpart s
ĠF ord
erv oir
TA FR
ĠF itz
im p
In hib
Ġlist ing
ĠSan chez
Ġs y
ĠCom ment
Kal b
X BA
Ġim ages
Ġest im
and o
ĠF el
ĠR est
K T
R aw
V ersion
Ġb ird
MI S
BL ND
Ġtr ack
PET C
Mar seille
DE AF
dele ted
ĠL incoln
59 6
nas l
WC BD
enh und
WCH R
WCH S
8 20
L ab
P NC
X BE
in ar
MB XME
TA FG
WC MP
WCH C
SPE Q
r v
am aha
Par aguay
Ken neth
ambl en
H OL
CAS TER
Gain esville
Kinder wagen
Blind enhund
ĠSt at
Rep resents
Land scape
4 33
G a
ĠW ide
St ructural
lin ess
ontinu ed
Piet ist
n b
ĠP rem
Ġcharact ers
H ull
H ugh
W rap
Ġc annot
Ver ona
Psych ic
T ac
l ip
ĠM ap
ĠP ip
Ġs eg
ĠV T
Elect ronic
S el
ry n
F CC
H amblen
ĠC C
ĠG arden
ug u
Mon ter
isp o
ĠT ennessee
ĠH ours
03 3
ĠK irk
MA J
ĠBull s
7 34
ĠR ice
ac er
ĠMA CH
ĠRed s
b ilt
Ġp rimary
Ġl inks
anc ock
Add ed
Sup reme
W arwick
c s
AT ING
sp apers
Li ens
ĠCob urn
ĠPAL OS
4 37
7 60
N icole
O O
ĠF ITT
urs u
Ġgo al
as ota
ĠR en
ĠD ividend
un s
let ics
ĠHun ter
ĠM t
g rade
Ġf ixed
Dick son
J a
11 21
NE Y
ĠMANUFACT URING
ou st
ish a
9 65
D ale
M eg
ĠD allas
ĠY ards
Ġdes ired
309 1
Ġmemb ers
G ames
ĠHosp ital
er yl
ĠPl ain
Ġres ources
Irv ine
El m
ĠOb ispo
val id
C urrent
Ġd u
ĠX L
6 53
s ky
ĠL ov
ac ent
Qu inn
ĠR ATED
ab ilities
Jan et
De Kalb
R uth
C ED
D over
U NC
Sch ool
ĠFund raising
Ġ19 80
ran ton
est one
K an
j ust
07 00
Sp encer
RO CK
Ġcurrent ly
M useum
ĠL EC
ract ice
Ġrail road
TOW ER
H aiti
Ġl ig
An ch
sc ar
Ġparam eters
ĠA le
Ġthe m
Or th
ĠAct ivity
ĠIndust ries
Ne utral
Mel issa
ĠABO VE
ĠS up
Ġant i
ĠE qu
Cont ent
ĠSk ills
Mar ie
Ġun ique
Ġoper ations
ĠS upp
Ġc le
Car r
End point
Clean liness
ome y
1062 20
1072 10
Loud on
Cl ifton
Ġar ound
8 08
J ew
S ter
ing e
ĠH eat
CO T
V e
w ise
2015 07
Cle arwater
ĠFL H
ĠAss istant
Hann over
R ivers
ĠW a
ET E
UT ION
Ġev ery
Ġap plied
ĠAIR LINE
i atic
ar us
ĠI S
ood y
DR B
ĠGroup s
ess el
Ab d
WAS H
ĠFITT INGS
ĠL eft
1 201
8 45
e es
an os
But ler
ĠV ander
ela ide
6 14
Ġb ec
ĠH orn
Ġg re
Ġcon vert
ĠT it
ĠL IC
ir ing
Ass istant
ARAB IC
t ucket
mon thly
erb ai
M s
u or
Que en
7 13
ĠD erby
end an
CH L
kl a
ĠAd apter
St reet
ub l
ĠBas ic
ĠS ky
ĠIN SPE
ĠNew spapers
ampion ship
K irk
S andy
h ang
ĠP av
ĠW eek
eg bike
Dem o
S PR
ĠR ug
unt ing
He ather
N icholas
Q ld
302 3
ĠAutom atic
T en
ir al
ĠMo on
2 111
D ER
T ask
ĠB ad
ate m
Lah ore
Ġf ell
z ig
Ġc am
Ġb and
lyn n
h es
ĠS afety
ĠA CC
om an
78 1
Ġest ablish
ng o
af ood
Ġpolic y
R PG
ĠH OL
Ġ8 8
Ġmov ement
Carol yn
9 28
U d
Ġgener al
V illage
ern et
Pro c
put Stream
S ettlement
ĠP ool
ĠR a
ur l
ĠPet ition
ynam ic
Pass ed
ĠElement ary
L ife
S ant
T ott
and ra
Ar thur
Or gan
ĠEn tertainment
Ġsouth westerly
R D
ĠTELE COMM
ro t
Man it
LAN CASTER
Cl int
Nep al
55 5
Co le
Sch w
add le
th aca
ĠM ids
Ġn iche
Ma ur
Dun edin
ĠC ox
ĠM eyer
ran o
yl es
ĠVAL LEY
ĠS pl
5 50
m un
ĠL ive
Ġm olec
AT H
T own
1 200
F ido
f var
z inc
ĠH oll
iqu es
ister ed
R angers
Ġj unction
V f
ire z
ĠSh op
righ ts
as aki
ĠD ba
Sun derland
atal ie
d is
ĠAn ne
ĠQu inn
Tem perature
Touch down
b ul
ĠP C
86 6
G ill
r ell
Can ton
Pl ayer
ĠUS D
In Black
?? ?
MIT K
ĠC S
Up per
ĠEN ER
IN ESS
ĠM AS
ig a
ĠIn verter
alc ons
Ġhead er
el in
RO KE
56 2
Q WEST
id el
08 5
ip h
ĠSun derland
ĠG h
yr s
ĠEvent s
7 19
Ġto ols
ĠE L
OR O
CA M
ĠRead ing
Tott enham
S uz
is er
il o
ĠG raphics
Nov a
ert y
Sw ansea
B akersfield
M AM
Core y
ĠL u
E G
ĠIn f
Mc N
Nam ibia
NES OTA
W izard
it te
18 77
ĠTrans mitter
Ġd eter
ĠRoy al
j ohn
ĠD OT
05 0
Ġl ittle
ĠCol or
oci ate
ĠCard in
le vard
ĠFran klin
ĠPEN NSYLVANIA
W olf
ĠF a
ĠSt evens
Ġcont ext
Ġun its
S erb
ĠM ath
ĠB irmingham
est ed
Buff a
ĠCase y
6 99
st aff
BO OT
18 81
um or
ĠCH ARL
ĠHold ing
L utheran
b is
13 09
Ġm ouse
UL T
7 65
05 9
ĠPaul o
ĠBra ke
S in
ĠR ico
Lux embourg
C ouncil
D ES
ĠF loor
ĠE nt
err ors
wich es
Natural ization
I ED
W at
ĠW ash
ille t
Ġan alysis
Sch eu
ĠRey nolds
al ias
ĠH ER
ĠBl ake
Rest aurant
Valenc ia
r c
pro ject
Ġal tern
H M
ĠM B
Ġst age
Ġr isk
Pl ug
comp lete
Ġocc ur
L N
ĠC rystal
om i
ast ings
ĠZ one
ĠP o
id i
UN ITED
VER SI
Med ical
Fab u
Bec Fabu
5 13
7 04
N ow
p ower
sp ur
NA c
ĠSch midt
pt im
Bel le
ĠStud ent
Dr ama
C Cl
K enn
T an
al ert
ĠC R
ĠB rett
ĠD ream
Sh ar
ĠCl oud
SO FT
Ġw on
LE X
rick son
F e
s m
z o
ĠM u
ĠB eth
Ġt em
Ġtrans cription
And re
Ġ> >
ĠRail road
Event s
zb ek
Rec ipe
ĠMagn us
ĠR un
ish ing
ĠAn na
66 2
ĠConc erts
Option al
Ġp res
ĠW ine
ĠY e
oh l
7 24
B AN
Ġ energy
ic ate
Str ength
Ġphosph atase
6 24
uy ah
ĠELECT RIC
ursu ant
Bro ad
8 28
ĠM yrtle
Mon golia
Ġcap able
erbai jan
ĠS V
10 23
6 25
n ik
ĠT ax
Ġb ottom
eor ia
im b
op per
Ġ6 00
uyah oga
C i
Ġ {
ĠP CR
ent ure
ĠI C
Ġb i
ĠH IGH
ET TE
ĠL as
ĠEx press
arg in
ĠLearn ing
G K
H air
J en
ĠB erg
ĠSt orm
St eel
ĠEas thampton
A utom
ĠG ET
US F
Ġag ency
ĠNorth west
m ax
ed a
ĠG MT
ĠAl so
Ġconnect ing
S ah
al b
re p
Ġb uffer
Ne eds
ĠVal ue
Ġprocess or
m i
un j
Ġb ond
99 7
Sc ope
Paw tucket
L ES
ĠW hey
Ġc ancer
ther ham
IC ON
ngo ing
Ġ1 10
ĠN ash
Ġw ireless
En c
ĠUN ITED
P ath
ĠS pe
Ġb ro
Ġpre vent
Ġauthent ication
W ay
ĠL inux
C atherine
18 62
AS C
Ġl arge
ĠIn surance
Ġph ase
Conc entration
avar ia
as ville
ĠB us
UN G
Dig ital
ĠTo omey
ĠH az
Ass ists
ĠUt ilities
C ontinu
Ġd iff
L eb
Y ale
ĠF AR
MIN N
ĠAlb ion
S mall
n umeric
it ical
Ġn ames
Ġl ook
ĠSp urs
ĠTw p
0 200
E nt
L iving
p ol
58 8
Gu ard
08 00
18 35
F argo
ĠY an
oul s
O V
Pu erto
H ILL
og ne
t ico
om on
ĠB uch
ĠBou levard
H u
M ALI
p rime
Ġg en
FL J
Rivers ide
rv ats
ĠL am
CA C
Ph illips
98 9
ĠOr ch
Ġwork ing
B ass
Ġt rip
ĠBrow ser
A ri
ĠW ire
ĠW ords
ine y
Ins urance
KS ON
Ġen abled
P ress
T ommy
Ġelectric al
9 16
l ake
ĠM rs
ĠB os
07 4
Ġ8 1
BA C
ĠWeb b
7 14
C uyahoga
ĠJOSE PH
T el
f ix
v i
ĠD a
ĠL es
Del ta
at oon
10 77
S ong
ĠS K
ĠBr ick
ĠRev olution
c opy
t able
ĠC ost
Ġth erm
press ed
6 35
C osm
or al
Act ivated
let te
Ġposs ible
Ġwr itten
D X
N X
R ound
R idge
ĠC ave
Ġ19 76
ĠST ROKE
Ġind ividual
Ju vent
ĠMethod s
Ġ1 20
ĠG oshen
ĠJ en
Hand ler
orde aux
4 031
P ick
ett i
TH E
ĠMor an
Ġdisplay ed
Turn over
N etwork
ĠN evada
Ġst ack
Ad ministrator
gh an
58 6
get own
Ġprot ocol
J ill
L en
30 12
ĠOF F
MON D
L TT
ur p
adi ens
ral ian
Off line
Ġdirect ly
Ġorgan ic
ĠINSPE CTOR
d ivision
Humph reys
8 54
E sp
k id
ĠN ature
Ġl ive
ĠBUS INESS
F ixed
v ing
olog na
Unc asville
6 09
E gypt
K az
ĠL ock
od i
AR C
uss ion
ĠMA IN
k ar
oper ator
C ross
U zbek
d ing
ĠP in
ĠE ach
eb a
isc ellaneous
ĠT ire
ĠW olves
ĠOak s
as ma
IL D
Pol ice
ĠRef in
WM ST
Park er
B erg
F er
k inson
ĠS ym
ĠL ions
Sp a
ox y
inc ip
Atl tico
ibor ne
OHNS ON
s ay
LECT UAL
ĠM emphis
V enezuela
10 13
ew ater
Ġm en
AD O
U CT
n ow
ĠR ight
ĠSpecial ist
ĠIntern et
L ud
d el
e ign
CA ST
IR R
Ġdep loy
ĠSam uel
Proc urement
m edia
ĠM OT
DE P
Gl ouc
ĠAb b
ri er
S ummit
i ast
p ost
07 0
Ġm it
op tim
Her itage
ĠIr eland
ĠP erson
Ġl ayers
ĠST ATE
od ox
ĠK erry
k ernel
Re quest
BR L
Juvent us
T rad
11 11
18 47
Ġl ens
Ġ15 0
18 66
ic ine
ĠT ennis
rew s
J AM
ĠR ad
ĠI MA
Mad rid
Ġpro gress
Ar ray
ĠAct iv
l b
Ġ1 200
St uttgart
Har rison
H op
m b
ĠR IGHT
ĠG rowth
ĠIntern es
gn ome
C onfirmed
In jected
ĠLe af
Em m
C umberland
J et
av in
ĠTim es
Max imum
S ets
ĠO range
Ph ill
ĠDou glas
ow an
ĠTh orn
Az erbaijan
atem ala
7 27
ĠB asket
ĠD X
ĠG ER
Cl inton
ĠRECORD ED
5 39
R elease
ĠBry ant
ĠINTEL LECTUAL
U TER
ĠF M
Ġs ept
ak en
Cl oth
ĠM ail
ric s
Ġsett ings
K r
ĠS econd
Ġp ol
ell ite
Sc ranton
angu ard
G b
Ġm ost
ru p
HA I
Hol lywood
Western erd
c up
ĠT emperature
ĠG O
ĠC ond
ES IS
ĠSand wiches
Anch orage
08 0
EL F
D one
Ch apel
N it
f ax
al p
Ġwe ight
MALI BU
6 46
ĠU ttar
Z ONE
South east
ĠAtl antic
20 22
ĠS HI
ĠCh ap
R ele
t i
Ġex c
ĠRadi al
ch ar
CH T
stit ution
03 4
ML B
Marc us
c z
Ġc yt
Ġnorth west
P as
th an
Ġconnect or
ĠBroad way
M aster
T usc
Ġc andidate
ĠU ser
ĠT BD
ĠL IN
ĠFish er
E arl
x ml
Ġp air
Cos worth
if ies
RO LL
Pro p
Low ell
MET R
el ia
ĠH is
Cent re
Sask atoon
F inn
N as
Fl ash
erv ed
ĠST AN
Ġrun s
ĠMc D
Sol ana
Cla iborne
ĠSh er
Ġm otor
Daniel le
Ġinters ection
ĠRug by
b ool
w ind
Ġ rights
GH z
King dom
EAR CH
RO W
LIN C
ĠMin or
Circ uit
ed ora
En hancement
ros is
ĠSE MICONDUCTOR
Ath ina
py yaml
T revor
e han
ĠF ul
H at
J ar
ĠT ransportation
oph ila
force able
Advent ure
D al
v y
18 48
ir ley
umb ler
Pl ace
PET CO
ĠFR AME
Ġgre ater
ask ell
ĠJon athan
8 17
I thaca
ĠC av
C hem
M eeting
N a
b ig
im er
uc es
B ATE
C ES
12 11
ĠAir es
Tac oma
1 100
f ire
56 0
Ġcomp lete
ĠAr thur
ama ica
gl ut
LAY TON
Ġrecord ed
B oca
D ylan
M and
N IA
il ot
ĠT ournament
ab lo
03 6
Ġin itial
OR B
Thu Ad
ĠFood s
Int el
P uzzle
Ġon line
8 29
P ine
W owb
AN CM
Wowb agger
ĠC ohen
Ġf ri
ĠW ee
form erly
Stan ley
ict ory
ĠReg ional
Ġv on
ĠCole man
Niger ia
R ebecca
ĠN ik
ĠH ans
Ġd iss
Ġ19 78
av ens
enc ed
ĠQu ebec
As iatic
aum ont
ĠP OL
form ing
p ath
ĠMI CH
Vis ual
Uzbek istan
Ġf amil
od er
Act ual
K OR
f els
Ġ errors
ĠT ext
au f
ivers al
Pr ice
Ġ19 79
Ref er
ĠCarl os
G ulf
M nchen
R ut
ĠW ales
03 9
ow der
B enn
C ott
Un iv
Ġdocument ation
alle l
ĠP atch
Ġc er
Ġw id
ik eto
ĠC up
ĠR F
Ġo x
ok ine
Ġstud ent
P atch
ĠA J
18 74
iv o
Ġw ing
O t
Ġp ercent
Bl ocks
GL AS
Document ation
le uk
ic z
Ġe ither
Mil ton
p ell
el o
Ġm o
Ġn ec
och ond
Ġpass word
ĠA aron
am ing
Ġt ag
rain ing
Orth odox
oc co
atch ewan
Em ma
Ken zie
N apoli
ĠT RA
ĠT yler
ĠD oyle
ip er
ĠAm iketo
Mash iki
AL B
man uel
Ġem itting
wh y
7 18
K oln
av ed
anc ing
ĠGold en
Ġplug in
Ib iza
ĠQ R
RED IT
keep er
WASH INGTON
6 41
9 071
i ents
ĠS or
ĠG T
Ġm usic
h at
m f
lin es
4 0000
d evel
an ova
ĠL im
Ġw ere
Ġpl atform
ĠPA UL
De an
Com cast
ĠCAN ADA
Ġconsum ing
O sh
ra k
Thunder bird
T ob
ĠA z
ĠInd ian
157 14
iddles ex
8 01
Ġmult i
Clean up
L ib
ĠE sp
ĠHe ight
Ath letic
ĠIndust rial
ĠBEL OW
Y r
g le
ĠEd it
Pot ter
B W
H LA
I ng
V IS
V ery
r h
an um
ro om
ĠB an
Ġw idth
54 135
ĠGold stein
D oor
ĠP it
ĠJ ennifer
ĠV ice
Ġex isting
inn er
Gl c
ig ation
ĠGu ard
ros ine
Mal aysia
el er
07 8
cont aining
ĠPRO CESS
ĠFl at
ĠB urns
ĠN A
ĠIn s
Ġret urns
AM I
UR A
Gu atemala
Ġst ep
ĠEx tra
ĠCon ference
ĠGal axy
F ox
Ch ula
Ste als
Ġopp osite
K i
c ab
t wo
ĠD er
18 84
ĠK eck
Ġsol ution
Ġsubst ant
Ġimport ant
Ġpix el
ĠWinn ers
B IT
W AR
w ens
Ġp in
CR ON
Sn ipe
m usic
ĠW arriors
ra ction
ra cht
ĠCh annel
Ġmet all
W IN
15 00
CH ER
ĠGu itar
rib utes
BU F
Ġbu ilt
ĠDisp atch
RIG HT
en heim
ĠB erry
C ater
M aple
ĠG AM
ĠV OL
Ġe quipment
DE X
Tor ino
ĠBut ler
Ġdeter mine
K il
Ġ20 5
ĠTh er
ĠTh ere
Ag ent
k el
el kay
Ġl iter
EN CY
La ugh
elkay why
h awks
l ive
Ġc redit
Ġh ouse
Ġ24 06
Ġinst alled
ĠWat son
Ġoff ers
UPM KY
7 41
C ancel
e a
s jm
10 81
ul ner
San Disk
Ġf ood
Ġo ct
Ġb est
Ġ23 63
c re
ĠL at
Ġ23 92
Ġen h
9 51
Ġ1 02
ĠK ay
ĠRec e
Im port
Ġed ge
ĠDynam o
Ġlo ans
H udson
ĠM AT
Ġs afety
est o
Ġout side
ĠHay es
PORT LAND
K H
TO TAL
ĠCharl eston
Han over
Ġs peed
Ġsh own
ĠAt kins
Dep artment
Ġque ue
L iv
O cean
Ġ1 05
Ġval ve
Audio Endpoint
ĠH um
Col in
DJ M
ĠEver ton
B BC
G irl
K end
L ate
il ing
ot ype
ĠN onf
Evan ston
ĠCany on
R ic
R alph
n ucle
ar ct
ĠS L
Ġcons ent
Fin ished
rem ote
ĠCare er
ĠRam irez
E fficiency
ĠL ynn
Ġatt ach
Was atch
Glc NAc
A AP
F O
W HL
ĠH T
Sam antha
optim ization
rib a
Christ ine
ĠT I
ac on
ĠO cean
ĠCh elsea
iss ue
Ray mond
9 42
M as
ĠR ack
c m
les ville
STR ATE
Ġvari ous
Af rica
ĠFarm s
E y
** *
SO A
ĠCross ing
F our
ĠCh ina
Rob in
ĠScot ia
ĠWes thampton
ĠD KFZ
66 6
LO BAL
och rome
ĠS elect
ĠS ullivan
Ġdig ital
Ġ>> >
ri ed
Ġpro be
ash i
ĠAnd roid
Ġro le
e qu
l ated
ly m
Ġcombin ed
pro p
arri or
ĠRES EARCH
Ġ arm
Ġ1 25
ĠM ik
ol m
18 72
ĠN ich
ĠH S
ond er
ĠCLE AN
F ouls
s g
10 14
AT HER
pl ug
IS E
thor pe
uck land
C X
Ġc aus
ov ich
ter m
ain ed
57 7
Ġin surance
ĠSh arma
Aber deen
04 7
ab a
ĠShe ehan
Ġins ert
opl asm
M G
g ae
il ion
Comp letion
ĠInd ians
604 060
Evans ville
ob ulin
atin um
Ġreb ounds
B art
Ġgener ating
Sal ly
ĠSpring er
W ord
X BRL
ĠO ri
ĠUn ions
ĠJ ust
ĠK ate
ah s
hem atics
ĠRev ised
ĠR aton
18 78
Sh ane
Ġnot ification
pro f
SY SM
id ad
Ġg lyc
rem ont
P ri
ad er
88 8
Ġcond ition
ĠR aw
Ġst aff
Is lam
04 2
ĠMon ica
Br un
onc aster
onst ration
MIT EK
st en
ĠD NA
ĠWal ter
n ick
Ġv i
All entown
ILM INGTON
Ġelectric ally
B ordeaux
idd en
tr ack
R ated
s ja
ĠS uz
ro x
18 70
Gl enn
Ġinst it
Ġgo ose
ĠENER GY
Ġin iti
Ġh our
Ġtyp ically
B T
AL TH
ĠIn struments
ound ed
Hay es
ĠDef ault
7000 10
ghan istan
Z ER
s acrifice
Ġres olution
for ge
H ers
J HL
h ya
ĠF irm
Ġch ain
Comp uter
ĠDe an
H of
I PR
alif ax
M V
p oly
urr ency
eriz ed
Ġmortg ages
r n
Ġb row
18 83
erm ain
Flag staff
98 750
Som erset
M ang
ĠMar iana
n one
Reg ina
ĠAndrew s
ĠStan ley
S id
k ley
Rele ased
h all
ĠM erc
oc yte
LA C
enn an
ĠWal sh
0 104
g b
Ġc lean
Ad vanced
NE CT
Ġprof essor
ĠCHARL ES
Em ail
ĠSt ein
ĠJ ustin
est ant
ĠK arl
L ady
ros ophila
HL J
Ġadj acent
d ata
f ect
ot ic
ĠL isa
ĠMor rison
ĠSp encer
Ġrec ording
Ġmod ules
j u
ĠW isconsin
1062 10
1062 30
ĠHay den
ĠGreg ory
1072 30
Ġ19 67
Ġ18 31
ef er
ĠSh el
77 0
pro protein
ĠUs ing
Ser ge
ĠNonf iction
B aldwin
L ower
04 6
TI ER
ĠPar ish
ĠCOMMUNICATION S
G arden
Ġf uel
ap or
Ġco ordin
Ġmiss ing
B ath
b z
f k
y k
ĠS oft
ĠL AB
ĠAr riba
Wil kes
F M
G UL
ĠM as
ĠM ST
ĠR ing
Ġs ocial
Ġass igned
All ow
Ġmet adata
ais al
T umbler
ĠF ab
Ġ- -
Ġdis p
F at
ĠT en
TA IN
icop ee
Shaw l
B ons
C ohen
Ġs ect
ĠComm on
ĠBar ry
L ou
ĠP rivate
Ġo xide
14 92
CA P
ĠU NI
Am herst
ĠPer formance
Ġext ension
Er ror
ĠStud ies
Ġoption s
Ġneed s
McN airy
L ane
Ġc ommun
ĠI SL
Ġd estination
IT AL
N ag
n ing
77 7
ĠSe afood
ĠEll is
L R
P eoria
t en
ers field
H ost
P am
m aster
Mont ral
ell ing
ip her
Ġcapt ain
Ġju in
ST A
ied ad
K ir
ĠF alcons
ĠG ary
Col ogne
amb ers
b ase
pl ant
ĠTr avel
ministr ative
Ġmat rix
C a
g reen
ĠS in
ĠT rade
cl air
Ġad hes
Ex ception
Mc G
MAN N
M em
ĠAg ent
ĠR ear
ov al
SC I
J ared
M u
t ers
ĠI SO
ĠLa ura
cont rol
ynth ia
8 67
X T
h ab
m ustang
ĠT a
av an
Ġ4 12
86 0
DE FIN
ĠOper ations
Clark ston
Bridg eport
5 25
03 750
ĠPl ate
Gen us
ĠC ro
ent ly
est nut
Ġ9 7
E rie
K EN
d ates
18 50
Ġcor rect
dele tion
H ow
ĠH enderson
St uart
Ġbe h
VA DA
ĠDe ep
ĠQ U
Sport ing
ĠS S
ĠB ud
Ġ19 70
Class ic
BROOK LYN
Rhe a
8 10
ri ots
qu arter
Sh ares
ĠTim othy
g ames
ĠH al
Ġ19 69
9 46
B everly
ag ner
Ant arct
Hard in
Bow ling
B ra
E int
J oy
M iguel
R at
ol ation
Bel ize
ĠD DR
id ing
Ġ19 68
ĠCh all
ĠIt alian
eckl enburg
ut ton
ens burg
act iv
Miss ing
Man agement
ĠRec ords
Pres ident
Ġproject s
king dom
8 02
B IN
G ene
ĠC onnect
ĠT ab
ĠT revor
Ġc ool
ĠTrans mission
ĠAC UTE
C isco
D ari
f oot
ec ks
Todd ler
oplasm ic
Sar asota
Ash land
Spec ies
Ġinteg ration
mustang kid
Ch ase
GB P
ĠDr ug
Sub kingdom
ĠSpecif ications
ĠBeat les
ĠC ros
aw son
yn c
Ġspecif ies
Def ens
304 1
ival ent
ĠAuthor ity
: :
O c
T RAN
n ia
ĠJ affe
Ġ19 30
Un d
Ch ief
ĠIn vest
ock anum
ru it
mat ilda
4 021
le ft
ĠC ov
Im pro
VEL AND
P in
W ARD
s mall
Mar in
ee ch
IS O
F oreign
ĠN ancy
Ġex pression
ĠFri end
Bons ai
B arb
f el
ad s
qu is
Car b
Car son
Sam uel
Ġreport ed
Eint racht
ĠB ird
Gu y
Li berty
ĠCle veland
it ary
ut y
Ro berts
J udy
Ġax is
iop ia
ochond rial
L au
P ierre
ĠAl abama
UL TRA
ĠVal le
in en
Ġ6 04
Ġph ysical
ĠEas tern
ennial s
D NA
Ġst eps
osit ory
ĠGard ens
ĠFRANCIS CO
9 71
ĠE s
Ġpre proprotein
Geor getown
Li ber
ĠCath olic
7 75
F al
S we
D ow
ĠD ual
Ġm ars
ke eps
Ġh ad
59 5
ĠBur ke
Ġshort cut
Ġtransport er
H em
K enny
ĠT i
ĠB istro
ĠO ption
ĠTER MIN
Ġin vestment
TER S
Em ploy
F an
M ead
ĠS ide
ĠC ricket
ĠB anks
ĠIt aly
Ġconnect ions
A PA
ens ions
Be aver
ahar an
Kru eger
serv ice
J ON
ĠRiver a
MOV Y
G onz
Ġa bs
A x
v on
ri ka
Ġp ul
06 8
ag in
Ġm iscellaneous
av ity
Ġre action
Sh annon
ĠUp per
ur er
Ġe ff
ĠDon ald
ĠFound ation
F le
N un
s d
ĠD RI
Ġsource forge
Super division
G IS
M ethyl
ul ate
ĠV ill
Sub class
Ġm aking
ok ie
B ir
D ome
Ġs end
18 71
RE Y
ĠDr um
ĠPol icy
l ay
p in
ĠL ud
ĠProt estant
ĠHot spur
Cosm o
DEFIN ITION
Ġ3 01
over ty
ĠJohn ny
ĠBrew ing
18 73
ĠV all
urs ing
0 1250
8 32
V ID
ir ty
ord y
Dis abled
ĠBraun fels
B ark
f g
il ia
am o
om o
53 00
Ġintegr ated
UB LE
ernand o
K L
ĠM oh
ĠP icture
ĠH ollow
Ġ19 15
INF O
Ġfamil ies
D ist
ĠC ord
ad dy
Ġd ead
Ġ8 9
Conn or
Desc ription
ĠD ance
ES I
ef ul
__ __
Ġprop ag
R acing
S aharan
ing ray
ĠF ace
ĠB RE
ĠAss istance
l ies
ĠS ummer
Ġ19 73
aw asaki
Ġcons idered
Ben jamin
Ġorig inal
Ġf ind
ĠD riv
ĠE DW
Ġcl ose
Mor ris
ĠH U
03 7
18 82
Ġrepres ents
Municip ality
Ġsubstant ially
ĠM R
ĠR ain
Ġpre par
ĠSoc iedad
Ġrequ ires
W olver
Ġ ~
ĠB arb
ĠB oot
Ġt re
und le
pet ual
M usc
ĠH udson
ĠV M
Ġsh aft
Ġproceed ed
B G
Y uk
Ġm aint
ĠK a
Multi operator
ocr atic
m ama
ĠT ub
TER N
ĠCO UN
ĠCol l
ald o
O g
d an
PE G
Ġdam age
s ites
il is
ĠN ebraska
Ġs uccess
96 250
Ġpass ed
ĠProd uction
Ġ arg
Tr ent
BY W
Ġweb site
rou d
erv ation
ĠHam burg
ĠHaw ks
Carol ine
Gra inger
y me
18 29
ath i
PO ST
Y O
ĠN os
ĠK rist
SA C
9 41
W a
W heel
ĠEx pl
ope ka
R ad
S MS
ĠW ord
ĠCAR OL
Tin ley
Ġl aw
12 500
ĠF ig
Ġp ut
Ġfor eign
Ġg raph
sh ot
any a
ĠCOMP O
+ +
A ud
F ish
et arian
ĠO t
ox yl
ĠSw im
G round
p sw
in ic
ĠC ount
ic ated
un c
UT HER
Ston e
C V
G ener
M UL
V ik
13 12
ens ity
olph ins
emp orary
Antarct ica
Defens eman
f loat
Ġa verage
Ġa vr
17 15
ĠB E
Ġt it
ĠAl an
ĠK H
ĠPl ains
Ex cellent
Card io
ĠSim pson
ĠEp isode
A uckland
D iane
L yn
ĠB ag
Ġc at
Val id
ĠTechn ical
Ġdise ase
cab oose
D OU
P AS
Ġ19 33
ĠCard inals
18 64
S AM
Ġm ai
IL LA
ris e
ateg y
Ġprov isions
Ġvalid ation
9 031
ov ak
Ġ19 77
res olved
m ale
alt a
c os
Al terations
RA D
Ġsim ple
Ġrest art
igg ins
oust ic
v ada
18 60
Ġ19 75
St ef
ant ed
ĠInd onesia
v ijay
ĠIn k
ĠNew castle
LO CK
Bill ings
ĠFair field
U A
ĠB ed
18 25
Mar sh
SI S
ian ne
Gr und
PH IL
Pot ential
Helical Sequence
7 05
Ġs n
Ġ19 32
Fl int
Hol iday
Ġadd ition
psw ich
ĠB yr
ĠV ern
Ġ19 74
Ġev en
Ġdef ines
ĠTele com
Ġoffer ed
k u
is cher
ad ena
Ġs ince
ĠO z
Ġ19 72
Jac qu
p c
u M
20 91
as i
ĠE th
Col lins
D og
J AN
m ap
ĠM ID
ĠF oster
ĠHoly oke
18 76
ond ale
Ġre leased
RI CH
SL R
udd ersfield
OR GE
Th esis
Les lie
P UNT
ĠP ak
ĠF ramework
ĠL iverpool
Ġcent ury
ir am
Sh a
Walk er
Ridge field
r ate
ĠL N
op ys
Pl atform
7220 20
ĠSer ial
ĠISL AND
B LAYTON
72 1030
ĠGr ass
NO V
7220 30
7220 90
D oc
v o
86 5
HAR T
Britt any
ancell ed
N ad
ĠP ers
um en
roup s
SY STE
utch inson
ĠIn cludes
107 231
Dom estic
ĠMult i
Ġsuper family
E sc
N elson
an che
al ing
ont e
ipp ed
ĠBrad ley
M ack
Ġwr ite
UCT T
0 19
I ra
P en
k usen
ĠA st
im o
ant ucket
EN SE
Ret ail
QU I
We ather
ĠCharl ton
Ben ch
Cur ve
ĠELECTRON ICS
Ġun known
TR Y
led ge
Sa o
fil m
B ayer
B ologna
H i
q gg
ĠM oss
CD P
qgg ino
n is
ĠT EL
Ġv illage
Ġl ib
der abad
B a
ĠM aharashtra
EN TER
acc epted
Eas ton
Nob lesville
g on
ĠC AT
Ġb ank
Cont rol
8 50
K ill
V ocal
l ia
app y
Ġvari ety
Horror Scope
l ang
ah y
Will ie
ĠCirc le
C urtis
S usp
ĠM C
eb e
OS HI
ĠBe aver
C ob
S ud
T ogg
e ine
an th
05 8
Sp ect
ĠCont act
Albert a
S us
Y es
w ords
re b
J ud
K y
K on
ĠM oody
ĠW y
18 68
UN I
Ex eter
ambl iss
A w
m ons
ĠE AST
Ġ8 83
ull ah
ĠBl ade
Res idential
Ġqu alif
M W
ĠC HE
ĠM aterial
ĠR ush
ib a
Rap id
Ġpe ople
S IN
n ear
DE BATE
Cont ra
Hel en
Manit oba
W ounded
g ed
ĠS ens
ĠT UR
ĠN g
ge ther
ome z
Per petual
8 0000
er k
ĠK am
min i
rib osomal
ĠPart y
Gu est
Ġdep end
ĠR ace
Gr ace
Ġfl ag
Ġman ual
M STR
ĠM ANA
ro se
ĠD ISP
ub iqu
ept idase
ulf ur
Ġprod ucing
keeps ie
T ex
ed ge
ic ity
Pl ate
Af ghanistan
CUL VER
Hers hey
d et
ig s
ĠPro perty
Ad elaide
ĠCo ach
ough keepsie
IE W
Ġrequ ire
B aker
N tt
ĠD ow
Ġh old
Ġcl one
Ġlist ed
isl ative
D iana
H ills
ĠH us
yst eine
Sch eduled
Cater ham
D N
M itch
ĠD oll
Jack ie
Be aumont
Kel sey
Ġ ear
ĠL inda
ĠDO UBLE
CE UT
Id ent
ĠMANA GE
S ov
T ier
ĠR u
Ph D
Ġinter faces
Ġatt ached
ĠMont gomery
J azz
b and
n on
ĠCh ambliss
UST RI
Carr boro
ĠB ishop
ĠTr acy
i ec
Ġd c
amb a
Sl ash
08 8
orn ing
Res olved
ĠJeff rey
Ġperform ed
Ġneed ed
A ircraft
S ierra
Sh ipping
ĠCo ordin
Ġappro xim
ĠVictor ia
ĠBrom wich
Ġd ue
Gu jarat
Ġpack ets
WHIT TIER
ĠM ot
ĠH i
ĠG olf
Ġst at
ĠAl v
ĠHar vard
Ġcol lect
amm y
Ġm ic
Ġ19 61
qu akes
C ly
t op
ER ESIS
ĠCh icopee
Go ogle
rog ue
c ase
ĠD illon
ĠK il
WOR KS
ĠLanc ashire
T err
ill ard
ik o
Ġqu ick
Ġdel ivery
5 0000
K os
ĠT ree
em ann
Ġl ot
Ġpl ayer
ano ke
Techn ical
Midfield er
ĠOx ford
H alifax
Jul ia
ĠIr ish
+ /
M VN
j as
k ers
ĠH ose
Mar ussia
Ġm er
ĠUn iv
ĠComp lete
Gran ville
N hl
P ull
ĠM iami
ĠT AX
ĠMag ic
Ed it
R fw
Ġp ublish
Ġc al
Sh ah
Ġe as
option al
P oughkeepsie
k owski
Ġt urn
orn o
Cont ains
Mess age
Ġflu or
C US
er ton
ĠP itts
ĠJ O
Ġ8 2
ari um
unt ime
Gran ada
Bron x
c ogene
p ear
Ġsub ject
Acc ept
F aisal
K rys
W end
Ġd ele
Ġ8 3
qu ires
R AND
S ayre
ĠB rist
Ġdep os
ĠCin em
engu ins
S ebastian
Ġ1 04
ĠA riz
Ġc onfig
id al
Pont iac
ĠAdvent ures
C annon
R ange
n h
ĠL IGHT
Ġd rop
Ġn onf
Sev illa
ast op
ĠArm strong
ĠPATENT S
ar ay
ĠS R
NY J
ocomp atibility
Ġins ulating
Ġcond itions
c ock
ĠMar garet
Ġtrans istor
ĠBur ton
Antwer p
pell ier
C RA
S ix
T UR
st atus
ur u
Ed m
Ġext ract
ist ocompatibility
Ch eryl
ush i
ĠMO B
mad ison
M eat
T opeka
y es
ĠC apt
Ell en
F ER
G oat
d ependent
u ed
Ġth ose
err ill
ĠQ ual
ĠD ogs
all is
Ġ20 3
-- --
ĠCAR ON
or ate
FX O
A ly
lo ok
Comm on
F U
Ind ust
IF IC
Ġgroup s
Work ing
ĠRef erence
ĠGil bert
ĠMIN NESOTA
is ia
ĠSt art
T EST
ĠB arr
od ium
Am ar
BO X
Carl isle
ĠS ussex
ĠR aj
BER G
Ġjan v
Yuk on
G AL
al ke
Ġf ab
ĠMETHOD S
ĠAssoci ates
FORM ATION
ĠSPR INGS
l ast
t or
th ouse
59 0
ĠAd ministration
ĠBar rett
ĠDIA ERESIS
b ol
c ap
08 7
us ement
IN O
In f
MB ER
Ġocc urs
Ġs ym
08 3
ĠJ ar
ud ad
Fl o
Ro om
ĠBr ent
ĠEarth quakes
8 58
I B
Ġl ab
Stock ton
Ġproduct s
Well ington
7 25
M ex
ĠF our
07 5
ant own
Ġg reat
pt y
Mari etta
Qu ick
CK ARD
Sayre ville
madison rogue
st rom
ĠL iving
all ow
Ġres in
mer g
yb rid
R EN
Ġd eg
Ġd river
17 500
ĠK aren
ific ate
Ġpack et
ĠIND USTRI
L ang
y rosine
ĠY ellow
Mont pellier
ny der
Ġpresent ed
Slovak ia
M itt
S ell
Ġb reak
ĠMod el
ĠS IL
ĠM nchen
ov ic
az e
ĠCharl otte
S antiago
ĠO d
ant o
ĠDur astop
ucc i
ĠC urtis
ĠB oo
am ic
ĠW arren
ĠH av
West bury
AND ER
arn ing
ha ust
ĠHor se
ĠMic rosoft
m ode
us ed
rist own
B an
b atter
OS H
pat rick
S ir
ĠB it
Ġc pe
St ub
ach t
ann ie
Ġsh ows
Ġclass es
2 121
H ampshire
V AR
ĠL ynch
og an
ĠStud y
Prof essor
NOT E
ĠE S
Ġdraw ing
Ġdriv ing
st ingray
ĠD ro
ac ell
oy a
Ġsh ared
AAP L
IT CH
ob by
ann i
ĠOl iver
9 021
U W
ĠC P
ĠC ash
ĠH as
Ġag greg
ĠEn s
Ġhand le
Laugh lin
C up
H as
ĠJ am
OR S
Mod er
ĠProv ided
acet yl
B ased
ĠC ouncil
Ġf ive
EMP LOY
l ength
or able
ĠP S
ĠW as
eg u
te le
! "
9 7500
B oss
R PM
th al
roc ery
M ason
id ers
Ġprocess es
Ġprod uction
R N
Ġn it
ran spar
IL AB
md el
ify ing
Leb anon
ĠT erm
FL EX
Mov e
Or acle
rip ts
18 37
Commun ity
T es
x z
20 51
at te
ĠP iz
ĠB utter
Ġs urf
erg us
Ġen able
HAR RIS
Ġfil ed
Ros emont
Laz io
C ool
Ad dress
04 4
ĠW AR
18 31
Ġsecond ary
oun sel
Hol mdel
Ġmolec ule
ĠM i
ĠM CL
ug e
Ġpro file
ore an
58 7
yl inder
ĠEl f
ĠHot el
Ġhere in
5 20
B AT
e un
Ġh is
In fo
ĠRe quired
Ġ( %)
ĠN eeds
ĠMark ets
Brook s
ape ut
" \""
Y ak
f oul
ĠH ull
03 8
ag li
Ġ4 19
ĠBry an
\"" "
"\"" \"""
M ecklenburg
ĠL T
Ro anoke
Par am
I ce
T re
k irk
ĠW end
56 6
ser ies
G AN
il ene
Ġ8 6
Jo ey
ĠProv ince
Ġprint ed
col or
j andro
ic ia
he w
ĠK in
St l
St ore
onn er
... )
ĠSOL UTION
P RE
h m
ĠP ierre
ent a
Ġc ar
ĠJ enn
ier i
ĠRep l
fl u
as ing
ĠSt ra
ĠD iv
ĠN ou
Ġb unted
ber ly
Al fred
ok en
ĠSh ah
Int roduction
UK R
Nonf arm
Monter ey
Emm ett
L av
ĠF est
ist ration
Ch ange
ĠBar n
ĠCon verter
ĠBrit ish
Bond io
Sov iet
S upp
20 29
ar real
ĠV ac
ĠSh arks
X P
Kn ight
ĠRec reation
ground s
ĠWhit ec
ĠDI ST
stad t
P edro
in ct
al an
Eth iopia
B RI
J amaica
w mu
ed on
ĠP OWER
ĠT ool
ĠF err
um o
ation ship
In fin
Pro d
ELL S
ĠPort land
Ġnonf inancial
C IT
ĠJ UL
Or t
E b
k c
Sh oot
Ġcl osed
Ġj ust
rob at
C ab
b h
ĠP ath
ĠL an
ine a
ĠAss y
View ing
ĠHT ML
6 27
B ast
M ORGAN
d j
er ia
ĠB ir
ĠJ ordy
ack le
An tonio
ĠAl t
307 1
Serb ia
Ch ang
ugu ay
it in
ĠN icholas
18 69
ĠMar in
Rob inson
Ġconc epts
B oard
Ġf avor
ĠH od
Ġg ood
ĠU r
fl ow
fil ter
ĠEt ienne
XM LE
ĠWeek ly
ĠBrist ol
Ġf ocus
ĠVeg an
RES OL
M ot
m ir
ĠG ay
AM ERICA
pl t
Sp irit
ET A
rop ic
ĠRick y
Ġd a
Ġup dated
aven port
Ġfunction s
L l
p g
ĠS ou
ĠC amb
ĠB righton
ĠG RE
ĠJ EFF
ers en
pl us
56 4
cl usion
ateg ories
ips et
ĠMICH IGAN
A I
S erver
w ing
ch arge
Al t
Ġrepe at
F K
K er
T K
10 99
56 250
M ILL
ĠP owell
ĠB ab
ord ers
se ud
57 1
UR I
O fficial
V ENT
ĠB ridg
ind enture
Ġph oto
Sw imm
F RE
W ARE
ĠB urg
Ġc ycl
Ġb ranch
Spl ash
5 15
ug ues
end en
Am es
ĠCl ient
inc y
Mc Cle
Ġcharact erized
A ce
K it
ĠTh ese
Ful ham
ĠTe acher
Ġexec ution
ĠSax ony
J UD
ĠB oulder
ug a
ĠPort er
Ġchem istry
5 3750
b rough
ĠC ass
ĠM UL
Ġc rystal
ĠH arbor
Ġ19 25
Br and
ĠRec overy
Dem onstration
ĠDead line
ĠLead ership
ĠGEN ERAL
ĠEDW ARD
re x
Mon aco
ys ql
P HA
W ATER
in as
ct ic
5 1250
P IN
S EC
ER A
ett o
Ġreg ul
Ġdom ains
b ee
om field
Ġcatal yst
Potter y
S ony
er ie
ĠB ELL
ĠL arge
Ġc art
ack ville
BA Y
Ġgl ass
Hof stra
b el
ĠP ed
ĠB razil
ĠTh under
48 750
IF E
lect ric
Cap com
WJ CC
8 11
M AL
h igh
un es
Ġw ant
95 000
KE Y
ĠtestXMLToObjectFrom XMLStream
cyt ochrome
XMLE vent
ĠtestXMLToObjectFromXMLStream Reader
R ey
Sh ake
Ci udad
Cott age
H ab
2012 1201
18 33
oc ating
Ġl at
ĠWA Y
ĠWhitec aps
M H
P ASS
W el
b ot
y ers
ĠH ank
46 250
Pro cess
row s
DA Y
ĠTERMIN ATION
P ay
ĠS MS
ĠM ul
et an
ĠN i
RO S
Ġsch ool
h askell
Ġt ouch
ĠD ATA
EL OP
Ġh ole
57 0
Co oper
RAN T
Ġdet ected
ĠFlor es
Rail Wizard
n eg
02 500
OR ADO
St ill
Ġon cogene
Sp eed
ĠVeg etarian
urch ase
ĠPer rott
ĠRog er
08 9
B attle
M it
av ut
Man ager
Def ault
Ġback ground
Ġstud y
FLA Q
Ġam pl
Over ton
Expl ore
ĠSpl ash
v oor
Ġo il
ĠL arry
Ġin ject
302 2
rey er
D onna
J e
ĠSt ream
Ġth reshold
ot ton
ĠEng ine
Ġseg ment
5 40
I van
l ife
Ġc omb
Ġinter val
Rail road
8 75
E PS
E sk
Ġw ire
ĠK al
Ġare as
lo o
Ġref lect
Ġp ool
he e
Ġm aps
og leg
Ins ide
Urb an
NIA G
J am
ĠM oto
ĠM Hz
16 00
ess ert
ĠCON FIR
ĠP ursuant
Ġp orts
ĠO kla
IT S
ĠWh at
209 040
ALT ADENA
r ine
ĠM and
ĠF ast
Ġt ables
25 000
ĠAnd y
ĠBr andon
jet xx
5 000
T ax
13 57
ick i
Ġdisc over
ĠELECT ION
ĠSec ret
Ġsup plies
Ġiss ues
6 0000
ĠL anguage
Ġb al
ĠG ermain
ĠK el
RE W
ĠSp a
ough t
Ġem ail
ĠWall ace
T ab
b ij
ĠM ach
ĠP odcast
ill ed
ĠMon ster
In formation
Ġrec ognition
ĠHigh lands
ĠHat field
C ord
ic ycle
id an
av ia
Ch air
Ġ8 7
47 500
Ġcl a
Ġcl uster
Sw itch
Ġproceed ings
Ger ald
Ġut il
ĠTHER E
9 041
CH UN
Bu enos
JAC KSON
K IA
U X
Ġa ge
ĠTh u
ams ung
cy cl
ĠBer lin
L ED
V oice
Ġb io
All ison
ĠQ C
ĠDEV ELOP
Back end
h n
ĠM ak
ĠL ink
ĠFil ter
B uy
W IL
ĠR c
EL S
Ġg rade
05 7
ĠIn hib
ĠSn ow
Ġhard ware
is f
10 01
Ġf alse
Ġc ourse
att i
ortst er
Tr ust
VER T
ogleg roups
6 55
8 099
D enton
G s
K AT
w al
ĠW inter
qu ist
ĠIn ch
oy er
ĠQu ad
Ġreg ard
Ġback up
ĠLuc as
ĠLit urgical
ĠSOLUTION S
s erver
il yn
ind y
Ġcont rolling
ĠEx am
Res ponse
Post er
L ip
st age
Ġf ast
ĠIs aac
ĠMat hematics
ĠInst ruction
3 1250
G as
ro ve
ĠP F
Ġa uto
ick ets
OT T
ĠX P
bor ne
R un
c lean
EN I
Ġr ing
umb ai
CU MENT
ĠHE ALTH
ĠFre eman
project s
I HL
T ow
m embrane
am er
ss a
ĠMc Car
ĠInd iana
Ġhigh way
ORG IA
ĠElect ronics
5 35
L ine
ett stown
WI P
ĠMc K
Bel arus
ampl es
ĠPerrott o
c ia
Ġp otential
ĠN AS
08 2
ĠH ell
Ġl and
MAN Y
Ġgo oglegroups
Ġlig and
8 25
ou ra
ĠB attle
ĠD w
Ġp atch
zy me
ĠActiv ities
5 11
M urray
W ILMINGTON
b k
v ro
Ġa ot
Ġ23 89
rib es
JUD GE
ĠD iaz
ession als
I MA
uc a
ĠEx per
ĠGl ass
plic ate
ĠDh aka
ĠLeaf s
ovak ia
EMPLOY ERS
J M
K urt
Ch ico
Ġsupp orts
ĠProcess ing
ĠN a
Ġs ynchron
ĠH y
Ġnew s
Warwick shire
F a
Ġv ers
ĠPr inceton
ĠKn ow
Gil bert
RESOL VED
C ount
J ol
h ampton
k b
07 7
Ġp ump
Ġs urn
im an
ĠPl aza
604 066
Worksh op
B J
ĠR utherford
Ġm old
ateg or
ser ine
Person ality
Hard copy
Sask atchewan
A bs
B F
S ound
T RI
T erm
ad ri
un ix
or o
ĠF antasy
sh ipping
ve au
TEN SION
Ġdetect ing
f d
ĠB eg
ĠL ess
ĠH ockanum
ep per
Ad ams
ĠAcc ount
Chester field
H rvats
N ice
W aco
Ġ1 06
ĠP UR
ib urg
PH P
Ab ilene
ĠVander bilt
ĠSym phony
Mar io
ĠJud ge
ĠS ales
Ġc ommunity
ew ell
Sp art
ind on
yl ine
Ġres istance
ĠLever kusen
P arma
ĠK er
ĠCar ol
ĠRec omm
Rom an
4 3750
F ion
H o
H ur
L u
ĠP resent
ĠL ip
az ion
err ick
uct ase
Ġsol id
Camp us
5 02
7 1250
N antes
S ett
z eg
ĠL OU
ĠG ir
ĠV IRGINIA
ie u
TE MP
ĠPh oto
Bas eball
Brad ford
9 55
C ER
E IG
L EN
M ESC
ate ur
ĠH wy
El k
Ġmon oc
Luc as
K K
el yn
ĠA UT
Ġs at
ĠJ ets
ig ible
nd ale
74 00
Bas ic
Mag ic
J orge
07 6
ĠV III
Def ense
Ud inese
T ube
un te
ĠL afayette
ĠG omez
ect ive
CH ESTER
LIN K
alyt ic
chem ical
f rom
ĠS ummit
ĠT ucker
Ġt rigger
ĠD ark
ag ment
Ch andler
P ra
ĠI an
NY SE
enc ies
Deb bie
Ġradi o
ĠV incent
Ġ19 62
56 3
itor ium
acell ular
U MP
ot ive
UTHER N
F GA
ar an
ĠH unt
ĠJ ess
im mer
ĠV en
Ġnorth east
onfigur ation
w eg
Ġt yrosine
07 2
ĠL ion
ĠRo therham
Ġsc ript
ĠSchool s
imension al
V P
ĠS au
unn ingham
ax ter
ĠAss isted
B AND
K atherine
ac co
Ġ19 63
Ġpro cedure
Hrvats ka
J enny
ĠT re
et e
ĠW ear
sh ine
Sh irley
oll a
Cal c
utt ing
ĠAust ria
ĠBrew er
aut y
v s
es ium
ĠB uffer
ol ocation
un thorpe
ĠW he
Ġdie lectric
Oc ala
M emory
Ġ ..
ĠP atterson
ĠD unn
Ġs pe
Ġ19 48
Oper ating
ĠMess enger
H ancock
Ġf an
ĠAd v
z el
ĠS aw
ĠT P
ĠT wo
Ġf ail
06 9
ĠL ou
NY G
Ġsp ecial
Out standing
Vill anova
Ve eba
S ass
b ers
09 5
ow itz
107 240
106 240
Ġdisc l
Spl ish
VERSI TY
Swimm ers
W au
ad ev
Ġt ree
Ġs em
23 750
Fl ushing
Col or
An im
77 2
Fran ces
GRA PH
9 3750
L ansing
ĠP ublish
Ġm eeting
EV ER
Ur uguay
R ing
ĠT ol
ol ate
ong a
Ġab ility
Tem ple
iston e
ĠVern on
R G
ĠF UND
ĠCh ampionship
ĠRe aper
ĠL amb
ĠH ur
L V
t ure
in cluded
11 25
ĠP ot
Ġm argin
67 3
ĠNorth ern
Court ney
5 08
S J
V anguard
ĠD ob
ich ron
De utsch
Ġpar allel
Fair fax
ĠSing h
gor ith
ĠT ransport
ĠJ SON
ALL S
Dan a
ĠHard ware
GH WA
eun ichron
D evelop
K U
us a
OM Y
icop a
Ġsil icon
2 1250
ĠC lement
ic ian
il io
ĠP CI
ĠR afael
ĠRich mond
8 1250
10 24
Ġb uilding
Ġn odes
ĠWatch ESPN
ĠHol mes
utes bury
CHUN GHWA
ĠWatchESPN Final
F ord
iv ot
Br endan
ĠCon way
Ġcre ating
asc ript
ĠLaur en
OUS LY
ĠE ffect
Ġcomp osite
86 2
Sal es
ĠEX TENSION
E I
P LA
ĠR ange
Ġc ould
Cre ates
z t
ĠP en
ĠP edro
ĠG et
ER I
oc c
Ġl ip
ie le
ĠRo th
Ġsouth east
Ġt raffic
igh ton
ott i
ĠInt l
Burg ettstown
7 45
D river
E AST
al ers
ri ef
Ġs he
ĠG ul
uc ible
ors et
ein stein
Ġmaterial s
Repl aces
Saf ari
Z F
j oy
ent in
int eger
56 7
76 250
ĠNorth eastern
ĠCONTRO L
S eries
a fer
ĠD ortmund
07 3
Ġ19 37
bor g
ĠSU B
ĠDun can
prop ane
K AL
P VT
20 42
ĠC AMP
SB N
ĠAtt empt
quarter ly
ĠCAROL INA
ĠD om
Ġp arks
ĠG ut
ĠSC I
fl ackville
Phot ographic
Ġpartic les
flackville cup
Ġt ax
RA B
yd e
ĠMA CRON
Ut recht
Kaz akh
A ut
ĠS el
ĠR ated
ĠSal v
jd reyer
S eth
S ky
ĠB att
Ġus eful
FA IR
SB SC
ĠSil va
ĠSong s
ĠB ears
ĠL aser
co aster
ert ford
Ġpl aced
ĠComm ercial
ĠO xide
Mar icopa
im in
North west
Ġint rod
z ocal
St arter
ĠUS ING
Ġcross ings
Ġperform ing
cent os
ac io
ĠO PER
Ġ18 65
ĠGRA VE
R ennes
ĠB oyd
ĠDr ama
azion ale
G W
ch ants
ĠV iney
Bon us
ĠDEVELOP MENT
7 10
S amp
ĠP ul
ĠL ak
99 8
HO USE
yd en
Ġgener ation
Wait ing
i q
70 20
Ġcon version
Dun can
Vill arreal
Mar co
26 250
ĠCh ipset
Ġinter action
et ry
ĠVa ugh
ĠJane iro
s ummer
20 71
am organ
ĠB eta
ier e
Ġpart icip
ĠPh ill
Sw oop
ĠPol ice
S ym
Ġf loor
ĠL ord
ass ium
ĠMA Y
agn ost
Ġbas ic
ĠCla ire
R ICK
ĠG AP
in fo
al anta
ĠB io
als all
ĠSch w
Hy derabad
ĠS UR
ĠC ream
Ġ19 66
RE AD
ak house
Ar d
lad y
Ġallow ing
ĠGall ery
Kath y
ĠPRE VI
S ING
ks y
moo th
ĠFo il
U ttar
05 5
Ġm ac
ĠCar p
Kn igh
evin son
ha usen
Viet nam
hard t
ĠW er
Ġc able
ĠO tt
Ġpro ble
Am b
Ġremov ed
edd ed
ĠCOUN TY
ĠNou veau
ĠT reas
04 3
15 000
Ġch ip
s amsung
ĠB urr
Ġt akes
ĠL en
B ear
ĠS eg
ĠN at
ĠL av
Ġ19 64
UT AH
Mill vale
C orpor
H az
S AR
V L
f a
v eston
Ġl im
olar ship
ĠGrand e
Ġreturn ed
/ )
T win
Ġ es
Ġm ail
ĠK y
C J
M us
M az
Ġ1 15
ĠY ield
ĠCar son
Ġle g
z end
Ġt er
ĠR ider
Ġm y
Ġ19 71
cl iff
ĠMc Donald
es burg
Ġc alled
Ġm ask
ĠK re
if ford
Am usement
Dan bury
iter ia
bb f
Inhib ition
C elt
T ap
i ors
ĠI SBN
if iers
Ġst ores
FB T
ĠLe eds
Ġmon itoring
Book s
Str at
G ordon
Z IP
ĠS AN
re ase
Corpor al
G eno
Ġ ion
Ġ id
Ġ2 250
ĠW AL
ĠJ a
ĠJ ake
Ġre pl
Ph oto
MS FT
yc ombe
ĠRoss o
music mama
N U
Z ero
ut z
ĠCO M
ĠBar nes
Out putStream
lon al
UMB IA
s end
11 41
st art
ĠW ang
ull en
ĠAl tern
west coaster
ĠConc ern
Ġtechn ologies
Lev ante
Continu ous
9 121
B ot
W AN
W ILLIAM
ĠN eb
unn el
ĠDO CUMENT
Ġhigh er
Pa onia
B aby
F t
ĠG ian
erg io
ĠWeb er
Ġstandard s
ĠSant os
Leon ard
5 48
ĠD IM
OR I
ok a
ĠBl u
Pr el
Ġbl ade
Rock ford
ĠEss ex
R anch
j on
as is
ĠG ibson
ĠK ill
ĠConst ruction
05 000
ĠCent ury
Intern azionale
ĠJacob son
ĠCany ons
L ions
ĠR ule
ĠV igo
Ind ex
ram s
ĠNew man
ĠLl oyd
Wer kt
MAJ ORITY
K orean
M oor
Ġ ke
on ucle
ĠR EV
Bar re
agli ari
McCle ery
7 7500
C er
Al ice
ĠRay mond
V C
ĠN ode
ĠL oud
ĠG ib
57 3
B ab
N LD
b ad
en way
IS HA
Ġposition ed
ĠMead ows
MICRO STRATE
O Y
R X
w yn
Ġass ets
Ġpl ants
any ol
Ġstart ing
Alexand ra
D ew
J OHNSON
ĠM icro
ĠSt oke
Ġ20 2
ific ant
6 3750
F ior
b ank
in th
ĠW ade
Ġa ud
ok er
Def ines
ĠProf essionals
He avy
SU NG
Ġcommand s
ĠCORRECT IVE
b en
Ġent ity
ĠAust ralian
ĠDISP LAY
C ert
D ouble
P ul
ĠA re
ĠW alt
77 3
esc ence
ĠMiss issippi
Ġident ified
Beth el
ĠNET WORKS
current ly
ĠJen kins
Ġexc ept
r t
06 5
06 7
qu ette
Qu ery
Nonf iction
C agliari
d h
od ed
Ġn ormal
iz ont
ĠJer emy
armaceutical s
) ..
D ream
E ffect
y re
ĠB oolean
ĠEd ge
reed om
l ong
ĠM x
ĠP ierce
AN N
sp orts
ĠComp ut
ret ep
At alanta
F lying
G all
O h
V incent
ĠR abbit
itch en
enz yme
ĠPerson al
R iley
ĠN ext
pl ayer
Ġe ffective
ough ton
IE M
Ġmonoc lonal
9 195
ĠJ ohann
In active
cl ip
ergus on
r ington
if ex
US H
Ġh or
Ġro ot
vol ksy
Bern ard
Ġinteract ing
L ess
200 0000
igh bor
Ġ9 4
MENT S
ĠAngel o
ĠKe ith
Ġnatural ist
9 10
S ET
Ġ1 30
NY Y
ĠCh en
ree ley
anc o
UR S
xy gen
ĠBul gar
leuk in
ĠGAM ING
6 29
F etch
n ov
ĠT oner
im ent
Brook field
Gal veston
ĠInst all
ĠCinem as
L iz
ĠT ract
Ġh ash
ets y
ĠMACH INES
ranspar ent
B ON
D in
N ight
ĠM n
00 03
Ġa ff
78 0
ĠEl ite
ograph ics
Andrew s
ĠVan illa
ĠBron cos
L anguage
T am
ĠP ast
ĠH end
ĠV ent
Ġ4 16
ĠCorp orate
ĠComment ary
8 3750
k an
er ob
om uk
08 6
os er
ĠAf rican
CI AL
Cel ta
T W
h al
s i
el i
07 9
67 5
ĠYan kees
Ġn an
ĠNew ton
Mic ro
Mod el
Get afe
ĠOrt iz
H UM
n ec
in ical
im bl
Ġr atio
Dev on
T rail
ĠR ED
ĠH uddersfield
ah awks
ĠIn j
58 750
ĠAr c
rap p
Conc ert
incip al
ĠPREVI OUSLY
D er
ĠC ache
ĠD rake
ĠG ene
Ġ3 02
Ġrec ords
Person a
Ġindic ating
Fre eware
Ġsubst ances
Kazakh stan
H AL
N ord
N egative
56 5
Ġther eby
umin um
H eb
H att
L TR
M UR
w right
ĠD ouble
TO WN
Ġprotect ive
c al
10 52
ĠB ournemouth
Ġc opy
AND O
Ġswitch ing
ĠA DR
ĠP addle
ĠY outh
Ġ03 16
ĠAver age
ĠTHERE OF
c ript
d c
ĠT rad
ĠT win
88 750
Ġdis abled
Mt n
phosph ate
Glouc ester
5 33
O ber
ill ion
Cl ack
An ton
ĠBl ood
riz z
str ument
Ġant icip
Ġcomm ercial
ĠTor res
ĠC AS
09 8
ĠK N
AT I
omer oy
sub mitter
Ġcam era
3 2500
L W
M ixed
p re
in eland
il ed
Cl iff
Ġad equ
app a
Ġsupport ing
git id
G n
P ers
is che
ĠF IR
18 36
Ġr ender
IS LE
esh a
ĠCont roller
C ITY
O p
T ak
W ash
ent ion
ipp ers
Drag on
ĠSH ELF
Vac ant
ĠA ston
Ġa ffect
ON OMY
oc ate
Ch el
AR MEN
ĠIN FORMATION
ĠSh ep
ĠCol chester
ĠPart s
ibr aries
Ġreg ions
def config
Ġnucle ar
ĠPu rified
CARE ER
W ID
ĠC omb
10 39
ĠD essert
Ġth ick
Ġ19 44
Al amar
56 9
55 000
ĠPl ug
Ġj oin
ek Ha
Ap ache
ĠCoordin ator
g lyc
ĠH erman
OL E
ĠAr nold
ĠSh ore
Ġatt ributes
Inter view
Ġelectrod es
ĠAsh field
9 0000
P y
ĠC ool
ĠL ady
27 500
ter a
En ables
Geor g
oz illa
Rick y
ĠtestObjectTo XML
ĠBRE VE
G D
I on
12 20
ĠN ord
Ġc op
66 0
ĠtestObjectTo OutputStream
ĠSteel ers
H ank
k itty
an an
ĠM iles
ĠM aintenance
Ġt rad
Ġ9 3
Ġst yle
ĠCA P
SE MB
9 75
F uture
Ġc ounty
Ġm os
Ġl abel
In vest
ĠComp onent
ĠtestObjectTo XMLStream
REL ATION
NECT IC
ĠtestObjectToXMLStream Writer
G OR
ĠD erek
Le ast
Cop in
Market ing
3 0000
5 16
V ICE
ĠF ederal
ĠL od
ec o
emb re
Ġpr ce
abin et
U I
g ren
18 58
ĠK DE
sr c
C over
S weet
at z
ĠC op
ĠP ump
ĠD ixon
alt y
Ġest ate
Ġadequ ate
I BM
ĠS HA
IL S
ĠMor ales
ĠStud ents
ĠHop kins
ARMEN IAN
F remont
N av
c onnect
or ph
Ġth ence
South western
Ġpl us
we ight
ĠDKFZ p
L ance
T ro
T alk
ĠM end
Ġm ounting
West minster
ĠCol ts
ĠOak land
ĠAP PL
3 000
p ara
it ecture
ist ers
ĠCD P
Schw artz
p rivate
St udy
Ġret irement
9 2500
D im
c arb
Ġ2 40
Ġ5 25
67 9
Rec ognition
Ira q
Amar illo
B nh
man s
ĠHar vey
But te
ĠProspect us
ĠPav ilion
on adi
as a
ĠT rop
ĠJ UN
Hol ly
D CAC
M CD
P RI
S WI
ĠP owers
05 1
04 9
aw ar
fl ag
ĠAir lines
Char adri
DAM M
kc asse
11 250
ĠP aint
ab ling
ree ing
Ġspec ies
Geno a
f arm
ĠC REDIT
ĠE sc
ĠVol ume
overn or
Ġgr ata
h arm
p ot
w tf
20 20
ad oc
Ġ3 76
ON S
nd rome
Ġrec ent
ĠCH RIST
Ġvol umes
ĠBurn ley
rews bury
Nun avut
Ġapproxim ately
6 10
H OT
r ice
ĠH OS
13 750
67 8
Ġtrans ifex
Wer ew
ĠOrch ards
D anger
F ast
N ut
ed onia
ĠC iv
57 5
78 750
Ġent ries
Ray o
Cast ino
Ġanticip ated
K aj
W ars
08 750
ĠK ol
LA A
Cl ip
86 1
ett ing
Mor ristown
D evin
o it
s es
An alytics
Ġinter est
Over on
ĠSO UTH
ogl obulin
ĠCE O
Esp anyol
Ll oyd
N ac
R AL
ĠP overty
ĠF raz
ĠK ids
Ch apter
Ġspell ing
ot ure
ich t
ĠCh eck
Gl ass
ĠRel ations
ĠDet ails
Ranch o
F W
M usical
l u
ĠB B
04 8
Ġc ategory
Ġ19 35
ort ed
ee le
sh ots
Fl oyd
Ġform ula
Ġj ob
ĠCons ult
ĠIND US
2 2500
TER M
Ġres earch
Can adian
H iram
l ocal
m c
it os
urb an
ĠEqu ity
lym ph
20 81
Ġ1 11
ĠF einstein
US HI
Ġex cluding
let cher
Ġmin imum
ĠGE ORGE
GUL F
B ingo
ĠT roy
ug o
iss ions
Ġus age
Williams ville
Ġsch ema
ĠSte akhouse
ĠMcCar thy
T ell
ĠC ul
ĠM embership
Want agh
Ġrespons es
J esus
b eck
d ep
ĠM M
Ġm apping
Ġn umbers
59 8
UC S
Ġtrans lation
ĠSTAN LEY
L ois
Ġh unting
Ġk W
ĠVal ve
Er nest
Wr ite
Young stown
ANI EL
G od
ĠR AD
ĠW yden
ĠGu y
ij a
Evil G
NECTIC UT
L ords
l aw
Ġ icon
10 000000
os yl
au th
ĠSh ores
ĠDun bar
L G
e au
ist rano
ric ultural
ĠField s
Ġapp ly
ĠBel t
Bor ough
Suz anne
C av
re ction
ad olid
Ġc entral
AP P
ĠEm irates
ENS ING
ĠLI EN
Sah adev
ĠBasket ball
Dari en
neg ie
D OM
Ġ1 16
Ġa ut
ec a
ĠG erman
ĠAr kansas
Min i
Ġbl ue
ĠPH IL
. :
M ING
ed i
ĠA ction
ĠB AN
ĠV it
Ġpl ant
mer a
B erry
H en
L AR
R ow
c i
n ell
08 4
ne ider
H ash
M ath
ĠB T
07 500
ID LE
ĠRe in
SM ITH
read y
alc olm
ĠNe therlands
ĠFred erick
S qu
V CM
ĠC u
ĠF ERN
Ġt en
ĠD IE
Ġ19 45
ĠU P
ang a
Ġactiv ities
D rosophila
H EN
u olo
or er
ĠT et
eb urg
se qu
Cont ract
ĠCap istrano
Cor v
ĠPO ST
Mash antucket
Ġs ound
id en
ĠG LOBAL
ap a
AS ON
Ġex ception
ait lin
A y
U Z
10 5300
Cl ogging
BAL DW
Gar rett
8 03
N ames
P rimary
ĠR ic
ĠD atabase
ant le
New ton
CH ECK
ĠAr senal
68 750
ĠMA E
Ġcon vey
Ġt ab
Ġp urp
Ġ4 03
op ted
eg ro
no arch
ĠRom ance
ĠFIN AN
Ster ling
C ancelled
W ells
sw orth
Ġco ating
Ey ed
ĠVM ware
H erm
ĠF ine
ĠB RA
Ġf oot
ĠD J
34 000
MA Y
hol land
Ġorder ed
ĠFI BER
7 55
ĠS eal
ep ers
ĠJ A
oc key
ass ette
59 2
Cat ania
Ġstate ment
NK D
ĠFAR GO
Ġc ation
HI O
ero id
alm ost
usc le
ĠMos cow
ĠSur rey
Esk anos
I PS
L ONE
on on
et wood
09 0
ap ache
Ġ5 03
Louis e
ĠSch alke
TEX AS
Goal ie
Jol iet
M i
m r
ĠL ines
son g
107 200
Ġequ ivalent
House hold
6 20
M K
S ue
l tx
al en
18 65
58 5
HE AD
def ault
Substrate UniRule
tele film
J EFF
L imited
c oll
ad h
ĠH AV
met ric
B reak
at ives
Ġb ind
ac ular
ĠSouth east
Brist ow
ĠMess age
ĠChem istry
Cl arks
we ig
J UN
J este
m ike
US B
57 6
ĠDel hi
ĠRuss ian
ĠRand om
Initial izes
ĠIss ue
P erm
l g
ĠB our
end on
AL EX
ĠCh i
LA D
Gre ater
ĠAl ice
Ġair ing
ĠBluff s
ĠDIM AS
Y u
x e
il it
ĠP irates
ĠB edford
Ġp ast
Ġm any
56 8
ign on
Fres h
ĠWel ch
Ġdepos its
J ersey
Z inc
ĠC able
Ġc ook
ĠI MP
Ġex pressed
of asc
Lock port
ĠH arm
rou ter
ath on
ĠNe il
Ġobtain ed
C ad
K han
R IT
st yle
ĠT ony
Ġdefin itely
Ġred uce
ĠTor onto
ĠFIN ANCE
Ġpropag ated
X D
09 7
ĠU I
58 3
ĠBay ern
ĠWin ston
H ans
ĠT S
Ġ( $
ĠG ym
Ġup dates
ĠStud ios
Ġchang ed
Ġ round
ĠS ean
18 54
IL ITY
68 0
Ġacc epted
Ġbl ocks
ĠHart ford
iddles brough
Ġsk ill
ĠHOL LY
ipher al
D ownload
W IS
p oints
el ius
ĠB ran
St ars
ult z
sh ort
RO SE
OS B
ĠMin er
Ġestim ated
ĠFirm s
an ton
ĠS MD
ĠL IFE
ag her
Ġh olding
59 7
Bl ogging
Miss ion
Rec omm
ĠAth letic
D ustin
F un
R ain
Z one
Ġth in
107 233
Ġtr ust
Serv ices
My ofasc
Fior entina
Myofasc ial
8 95
C yt
S ax
i ant
ĠM ember
ĠM VS
Ġ19 65
ES SE
ĠPartn ers
Ju il
06 3
18 750
ĠIn stitution
ĠAn ton
Fran co
ĠPhil adelphia
ĠTAX ONOMY
Ġlim its
K uw
in cess
Gl ens
rap her
Ġoption al
G ot
N ORD
ĠT ra
Ġ19 34
ĠK az
Ġst ates
ĠThe ories
Tr acy
7 15
ad in
ON T
land ers
TH EA
Mov ies
ĠFl ash
Ġdesign ation
ĠFO I
Ext ension
Ġrespect ive
Ġtransaction s
ĠMeeting Place
4 1250
C ynthia
ar ia
ĠB earing
Ġc ategories
Ġw ord
Ġ3 88
ĠK or
ĠCh inese
Ġimpro ved
Sass uolo
clip se
K ara
R y
d iff
Ġ _
ĠT al
06 250
per l
Pol y
ELL IE
ling er
Peter borough
Pu rified
Ġdial og
F D
J ak
M CI
M GC
c are
at ively
ĠS ave
Ġh istory
ick er
OL I
uss ain
upp y
Pas adena
N AM
20 88
Ġ1 07
Pr ague
WO O
Che atham
Ġser ial
Sign s
4 041
E B
in ts
ĠC IT
old e
ĠSh utesbury
unn y
ĠMin ing
ĠHayden ville
5 45
j acob
ĠF actory
Ġto gether
im ir
pl iance
ru pt
Ġsh ape
ĠBO X
ĠThorn ton
F ib
k ov
om ac
ĠF U
Ġcont ents
Green Eyed
Ġim mun
ĠLe ahy
Oper ations
SV K
ĠAff inity
Chi evo
Mtn Gal
GreenEyed MtnGal
5 03
E Z
R IA
W W
ar in
il ge
ET IC
Re ims
Ġbet ter
Law yers
ĠBrad y
ĠHamburg ers
P rem
W ald
ĠD esc
ĠO g
roc yte
Add on
ĠIm age
ĠBru ins
night ly
Ġfab ric
l at
ĠN icole
ĠI ron
B eat
F ind
R idg
m al
en i
ĠS z
ĠP ur
Ġf ramework
og rapher
ann els
ĠLeon ard
ategor ized
ĠH ub
GL F
ĠSound ers
Ġmen u
M age
O scar
c ie
r ina
ĠC it
ĠG orge
ĠO k
Gar field
ĠMx ico
ĠT ap
ĠL ars
ate ful
sh an
isb on
Te en
Ġcamp grounds
Ġadapt ed
r ub
ĠI THEA
ĠG P
St udio
El che
Ġcontrol s
ĠInt egr
Sk yline
Ġsy ndrome
7 3750
P eg
ĠB h
Am erica
55 1
CE ED
ĠNE VADA
Ġbl ank
plic able
Ġrespect ively
DOU GLAS
Ġcla ims
Y ellow
ĠC V
05 2
Qu est
PI M
Ġcl ock
ĠDay ton
9 17
C ory
ĠS ac
ĠP ear
ap ur
78 7
76 1
ĠBack up
Ge off
IDE O
ĠWhit ney
o fficial
ĠA AA
ĠB ody
ĠR ights
07 31
Ġ19 8
Par ish
PH EN
bl ock
X avier
ĠH astings
ew ski
Ġcl oud
leg es
G ATHER
I CO
ch ris
av ior
ain less
ĠTh ree
UR T
ram er
Ġhe ight
ĠGl en
Ġcom ment
ĠTe aching
ĠC owboys
ĠC ounsel
ĠC unningham
Ġg ear
77 4
urb ished
Ġder ived
ĠUC LA
g rad
ĠH ost
ĠCh ar
Ġan aly
ĠAg ain
Pu eb
jav adoc
7 47
J PEG
ĠR ate
ĠR NA
ĠH err
av ian
AR B
ust y
rop ri
ĠPat riots
D ual
N ode
an ese
04 5
18 09
16 250
Ar vada
ĠEll en
G reeley
M amm
ew ay
Ġv ertical
Ġch arge
Jac obs
Ml aga
PON ED
ĠGAP DH
G ail
X ml
k va
ĠR avens
ul ly
Ġw ait
ĠIN TL
her d
END ER
Ġcur ated
9 12
P ARK
T our
T oy
ar row
MO S
MA CO
Em erson
Ġdisc ontinued
du ino
POST PONED
ĠM usical
06 2
Cath y
gae ilge
Slash man
5 26
8 7500
A GE
C ry
W right
m otor
att ached
ĠAd vanced
Rem ote
ĠDes ert
ĠBlock chain
7 66
on key
ĠP oll
Ġd oc
Ġn egative
Ġmov ed
ĠRam sey
Sand ra
Ġquest ions
Ġincre ase
ORA GE
ĠGirl s
ribut ed
er as
ed ule
el ton
ĠM us
ĠT ro
ep l
ide os
88 0
Mor occo
Tem plate
Ġse qu
omin ated
ĠSO UTHERN
Ġaccount s
Brew ery
ĠVel o
Cov entry
J U
S ylv
d oria
as than
ĠD ate
ibr ation
Ġsurf aces
C CO
R IDGE
Ġb oot
ĠE con
Ġcomput ing
lement al
Ort ner
P AN
in f
ĠA FC
ĠG ross
Ġ7 80
Bro oke
ĠPh oenix
Ġact u
Ġed iting
5 021
B avaria
c argo
05 6
ĠL ith
ĠG ra
Ġh ot
gn ul
Ġcert ain
V OL
Ġc arcin
Ġm ount
Ġm aintenance
55 3
ĠSh opping
ĠAm y
ĠEx change
ĠHar ry
J ohann
or us
ĠP B
ĠL und
PL Y
Samp doria
P it
m arks
ĠP AN
ec ula
ER IE
ĠAS SEMB
OH L
ĠSp irit
AP OL
osh i
ĠEm b
Municip al
gnul inux
8 13
M atch
200 00
ĠSt and
ĠU d
ies burg
Ġsec ret
t z
ĠS ue
ro ach
Ġp ay
Ġc onf
ger ald
Ġrece ives
acc io
Ġatt ack
chem okine
E mp
F u
ĠH ousing
15 98
Un ico
Cle ar
Ġinter mediate
Val le
ĠMed icine
inst all
N ext
W alt
s ung
ed u
ĠA ub
09 6
ip ur
ĠPRO CEED
Ġrece iver
raw berry
ĠTim bers
Ġmeas ured
ĠFriend ship
ĠDRI VE
B ism
J OHN
S even
th am
06 4
ĠMan chester
8 36
m ethyl
Ġm ajor
ap on
ĠK urt
Th r
Ġad v
ĠPROCEED INGS
G asket
e on
h ide
s son
ĠS id
ĠT ours
ĠU NC
Ġst ill
ĠInd ividual
ĠGr ace
ĠRead er
Ġdirect ed
Ol iver
Dor othy
ĠFly ers
D ry
M aj
U MA
ĠCar oline
Ġch arg
LO VELAND
ĠRel ated
ĠAdd ition
ĠACC ENT
" ,"
5 14
5 34
N ich
ĠB omb
Ġfor ward
67 0
ĠPl ant
ĠPat ricia
ĠJeff erson
ĠC ENTER
el ance
Ġm ass
ĠV erd
ens s
ĠBr itt
Pr eston
ĠPe ace
ĠAk aka
Gh ost
Wolver hampton
D iv
D mit
F RED
K INS
S AL
le in
Ġto i
Ġl ogging
ip zig
ĠY amaha
56 1
ĠSh ield
erg irl
ĠSe attle
yp es
Clack amas
Ġto x
ĠCh lor
IC ES
79 4
uk a
Ġmon itor
Part y
Os age
ĠTri o
WAY NE
Kay la
B ournemouth
G ates
M CC
l ayer
as per
own ed
LE E
ĠSw an
CP U
Ġcon clusion
Ġsl ot
Nap les
yth on
ĠSupp ly
7 99
S ecurities
W asher
Co ach
Ġint eger
Ġexperimental ly
Fac ulty
Ġemploy ee
K AR
um i
ov is
Pet al
asm ine
t v
ĠN ate
ĠH ope
Ġ19 47
Ch ill
55 9
Rep ublic
Ġro om
ĠWeb Ex
Ec cles
Hatt iesburg
W ine
W eek
Ġt issue
ST O
ĠSp ace
Ġpar ent
ĠPan thers
ĠTerr ace
Swe epers
GULF MARK
9 20
M ak
ĠF resh
ast a
RO U
ipp y
ĠDoc ument
ĠDe er
5 32
re port
st ead
ĠW imbl
os o
ĠV ancouver
Ar k
Ġmin ute
SH ORE
Sab re
Unico i
H om
H ide
K erry
ĠM itch
Ġs afe
Ġl aid
ĠMar sh
Fin ance
Phill ip
Ġt ri
ind h
UN K
ĠJul ie
erm o
Har old
micro SDHC
ĠS ydney
em ia
ob ject
D iamond
c am
m or
n or
en forceable
ĠD H
ob le
Ġnov el
it ud
ĠB aldwin
Ġt aken
format ics
uch ar
agn etic
BL IC
box ergirl
Ġimplement ation
ĠBoo zman
izont al
5 27
8 35
ĠF ALLS
NY M
Table t
B io
J B
L atin
L GPL
W ORK
er z
Ġf vr
18 45
ĠJ erry
Ġw ide
ess ary
ist ent
Da wn
Elm hurst
R afael
t rip
on ly
ar h
es da
05 3
ĠV ery
Ġg overn
ish i
uff olk
Ġtr avel
Ġju il
P leasant
m eg
Ġ ill
ĠC af
ĠP ay
ĠR io
ĠBl oom
ĠHar per
ĠGre ater
Whe at
ĠDriv ers
S oul
j ack
k ill
p ine
ĠD onn
ĠE D
Ġv ac
Ġpro spect
Ġcomp ar
ĠAf ter
oun ge
ugh ter
des dale
Ġtem plate
R onnie
ĠO HIO
Ġ19 20
77 1
Ġoff set
Angel a
Ġmagn et
ĠPak istan
ĠC HA
11 13
ĠP ub
od ies
28 750
Ġ7 09
Ġ18 66
ous and
ĠRep air
ott o
Ġbl ood
Ġenc oding
Clar emont
Hot el
Motor ola
HUM U
K o
W RIGHT
iz on
67 7
83 04
Mc C
ĠTe en
Ġlong er
Urb ana
_ (
Ġp ension
ov ina
ard i
TX LA
emb le
All an
Ġenter pr
B oolean
R unner
ad l
05 4
LE MENT
ĠQu artet
ĠFund s
Ġrelocation s
ĠPhil harm
ĠCorn ell
Clay ton
Ġiss ue
Franc isco
ĠBeng al
Nit rous
ĠUNI VERSITY
Ġsuccess ful
+/ -
R ah
ĠB ang
Ġc alls
Mar ina
Pro duct
ID IA
Ann ual
Islam abad
Shake y
C hey
L OW
ĠB anc
ĠSt yle
Ġp ositive
ĠW ycombe
ure en
STR U
Ġz ero
Cor al
ĠSO FT
8 98
b an
k it
k osh
t arget
Ġa way
ess na
89 7
oph il
ĠContract ors
ĠBulgar ian
L ynch
M umbai
N atalie
ĠP I
st ud
ER O
Ġn a
op ol
bour g
Ter re
Ġme ets
M aharashtra
c or
ĠB uy
ĠD uke
55 8
omb ie
Ph osph
H erb
ĠS ounds
ĠK AB
ĠAr lington
ong o
Ġsc ientific
Ġauthor ity
605 1
Ġdiff ic
iast ical
ĠValle cano
ĠLOU IS
Eccles iastical
K ids
10 19
Ġan ch
HI MA
HO US
Ġinst ructor
ĠLar son
Ġc ommunications
Ġ19 46
end ly
Jul io
int a
75 000
ĠWe ather
Ġdem anded
Tow son
it ory
ĠT RE
Ġf old
Ġc ases
he ed
ĠK u
rid es
68 4
pro gram
Int egr
) (
7 11
P HO
en ge
le igh
ĠC atherine
ĠT ar
ĠB akersfield
Ġ8 05
ru pp
Ġbe am
Team s
Ġaccess ing
ĠISO AM
Shakey Grant
9 11
9 01
G abriel
V ictory
ĠA ut
Ch eck
ĠCh amber
Car mel
ĠHol t
Black pool
e i
ch eng
form er
Ne ed
wr iter
power clean
powerclean mom
l und
n c
ĠH ussain
Ġle t
Bell ingham
Abd ul
H osp
ĠC LA
ĠC ush
ĠH ed
ĠV ENT
CA D
EF T
Ġrepresent ation
Ġregul atory
9 35
R as
d ig
l ers
m ic
ĠP os
ĠT ow
ac s
Ch ip
AL Y
ction ed
6 30
N ON
Bas el
otter dam
Ġeff ort
O FF
Ġf ib
ul us
Ġend s
ĠDisc losed
ĠReview s
Krist en
ĠAud itorium
5 47
C ort
I OS
ĠC ut
ĠMod s
icip al
Paw Por
Dem ocratic
RPM T
T G
Ġ router
al yst
ĠK umar
te en
D ie
D utch
G ab
O MA
T BD
Th ompson
ok es
ĠEll iott
ĠFri ed
ĠSpecif ies
C redit
ĠB altimore
17 97
ef in
Ġwh at
at u
ĠIN ST
Ġex haust
Pro posed
ĠRobert son
Advent ist
ĠBet is
itte es
N y
ĠO wens
og y
Ġex cess
MB H
Ġdetermin es
Deb orah
miss ed
Indust rial
ĠJenn ings
6 28
G or
H ughes
Y M
ĠC ow
En um
Mont clair
ĠFor ge
Be au
KB ASE
ĠLIN KBASE
9 50
S ugar
V EST
h orn
ĠCh ase
Ath letics
25 16
Ġ19 36
55 7
ĠSc reen
Ġhe ating
Ġtransm itted
ĠGard ner
9 1250
20 72
ĠA VEN
Ġd an
Ġ19 38
Un iversal
Ġal gorith
raz y
Tem ecula
Vern acular
ĠFrank furt
ĠChap man
Cly desdale
agnost ic
L ibrary
Ġn ull
ee z
RI P
AU G
ĠOl son
Pal mer
Ġcalc ium
Ġp rior
ĠL ansing
pr c
oe ker
ict ed
Wind stream
ĠDEV ICES
O ri
T ub
in os
ĠC M
ĠB remen
ĠSt uttgart
Ġp riority
AR O
Ġfor th
vent ory
ij i
Ġprev ailed
Cov ington
Ah med
san ctioned
6 36
L ag
N g
P X
ĠH ob
Mar tha
ond erry
SU N
rict ed
ĠHa ute
Tele phone
ĠPack ers
ĠTem ple
5 49
L ocale
ich i
lor ia
Ne u
inter leukin
6 2500
b ins
AN DE
Ev ian
alo osa
ĠGe Force
S z
V ir
j ay
ĠH air
Ġ14 0
ĠWest field
Ġpre fix
7 57
A ik
G IG
P rom
ĠM ust
ap y
ĠIn g
OS ED
Frederick sburg
Liv orno
G IF
Ġ1 08
as una
Ġ19 51
Al ph
Al ger
58 1
HO W
ĠSM ITH
rem antle
Fre elance
ĠFac ility
EH HA
6 67
F Y
J ah
T iff
ĠS mart
ĠC ran
ĠB ush
Ġt ransparent
ĠN ULL
ap est
ran ean
ugues e
ĠDIE GO
i Shares
t umor
et ec
ĠL iqu
18 59
um s
Ġd en
ĠArt ists
be es
9 33
A VA
S leep
s ign
Th er
app ed
Ġlocation s
Kath leen
Wes ley
ĠS ebastian
ic estershire
il ation
11 22
18 67
ex p
ĠK o
33 46
86 250
North western
Ġprint ing
ĠMANAGE MENT
7 17
9 15
[ ]
ĠD al
Ġb us
Ġb ug
54 2
Zach ary
Ġpix els
Spect ral
B SD
C ome
I ST
L evinson
ct l
ĠSt o
Ġc avity
ĠI a
09 1
ĠG un
IN DEX
ain es
Ġ16 00
Jul ian
ann ed
idg ets
7 86
w at
ay an
12 10
ĠF unction
ĠR ushing
end ations
58 2
North east
Ad v
ham mad
79 2
Mc i
William sburg
ih ar
Ġmatch es
ĠCong o
zeg ovina
Celt ic
7 03
m g
le qu
ĠN athan
Pro bably
ĠFranc es
ĠHE AD
WID TH
7 38
B IS
F eet
G riff
T ING
v ideo
Ġ roll
Ġc emetery
um ental
os in
ap ed
AS OS
Th ink
Al d
gl uc
Ġwork s
ĠAcc ording
ĠLy ons
ĠVis itor
C ost
c ats
ĠD ale
ĠV on
ut ils
IR L
ĠWat ford
ĠWill is
ĠINDUS TRY
D rive
d ue
et ary
ex e
Col d
enc ro
85 000
ĠDe ath
ĠChrist mas
Ġdel ay
Ġperson al
ATO ON
Bast ia
BALDW IN
6 40
8 05
M idd
ĠJ ays
ĠO Z
ĠPA C
app s
ĠClar ke
8 14
S pr
p ika
t ic
os c
pl ified
TH ONY
ĠRes idential
ĠCam eron
rican es
Ġdownload ing
Ka efer
alp indi
Petal uma
7 69
Z e
k ot
ch ild
ĠD YN
ĠG MBH
Ġ6 27
Ann ie
Inter ception
Ge op
ATER IAL
B ridge
N u
b les
ĠD IS
Ġn amed
MA D
Cl amp
Os asuna
ĠKat z
BELL SOUTH
ĠGER MANY
H utchinson
v id
RE C
Ġad apter
Abb ott
? "
i ennes
th rie
ĠC ommun
ing amp
18 57
86 54
yst er
Opponent s
ĠRef urbished
Ġgl obal
ĠJac obs
4 2500
5 2500
p ly
al gar
ĠA uto
te ch
ĠTh at
ĠAss ay
ĠVol t
Tr av
Ġind ependent
Mor g
Ġman ager
Ġfil ters
ĠEN G
Czech osl
ĠJosh ua
ĠDro opys
vro let
Q Q
10 66
ĠN et
ond onderry
UR Y
88 7
ffic ient
Ol ivia
ĠPhot ographic
ĠBreak fast
Osh kosh
Ġpublish ed
3 134
A us
G ay
S HI
h ot
at ible
00 04
ĠP iano
ĠR ol
ass ist
RA ID
ĠOr d
CE O
RAN CH
etermin es
Cont ext
g pm
l en
eb er
RE A
Ġacc ept
Tr ue
Com edy
Ġprote ase
W ob
d holland
06 1
Ġ3 000
IN DI
Re quired
Ġelect ro
HAR LN
oupl ed
Ġflex ible
Carb ondale
j ana
ad os
Ġ5 29
MO UNT
ys sey
ĠQu est
COM CAST
Krist in
SWI M
_( %)
F ta
F ga
S NM
ĠS ir
ĠS AS
ĠSc unthorpe
99 99
ĠDr agon
Ġmed ical
6 95
M ann
S or
l av
at ra
ing u
ĠN u
Ġ9 1
Ġfield s
68 7
Ġprod uce
ĠExt reme
Graph ic
Ġthick ness
Geop otential
D avenport
d ual
f ol
l ich
n om
Ġp ipe
Ġw ould
Sp here
Man uel
rig gs
rol ase
3 139
T raf
id ity
em er
ee f
57 88
CL OSED
Irv ing
ĠAVEN UE
C essna
ĠP ri
ĠW ander
ov ed
ĠE QU
Ġv ery
nt own
ĠRo ch
57 500
UR ES
elect ric
sch weig
ĠRem ote
ĠPH ONE
R an
ou g
ot rans
Ġm eet
out s
60 11
Ġqu ant
Oz Some
Spectral Meat
OzSome One
3 178
C rawford
N fk
AP R
Le o
ĠSw ansea
B remen
H oll
J obs
P osition
at aka
ĠC RES
Ġd istrict
ap i
ess ed
miss ions
ulner ability
E uro
in z
Sh an
86 08
uff y
Lor ient
ANS AS
TEMP LE
ĠASSEMB LY
J UL
er ra
st e
ood le
ĠInc ome
UN ITY
HA W
ĠDavid son
ĠDisc ontinuance
Whe aton
Ġ525 56
Ġ1 206
ĠF u
ĠL au
ig ious
Ġm ixed
oc ene
45 000
ĠAr ctic
ĠAl d
pop pop
Merc er
ĠCard iff
epend ence
ĠDesign ation
ĠMICRO SOFT
P el
ĠS HAR
EN SG
Th orn
ĠSh erman
66 250
MB OL
Ret urn
ĠRob les
Rod ney
ĠBow l
Magn esium
Ġcool ing
ĠLoud ville
ĠFIR ST
6 204
Ġ1 23
18 39
Ġd ose
Bl ock
Ġdet ector
lad imir
D und
ĠB il
ĠY O
37 500
ĠGl endale
ĠCamp ground
Ġvis ible
Pa etec
ĠHans en
ĠKH ATOON
F ig
V s
p ad
ĠA ts
ĠP ier
Ġt ub
ĠW ald
ĠH WY
av o
ĠAngel s
work s
BR IDGE
ĠCast ro
307 113
Ġmeasure ment
308 113
311 111
Ġexecut ed
MEL O
ĠKA ISHA
Raw alpindi
5 22
P ink
S ection
Y E
b c
el an
ĠF eat
ov ol
ag ues
ew ard
ĠV AN
Ġ19 50
Ġ19 49
ev encro
Met al
Ġ201 004
Acc epted
Pre view
CHAR TER
BRE W
Ġbrow ser
bees evencro
8 22
V a
th s
ĠT rip
ĠN c
Ġe asy
Ag oura
ĠWind sor
ĠSAM SUNG
B H
P UT
R K
in ing
ĠS weet
ĠF erguson
ĠD eal
ĠCh apel
Cl inical
76 3
ĠVall adolid
H oney
m itted
ĠP ractice
are k
Ġex change
99 0
ĠAg enda
Ġgener ator
Po ison
bro wn
Lak eland
Ġbec ause
H esse
I RE
w ald
Ġ ra
th on
ĠB LA
Ch ampaign
GR ANT
Tor o
ĠRich ards
Ġrot ation
Ġtechn iques
USHI KI
D UC
ĠR R
Ġd oor
Ġ19 40
oc ates
bert o
ĠAnd reas
Ass ociate
arn ataka
175 00000
Hear t
Unc ategorized
ĠWes ley
ĠOFF SHORE
Lud wig
T ar
g ener
m ake
ar ger
Ġo bs
ĠW is
ĠL atin
if ul
Ġg ames
Mon k
ĠRec eptor
Ġreg ister
Ġcr iteria
Ġcat alytic
4 235
T IF
ĠM ins
ĠP y
ah oe
33 750
38 750
ĠOH M
Ġinc orpor
Luc y
Valle jo
5 24
9 47
F tm
O ptim
ĠS om
ic ode
ĠT amil
Ġs eat
ens itive
HI ST
Ġapp s
Jo ach
ĠM g
Ġc ycle
ĠI R
ĠEd mund
Rog ue
8 30
ĠN G
ĠW agner
play ed
Ġcre ation
Ġprod uced
ĠBeng als
Ġtre ating
6 155
G CM
b ound
d orf
ĠD ie
ĠH omes
107 021
SP EC
ĠPer kins
ĠKen neth
ĠMarc os
Lind sey
Flat line
ĠSalv ador
ertford shire
ĠCarp enter
13 00
Ch es
86 55
az ine
orp io
enz o
ĠStr ong
apeut ic
cheng lad
h or
ĠR andy
ĠW ax
Ġ19 53
atch ing
enn er
Ġsh are
Le ap
ĠMount ains
Ġprevious ly
u que
at l
10 7020
ing ford
ĠL em
ĠG oh
eg al
106 250
106 021
wr ite
ĠHOLD ING
9 106
q er
z eb
ĠP earl
Ġf older
qu in
oh yd
In ner
90 12
SE GA
ĠFL TR
Gu ingamp
ĠRO CK
Ġsens ing
ĠPE TER
Ġtit le
8 48
Ġt ele
Power tel
5 29
D arks
w iki
ĠT ed
ĠR ams
Ġin tern
Ġ8 23
up stream
no th
Ġpl anning
Pl atinum
Ġtransm itting
Ġrefer enced
ĠKAB USHIKI
P v
h y
Ġs and
ĠCl ip
ĠUs ers
Togg les
AMERICA N
2 141
7 12
S ide
at ric
ic ious
ĠP and
de qer
ĠSe ahawks
Ġgovern ments
chenglad bach
7 07
C able
K W
Ġ1 03
09 4
ĠO wen
Al mera
58 4
Ġapp lying
ĠPar sons
Pub lish
Ġinstit utions
ĠSecret ary
7 155
C alif
ĠC old
Ġ( #
Ġst reet
ALL O
Ġprogram s
ĠPe ople
Lak ewood
O ngoing
qu es
qu ire
TO P
Lar ge
Ġcon verter
c ox
10 60
18 56
Ġm ir
int egr
und ers
Ed win
STRAT OS
Valenc iennes
B EN
T IC
T usk
ĠB ith
Ġan im
act ivated
Sam sung
Charadri iformes
c onf
s ol
oc ese
ĠIn formatics
66 4
ĠAm b
Ġpl asma
Ex tra
Ex pression
ĠAb raham
Ġvis ual
Ġgu ides
ĠSound track
ĠTri angle
Us ed
Capt ain
Shar eware
D rop
R ush
k shire
Ġ keep
Ġc rop
ĠE is
Mar quette
Sh arp
Al so
MI CAL
int o
anc a
Ġsub mission
Bh awk
Ġdes igned
Civ il
Ġsepar ated
Ġmix ture
ĠThor pe
Ġsurn ames
1039 51
T rim
23 99
Un sanctioned
67 2
ĠInter face
nucle ar
ĠSuz uki
Wob urn
Traf algar
7 134
Ġm id
Ġmin or
Ġindic ated
ĠFERN ANDO
ĠBith orn
7 147
J J
O mar
st able
ĠT ide
ĠD aily
ĠW H
ail ability
C ant
C onnect
D ra
ĠS ex
ĠT our
Ġt ube
ĠO m
ap es
Ġy et
Ġre ar
Employ ee
M oon
S ELECT
ĠM cc
ĠB aden
ĠR iley
Ġ19 55
ĠK O
ver ts
57 9
min ute
ĠBr ass
ĠRes ource
ĠSEC OND
Oz ark
ATT U
K ane
R ip
f unk
r il
r ens
s u
00 10
ĠH K
oc o
str umental
ĠJ oel
ĠUn ivers
Ġas pect
MM ENE
eck er
KY MMENE
ĠGriff ith
6 1250
B ert
B eta
ĠM ATERIAL
ĠT on
ĠH EN
36 250
ator ies
let own
ĠHaw kins
Ġdiscl osure
Czechosl ovakia
B UT
D h
F SLR
G ru
H olding
r it
t gz
79 7
Pl ain
Web b
eld orf
Ġsign ificant
ĠDis play
" [
5 36
7 578
C ingular
T ake
Ġon ce
Del hi
Red mond
rev eport
Vf B
GOR MAN
D IG
ĠE DU
Ġh eld
og ens
MA X
rid ae
Ġext ended
usc ript
unj ab
Sell ersville
BAND WIDTH
G tm
N ative
t ri
ad ia
od ore
CD ance
ĠAc robat
ĠMet ers
ĠAlb um
ĠLIC ENSING
ĠCov entry
D ru
M ob
g il
Ġ19 59
ĠGu inea
ĠRes ervoir
uk u
229 56
pack age
C UM
D arl
H mf
K AZ
h aven
i u
w ill
ĠC os
09 3
ĠH owell
ĠG RANT
ĠE arl
ĠO re
ĠY oz
West man
com ing
ĠDes k
ĠBal let
ĠId ent
Gi ants
DEP END
ĠMarin ers
Kaj etan
T F
Z en
s ar
Ġt aking
ĠW R
ĠW or
ĠL ast
18 41
Wh at
ĠExt ension
Cy pr
ĠRecomm it
6 03
7 0000
H ose
ĠL OG
Ġ4 50
Ġhe x
ĠAg reeing
Is aac
ĠEP AR
215 98
Bit coin
B et
P CC
P uy
c raft
in h
Sh adow
omm od
AP E
ĠGl enn
Jo anna
501 57
614 56
ĠM AD
man ager
Ġform s
54 123
406 47
Ġquick ly
7 1953
B OR
D AN
K ris
ĠC abinet
ĠM ILL
Ġp ing
ĠG abriel
23 174
ĠCh is
Ind ependent
304 66
509 44
435 67
412 78
Ġder iv
903 26
423 47
ĠCert ification
Ġf ire
ep omuk
PA CKARD
ick y
54 1598
98 5788
Ed gar
Cal eb
406 78
936 58
512 54
806 23
859 24
Ġsur round
928 22
Flo ating
ĠLaser Jet
Ion ex
ĠFIBER LINK
ac id
end or
Sun rise
ind ex
emb ers
Le ather
Ġgener ates
Re ed
SP WR
ĠPe ak
Lor i
ATT UNITY
rach loride
ĠYoz io
8 24
9 188
F g
L UC
ĠB uild
IN I
Ch ap
ond e
ĠMar s
Ġ03 07
77 9
ĠAssoci ate
ĠMotor sports
Ġsepar ate
Ġrow s
c ycle
Ġst op
IF IED
LO U
Med ium
6 38
9 29
M om
Qu incy
ism n
ĠElect ronic
Bol ton
7 67
9 73
M olly
b anks
c p
z an
IN TE
arl ock
Ad min
Up date
Tal ismn
Lau rie
8304 223
6 02
8 27
v andy
ĠM ort
il der
ĠH ook
ĠV ale
ex in
Ġag ents
Se qu
her in
alyt ical
ĠCab ernet
para iso
W RI
c oupled
y ah
ai ro
Ed h
Ġdis missed
Tem p
rev ious
Hamburg er
P LAY
W arrior
ĠT ouch
ac ius
Ġinst ead
Card igan
Wood stock
ĠGa illard
Bos nia
E rickson
G un
P od
W o
ĠP ink
ĠD elete
ur man
55 4
Bl ood
ĠPh ys
ĠMich elle
Ġremov ing
D ele
th rough
ed ith
it ect
ester ase
Ġ03 12
Ġen zyme
ĠImpro v
7 2500
D ing
20 32
18 30
art ure
ary l
USA AF
Act ivision
Har vey
Ġsignal ing
406 736
Ġview s
936 538
Ġrout ing
ĠFitz gerald
b us
ĠB RANCH
Ġc ounter
22 11
uc us
57 4
66 9
Ġsh ield
ĠEn vironment
Land s
ĠGib bs
5 44
H ood
H IS
J RE
c alc
ĠA ber
Ġ2 10
ĠL S
ĠV P
sh ad
In n
Ġred uctase
Bru ins
Pub l
ĠKir by
ĠNAS CAR
M all
n ard
ent i
ĠCh ang
Wr ttemberg
Ep isode
Impro ve
Ġarg ument
W hey
ĠCh oir
ĠWe aver
Ġred uced
Ja ime
Boss ier
t ools
18 23
Ġ19 42
ĠEn terpr
Pl ant
Ġunder standing
Glens ide
R ama
ĠT ube
iv ier
St ein
Ġex port
ĠCl ick
Ġch annels
mark et
Mun ster
ĠSer ge
Dor is
D ance
D EC
I ss
l imited
es on
el man
ĠF argo
ĠR achel
ark er
ick en
ĠJul ia
Ġspecif ically
Ġper ipheral
Add s
ĠCros se
6 90
8 21
m aki
u ride
or b
10 10
ĠN orm
ĠW aters
Ġc ysteine
ry an
Ġan gle
Ġlist ings
ck en
Report ed
ĠLam bert
ĠTet rachloride
APOL IS
L X
d d
j in
l ap
ĠA A
im ens
ant z
uc ational
66 8
Ġcons ole
BM C
ĠInt roduction
Sim ple
Sa ug
TRO J
Ġdial ogue
Musical Rose
onkey bell
ĠSOFT WARE
7 37
N N
b ay
ĠF an
ĠK ING
Ro ch
ĠMc Kenzie
ĠCan adiens
ĠWimbl edon
7 09
s ystem
es ch
ĠF ischer
ĠD y
ĠO NE
Ġ19 43
orm one
ant ry
99 5
ĠAl a
MM NY
909 1
ĠPrem ium
Hop kins
Faisal abad
Morg antown
O cc
ĠD ry
ĠE merg
78 8
ĠBr aves
406 1
Ġcare er
Wheat land
18 61
uc in
ice k
ĠCh attanooga
az ers
ĠOr lando
Ġbio chemical
Alger ia
I BANK
L ima
ĠP LA
Ġd eal
ĠE mp
Mil es
ĠComput ing
ĠChlor oform
r ors
ĠS CH
ĠP as
ĠV and
ĠCol on
ĠCOMP UTER
ero kee
ĠJapan ese
5 46
P i
Q M
ĠM ET
ĠR overs
18 40
ĠTh ings
OL K
Ġcomp leted
Ġch ecks
79 3
En listed
SCH E
Belle ville
g rove
u its
an es
en k
ic ular
ĠB achel
ĠR ank
Ġc ut
ĠE RIC
ĠMon itor
ING ER
ject or
PG TI
Con way
Cla ire
an burg
ĠC urrent
ĠD A
ĠD ONALD
03 45
ĠSp anish
Gr ateful
ĠDef ense
ĠJava Script
8 23
J C
ĠM ethane
od ia
59 3
Ġwh ite
78 3
68 2
Ġsh ipping
ĠMc Int
Le an
512 337
828 248
9188 33
P ast
h p
an ic
ĠC ort
ĠF A
ĠV irtual
ĠIn v
NA D
COL UMBIA
Ġident ification
Ġdefin ition
6 08
B oz
H orn
K IR
S ig
T i
t ux
ĠA ri
ĠL INE
03 10
Ġin f
Ġn ote
Ġl ife
ĠSY S
ĠDur ston
G amb
Ġ1 17
ĠT RI
and om
ĠK ap
Br icks
lo ating
ĠNot ch
ĠApp le
Wall ingford
Bud dy
iec es
5 28
C u
O LA
P FC
R ach
ion eer
ĠL ike
em i
ĠK ane
HE BREW
ĠAnd hra
110 1
Robert o
ĠAg u
Per ennials
ever al
Om itted
ĠWith out
XX X
Inst all
ĠCRES CENT
B ingham
a ib
f i
re z
ĠB ach
Ġc ulture
Ġb en
Ġm em
ĠV o
St yle
Red s
ĠFRAN K
ĠLIC ENSE
ĠPROCESS ING
Ric ardo
F itch
L ists
Z hang
b oot
g ood
ĠP red
Ġf inal
ĠD ANIEL
ĠTh onon
West on
Fly er
Ġcapac itor
5 17
B ride
C ut
F enway
H ind
ĠR ING
ĠN ursing
14 00
sh op
Sh reveport
Sc ore
?? /
At wood
Ġed itor
raf ts
ĠBAR N
ĠRon ald
L isbon
in idad
Ġ1 28
ĠM emory
ĠT ank
ĠT urf
Ġs pl
he T
Fl owers
Ġam ong
Not ts
405 1
ĠGre ene
otrans ferase
M its
P esh
le um
ĠC ulture
as quez
ic ial
ĠB og
Ġf iber
ul k
Sp ortster
ĠEN TER
Prop heT
6 13
B ALL
B etsy
M iddlesex
O UT
Ġt ake
02 10
89 6
Elect ronics
ridg eshire
Ġel ong
ĠChief s
Serge ant
Danger Dog
S quare
S COTT
ĠM ind
Ġc arri
ĠCh eshire
Bur ton
ĠPack age
Ġforth with
B rid
B ret
D arren
ĠR y
ĠMar ion
ĠBar ton
Ox f
Lind say
ĠLabor atories
ĠFul ham
L am
M utual
j or
al pur
as ia
re ach
ĠP RI
Ġw ww
78 9
TE U
ĠDev on
Aj accio
ĠWander ers
J PG
L ET
at ine
ĠC yan
ampaign s
Clarks ville
Q ub
T AST
Y o
ĠM eg
Ġ19 17
isc op
ĠCh ain
55 2
Ġfl ash
enz el
Mic he
ĠHon orable
Prel ude
r un
ĠP ut
Ġs uit
Bro ck
So ch
och es
urb in
ĠMal ik
Dom ain
925 210
fin ished
ĠRIGHT S
Ġadhes ion
Infin ite
8 40
C ourse
H N
S ex
ĠI pswich
Ġ19 14
TER R
Sh ak
ST ATE
fer on
78 2
Rh o
ĠBol ton
== ==
ĠPip es
prof it
ilis oft
ĠFest ival
3134 24
B at
g io
20 23
in y
ĠM IS
ĠN orton
Ġs usp
ĠG em
Sat ellite
As ian
Ġdisplay s
Cap ital
Imp lement
ĠTu Tu
ĠSHI PS
ĠDoll ar
C ary
g ly
ĠP lymouth
ac i
Ġin struments
Ġ23 10
HE M
CS KA
Mod esto
ĠMcC ain
Custom er
Vf L
ĠEnterpr ises
ol ip
ĠN avy
ric tion
Ġqu artet
Med ford
ĠDur ham
Ġpattern s
ĠCrew e
Ġspec imens
K awasaki
M embership
Y ER
m itt
Ġ Ġ
ĠC ec
ĠM X
ĠF urther
CA MB
ons o
Ġsub sc
ĠQu in
mond s
Val paraiso
atin ate
ĠQue en
Ġcapt ure
Ġbound ary
Ġox idase
ĠSau v
Cyt oplasmic
O k
R otterdam
ĠM arden
ĠT IF
ĠD oncaster
Mar cel
ag ram
att ack
sch em
ĠMAR Y
Ġnotification s
roud sburg
K x
X ilisoft
n ic
ĠB AS
ĠR uth
Ġ19 60
Ġ15 9
ne uro
air d
erman ent
BO YD
ĠOil ers
Ġaction s
rn berg
Still water
jacob vandy
E ld
S omer
ok o
Le ipzig
Od yssey
Pri est
CUM FLEX
Y amaha
ĠC annon
ĠC REEK
el ial
Ġf un
28 000
Ġent ire
arbor ough
Goal keeper
7 62
B oe
E t
V IRGINIA
c ient
l it
Ġ onto
ĠA eros
30 19
78 5
Ġev alu
yr us
MER LY
C in
Q ual
c ard
r ab
u er
ĠD rew
ĠO pp
CH AN
Sh ield
66 5
GEN ERAL
TERN AL
Ġdoc uments
L ord
b zip
ĠC VT
10 26
12 34
18 43
im es
ĠCh ad
RA C
HC FC
ĠForm ula
ĠKey es
Av on
Aly ssa
ĠINDUSTRI ES
WILLIAM S
O SU
S ussex
T rey
b one
ĠSt all
ab oration
EL PH
Pro ton
98 0
HO MA
Rep ly
CU B
Ġdesc ript
ĠRet ail
ĠPlay off
ĠBi ography
??? /
O pt
ro ch
ĠB ayer
Ġt rade
ĠH F
Un attached
ĠMan or
67 69
enn ai
59 1
ID S
John ston
Ac le
Ġrepresent ed
Ġincre ases
6 43
H arm
L inn
in yl
ĠE ngel
all i
Th ird
ĠAs ian
CAR RO
Ġi Phone
Lor etta
Dayton a
ĠAff airs
ĠCore y
h cfc
Ġf ederal
ĠJ av
ĠO ber
CH C
Ġcomp any
ann is
Ġinhib ition
ĠDod gers
Ġnec essary
Acle acius
L UD
f ar
h awk
u ation
st oll
ĠL ocation
ĠO ptim
est roy
ĠThe aters
Ġpart ition
ĠGo als
ĠHu ang
Fitch burg
F N
T raining
W ard
ĠSt acy
Ġo xygen
Am azon
The aters
ĠQ RP
Black hawks
ĠAth letics
ĠMON ICA
GRAPH IC
CARRO LS
stoll aks
S ergio
ĠA erob
ad herin
ĠR AY
res den
Ġst oring
inn y
OT H
ĠOper ation
Black burn
Frank fort
Ġtechn ology
Fib rocyte
Soch aux
H UNT
P OS
g if
Ġs av
09 2
Ch at
ub le
pl er
Th an
Sh l
67 4
58 9
Can adiens
ĠAct s
ĠTE AM
imm erman
ĠSteph anie
ĠDav ies
Ġtherm al
Tell uride
2088 400
H ell
K irst
d ansk
ch in
12 16
ĠD ism
em en
ĠMon roe
Alex is
Str ategy
Ġprot ection
War ner
ĠFre iburg
ĠDou g
db g
Stat eline
ĠMn chengladbach
M CS
T UL
W B
h ood
m ers
Ġs elf
id y
id ance
id get
ĠG ear
ab ul
oh ol
Ind efin
Ġsc an
Ġal ready
ced ures
ĠRey es
ĠBI HAR
Names pace
h oun
k on
n l
ĠC el
em ore
ĠO ngoing
Ġ8 01
cl us
Ġinst ances
Gu itar
Ġhigh est
ĠDev ils
Ġprogram ming
ĠDem o
ĠBRO AD
Config ures
Ġcoordin ates
8 70
ar etta
ĠP RES
ĠN eal
ĠCh arg
ĠSc ientific
68 5
DIS ON
ĠPr ince
Hal f
ĠMad hya
Ġcontain ed
ĠMiddle field
Pueb lo
Chey enne
u ardo
ĠN ut
23 00
ĠCh erry
ĠAd rian
ĠBe er
ars er
Man uscript
Ġsub stitute
Sw iss
iter ranean
lev ue
ĠCIR CUMFLEX
Franc is
ROLL ING
q t
ĠR ud
18 63
Un played
Ġl ister
Ex tr
VE Y
Ġtrans mit
ĠRob in
Ġsynth ase
ĠDIG ITAL
er al
Ġ1 13
ex ter
Ġl in
nt ax
66 1
Ġsub sequ
Ġal terations
Ġu io
CAT ED
ĠSauv ignon
: "
A CC
d isc
ĠC ubs
Ġs pring
ĠL OW
ĠJ esus
ge on
Ġst and
ĠMc N
TE AM
ĠTE CH
ĠAlbert a
T ennis
p an
s ru
ĠR oh
ĠN av
ep er
Ġl anding
Ġ5 000
Ġ23 88
57 2
ax ial
Ġgener ally
Tr inity
Ġapp ear
ĠChrist ine
Pot omac
Moder ated
6 32
A J
S ed
Z Y
i eg
ĠS antiago
10 87
ĠJ ON
iss ed
oci ation
oz z
ĠSal em
ela er
ĠRaw hide
ĠCOMPO SITION
B ishop
C art
L ondonderry
W arlock
m oon
r ar
ĠD olphins
ĠO REG
ĠO sw
ig ration
98 5
Card inals
Bru in
ĠXml Element
ĠStaff ord
Bi ological
Pesh awar
c ommunications
ĠTh row
ĠAl ien
ĠFor ward
Bo one
ĠRoy als
Ġorgan ization
ĠEDU CA
D ON
D RI
ĠS ix
ĠC y
att a
IC ORP
Ġdis charge
Ġen ables
ĠSal ary
ĠMarc us
ĠWolf sburg
kirk ub
A er
j k
ĠS v
Pl aced
Har lequ
raw ley
Out side
Ġfunction al
Sem inar
ĠAy otte
L if
ĠS us
Ġ1 24
st ed
ĠT am
ĠR ah
ĠD og
ĠH arri
ig ator
40 12
68 9
Sur rey
Farm ington
ĠLAB OR
Beaver ton
8608 909
L ING
T as
d og
ĠC our
ĠB ert
Ġ( ?)
ĠN ear
ĠW int
Ġc ath
Ġ22 26
Ever y
Boy lan
ĠLud low
O pens
ĠC HI
it ure
ĠP ic
04 16
um ines
ĠO C
86 9
Ġle uk
Ro ot
88 5
ĠCol ise
ĠCost ello
D ir
T ESS
ĠC ENT
ĠC aj
ĠA urora
re ference
ch rist
ĠSt ark
Ġs w
ĠK ell
if ference
US PS
99 2
Ġcl ip
ĠAnd rea
Stef an
enss elaer
Y our
g est
ĠS nyder
ĠF ont
ĠN ag
Ġn vt
ĠGood s
Bang or
Ever ett
10 15
ĠK och
Ġ9 00
79 8
ĠFor bes
ĠEm ploy
Ġwr iting
Ġload ed
ĠTan aka
Const ruction
Ġcomb ust
Dmit ri
C onf
D MB
ĠM fg
ĠP rec
ĠB ates
ob in
Ġcont rolled
me ir
ĠGr aves
ĠSY MBOL
Rem ix
Ġcoupl ing
Ġphot ographer
FAR M
Platform er
G RO
R ear
T raffic
h ou
y i
20 588
le w
Ġ19 57
Sp ace
ry l
68 3
ĠZ ar
arc k
ĠOut look
ĠViney ard
Lands ale
ĠAerob ics
L amar
ent r
Ġs f
ĠH endrick
Ġd ur
Ġm utual
Ġ13 2
specif y
ĠCOL ORADO
ĠWal ton
Bud apest
Ġbird s
Corv allis
D ancer
ĠW OR
02 39
Th acker
ik es
ner d
Ġacc ord
ĠPROGR AM
Sal ina
Ir ish
ĠMet re
pa Bob
gran paBob
ĠKra user
EPS ON
H ector
ĠH em
ass a
65 000
ĠComm erce
ĠEm ily
ĠGe olocation
Ġmov ing
Eth an
Mamm alia
en as
st ers
ĠH ampton
Ġd rain
Ġ19 39
art ers
MO B
MI DD
Ġopt im
Arc ade
Ġprote ins
fol io
Dru id
F ernando
T on
q bal
ĠC redit
ch ina
ĠB RI
CH ES
Ġ20 8
RED T
ĠCast illo
Bor is
ĠGar rett
ĠKat ie
hel m
WRI GH
H eat
V ERS
ĠM echan
ĠH os
Ġ23 45
Ġ23 60
LA HOMA
ĠHow ever
Derby shire
B onner
m ere
ĠP rimary
Ġp en
ĠH ockey
ĠV ik
ut i
qu a
Mult an
LB SC
LI B
ĠBrew ery
ugg ing
Gh ana
Wars aw
& &
9 02
A ward
B ari
I phone
p f
ĠC oy
ĠM IT
ĠSt rawberry
ĠL AN
ec lip
ĠO PEN
Ġ19 52
ob o
ok i
69 2
ĠTrans fer
Kim berly
UMB ER
JEFF ERSON
Ġ2 181
Ġ2 167
11 31
st ract
ĠF D
ĠD urbin
ri que
ĠH istocompatibility
ĠO ST
Sch ema
ĠSupport ed
PU BLIC
Ġchild ren
Spart anburg
itud inal
- $
6 11
9 38
f ive
s mith
Ġ ign
Ġ2 262
ak u
Ġ24 45
Ġ24 40
Qu etta
ij ah
Ġdel iver
Ġemb edded
Ġauthor ization
Ġke ys
h ost
ĠA V
Ġc orn
Mar vin
ug ger
Ġ23 54
ies el
oy l
69 3
ĠEng ineer
ĠMcC oy
ĠEr ror
ĠLeg islative
ĠGE ORGIA
Staff ord
Harlequ ins
Thacker ville
P resent
Ġ2 442
ac ens
ĠJ ensen
ce e
Ġ23 13
Ġ23 14
Ġ23 40
ern ame
Ġ24 03
77 6
ĠQu int
302 48
ĠComm and
509 58
You Tube
ĠNor ris
518 33
3305 402
Ġcontinu ous
ĠJust ice
Whey Fit
h alf
ĠS qu
Ġ2 190
Ġ2 202
Ġ2 268
ĠF at
ĠW ise
OR TS
eg e
Ġ14 3
Ġ23 55
ry ption
LA K
Ġpl ane
Dan ville
SO C
5 23
H il
P ablo
V F
t ex
Ġ2 172
Ġ2 273
Ġ2 455
ter o
EN ER
Ġre ally
El igible
Ġdef ine
Ġext ends
Ġco il
6 45
t al
ĠC andy
Ġ2 204
Ġ2 192
Ġ2 174
ĠO UT
ig ua
Ġ23 70
Ġ22 17
Ġ24 39
UC K
ĠSh rewsbury
ĠGu thrie
Ġpart icle
ĠAR C
By ron
Ġrecomm end
D OT
N ega
R H
d em
t ing
Ġ2 195
Ġ2 246
Ġ2 457
Ġ2 254
Ġ2 263
ĠP ett
ul ates
ĠL EE
ĠI T
ĠH om
ĠJ ournal
AS SIGN
ah u
Ġ22 14
Ġform ation
Ġ24 33
99 6
iction ary
ĠCON NECTICUT
Leg al
Sil icon
ĠSteven son
Marsh al
ubiqu itin
zend i
ĠColise um
G rocery
m h
ĠS ara
ĠC RF
Ġ2 199
Ġ2 247
Ġ2 242
Ġ2 289
Ġ2 243
Ġ23 90
Ġ24 27
Ġ24 22
67 1
ĠFl oyd
df sg
ĠRE G
ĠLi berty
Techn ology
Ġcapac ity
ĠFork s
Living ston
L OG
c as
l op
20 93
Ġ2 299
Ġ2 276
Ġ2 287
Ġ2 443
ĠB aby
18 32
ĠJ e
Ġl os
St am
Ġg ro
Ġ24 07
Ġ24 26
Mon in
Ġ201 00
Ġno es
ĠLaur el
Sem i
ĠELECTRON IC
Pur due
Chair man
indh oven
6 58
f emale
g un
Ġ2 453
Ġ2 191
Ġ2 295
ĠB ER
Ġd ynamic
Ġ19 58
Ġ23 09
Ġ23 21
Ġ24 29
De er
tr ue
BRO WN
omet ry
Cast le
OUR N
6155 06
Shl omi
5 56
9 26
I CH
L amb
S yn
b g
Ġ2 187
Ġ2 166
Ġ2 456
Ġ2 238
Ġ2 293
Ġ2 454
Ġc ant
ĠJ ill
Un official
Ġ23 72
Ġ23 93
In cre
Al pha
ib e
Ġ24 37
Ġ24 38
Ġ24 32
Br acket
ey e
Se as
ĠMc Cl
Ġrel ationship
CL ARK
Her tha
Ġrequire ments
VERT ED
A val
P ok
Ġ2 156
ĠP t
ĠSt uart
ĠL ac
Ġ23 66
Ġ23 82
Ġ23 96
57 3346
tr ust
ĠMin i
ĠDev ices
Fel ix
7578 49
5 31
7 48
S ize
Ġ ;
Ġd imension
ark ana
ath y
Den ise
ĠSU PP
ĠWe iss
Ġli abilities
ĠRos en
ĠMED IA
ĠGall agher
WELL S
Ġfac ilit
S xe
g ang
is son
ĠT ul
ĠI BM
ĠG rim
ill es
Mad lib
ĠReg ular
Str ong
Ġlong itudinal
Mer ge
Jean ne
Ġrecomm ended
ĠOri oles
ĠCRESCENT A
6 16
G ek
ĠC AM
ĠSt op
OR LM
est s
ib u
ĠMar tha
angu ages
Sim ulation
sru he
7 95
B eng
D orset
V ari
d imensional
Ġin frastructure
art s
Cl ient
88 4
Ham mond
Was ps
L H
O ME
u ber
in ue
ĠM s
ĠG ru
ĠY u
IL DE
NV IDIA
ĠAr g
ĠProt ocol
UND IG
ĠBrad ford
Ġbas is
Ġdiss ect
M oz
N erd
T ropic
z ed
ĠB ury
ĠSt ory
Ġp ractice
ĠK itchen
Ġst im
Ar nold
ĠProd ucer
ĠAtl anta
Ġear ly
6 39
B ag
J DK
i eve
m att
20 61
ĠM eet
ĠH uff
Ġ19 26
ess en
ĠAl fred
ME M
Fil ter
Par sons
CON SIN
ns ley
Ġorgan izations
Ġorig in
BAN ON
ĠIMA GE
Ġattach ment
Jacqu eline
ĠLess ons
ĠAub urn
2 100
M ESH
T arget
Y am
k iller
z ania
ĠD EN
Sh aman
Ġad ult
Ġsp orts
pro te
esh iva
Ġweb sites
ubb i
ĠCarl son
ĠChair man
ĠUd all
D w
k ie
06 00
ĠE UR
ace a
ald well
pro t
ba um
Bri ef
Ġlearn ed
ĠTreas ury
M ysql
IS SE
Pam ela
nec rosis
ĠInj ured
C omb
g old
m and
Ġ <
ĠT un
ĠB ike
ĠB rain
ĠE ar
Sh ipped
Am ber
Ġpre fer
Ġtr ace
ĠAlex and
ĠEag le
Penn y
enz ie
urb o
ĠRI VER
Arch ie
Ġsect ions
ĠMaterial s
9 45
S no
T AR
W ide
j ud
ĠM ai
ĠP etro
ĠH ex
AS HI
ass istant
RO E
Sar acens
Whit ney
Tusc aloosa
Peg gy
Ġdiffic ult
X V
Ġ2 12
ĠW ool
ag ery
Ġg loss
Hol land
Water loo
Ġmeas uring
Ġauthor ized
Exp ed
ĠPB Is
9 111
C ond
F ont
X A
es ar
10 27
st eer
ĠN atalie
Ġ5 12
Ġh ormone
ud es
99 3
69 8
ĠMain z
ĠIt em
ĠChe f
ĠTob y
ĠEns emble
integr in
V irgin
Ġ2 56
ĠR ory
28 000000
AT URE
uc ine
amp s
ight y
ath ione
OT HER
med i
ĠPaint ing
5 43
6 22
7 54
8 2500
D by
N ominated
h aha
at ile
econd s
ĠCr uces
ĠAC QUI
Susp ended
Ġvers ions
6 23
L uv
R AS
V irtual
s f
ar ine
re lease
it el
ĠP ayne
ĠB AT
ĠR alph
17 00
Ġm anner
ef ield
rib onucle
SA P
ĠBr ennan
ĠDel uxe
ĠMarket ing
ĠMult iple
ĠPlain field
E au
E ngel
S AT
c omb
en ko
re h
ĠSt ores
ĠL otus
id yl
16 95
Ġcompr ise
Ġem pty
Ġmov able
ĠSteph ens
FIR ST
bis oft
Alph aretta
B uild
f inal
u um
ĠM ald
ent ine
ĠB ing
ĠB illy
Ġp urch
OR M
av n
Al ison
98 7
Gr en
amb oo
MIS SION
ALLO CATED
Nega Death
R ensselaer
Z O
Ġd k
Ġv Sphere
ĠK TM
ip t
59 4
88 9
En ter
agon al
Ġlet ter
B onnie
T AB
b ra
c ise
r adi
ĠL ayout
Ġl oop
Ar ts
ĠNov a
arry town
ĠMil itary
Hand le
ĠBart lett
PIM MS
ĠDonn elly
m eyer
ĠB U
99 4
Ro th
ĠEd itor
ĠFr ame
Book mark
ĠHaw k
ĠCoast al
ĠCount ries
3 159
U bisoft
W erner
v ir
} }
th us
ĠN rnberg
ĠG ulf
Ġ19 13
ĠAN THONY
Ġprocess ed
Vern on
ĠEm ma
Second ary
ĠHER E
9 49
L HP
T ool
T HA
T oo
Y AN
Z ip
c ubbi
p ike
ĠS IDE
ĠB K
ĠH ero
18 27
ĠV ar
Ġ19 31
all o
Ch estnut
land er
Ar ab
ĠWeb ster
Reg ister
ĠRow e
ĠRam os
ĠKath leen
Berg en
ĠUNC G
D AR
g up
j im
op t
Ġ13 5
Ġ00 1
ats u
Ġ201 003
roy o
Arm ory
ĠGreat est
ĠSac ramento
Tropic ana
G IL
J avier
O B
Y R
Y eshiva
Z a
g re
11 51
ĠN orman
Ġb ought
ĠJ PMORGAN
Re i
Ġant enna
Cop per
Ġrepresent ing
Joach imi
Indefin itely
6 47
D UR
H ook
K m
L uck
M ASSACHUSETTS
f unction
ĠW ake
Ġre cess
Mary ville
Ġart icles
ĠGener ation
V U
ĠB undle
ĠI gn
18 51
Ġ3 50
ah i
In cludes
67 500
ĠSouth end
rick land
ĠSw indon
Ġidentify ing
F lex
X S
b re
q i
s ley
ĠS ylv
Ġ2 20
ĠB utt
ĠH ut
ĠG asket
ers burg
SI GI
CE AE
ĠGl asgow
Rem ove
RICH MOND
Ġintrod uce
9 67
Ġs ulf
ĠW igan
Ġin let
ev ent
Ch erry
sh irt
98 3
Mex ican
F unction
G ly
G abri
M eas
N an
at um
ĠSt ef
Mar ilyn
Ġ4 15
ip iac
ĠSh am
OK IA
Ġsec ure
WL ETT
Scar f
Ġbond s
Moor head
Kx mode
9 39
P ix
T arrytown
c od
ĠB SC
ĠW BA
ĠL W
02 25
Ġd J
ĠG w
oc ity
arb age
AK A
Ġwhe el
ĠLod ge
7 30
S ocks
V ia
s pl
re ements
IN ST
MI AMI
ĠMar ley
Ġass ist
co e
AD S
89 2
Ul tra
7155 14
ELPH IA
8 26
C ork
T up
m il
ĠW E
MA INE
OW NS
Minne haha
ĠAMERICA N
Ġconst ruction
Ang lic
ĠKle in
ĠChall enger
V ar
Z N
am y
ĠT s
et r
Ġ9 33
ĠAr duino
tt y
yd ia
Ġreg ulation
Rock y
ĠAb d
ĠMag enta
McG raw
HOUS TON
6204 05
7 68
A uction
F ootball
L j
V ell
V ekHa
th ias
it ance
Ġf ailed
CA LE
AD ELPHIA
oct or
ĠIs olate
oz a
reas ing
Ġtim ing
Ġstr ength
H old
X C
ĠO lymp
Al tern
ĠCo ed
ott le
ĠAug sburg
DI O
Og den
J enn
T ru
ĠP ED
ES A
Sh erman
iam eter
ann ib
69 4
ĠBro s
Le ah
ĠFl ames
ĠPer u
Ġpath way
ĠBox er
978 925
DUC ING
R attle
ĠC ru
ĠA I
ort un
CH S
OT E
lib s
zy k
Cloth ing
7 26
p aul
ou ng
ĠW O
18 46
os yltransferase
io let
az quez
89 1
ĠRock y
We ight
BUR Y
ĠColumb us
303 9
Ġter min
B ranch
m ead
ĠS ector
ent ley
ĠE NS
CA MP
EN O
ud dy
Ġst rip
ical s
Ġk ernel
?? ??
Cor ona
5 19
7 08
I MS
M eet
d esc
ch urch
ĠL ounge
ĠG or
Ġ19 16
ra int
Ġ8 04
rib e
Rut land
6 17
g raduate
as im
Ġd on
Ġ5 20
TH UR
ĠGl ory
ĠENG INE
K lam
T il
ĠM iddlesex
ent os
IN K
ON DA
end e
Ġ15 00
og o
34 34
In v
ĠSch umer
CAL T
Pull over
ĠPhilharm onic
6 57
C ORP
H is
r ant
ĠT ots
ĠW alsall
ĠG overnor
ĠJ et
ĠJ PY
pp s
In valid
ĠZ ach
Ex cluded
ALL AS
Can on
CS S
Ġ2016 2016
Olymp ia
ĠBraun schweig
S ap
ĠC od
Ġc urrency
id ian
ĠI b
ort e
Ch a
US S
Ġg el
78 4
BER RY
ffic acy
ĠTw ins
Ġmatch ing
8 289
g ir
ĠN olan
Ġs ending
Ġs ends
18 34
ab il
ĠV e
St etson
ist ence
89 3
ĠDisc overy
Sy k
Ġpres ence
ĠDism issed
C G
f ont
n av
n atural
it is
st and
ch ing
ĠH ag
Ph en
cc c
ald eh
Im ran
ĠTrans it
Rod rig
Ġload ing
817 6769
ĠOREG ON
8 47
F alls
F oot
P enguins
U U
V IEW
ĠC ourse
per ial
Am ateur
ORE A
Sl ope
Por Sal
Kend all
ĠTUR NED
ĠGir ard
9 08
C indy
D ell
ĠS ET
ĠC onf
it on
ĠW m
02 13
us o
ĠSc rew
fl ash
ĠOriginal ly
ĠGate way
E HC
F ILM
Z AN
s earch
ĠS ay
ĠB ooth
ĠH il
Ġd ensity
ir s
ĠMan uel
LE BANON
Ad ri
yl us
AB B
ĠWh ately
101 204
Ġtest ing
EX TERNAL
ĠCan adian
comm on
Ġdec ision
Ġactiv ator
ĠHOLLY WOO
v illage
Ġ q
Ġv ector
ant age
66 3
DIS PLAY
101 205
Is landers
Ġman aging
DW G
ĠPiz za
S ial
V ES
e ol
ĠB ah
ĠG rade
37 000
az i
HI RE
ĠST R
SIL VER
ĠSign al
5 21
H aley
g ot
ic ello
Ġs yn
Ġc red
he x
op es
35 000
Ġ2014 07
LE GE
68 1
ĠDeb orah
Ġsynth et
Quinn ipiac
ĠBurg ess
S ent
n st
ĠC LOS
ĠH ong
ĠE ugene
Ġm aster
Ġ19 18
ĠK ub
ĠPark way
aj a
sc ript
Reg ular
Ġaddress es
Ġphen otype
ĠFLHT C
Ġcer amic
Import ant
D ot
G AS
L AS
M alm
a ub
al am
re leased
Ġp eptide
all a
Col by
Ġex posed
79 6
ait lyn
DI MM
sa uron
ĠLog an
6 48
7 29
M ade
b rid
ĠA id
ers c
Ġ19 24
ev ilt
ack ett
Al to
urn iture
Nor weg
ersey side
ĠHam mer
ĠMac Donald
ĠNor folk
aut iful
evilt win
0 201
6 33
S as
ter bury
ĠPro gress
ĠAss n
oth ing
Ġrequest ed
Ġpass age
Cre ative
ĠTop ic
Ġmer chants
Ġconfig ure
ĠPCI e
noth eviltwin
ĠACQUI SITION
K yr
W ade
p age
ĠF arrell
ĠSt rikeout
Ġd ark
Ġ19 54
Ġ5 06
RO P
onn el
ĠCo ch
ĠST EVEN
SL P
ĠOper ating
ĠIsland ers
Con vert
ĠSl im
ĠIndust ry
Tap per
eclip se
M ord
t ree
it as
im ate
Ġ20 7
ian i
OH A
GR IN
ĠLouis iana
ĠHe in
Ġgo ing
Ġcolumn s
ĠAk onadi
idel ity
BBC N
4 0000000
7 56
8 33
ĠS HE
Ġ1 09
Pro ses
ied mont
ĠWilliam son
ĠEm ail
Ġse a
ĠNET WORK
ĠHoff enheim
ĠBit coin
Ġaccord ance
C ache
E le
G ON
M ind
T aj
s ize
v ine
18 53
ĠWh o
OP EN
Form s
Mo ther
Ġsearch ing
Ġpers ons
Boe ing
7 52
G AM
ic ient
ĠM ale
ĠT umble
ĠD oming
ĠH och
Mar ine
ab l
if es
att en
Port o
ows ky
sc orpio
Be el
BL U
Cat fish
ĠKn ights
D etermines
K ur
L il
V eg
st ation
ĠSt anding
Ġ( -
Ġ4 08
ick ers
MI C
Ġor ient
ĠIs ao
Ġinter ior
Indian s
Ġdefin ing
ĠCrow ley
Ġfri ends
Recomm endations
E ye
Ġ2 15
ĠF oot
ĠH iggins
02 500000
ut en
ĠIN STRU
ĠPh arm
Le od
Sch en
Is ago
UD P
ĠNational s
Angel s
ĠTrop o
ĠHAV ING
Cytoplasmic Sequence
I v
p i
ĠT ONE
ĠG el
are th
RO Y
ENT IFIC
Ġsh ift
ĠEn c
Ġpl aces
ĠAnd re
ĠSmith s
ĠHe ath
ĠBlack burn
Ġcon ference
Hel ena
ĠCare y
317 366
Autom otive
ĠJav ascript
ĠC ED
ay e
ĠF encing
art y
In strumental
act er
88 1
Paul a
Ġbook ed
518 578
Ġband width
765 259
8289 63
aldeh yde
7 35
A CK
O bs
m us
20 90
ĠA FB
ĠD isk
ĠH ybrid
Ġ19 00
ia o
St evens
Car negie
arb on
HE WLETT
Web ster
Ġrep orts
409 49
ĠAdvis ors
Sab res
Calc ium
5 99
C any
E rica
M echan
k ok
ĠF iles
ĠR PG
ĠL ag
ĠV oc
ĠK UMAR
Ġ5 01
op ed
kl er
IS ON
back ed
ĠInd ependent
Ut ica
ocument ed
Ros well
Conn ell
ĠAtt ack
Ġsup plied
6 12
L obby
d ec
h ope
m j
at he
Ġs acks
ĠW IS
Ch annel
ĠCh estnut
ĠCl inton
Ġrem ove
Ġred ucing
Roy als
Ġtransport ing
Kath ryn
Sial kot
7 33
9 24
d rive
ad ise
ĠF ive
Ġm ach
ĠIN DI
MAR CUS
Ġcontact s
936 2399
1077 04
1077 03
6 56
D ynamic
E MS
G ent
T ICAL
z r
ĠT ak
ĠT ILDE
ĠH icks
Un mar
ĠSh im
UN N
69 6
Ġext end
py thon
Ġappro val
ĠHum idity
Shoot er
Ġenterpr ises
Beel zeb
4 000
D arrell
T anner
l iff
ĠB j
ĠR H
ĠN OR
ĠG ol
Ġin k
St adl
ĠIn n
ombin ant
Mos kva
ĠChis am
Anglic an
H yd
K AN
L et
W AT
ĠF SV
ĠR m
ER E
av ers
ry or
ĠCol lect
ĠSch neider
erm al
ĠLe o
Gen eva
1029 07
Ġav oid
TRAN S
Bism arck
P ee
R us
` `
m ill
p al
z ler
iv as
ED O
TX T
ĠRe q
aster ed
Tr out
eld on
Brook sville
ux kat
Ġoper ator
ĠSU ISSE
net nerd
ĠHoff man
1052 12
Rei uxkat
Tapper cise
F V
M ach
W itt
en ey
ĠS SL
ĠF loat
ĠL AT
ĠE R
Mar ty
ĠK ENN
Ġl ith
Ġl aser
ED A
riv ile
Cl ats
EV IN
ĠDr ink
ĠBo ar
ierre z
ĠGrass ley
Klam ath
S b
p atch
t k
z burg
ĠS ushi
ĠP ap
ĠF inal
ĠB AY
ĠR oper
ack en
ĠSch re
Ġint ended
ĠPh ase
Jo anne
1069 01
ĠtestXMLToObjectFrom XMLEvent
Ġdepend ent
Ġsuit able
ĠtestXMLToObjectFromXMLEvent Reader
7 43
B od
E indhoven
R ou
d irect
y u
ĠS um
Ġd ual
ĠG ab
26 65
Ġ19 41
ĠK ern
ĠU k
Sun ny
ĠIN VEST
Ind ependence
HA Y
Eng ineering
arr ant
PAL M
ĠOrgan ic
pot assium
ĠRandom ly
Boz eman
Beelzeb ud
g uan
i w
ĠM ee
ĠP ortsmouth
ĠT ok
ĠR ig
ĠJ oh
ter ior
Mc D
ĠSE P
ĠON LY
Sk yd
Ġvari ables
SKY W
Court land
ĠMann ing
ĠCHE MICAL
Midd letown
F AB
ĠS emiconductor
ĠB ard
un i
ĠH annah
Mar ian
17 95
ER R
all up
ect ady
aw an
MA GN
Ġout let
aur ants
Equ als
ĠJoy ce
Ġcle ared
4 121
201 7
se lect
PE P
Ġmov es
mod el
ĠApp aratus
ĠPass word
Ser ial
Ġprospect ors
L af
R ita
m ozilla
ĠC res
ĠC zech
ĠA way
ĠM iguel
Ġf all
id ew
18 21
ĠJ ew
ab ol
ĠINC LUD
err ero
ĠAg reed
Ġrep air
VAN CED
ĠMed iterranean
GU EST
Albert o
ĠFut ure
ĠFle etwood
Und ocumented
ĠPitts burgh
Exped ited
5 37
B ird
S TER
l aney
m aj
ro ok
am el
ĠB ec
ĠB ald
ĠD eg
ier arch
El vis
Sw an
ĠIs le
All ston
Ġrep ository
Domin ic
Lewis ton
ls m
Maur ice
JON ES
Grund y
Stadl meir
6 26
F TA
H ARD
j b
l ain
el ps
10 28
ĠD ed
ĠL eb
ind uced
ĠAm anda
ĠGu jarat
ĠWest minster
ĠPh armaceuticals
aff er
Mac Book
gy z
Wood y
ĠSER VICE
ĠPick up
ĠWer der
6 54
D iet
J ur
l ot
ĠW k
18 28
ust r
MA DISON
Br aves
ĠSh annon
ĠLouis e
press or
Ros en
Sher iff
9 40
P up
ĠS X
ĠS ummary
ĠR B
SI P
Ġh ill
IS S
GR UNDIG
EV P
ean ut
ĠSU P
Ġcirc um
RU CT
Ġsmall er
ĠCIR CU
Ġsect ors
9 30
ĠS ed
ĠS COTT
ĠC ock
ĠR DIMM
ĠW ol
um per
ĠAS P
Pl ot
ĠLouis ville
TI VE
Ġind ust
ITA CHI
ĠPort ugal
Greg g
Ġlat est
6 44
7 78
H erman
J h
V ice
V SL
m am
o i
ĠR PM
Ed ison
SL O
ĠVal id
AG ENCY
Kat y
Major D
Fly ers
ĠOption s
SYSTE M
Ġsav ings
7 40
8 99
K ennes
W T
in ja
ĠP RA
Ġc ylinder
Ġ04 25
Rece ived
edul ing
ubl ication
Enc oding
Bingham ton
A PI
K D
P B
l uc
Ġ1 14
ul s
ĠL ONG
ĠIN VERTED
Col chester
az er
ĠAPI s
PR ESS
Ġhe avy
SM C
Tr enton
earn s
DO C
Ġaltern ative
Ax is
ĠPhill ies
" #
7 22
le eve
10 20
Ġt e
ĠR isk
ĠL EFT
CA RO
ill ar
St op
ob re
47 500000
ĠLe ach
App leton
Ġbl ack
ais y
|-|- |-|-
ĠSTE PHEN
ĠPrem ier
ĠKel ley
at omy
ss kk
oll s
Disc ography
br uck
Str as
ĠMil waukee
ĠWhit field
ĠAcad emic
Ter esa
Link ed
MOR RIS
ĠStat istics
Mu hammad
ĠCONFIR MS
Kennes aw
9 081
C rew
n ar
en egro
ĠR ental
Ġp olar
ĠN U
ul i
ust on
CT OURN
An alysis
ĠSh ad
ins ky
Ġpre p
Eas y
SOL UTE
ĠHen son
Ġprom ote
Ġalgorith m
Gek ko
Skyd ome
sskk ccc
A FC
C ow
O ST
Y Y
or ney
ĠM erseyside
Ġd ifference
ow ler
ut ed
St ell
ĠY ang
og d
IT Z
Fl ow
clud e
Not e
96 1
pro cess
ever age
Arm or
ĠReal ty
Nonf inancial
Tan zania
Sett le
Ding man
9 18
J G
M oney
Ġ roller
ĠL evin
Ġ19 27
qu arters
ob ox
pp ing
Pro cedure
ĠAll an
inter feron
ĠMel bourne
ĠBob by
Yan kees
Graph ics
Ġbeh avior
ĠVolt age
Puy allup
9 07
D oncaster
P itt
T ag
V ander
ĠW ick
OR IA
Ġan alytical
ens er
ĠMar ino
Ġen vironmental
ĠMat te
Po etry
Her bert
ĠScot land
Ġne ighbor
ĠBrent ford
Ġanch or
ĠHERE BY
H ENS
L ef
M aps
O ur
ĠM ex
ĠB oe
ĠE rie
IT ZER
79 1
Sc ud
ĠUS E
Sol ar
Ġphot os
H ub
M aint
ĠM AK
05 000000
ĠH B
ĠH ahn
im edia
Ġ3 03
Ġh its
Ġpro xy
igh ter
ĠCh andler
ENT S
ĠBl unt
Ġim aging
ty p
ĠSim mons
Ġeas ily
ĠBLA CK
H ump
P EC
l il
{ {
ĠP rom
ĠT ay
Ġs everal
13 33
os i
ĠE TH
ĠE SP
IT AN
gh ai
86 074
Ġass umes
98 4
ĠHol ly
TI ES
ha us
ĠSE M
ĠRom an
_(%) _
B ee
P ier
U CH
ĠB alls
ĠG res
ll is
ne apolis
ys ide
ĠRE AL
Ġwal let
Ġdem ographic
ipl ayer
Ġver ification
Ġwid get
Liber al
9 70
G ING
J AY
L ot
R ae
T UC
Y as
g ov
j s
ĠR ONALD
18 52
sh ore
ey ond
88 2
Bel levue
COM FORT
yth m
O bit
t otal
ĠM au
Ġb road
ĠO scar
ra e
MA P
Man or
Bro ther
Ġsc ripts
ĠRec order
ĠSw ing
ENS EN
Cor respond
ĠLever ett
ĠS FF
ĠS yracuse
Ġt w
ĠN y
ĠN eed
25 000000
ens is
ony x
ĠHard wick
Ġapp ropri
BY D
Ġpass ing
ipe i
Af rican
Ġperm ission
ĠCant well
D raft
K ec
M ode
P ilot
V id
t w
re ich
ĠB avaria
ĠD anny
15 000000
ĠJ AN
olog ist
Ut ilities
Will is
Ly nd
gal act
Tech ie
Miche le
L VM
en stein
ic ycl
ĠM ol
ĠJ oint
form s
CT G
Ne o
Hy brid
Ġfri endly
ĠISLAND S
JM ST
Somer ville
Schen ectady
6 37
A u
C anc
ĠT riv
03 02
Ġ19 05
Ġ20 4
ons ored
LA X
ĠCo ffee
Bl ank
Ġpart y
Black sburg
eds oe
leg ro
Du ane
dis play
ĠByr d
9 27
H ons
P aint
t em
ĠP riority
ĠI qbal
Ġto ken
16 01
Ġl ibraries
ell ig
Ġ4 05
Ġ5 37
ass is
Ġ7 50
ĠCh ange
ĠPro perties
ove onyx
esc reen
ĠBel gium
Os aka
mat illa
Ġimplement ed
ĠDist ribution
Ġproble m
rupp en
Ġben ef
Vell oveonyx
Clats op
T HO
T omas
g res
s um
s ys
en ed
ĠT av
and e
Ġ19 19
Ġl imited
sh am
Al le
Ġst rain
Br enda
Ġtrans lated
PL OW
m ult
ĠC ARD
ĠM aid
ĠP f
Ġp ause
ĠW IL
Ġb its
ĠAm azon
Can ucks
Ġrel i
Ġrel ocating
Comm ittees
Ġselect ively
ĠTown send
xx xx
SKY WEST
Ġprepar ing
MUL ATIONS
Cypr us
gest artet
C ORD
K ol
ĠE rickson
em itting
ĠSh ar
Ġprov ince
AK I
Web site
Over rides
Dub uque
ELECT RON
ĠMull ins
Rut gers
CEUT ICAL
6 42
7 53
9 37
ĠA TV
ing a
Ġs ales
ac ers
ĠG ust
ĠO pt
Ġv iral
ĠST RUCT
Gl oves
bl ast
CY TK
read me
ĠMAR TIN
iston s
Ġkn ow
BRE A
Imp orts
NUT RA
ĠPED RO
D illon
T CU
al ore
ĠM Y
ĠB ot
ĠK OD
Ġ18 30
Th ai
ĠZ ero
Sc an
umm ers
Ġno ise
Ġlog ic
Ul timate
ĠGRE EN
D ortmund
F iji
Z I
d n
l ord
Ġ iron
at en
ĠS ki
ĠA PR
ĠB D
ĠB S
et ooth
ĠE yes
Ġh er
In complete
69 7
ĠVol unte
ĠAg ricultural
Ġother wise
MAR ION
ĠCharl ie
Over land
ĠDes ktop
ĠMotor cycle
Ġlead ing
W ally
ĠC ou
ĠP erc
ĠT CU
ĠR EL
ĠL U
Ġd ansk
Ch itt
ĠSp ec
Ag enda
ĠKey nes
9 59
I g
J ab
l os
x f
ĠC elt
ĠA U
ĠT Y
ĠF IL
ĠR ules
ĠO PT
ĠK won
og es
unn ers
enb ach
Ġposition s
ĠWal let
Dund ee
6 88
H EL
H astings
Ġ er
it en
ĠP HP
Ġp or
St roudsburg
Ġ16 0
SU R
AND A
ĠEl der
ĠTest ing
issa uga
ĠClay ton
Ġfix ing
Ġcompar ison
20588 78
M ama
p ir
at able
00 48
Ġs ink
ĠGl amorgan
ĠAR ROW
PN G
LAND S
407 1
ĠPO INT
ĠCorn ers
ĠLead er
Maur it
Ġill umin
Saug et
R amon
Ġs ecur
ĠL yn
Ġc overs
Ġ19 10
if th
Al v
AND ARD
BU ILD
Broad way
8 90
b unted
m is
ed two
it ers
ĠT ae
ch man
ĠSt er
Ġp ets
18 10
Ġv ideos
int rep
ĠMar co
GA P
ik h
ik en
ĠAv on
ĠWall a
Desc ribes
Ġqualif ier
U mar
U matilla
Ġ2 25
ĠP G
Ġt ank
18 20
Ġle ts
MN ENE
Ġact ual
ĠKY MNENE
Ġcharacter istics
Clar ence
ĠWel sh
NUT R
Ġnec rosis
intrep edtwo
9 14
G ron
M ez
S ession
V III
X I
ĠH ung
ac yl
Ġr ich
ĠCar lo
Ġwh ose
Comp ut
Em b
for c
Part icip
ynchron ous
Ġstat istics
90326 56
Rattle head
8 43
G ift
H ero
Y ifes
m ost
w ik
ĠC onfiguration
st at
ĠN ottingham
ĠH ir
02 12
ac in
Ġcomp ens
ĠAl am
ĠBro ck
And reas
Ġtrans d
Ġacc ommod
Ġtask s
Ġmit ochondrial
Abs olute
J enna
K iss
Z y
c ons
ch ang
ĠE LEMENT
Ġ19 04
Ġl arger
98 1
mit ochondrial
BUR GH
WE EN
oprotein ase
Fal con
Trust ed
Qub oid
J D
P oo
t ab
ĠS N
ĠC rown
ĠA w
ine e
ath a
Acc ount
Carl ton
Cat al
Com ments
ĠPeters en
Ġlock ing
Tex arkana
CEUT IC
9 43
g ruppen
ĠW itt
Ġc utting
og h
ik er
ĠGu ild
BA X
El ena
ĠOl ive
Ġperm issions
Kin ney
G inger
Z ack
k op
ĠC X
ĠF lynn
ĠG rad
PA D
MA IN
own a
ĠSh ot
Man iac
con ference
ĠRE PUBLIC
asc al
Super PAC
Ġcamp us
ortg age
unj abi
V iv
W sm
c rest
k r
ĠF iber
ĠL Y
ĠO P
Mar s
Ġ6 80
Sun n
Ġatt empt
val ue
GU ARD
Ġpat ient
Ġiss ued
ĠFLST N
cycl in
NUTRA CEUTIC
- (
7 39
A re
B fs
K em
Ġ ]
Ġ alk
er oc
in cludes
ĠS ud
Ġd at
he gan
ĠE C
ary n
ĠSh adow
ĠTr avis
HS AM
ĠBa ucus
Ġimpro ve
ĠWax man
6 21
O ce
l io
n umber
u o
ĠP U
ĠF ernandez
ri ft
ĠL t
Ġ4 09
ĠMon ey
UT SCHE
ĠHard y
ĠAg es
Ġconfigur able
Pal adin
ĠJim my
Hills boro
B ailey
H appy
c d
f our
m ens
z ek
Ġ arb
ĠB ath
ĠB UR
Ġ19 56
qu it
au h
53 05
Ġsh ell
Co in
Gu am
PRO CESS
ĠTurn pike
ĠDar by
Grund ig
ĠAlv arez
ĠAUT O
READ ME
coll agen
7 90
B ucky
C W
C ay
I UM
e ater
m ell
ĠS ach
ĠC ove
ĠM OR
ĠR V
Ġ19 03
og us
MI DT
To String
ĠSim s
ĠLi u
V as
V ald
th re
ĠD ew
Ġb inary
Ġ19 08
ev an
Ġr en
ish er
Col lin
ĠDO M
Mil ford
ĠOper a
Ġoff ice
Ġpower ed
LL B
BRA D
ĠBut te
903 9
ĠMatthew s
MICRO FILM
Ep iscop
42347 67
A FR
S EN
r ag
ĠA UG
ĠF eed
Ġc ou
ac ion
eg g
Ġ18 0
iss y
ong s
Bro omfield
Pr att
Tr inidad
SW RM
urg ery
akes pear
ĠPort folio
ĠLittle ton
Ġarrang ement
gt k
Supp lemental
ersc reen
9 58
G ust
R d
ĠF rost
Ġf ont
ĠD ER
Ġm olecular
In ver
Ph arm
77 38
ĠMin neapolis
Hay ward
Ġdi ode
Ġparticular ly
Len ovo
6 52
9 86
D if
S AS
v as
z one
es ia
Ġ1 333
ĠR atio
Ġn m
Ch ennai
erv a
itt ers
Ġim plant
ĠAss et
FOR MERLY
Ġpr ice
Beth any
Af ter
isp anic
Ġcert ificate
SYSTE MS
C row
T ransport
om ics
ĠB EN
ĠG amb
op he
cl ay
Ġde ath
Ġro b
Ev angel
lean or
stan bul
Aqu arium
Ġwid escreen
7 46
8 34
X B
Ġ ide
Ġ1 26
ĠM aj
il in
ĠD utch
ĠN PN
Ġin herited
ĠO X
US SI
Mon mouth
enn on
orn ado
An ime
CY P
Add ison
Ġdr ug
ĠGill ingham
LU X
Ġnit rogen
Perm ission
ESSE E
nom ah
7134 12
7 31
w as
ĠP IN
ĠT ester
Ġf aces
ĠR C
ĠD ESC
ass ociate
88 3
Comp iler
arg as
Tr ack
ĠDaniel s
41278 07
7 21
B omb
g ated
ĠM egan
Ġtrans ition
Specif y
urb ine
ĠPhil ipp
Lewis burg
Karl sruhe
Wend y
Mitt ens
B ody
T rev
m ount
n ames
s al
st ick
st ars
ch arg
ĠB aptist
Ġt or
ĠN un
ab o
ug r
Port age
Mont icello
Gu ad
HT S
WR ENCE
ĠMov ie
ĠSa unders
ĠTerm inal
K ES
L ETT
P iedmont
V B
on ice
ĠC afe
am ate
ĠN AG
ĠW aves
17 25
Ġm l
ĠK ast
ull s
Ġph ones
osh op
HT TP
Olymp us
Ġap plies
PAS ADENA
Ġfluor escence
Kuw ait
9 60
M alcolm
p erson
ĠC ER
Ġ19 28
ut a
St ep
ĠX eon
AK MS
Alb ion
ĠGreen wood
Ġcompr ession
Ġtr ench
ĠPar am
Ġenc aps
306 1
support ed
Param eter
ĠLines man
7 28
F OX
c ue
s up
z ak
ar ant
18 26
ap shot
ĠK emp
Ġ4 000
iz olde
An imal
Act iv
ĠSch we
uss en
And ers
Sam my
Ġactiv ation
Ġmetall oproteinase
B istro
C ycl
g roup
ĠF actor
02 28
Ġ19 12
ĠBl ank
DE F
ĠFull er
DA Q
ĠSw eden
Mah on
SIL ICON
Heb rew
C et
J al
b as
f un
t ub
ĠM ake
iss er
UR AL
inc k
apt ors
Bull s
Marc ia
ĠEr nest
ATT LE
ĠSant ana
GIS A
ĠKOD AK
8 18
M old
ĠC ities
ĠD oo
ĠL amp
ĠH ere
Ġw ood
Ġ5 19
San ford
ĠCar per
Ġ03 45
trans lated
Ros son
Ġelectric ity
Ġenh ancer
agin aw
ĠVaugh an
23174 06
6 59
c le
l as
st atic
ĠL F
ect in
ne z
Bel mont
Ġadd ing
Dom ains
Bre mer
tux onice
7 49
8 76
B our
L IM
P aso
W HA
b ak
d v
s uper
18 55
16 000
Ġl oss
Ġr andom
Pro gress
Ph erson
ĠSh awn
Ġpre m
ĠNetwork s
Ġdec rease
ĠPass ing
Ġob t
Screen shots
Ġcombust ion
thus iast
9 48
G ul
on ado
11 27
ĠB oat
ĠD awn
Ġp y
Ġp airs
ĠN igh
ĠW arwick
ĠL akers
Ġb o
ĠUn known
ĠSp elling
ham mer
ott a
ba o
Ġreg ular
Ġdevelop er
Im ages
Ġcap abilities
ĠWheel er
Ġprepar ation
Develop ment
7 59
8 19
R ice
20 25
Ch erokee
Ġpro tr
ĠIn let
Ġst atic
ĠAn im
ĠSh aring
Ġam ino
Rol and
Arc ata
Ml ove
Jew els
dh erman
ĠLiqu or
Bari entos
Episcop alian
5 41
9 22
B og
B erm
h olt
r era
11 30
ch aracter
Ġt ip
ur ine
ĠG os
ak is
ET RO
ĠAND REW
120 8
osit ol
Brazil ian
Ġi Pad
Log AC
ĠQue k
Hill Slope
905 1
tf m
Hosp itals
85924 03
Infinite Activity
Cany on
ĠP K
ĠW onder
03 04
ig i
AT S
Cl ovis
ane ers
Mult nomah
Out er
Ġdist al
Ġdel ta
$$ $$
ĠSup plies
Curve Class
Zero Activity
Ġlin ear
ĠEDUCA TI
Anglican ism
Episcopalian ism
P rim
T yr
b eat
g as
Ġ2 23
00 49
ĠT CP
ĠF al
ĠR asm
ĠN S
ĠO le
ĠPro xy
Is le
vis or
trans membrane
ĠAsh ley
isl ava
ATP ase
Ale jandro
sec ret
Seas ide
Bookmark ing
Ġsynthet ase
ĠM G
ur us
ĠN ev
ĠJ ak
ber ra
Ġ18 81
act in
UN ION
ĠST ORAGE
Ġun translated
GR AN
ĠSenator s
TE E
ĠAL L
ĠFire bug
ĠUs ed
ns bruck
Raj asthan
Prod ucer
ĠLars en
Ġcarcin ogens
F erry
ĠS ul
ub en
AL LE
Ad ministrative
ĠZ ie
Eng ine
Mc K
Ġapp ears
Haw k
ĠCon vert
ĠRh odes
ENN ESSEE
ĠCustom er
Sec ret
ĠBuff alo
ĠSecond ary
Kyr gyz
9 13
C od
N ar
el on
ĠD aw
15 95
AT IVE
Ġcont ribution
123 45
Ab out
High way
ĠGe o
pet e
hp iano
B oth
Z NF
m ay
r ud
ĠO AK
ĠK E
ef ord
OS S
back lit
Ġu pload
Em ery
Def ined
ĠREV ERS
Abbott abad
B urr
D ALLAS
F ix
I MP
N TT
P ercent
ĠT rim
ĠN ap
Ġm ight
ĠK id
Ġ18 90
Ex ec
DET A
Sk ill
mat ically
ĠOs borne
ĠAdd itional
ĠRub io
Ġclean ing
- "
8 31
9 21
R ab
S mo
Ġ alt
en son
ĠH eb
ĠE rik
Ġn ozz
37 000000
ĠRo ots
ĠSP EC
ĠHar old
QU ID
UK I
cel isk
VAN AG
wh ere
Ġrot or
Gil man
Ġser ine
ĠEss ential
ĠWi Fi
celisk ing
6 31
9 56
F ed
V it
t urn
on o
ent ed
Ġs pr
ĠG raph
od b
ĠK ur
Ġ7 00
ph en
enc ia
OK LAHOMA
Ed itor
let in
Ġph armaceutical
ape ake
vis ed
Ġcor rection
Bridg ewater
umbers ide
Musc ular
Stam ford
ĠREVERS ED
. ."
H wy
t om
es i
ĠC ycle
ĠM ine
ĠB ak
ist ical
ib i
Ġr ise
ĠMar ine
und a
HI BIT
ĠHe aven
Ġsign ature
Aik ido
B oom
E mer
F ent
T GM
t ie
ĠH amm
ig el
Ġ19 29
Fl a
ST RA
itch ener
ĠFran co
ico the
Ġreg istered
Ret ri
Sim ply
Just Visual
Nik ki
ĠBuch anan
Fig ure
C anceled
D id
11 33
ĠT ake
ĠR az
ĠL uk
ĠG AS
IL TON
ĠJohn s
oss ible
Ins ight
Rec alled
ĠSol ar
Bloom sburg
Ġcustom er
Ġtrip le
Kos umo
7 51
9 64
C urt
G us
V and
V ING
Y e
y ard
or in
ĠM om
ĠB ri
Ġf eas
ĠN R
Ġd iv
ĠV ermont
ell es
Ġh older
ĠCh apter
thor ne
Ġtrans l
Ġwe ather
NO X
Fair banks
Ġdesign ated
Hob oken
term inal
4235 02
9 66
ĠP omeroy
em ies
ĠO VER
Ġm ean
Ch ron
op eptidase
New town
TO M
ĠCo aches
La wn
ĠPlan et
sc omb
ĠDevelop er
ĠEv an
Gil ford
Local ity
ĠTit les
ĠConsult ing
Y B
d al
d ish
m osph
r uck
ĠS ayre
Ġs ave
17 09
ĠRo yer
act ing
OS A
air ed
ĠDr ag
Ġthere in
ĠPop ular
HART FORD
Pra irie
akespear e
K UMAR
al ex
ĠF letcher
Ġb rief
ac cess
IN C
ĠK eller
Ġ14 00
ĠAm eric
ĠMay o
ĠBr enda
Ġmin ors
Mel anie
Law ton
ĠAcc ounting
Dem ographics
Union dale
ĠGut ierrez
* "
V IA
h ail
l ab
u u
ad t
18 11
Ġv irus
MA PT
Ġpart ially
Ġindic ator
ĠPHARMA CEUTICAL
7 16
F idelity
P ART
s ulfur
ĠA AF
ĠL ex
ĠV ald
ant al
ĠY ar
ĠCh ambers
69 1
ĠQu ant
deb ug
ĠAs m
Ġdiffer ential
ĠTA IL
ĠWee ks
G erry
il iary
ĠD U
Ġb ud
03 33
ag i
ĠSc ript
Ġpayment s
ĠPRO DUCING
Ġres istant
Ġaccess ed
eh r
Fre eport
ĠLi eb
Ġref resh
ili ated
Catholic ism
ASC II
Ġcart ridge
3 260
B uch
C ull
w ild
ĠC onnection
Ġt unnel
ĠD awson
PA K
ĠSh ip
Port uguese
98 2
ert z
AD MS
Ġprogram matically
ĠHer zegovina
ĠEver y
ĠNich ols
F encing
H ttp
L atter
T ank
ĠS ugar
ed ra
as ons
10 17
Ġt raining
ĠD um
ĠN ation
Ġs alt
LIN TON
Ġman ip
434 378
ĠRussell ville
B ard
B ella
f all
ĠT emp
ĠF remantle
Ġp ad
Ġto gg
ĠV itter
Ġ19 06
ĠK ara
pl ates
ĠCar n
Ġ04 39
93 1797
la us
ĠCons umer
720 299
Tob y
Kil r
8655 85
RAC USE
7738 65
6 51
B LO
D resden
g el
s am
ĠC ly
ĠW ELLS
ĠH ole
ENT O
Ġex hib
ĠFran ks
Ġsc ores
ĠDel ta
ps il
Mun cie
ĠIr vine
Ġconst ant
ubl jana
Ġcaus es
Sha un
B IR
J asmine
ĠR ent
ĠH ass
ĠG rap
ĠG ibb
ĠO L
ig r
eb org
Ġw ickets
Ġm iddle
St ra
rom b
Col lect
Ġen forceable
Ġman ufact
Wind ham
Ġcap ital
Ġed it
Get Type
SV P
ĠAccess ories
ĠRequest ed
Wake field
Gard ner
ĠCommun ic
ĠOrd ers
ĠBachel ors
G ir
N ak
W i
Z R
c acher
at ial
at islava
th rop
ĠC ommunication
el n
ĠR ebecca
03 15
est a
Co os
Ġal ways
ĠAR M
asc ar
hyd ro
Ġequ ities
Kel owna
Ġcatal og
Strat ovol
50958 55
Ġlith ium
Stratovol cano
E CT
R ox
T IG
20 95
08 01
ĠE ND
Nov ice
Jun k
int una
99 1
ĠCl ine
Ġnear ly
ĠTom lin
ĠCre ate
Wild one
mt stud
Current ly
BIN SON
trust intuna
2090 20
R osa
S ou
V INE
j ean
le pool
ĠM iddlesbrough
07 500000
Ġb atch
um ann
Ġn ative
qu iet
Ġ18 80
RO SS
Ex c
ĠAnn ie
Ġconst ruct
ĠGreg or
rees boro
Ġtrack ing
DETA ILS
Ġfeas ible
. /
8 41
9 57
O w
al on
ĠB ound
ĠL D
ĠTh r
yl a
Gr ants
SW OM
OU GH
Sim pson
ĠHam mond
FE B
Ell iott
ĠHaz ard
Ġpul se
40949 98
6 19
F eat
J iv
L ETE
O A
P iano
s ans
ĠC apps
ĠP D
ĠH enzel
ag lia
Ġ3 65
ip oprotein
ob l
ĠU RI
MA ID
ĠPA CK
apol ipoprotein
Sl ight
Ġreport ing
Ros em
da q
Gro ve
ĠSIL ICON
Gron ingen
D ixon
G ram
h eld
k W
s heet
ĠT arget
ir chen
ĠUn limited
ST ONE
Ġex amine
South aven
Gr ays
illa ume
ĠHer bert
Ġfeed back
Gard iner
Kan ata
Yak ima
MILL ER
ĠFINAN CIAL
p ix
ch arl
ĠH ogan
02 24
ud ley
Fl oor
ull a
ĠZ hang
El aine
As ie
Mat ilda
Ġimp acts
ĠInst ructions
Extr acellular
ĠKENN ETH
D ynam
F ound
ic i
ĠP enny
Ġf ully
ĠK os
ib ly
tt a
ĠZ e
RI X
Nor a
ceed ed
Form at
ĠJim enez
BJ RI
trip le
G raduate
w anted
ĠSt rip
ag ne
24 00
der ived
Port er
Ġdifferent iation
Brad y
ĠMil k
Main line
ĠIP v
8 49
C umm
d mat
ar ella
ĠP ena
ĠL emon
ĠE conomy
pr essions
Ġg rad
ime k
Ġad vert
Win chester
ĠHaw ley
GPL v
ĠCumm ings
organ ic
JE CT
ĠEth ernet
ENI OR
. (
8 46
J ob
M SI
S urf
ĠC er
ĠN epomuk
ĠV ers
Ch or
op ens
sh ock
IS A
oy e
ĠJan et
AB E
Ġcl ause
Ġup stream
FA Y
ĠRock ford
Camb odia
Bry ce
ĠME M
SCH MIDT
HIST ORY
Stras bourg
ogd oches
! )
B ury
G ol
N eal
c ool
ot on
ul um
Ġ4 06
Ġ5 07
Ġ6 50
Ġpro cedures
Ġex ist
HO ST
arg ets
Ġinst ruction
bl og
ĠCap itals
Mer edith
Word press
WRIGHT WOOD
Lobby ists
3 295
G ate
Y on
ĠN AT
ĠN az
02 99
Ch and
Ch ambers
Fl ames
ĠRoad s
ĠAl to
Ġcl ick
Pol icy
ĠCont aminant
ĠRel ocate
Fac ilities
ĠFle ming
Ark adelphia
Dra ugr
8 77
E arth
H unt
g ew
t it
at ures
is en
Ġb d
18 01
Ġ19 07
ton s
SI MULATIONS
Al icia
Ġ2009 06
Ġall ocation
ĠAct or
157 02
Ġident ifies
Oil ers
Element ary
Gonz aga
idal go
ĠJEFF REY
8 39
8 72
K id
O rog
ĠA ce
ĠF ED
ĠF edora
Ġp owder
Ġc arry
ER IC
LA W
ST OWN
Christ ie
Ġdisplay ing
Ġlog ical
Ġglyc oprotein
Chill icothe
ĠBanc orp
Particip ants
Ġarb it
j en
on line
Ġ2 44
ER Y
CH ARL
Ġg rid
Mich el
Full erton
ĠSch ultz
ĠAct ress
Little ton
Clark son
312 113
ĠFLST F
Tun es
ĠChem ical
SPR ING
Til burg
Jiv aro
Orog ogus
H enn
V ert
at idae
ed ict
ĠP enguins
and in
ri ot
ĠH agan
est y
Ġn av
St acey
PA CE
Ġ20 6
ĠUp ton
ĠSol o
ification s
311 113
ĠPress ure
Ġsk ills
ĠFa ith
Array TestCase
Maniac s
L ike
M ets
g ard
k ris
ĠM ets
ĠD EC
em iah
AL S
ĠPro b
ivers ary
Ġal arm
ĠWh ites
FA CE
ĠMart y
ĠAt kinson
309 113
ais er
303 113
303 420
ĠCONTRO LL
ĠHOS PITAL
ĠMcInt yre
9 34
G loria
H omer
L ay
R ex
R out
Ġ arc
ĠN ak
Ġs al
all for
rou ble
Cl ermont
yl on
yl ind
Comp any
ĠFOR MING
SY R
uy en
Sa eed
mat rix
ĠAv iation
HU MAN
Est ado
ĠLo an
COMP UTER
ĠMCL s
ĠMCL Gs
allfor games
9 013
K re
M alta
O wen
c b
p ers
an u
ar z
ct on
ĠT rap
ol ated
ĠR ab
ĠK on
Ġ9 05
ure ka
au ch
ook s
ade on
302 113
Cal vin
Ġrem aining
Ġincre ased
ĠId aho
ĠShep herd
ĠHEN RY
Ġpurch ased
8 38
C aitlin
D riv
D iss
F ailed
d in
v ic
ĠA spar
12 15
ĠB od
ĠB atch
ĠR id
ra j
Mon ica
El ijah
oin ter
Web er
sc ill
Ġkey board
ĠIss ues
2 200
7 44
C ec
G ian
W IND
om atic
ab ot
ĠK awasaki
TER Y
Al ly
ara i
Green wood
Ġind uced
ĠLow e
Rem astered
ĠFri ends
iti ated
3011 13
Shah id
Ġimmun oglobulin
D rex
L uk
R PL
S ummary
ĠP es
ol en
Ġp ush
ĠK ot
ber gh
St ark
Ġformat s
Co ff
Or Obit
Ġrec ip
Ġrec ept
All iance
amm ed
Ġdist ributed
Trans action
OrObit V
f ri
p rod
r and
r ug
en an
Ġf etch
Ġc onductor
Ġm oney
Ġcomp letion
eng ine
Krist ina
Aj ax
ĠBud get
Ġinject ion
ĠSCI ENTIFIC
7 42
? ]
D LE
D oy
F antasy
b u
en able
ĠM ous
ĠP lease
st reet
ĠR AP
Ġp o
ĠH ugh
ĠG AR
ĠG TP
Sh ows
NE P
ĠMA GN
125 00000
MAR TIN
ĠRock s
ĠCal vert
ĠBen son
Sol o
ounc ement
Ball park
ĠCong ress
ĠPOL Y
ĠSchw artz
H it
H ALL
M achine
h om
o ine
Ġw iring
NA P
we in
ĠHar ley
Ġmin i
ĠIm ages
Ġhor izontal
ĠKN OWN
9 44
W ES
l uor
an j
Ġth us
Ġs ort
Ġd ivid
ĠG ig
Mar lins
if old
ak ov
iz ards
Cl ose
ĠCA D
ĠBro omfield
SA H
Bar nes
CAL M
Jer ome
Special ty
Ġstr ong
ĠGer ald
1064 30
Light ning
ĠPi erson
ĠBuff a
Meg han
Hash Code
Ġblank ing
1060 10
M GM
f on
ĠS end
ĠA x
ĠM ost
ĠM ile
ri en
ĠCol in
107 250
107 140
107 130
QU A
Conn ection
1064 20
1064 10
1074 20
1074 10
1074 30
1071 20
1071 10
Ġfail ure
Roch dale
9 31
B earing
B ORO
G rad
T m
r at
er ne
ing ers
Ġs idew
13 13
ag han
Ġm g
Ġn ick
uk cc
Ann ounced
Mid west
MER MAID
ĠContest ers
ĠVis ual
Ġadhes ive
B axter
L em
Q A
S HE
T ucker
Z amb
b ient
in ery
ed ish
ul ations
ĠH ab
ĠE arly
Ġg raphics
Col leges
An ita
ĠIs rael
aj an
ĠFl ood
Pan el
Sub urban
ĠBel le
ker atin
303 2
Set lock
ĠEas ton
Ġimpro v
ĠHAR OLD
sim on
ĠMOB ILE
1087 40
+ ,
9 32
C ul
M sy
P oll
V ladimir
c ommunity
d l
h in
k w
r ite
Ġ1 21
10 54
um ps
EL LA
ult aneous
ib ro
UC I
inn ers
lo th
ĠX avier
TA GE
Bar n
ĠSand ra
Bang kok
Ġlocal ized
ĠSur vey
ĠLev ine
ĠAle jandro
Jud ith
8 86
G olf
H ispanic
K IT
ĠR ech
ĠD ol
ge e
ille y
34 000000
ĠTh ird
In putStream
ET S
IS HER
by st
ĠBe h
Ġsh ip
Co enzyme
ĠHe avy
VAN GUARD
ĠHel en
Ġthey re
ĠCED ILLA
N oel
P OWER
T OL
g rowth
ĠS we
10 04
ĠP resents
ĠT aft
Ġf ishing
Ġin vol
ĠV IDEO
ĠCl ose
als k
AB SOLUTE
Ast er
104 101
Lar edo
Ly rics
Ġhyd rogen
Brun swick
HOW TO
C IA
L K
U RO
g ett
ĠSt eam
MO UTH
Cl ara
yl ie
aper ville
Ed dy
ĠIs lam
ven ile
yle eg
ĠMat hew
Ġresult ing
ĠRos ario
mart yleeg
raul ic
Rand olph
Buck ley
Mang l
Hab ib
block ed
6 49
F uj
m ajor
r ates
Ġ ult
ar ie
11 23
ĠB LOCK
ĠR aiders
Ġs ole
ver y
que ous
ict ures
Dod gers
pres ent
SER P
ĠFLH X
Ġinstit ution
ĠWAY NE
SELECT IVE
D ID
G reek
K or
W iki
z on
ĠA LEX
ĠM ission
11 12
ĠR U
ĠE uro
Ġw ave
Ġ18 85
Ġr ates
Ġ26 0
ĠSh aft
ĠMc Gu
Ġsc ale
Ġal ignment
Ġdis pens
Ġcom es
Scott ish
Pres cott
Ġview ing
DEP ART
Ġpurp ose
gup fer
Ġappropri ate
G avin
S ega
Ġ ir
in ositol
02 27
AS A
Ġ18 99
Al f
Ġex ists
Ġ03 85
Co al
Ġrec ombinant
def ined
Frank ie
SG T
ĠTechn ician
Brad enton
pect ive
ĠAT P
Rev erse
Ġstruct ural
ĠCab rera
Queens land
Ġut ility
Gates head
G ES
M au
P CI
d at
v n
ĠM SCI
12 31
ĠD N
ĠD ana
Ġan atomy
arb oxyl
ĠComp anies
ĠProject s
ĠBall ard
Ġcircuit ry
604 1
mok o
Ġseal ing
Brun o
8 71
9 68
D raw
t c
ĠS ears
ĠM yst
ch eck
Ġb arrier
Ġd atas
Sp ac
In c
anc ies
ĠMar r
ey ton
Bl ip
ĠAN TON
En thusiast
ros c
ĠFl ow
ĠSpr ay
onz o
ĠCor al
web master
ĠFLHT CU
wat kins
ITZER LAND
Fent ress
C ir
F ocus
b watkins
Ġd ated
ĠV S
50 11
oo ch
IM ARC
de on
COL N
Ġreg istration
ij k
Ġman age
ĠEll ison
ĠLoc alytics
A OS
D KFZ
O CT
R HMS
b read
201 9
ĠT BA
ad z
iv ar
Ġw bk
Ġre hab
Bl uff
Sc i
Pa ige
__ _
ĠExt ended
Vis alia
904 5
Ġdraw er
Publ ications
6 000
B attery
J APAN
S ebast
W ILL
e o
er ing
ĠF RED
ĠR as
Ġp et
Ġc assette
art en
Final ist
HO ME
ĠMc El
Ġprotein ase
PL US
ĠOl ga
avel ength
ĠPL US
H ui
L ie
M oline
O ro
P red
l is
Ġ arr
ĠC i
ĠR amon
ĠD iane
ĠH atch
03 12
ĠG rey
Ġm ins
ĠV ictory
IN WM
Th ousand
Ġis olation
ĠCh arter
ox in
ĠCl ips
ĠSh a
Fr isco
De ed
ĠCont r
ather ing
vis ible
Inter motor
ĠDaniel le
ĠExp ansion
Ġinsert ed
RAND A
8 37
F DJ
L ut
N om
P ilton
W orth
b p
c ohol
f ran
ĠS isters
ed itor
ĠD im
Ġp ot
Ġp ieces
id ine
ĠSh o
ĠZ rich
ĠEd win
SA INT
Ġradi ation
Ġthread s
ĠWOR LD
Scud eria
9 62
9 88
J uda
P OU
g uy
ĠA X
ĠSt ill
ĠW ong
ĠH ancock
02 73
18 07
im ed
ell ie
aw i
Ġact ually
ĠBar ber
urt le
ĠGold man
vers ions
BUR N
Ġposition ing
MER Y
Tele vision
ĠInst ant
ĠFUND ING
ĠWIS CONSIN
F IL
p end
Ġ earl
it ol
Ġs ides
ĠW ien
Ġc ast
ĠJ orge
Ġ18 82
38 750000
red ited
NE XT
Ġch ains
Rel ative
rie u
Ab raham
Out dated
Sas cha
H AT
M embers
T ina
s ession
ĠF eature
CA NA
FR ANK
ĠCol leg
El i
Ġdetermin ation
Fred die
ĠMont e
Scar leg
ĠComb o
ĠCIRCU IT
D ING
G ap
M errill
W ies
s ilver
v ation
ĠS eed
ic ons
ĠSt ones
01 66
Ġg ap
ĠTh om
Ġcomp let
ĠSh ock
Shel ly
Ġim m
Ġen abling
Con verts
Si ena
ĠSER IAL
KN IGHT
Tun isia
2 2000
B oyd
D SA
L BM
c amp
h off
ĠS UN
ĠT ON
ĠF reedom
Ġf er
Ġf ar
Ġs ugg
ĠI van
Ġd iameter
ĠJ ur
yn ski
ĠSch ol
Ġal ias
ĠQ t
VER Y
la ughter
By te
rox yl
quis ition
Kon ami
Chap man
8 79
M urf
S BM
S aginaw
b reak
g ado
ur ry
ĠJ enna
Sp ark
ING HAM
ox ic
SU RE
Pol ish
Be ach
ero on
Ang ola
906 1
Electric ity
Rand all
ĠTrail er
Kenn edy
ĠMu eller
Kara oke
5305 925
B ears
P oc
P ike
R EST
g ol
h idden
al is
ol lo
Ġp iano
26 500
Ġ19 11
St rik
ix ie
Ġch ance
RA PH
ELL ER
ĠReg ina
ĠCons ole
List ener
Wy k
ĠMax well
ĠFac ulty
Ġexecut ing
ĠDesc ription
8 74
E ff
F SU
K ap
W ick
j un
l owski
Ġf arm
ĠD ial
18 24
ile en
ĠAr royo
ject ion
ester day
ĠMc L
ets k
En able
En ahs
ĠLe ave
Ġj oint
Sl ippy
ĠShe a
ĠReg ister
ĠHer itage
ĠSteven age
GREEN WOOD
Kilr athi
Juda ism
D ee
T oys
r acellular
ĠT ara
Ġ( )
ĠH ann
CA Y
eg in
ĠFL HR
af ter
Ġres ist
All ows
Mad hya
Max ine
ĠLaw son
ĠGe off
ĠGill es
iak os
ĠFitz patrick
ĠCapt ure
Kilrathi Ace
L ength
T ill
T ran
20 43
it able
ĠB icycle
ĠL ib
Ġa ward
Ġb earing
ĠH Y
ER ING
ĠK OREA
Ġ15 4
qu otes
erv es
Ġres pond
ĠBank ing
SY RACUSE
RY AN
Sim s
BUR BANK
ĠELECT RO
Ġeng aging
Ġbr acket
Organ ization
Ġpercent age
reh ensive
Sunn yside
9 77
I stanbul
L iam
N IC
m ood
est own
ĠSun s
Ġcomp lement
ari us
ĠAM ER
Ġpart ial
ĠHe ather
eh icles
Clar ke
Ext ended
FAIR FIELD
rub y
INDI AN
ĠCoch ran
DEPART ED
9 23
B HAI
R NS
] [
or ch
ol ence
ĠR T
Ġp ivot
ĠH EW
23 24
Ġn ights
CH RIST
ibr and
ĠUp state
Intern ship
ribut ing
ĠGener ator
E sch
F REE
K ind
P uppy
S US
k ha
as z
ĠM ORGAN
ĠH utch
18 42
ĠO h
err itt
Be ast
ĠRO Y
aver icks
Ġconc urrent
Lov eland
ĠLABOR ATOR
Ġearl ier
L s
P iper
d av
ĠA sp
ĠM ae
pr a
ĠO mar
eb acker
od or
ĠCol ony
ĠPRO TE
Test ing
CIT ICORP
ĠInhib itors
I gn
b oys
ĠS ENIOR
ĠM eh
am ino
11 24
ĠF arr
ĠB axter
Ġs u
Ġd ynam
ĠCar leton
ins ulin
Sc arborough
BA CK
Bro w
OP HER
OW EL
Ġend urance
alm ie
TR ON
ĠOl sen
Ġsol vent
Cap itals
Mag gie
TRA VEL
ĠLight ning
Ġcalc ulated
BLA CK
cken ridge
B ed
I pswich
N ina
P omp
ĠH orton
os ide
ub ishi
ee th
ĠSh ane
ĠSh oot
ĠSA CHS
RA P
89 4
ues thouse
Med ina
ĠMov ement
izz ard
Print ing
Ġadjust ment
Ġteam s
ĠAltern ator
21598 38
ĠLABORATOR IES
B V
B oys
F ram
S gt
is econds
ĠT ill
ĠSt ead
ĠR S
Ġ( ?
ĠN SW
ĠH it
ag reb
Ġw afer
Ġh y
qu almie
ĠIn ventory
Am ity
ans wer
Ġcl amp
Tor i
ĠServ ers
ĠSpecial Kids
ween ey
ĠSub missions
Ġcorrespond s
Ġther apeutic
ĠLeg end
hel p
Inhib itor
Harrison burg
G rim
O yster
V Y
n amed
Ġ ec
ed ral
ĠC rist
Ġs itu
CA BELL
AT LAN
MI RANDA
Cl oture
arl ow
Ar my
ik al
Bl air
ĠReg io
309 3
Work s
ĠProgram s
Ġindic ate
Ġdes ktop
Ġap plicable
Neil sen
ĠCert ified
Dav ies
KIN SON
EVER LY
Cet acea
byst ander
8 44
W igan
is ius
10 05
10 09
ro at
ĠF ellow
ri ger
03 06
Ġ19 02
ĠK i
Ġmod els
Ġselect ing
ĠKn ox
ĠAv atar
ĠGRO VE
Dow ntown
Kirst en
Ġ201003 17
Murf reesboro
9 69
B US
B SC
C IR
ĠC and
ĠC ory
11 29
et al
im ar
ĠV irgin
op ee
AT ON
arl ing
tt ps
Ġtrans ient
Ġreg ulator
String Writer
ĠNOT ES
Ġconc ern
ĠDesign er
ĠBeck er
olid ated
Phill ies
Ġtrad uc
Ġtrust s
9 76
B UL
D awson
J S
J ohan
P atterson
y ch
ĠM atch
Ġin cl
ly can
ĠTh une
ST EV
ile e
Ġass ign
ĠCont inu
ĠRom ero
cap ital
Temp orary
5 031
M MO
P aper
T ang
d p
r r
s aw
ĠD j
ĠL oop
ĠI X
ac ity
ĠG OLD
ĠG ARY
Ġ19 22
Ch an
pl es
Col umn
Ġag reements
Pro spect
UR R
ied er
ĠTor o
ĠLor i
ĠNash ville
ĠWhe at
2 152
ĠM oor
st rike
ĠL ark
ĠL oof
03 24
ag ent
us ers
end orf
ob uchar
sh er
MI DA
RA CE
ĠMO D
Ġ201 009
ĠGeor g
ĠPAT RICK
Ġcharacter istic
Rub en
isia e
H ew
L IGHT
P earl
c ss
20 53
Ġ1 31
ĠC otton
ic ast
ĠM az
ad rian
ol fo
ĠJ C
ĠE ye
im eter
ES CALE
ass er
CO H
Ġch ronic
Ġam in
ĠZ h
Ġe fficient
ĠQ ML
ĠCOL LEGE
Get HashCode
Ġprof iles
Cas per
Lynch burg
Sno qualmie
9 54
I H
T anya
z ing
20 92
ec ast
ev isiae
ĠIn jector
Se ason
Ġfl at
stit utions
ĠBook s
ĠDon ovan
Ġcr itical
Ġbank ing
B CL
O GA
O VER
P ric
S uffolk
g ill
ĠA US
ĠF ans
Ġm ag
Ġy outh
Th read
WI CH
TH ER
CB B
rev ard
shall er
uthent ication
Det ective
QUE ENS
Evangel ical
G X
R ICE
ĠS usp
el ph
12 23
ĠH ent
ec ai
Ġpro per
ĠCl inic
onn ell
ĠSch olarship
Sal inas
Del aney
azz o
istor ic
ĠWill ie
ĠDun lop
ĠLind bergh
ĠTob acco
fe iffer
Ġdise ases
Tw ins
Ġfavor ites
jud ice
A Q
M ia
r av
ic key
10 03
ad ar
ĠH umberside
ĠG an
Ġm ut
AL M
aw alpur
cl aw
De k
Greg or
Ġoption ally
Wall a
HB SC
MEN DE
Ġdeg ree
ĠMiner als
ĠEdmund s
Zy X
F TR
b rik
ĠL AR
Ġb rown
24 86
est amp
ak k
In nsbruck
Ġst eel
fer ences
ruct ures
Pitts burg
HER LANDS
Ġswitch es
ĠUN IT
Valid ating
ĠAPPL ICATION
brik tal
W are
b oat
ar at
Ġf ine
ĠH anna
ĠJ olla
Ġin fl
nd icate
op lin
ks ville
North field
Ġle ct
Ar row
ĠBe auty
Can terbury
Fr agment
Val erie
BM W
DU LE
Ham den
asc ular
Sho aib
ĠBow man
Pack ard
Round Trip
INTE GER
H ack
M ai
v ious
ĠF t
ab ar
ip od
Gl ad
ave z
Ġpart ner
ĠAlb any
ĠRub y
ĠKl obuchar
Pack age
ĠRu iz
Unmar shaller
" =
C rist
P oz
R aul
ĠW ave
18 19
ain ter
cl a
Ġch rom
ĠTele conference
ĠCent ennial
UP UN
ĠRoll ins
Nas daq
L ots
s il
Ġ2 16
it ator
ch ure
Ġp icture
Ġo pens
ĠN L
ĠN agar
03 01
ĠG C
ĠG rams
ĠV og
ER OX
28 00
ĠK un
Ġ17 5
omb s
SD C
Ġcl ade
Int eg
sc reen
Ġbook marks
oxy gen
Ġcal endar
Prem ium
Vander bilt
H amp
L uz
Z rich
f alse
g anda
m eth
ĠC DC
ĠP all
Ġ17 0
35 00
ens ing
ĠPro ceed
ĠAll ison
No ah
Ġoper ational
rec ord
Invest or
D um
D ose
G y
T Z
d x
p ing
r atch
12 21
ĠB enton
04 10
ĠL ights
ear ney
Ġre v
ob ar
Ġan ion
ST AT
Ġass ignment
UN TAIN
ĠJul ian
OK C
ĠDe utsch
MT B
MIT TING
Ġgu idance
avar ro
ĠMun icipal
ipl om
ĠNik ki
Ġtox ic
30466 35
Norweg ian
ĠNottingham shire
ĠHEW LETT
9 72
A ff
D au
H V
J oh
L t
L ill
T EC
c n
l m
o il
Ġf ish
SI DE
ĠCl iff
ux iliary
Ġtest RoundTrip
ĠDisc ontinued
bar ra
ĠtestXMLToObjectFrom InputStream
Sher wood
Ġactu ator
Ches apeake
answer ed
UPUN KT
9 19
B one
s qu
as min
ĠR ome
ĠL ot
Ġd ivision
ĠG REG
ĠJ ab
ĠV ari
Th ur
Br ing
DE VANAG
TH Y
ĠBer ger
ĠConc ert
Att ack
ĠWild ner
ĠElement s
Fer ndale
ĠtestObjectToXML StringWriter
Shak opee
psil anti
Unmarshaller Handler
DEVANAG ARI
N urs
l n
w d
ĠT WO
ĠW alf
ĠH OW
Ġ3 05
Sh im
ĠCl air
Ġtest UnmarshallerHandler
Ass ay
ms ford
DI V
ĠBer keley
ĠOpen moko
ĠtestObjectTo Content
ĠtestXMLToObjectFrom URL
ĠGU I
ĠtestXMLToObjectFromXMLStreamReader Ex
ĠtestObjectToXML Document
ASCII Encoding
ĠtestObjectToContent Handler
I vy
S th
c ro
ar ate
CH INA
ID ER
ĠZ immerman
Ġsp aced
En umer
eph al
uch i
Nor walk
Ġtest Validating
ĠFX DWG
ĠHel ena
ĠtestObjectTo XMLEvent
Ġactiv ated
Nob le
ĠWa its
plug in
Robinson ville
rizz lies
ĠtestObjectToOutputStream ASCIIEncoding
ĠtestObjectToXMLStreamWriter Record
43567 47
icycl es
ĠtestValidating Marshal
ĠtestObjectToXMLEvent Writer
B ach
G ross
N aperville
P owder
c f
ay ing
Ġ2 11
00 47
ĠP ir
ch arter
ĠF RON
Ġc ylind
ĠH ess
ĠG ates
Ġv essel
EL AND
CO X
ind ucible
Ġform att
Ġacc ur
Em il
ĠCourt ney
Cop y
Cro wn
Ġinstall er
ĠFo ley
BLA UPUNKT
Ġcer evisiae
ĠCamb ridge
D uss
G uesthouse
K itchener
O wens
j er
is i
ĠM orton
Ġt emporary
ĠD ept
im ax
Ġh ybrid
ins k
ALL EN
CD s
ĠRock ets
DEL AWARE
ĠClean er
Ġemploy ees
Berm uda
B ally
F alk
G PR
h of
w ol
Ġ ing
Ġc ursor
ĠJ U
ĠJ ared
ĠE g
Ġ18 77
Ġg old
ĠPl ants
co okie
Sw ift
Ġspecif ication
110 2
Res erved
app le
LAN G
Ġext ra
304 3
Ġits elf
Nottingham shire
avian flu
C LA
C DC
E GER
M ul
ĠT ex
ent y
02 53
ov anni
ĠO G
ĠK ov
Ġun s
TH EW
Ġsc ope
aj o
ĠAb out
ENS OR
ential ly
ĠMont ana
Van essa
MICRO SOFT
Ġtransm embrane
N ucle
c atcher
ĠS AR
ĠG PS
ew a
Ġm orning
ell ers
Ġby te
NC I
Jan ice
ĠU NS
ĠSch ul
ĠServ ants
rough t
PG T
ĠRock ies
Ġ201 005
ĠDep ot
ĠGood man
ĠSn owe
Ġdown stream
ĠCAS UAL
R ud
ĠS ig
re ement
ĠP sych
st ore
ĠL ap
ow l
ual a
yl idae
ĠPh D
ĠWh oles
mp eg
Ast eroid
Richard son
304 6
ĠGood win
Sy ria
Ġmill iseconds
916 266
Wheel ing
Mot own
Mord ecai
D ALE
F rost
N ed
V il
W is
Y AM
k esha
ĠS utton
ĠA val
ĠH eal
os ki
ĠE ld
ĠV oy
AL O
ass i
Car ly
Or leans
TA C
uk h
fr zr
Ġsim ultaneous
Mod ule
Ġequ ity
ubb ard
ĠCL UB
ĠFinancial s
rup al
ĠJess ica
ĠSUPP ORT
ĠGirard eau
bak alsk
J ERS
W F
in ental
in cluding
al aj
10 02
00 45
ĠF ruit
ĠB G
ĠB ingo
em ized
ĠV ie
ĠK ost
Ġ5 108
EL Y
ĠCo oke
Le ague
ĠOut door
ĠGe of
hol z
unit emized
Hur ricanes
Ġleuk emia
C SC
E quipment
H SL
Y a
05 10
ul ia
ain a
ĠCh an
ok ed
ĠAd ministrative
ĠPl zen
ID ENT
Ġad a
ĠQu arter
ident s
ĠMer chant
Philip pe
Plug in
Ġsat isf
ĠDESC ENDER
B OT
F ET
M ist
M US
Z ro
r k
z ad
Ġ ??
Ġ orders
at ts
en ic
11 17
ĠT ing
ĠF RANCE
ill i
ust ain
Al ma
Mon cton
ĠBl air
Brook ings
Alb um
ĠBen ef
Arm enia
Ġconsum ed
ĠDIG IT
ĠMEM ORY
7 64
E ureka
L ion
L ub
S ort
b ind
ĠM ans
ĠT C
ĠD etroit
ĠW ein
Ġd ry
ĠE H
Un answered
land ford
Ġle ague
und o
And r
IM ED
110 7
FA C
DA VID
With out
EE P
FI U
ĠMed ium
ĠBrew ers
Leg end
YD RO
Ing lewood
Ġcommun ic
gres ql
B rain
K M
K OL
d eg
in hib
ĠC rop
10 16
ĠR an
ĠR adeon
Ġth ru
ult s
cl ient
Ġ25 00
ĠAd just
eng a
Sch u
ĠMeas ured
Ġconsum ption
di agonal
3305 627
Ġcle ar
Household s
ZAN USSI
Canc un
% ]
B att
E ag
L un
L ook
or ra
ĠS ql
00 05
Ġp ull
18 38
os al
ew s
ast al
atch ie
She ila
ĠRo ar
Ġad opted
lo e
Ġfr agment
DEPEND S
Sb Zro
F actory
P etro
V G
b ean
t ry
u id
ĠS ING
ay la
ĠP LAN
ĠL ength
um l
ĠE ck
New berry
uc key
eng ers
Ġsc ore
OP Q
Wh ere
ĠCH AR
Don ovan
ĠMix er
Ġboard s
iri am
Ġdeploy ment
WIL SON
ĠCLOS E
Ġbud get
ĠGeof encing
S mart
T AS
T ara
d ead
f inger
k inase
y y
10 42
ing one
ĠSt ep
Ġs uff
Ġd im
ok ia
San kt
Ġe fficiency
Ġen cl
ĠBas in
214 2029
ĠHay nes
Ġrot ating
ĠCre ative
COR ADR
ĠMOT OR
bel um
D ob
K ANSAS
R J
g ame
r ac
ĠC ris
et rap
Ġo wner
ĠV ision
ath away
AND S
Ġ[ %]
ĠAL AM
Mark us
ĠAnn iversary
ĠConn olly
ĠCur ry
Ġarch ive
Emp oria
9 52
H eld
S ED
10 65
03 07
ĠG oss
22 25
Ch atham
ens in
Green field
Comm and
ĠSw itzerland
Uni que
Ġcirc uits
Ġcamp s
025 222
Ġax ial
Honey bee
ĠWalf ish
5 0000000
A udi
B rig
P unjab
R ough
d ancer
ĠS eason
un ton
ĠO wn
AS P
PAT C
erg ic
ĠCamp site
Ab u
ours es
rif le
ĠMcC orm
ĠGill ibrand
Ġsepar ation
Ġlearn ing
Mem oria
NORD MENDE
ĠCIT IBANK
Mits ubishi
C oy
S ib
b ling
c g
l im
20 82
10 06
ĠP rison
ĠR at
ĠD as
os en
EN IX
Ġst udio
ĠCl erk
95 000000
ĠCo al
Ġ03 99
Aust ralian
PH X
Ġcomm it
Cons umer
ĠPol and
Inter mediate
ĠCal gary
Log in
ĠDem and
ĠCush man
ĠSter ling
ĠAmeric ans
ĠCASUAL TY
8 78
H ex
L OR
P end
T ango
ĠC ann
00 46
ĠB arker
Ġf loating
04 03
ĠH esse
ĠG ri
ĠG SE
St and
Ch arg
SI G
ark hand
RO BINSON
Ġex act
HI RO
ELL Y
yr in
ez ingone
Ab by
ĠRod gers
Spl it
Ġarch itecture
Ġcontinu ing
Seven th
2 112
d yn
ĠM ega
11 26
Ġf ta
ĠD ough
02 17
Ġin verter
Ġm ale
Ch ampionship
ph in
Ġwh ole
ĠAm sterdam
ĠCO MM
ĠASSIGN EE
BA K
PL AN
eel ong
He ath
509 279
Beth esda
218 299
ĠCL AR
ĠSav annah
513 376
glut athione
Ġcaus ed
farm ing
8 73
G ond
L ad
f ica
ar est
ĠD ee
Ġp rivile
Ġs ilver
ĠL ie
ĠO IL
end ez
ef ined
ano id
GO ST
och um
ĠAtt ribute
miss kitty
Ġcoll agen
Deutsch e
QM JHL
. ),
M ut
M ORE
P atty
h un
y on
ĠP ayment
ĠP ines
ĠP rime
ĠF RE
ĠSt arr
ĠH af
Ġr untime
int age
Can al
Real ity
Ġcompr essed
Cam eroon
Ġpolic ies
ĠEcon omic
Meas ure
8 42
H ein
J ayne
O E
n n
r g
ĠC ody
ĠC ELL
ĠA MP
ĠP ayments
ĠW arrior
ĠE PA
Ġg ain
aw ai
ole te
Ġind ucible
Ġz inc
Bay side
Gran by
Ess ential
GP Y
903 2
ribut or
Nac ogdoches
Ġfib ers
Tiff any
Dw ight
Ġgloss y
ĠS ang
al ine
ĠP am
ec ke
ĠG ould
ES SION
pl ifier
ĠAm ity
ĠBl azers
Le esburg
OP RO
Ġcons umer
ĠEas y
ĠTru th
ĠPublish ing
ĠPul ley
Ġaud ience
B edn
F umble
J IT
M ARI
P leas
R SC
Y uma
m ain
t iger
Ġ ol
ĠC ape
ĠT reatment
ĠF ed
ĠB rod
ĠE clipse
est ion
Ġ3 60
St ay
Ġ9 45
sh aped
Al pine
act ors
Open Source
ĠMc Connell
lin ed
SA Y
For ever
ĠDoc s
Reg gie
ĠJon o
ali ers
Mann heim
calc ium
Retri eves
B oot
F ra
W idgets
b enh
ĠC uba
ic ot
10 07
Ġt ennis
ĠW elt
18 12
Ġm uscle
Ġ15 6
Ex press
En ergy
Sen egal
Ma ureen
eed ee
Red ding
Ġdevelop ing
PP ER
ĠFr aser
trans cription
Sol omon
ĠLind say
don ald
Di ego
rous dale
Allow ed
Bir ch
3 247
G ina
K ern
p rom
t re
ro ot
ĠF ILM
ir y
Ġl amin
ain wright
AZ AR
LIN N
ĠQ B
ĠRed line
ĠBrook field
Er nie
Ġhead ers
Ġcond uit
ĠWr iting
Ġinv olved
Ġdeploy ed
Joy ce
OLE AN
B AD
c adherin
p orts
v p
ĠS QU
Ġ1 33
ou jo
ĠT OP
ĠT anner
ur se
ĠW u
18 15
Ġ5 54
US EL
ak o
ric al
evel t
BE A
ĠDel ivery
Ġmov ie
ĠHold en
ĠCF O
ĠWalt ers
50157 48
3 121
B ike
C RE
G az
G RI
H off
U H
Z EL
w t
201 8
er oy
as u
ĠM eedee
12 12
ri ks
07 15
06 25
Ġs igned
02 26
02 45
ill ermo
CO OK
ĠPl atinum
AD AM
Ed uardo
Ġmult iplayer
Ell is
Ġgr ant
Middle bury
ĠLabor atory
Sud an
seud ogene
Ġnozz le
D ag
D akota
y ing
al em
ĠP osition
ĠN eg
ĠL ost
18 44
ĠV IC
Ġ19 23
ra wn
au a
Ex it
lin ks
ush a
ĠRes ort
MIN ORITY
bab y
ĠAnn ual
Ġstart s
Ġplay ers
Little Me
Ġdec imal
Ġsens ors
eron ica
Aqu atics
ĠDream s
Mit igation
L SI
or os
ĠF ry
ĠB attery
ĠB azar
Ġt otals
Ġt urbine
03 28
Ġw avelength
Ġ3 06
ess ing
ĠK yl
Ġ18 3
Ġ13 4
Ġ2014 04
az y
alt ender
uff in
trans l
asc ade
Bur ke
Ġdec lar
ĠMal one
Wal nut
ĠFI ELD
METHOD S
NX GPY
gew le
ĠHent ai
9 79
C Z
Z eb
r m
ch ia
and rew
ĠB ihar
et ra
ĠH ertfordshire
03 03
ag ascar
ell ian
PA UL
up s
iver more
Ġall oy
AND ERSON
ĠGu est
ĠInter mediate
mar sh
usan ne
Wood land
ĠConc ord
Ġcamp sites
Ġ92 123
ĠDIST RI
50944 45
G iven
S ame
ĠD ot
ĠL ay
ĠV OWEL
ĠY EAR
Ġh oles
Ġr ub
Ad a
ĠCl ue
ĠMor se
GO MERY
Ġdep th
rec ated
Some thing
ĠIndian apolis
ĠFraz er
Griff in
ĠPand emic
HUNT INGTON
FAY ETTE
J onny
M eh
V V
p ink
Ġ ..."
ĠS HO
Ġ( +
Ġb ig
ĠG ent
ĠJ OHNSON
ov sky
Ġw ash
ess ler
ĠK EVIN
AL F
VA C
ĠMar key
Ġsub mitted
So f
gar h
ĠAugust a
Water town
ĠUnder ground
Up dated
ĠDen mark
stra ction
Ġstr ings
ĠSab res
ĠDod ge
pol itan
Ġsat ellite
Arab ic
ĠLoof a
I US
M CH
W md
p rec
on ists
at an
Ġ1 29
00 08
ĠP LAT
ch r
ĠD amon
ĠN r
Mar ble
St eam
op table
Col on
ĠAd apt
ere o
Pl anned
Em manuel
Black Rock
ĠDo es
ĠBO ARD
ĠHand le
Cook eville
Screen ing
Ġoccur red
Nag ano
Lip scomb
3178 00
ĠUNS PEC
B right
l ifer
an z
al ach
is ited
10 32
Ġp ose
Ġ19 01
ast y
ak in
Sh ared
ENT ON
IA C
ĠPl atte
ĠZ IP
DE U
ref r
SH EL
Ful ly
225 00000
Trans c
Pot ency
Ġnucle ic
Edward s
rypt ed
ĠTR X
Lead ership
oval ev
Ġbal ancing
ĠStafford shire
9 53
S ey
l ik
p unjabi
v m
th is
11 34
ĠF ernando
ĠD uty
Ġp ick
ĠL iquid
ig ion
17 90
Ġv ert
ine By
Sp e
ST AL
ang ed
ink le
ĠAl aska
AB C
Ġunder st
Mic ron
Rank ing
ĠChild ress
Pop ulation
Access ory
ĠFraz ier
ĠSham rock
ĠKast en
Motown Mama
9 63
E g
S ulfur
T s
T PS
T rousdale
es y
11 20
ĠL ath
em me
ect ors
Ġre ct
de ed
Ġthrough put
Ġperform s
ĠBrun o
Ston y
ĠHan son
Lov as
allow ed
ĠINDI ANA
C z
D UN
G eelong
O Z
W ang
f old
m our
n ancy
o ley
ĠM orning
ĠB eginn
ĠR N
ĠL il
all ax
ary otic
ĠSh an
ĠNo chman
ĠMc Laughlin
ĠRivers ide
Ġpr inter
607 235
ĠLoc ust
Rey nolds
Wau kesha
8654 08
G one
l uv
z oeker
10 67
re fer
ĠF inn
end ars
Ġre actor
te k
ĠAm or
ors ki
Ġas ynchronous
oint ed
Ġtime out
Free Runner
Olymp iakos
ĠBur en
ĠFX D
var ado
bird s
Stat en
ĠFel ix
Way nes
Ġmaint ain
ĠVerd e
Annual s
ĠCandy land
B EVERLY
C EL
D elete
I GN
J asper
P OM
Y psilanti
k ik
am oto
ĠF ee
18 06
Ġ3 20
ut il
ĠY ates
Ġh istocompatibility
ual ty
ĠSun ny
Or chestra
ĠWh itt
302 4
ĠAL LEN
Ġend point
ugg ets
401 3
Kl imek
Bah awalpur
ĠDerby shire
Ġaffect ed
cod on
CARO USEL
t shire
ĠC RY
ĠF olk
ĠB oss
ĠR ural
ĠL CD
id ental
Ġb anks
os ine
us z
oc yt
rom agnetic
ith a
ob i
ph on
Al a
ĠRe eves
ĠAngel a
GC MD
Ġfr ames
ĠCle ar
Fund ed
ĠLand rieu
Beginn ing
ĠHow e
zig man
ĠInstall ation
ĠThrow back
Tup elo
B ib
H ager
p ak
v ell
ĠA RI
ĠM ell
ĠR IDGE
ĠV arious
urn berg
ĠCl aud
HA C
MT L
Prov ider
Hard ware
ĠStr ateg
ĠFred er
ĠRoll ing
osl av
Ġvi olation
ĠQual ity
ĠSwan son
ĠWH ITE
HENS LEY
Grays lake
ĠMous etrap
Eag les
B IG
F ight
H av
I sh
Z oe
l abel
ĠT ops
ĠD EF
Ġb re
ig ibility
av ista
ens ed
way ne
Ġad ministration
ĠZ ack
MM ONS
ĠST AR
Alex a
ĠChrist ensen
Tit le
test ed
ĠBull dogs
325 338
Ġsubst ance
Kin ross
Ori oles
Extracellular Sequence
B utter
D eland
G ib
H ope
L oy
X Y
10 94
ro z
ĠF lex
ĠW att
18 03
ag ers
ĠV iet
33 00
ure au
pen se
irm ware
uk aryotic
CL ING
Reg istered
SY S
Fred eric
PO INT
Wood side
Son ic
ĠREST ful
ĠProv ider
Hy annis
ĠOPER ATIONS
ĠLith ia
ĠVENT URES
Ġdynam ically
D irty
D exter
et ics
Ġp an
Ġto o
ĠE uras
St ation
pl s
Ġex cellent
IC LE
Ġle agues
QU IN
Wind ow
utt le
309 2
etter ing
Hy per
Ġshow ing
ĠFig ures
Nad ine
ĠSens or
Shan ghai
Simply Monk
K AM
M is
in j
am yl
ĠP ohl
ĠF RA
ĠD istance
ĠW ars
ĠL ump
Ġm un
sh ell
Cl one
ik el
ĠFran z
Ġab le
ĠCon rad
cont ent
ĠCON SU
ĠHel p
var na
ĠStock ton
Lind en
Ġfour th
Ġfood s
Ġbeh ind
Ġunderst ood
W ing
Z ac
k ish
s ound
am ous
ĠT ask
Ġy ards
Ġre lev
og on
Ar min
BO OLEAN
ract ive
Dod ge
ps in
Go altender
Ġge ometry
VN R
ĠReserve America
ĠByr ne
2516 07
B ax
F edora
G TT
H ilton
M unch
Y esterday
at is
ĠS OS
ĠL LP
16 13
ĠV argas
Ġ19 21
AS KA
if le
SR M
ĠMax im
ĠCY P
Benn ett
ĠCHRIST OPHER
ĠGres ini
9 000
B ush
K ast
U EL
a q
l ton
w olf
ĠC odes
ĠP otter
ĠD iffer
Ġa pert
09 03
ĠH ick
os evelt
Nov el
ĠMar io
Ġrel ay
ĠAss am
Ġtr acks
uther land
Mag na
Child ren
ĠFI RE
Ġexec ute
Antwer pen
Ġox id
MIDD LES
ĠSUP PLY
9 74
J UST
L erner
n ormal
w aster
er le
ĠP ush
ĠF usion
ĠD M
ĠJ amie
Ġin valid
ew al
Ġl ate
Ġ14 6
NC IT
ST M
Car men
Pl ano
ĠEl s
PH Y
SP C
CD H
ĠMO DULE
Rh ineland
Sy ed
yth ing
Call away
Drum waster
ĠCiv il
Ġintern et
22956 34
clus ive
GUEST HOUSE
Trev ellian
N avy
N olan
S ample
d avid
n etwork
Ġc asing
Ġ3 35
ut ely
ĠCl aw
ĠSh aron
ett es
HI GH
Ġsh ares
Shel ley
amb ique
rain ts
Per formance
gl ib
Tem po
Acc ounting
ĠCr ash
Brown sville
Grant ed
udd in
Ġcarb oxyl
ĠBuck ley
Ġlab els
ĠExper ience
jor ie
B in
E aton
M es
N eb
R az
S OR
f m
v it
in one
10 55
re au
ĠP eanut
ĠT anks
ĠR ings
07 01
Ġd elete
Ch ick
IL Y
ary ana
up iter
ĠAn y
UC E
ĠAl legro
erm ott
key words
arc oma
ĠPort o
ih yd
Hel p
ĠNot ice
ĠRES OUR
ĠLE ON
Repl ace
PHIL ADELPHIA
ĠRepl acement
Ġclip board
F az
G arbage
N ail
s z
ĠC ome
11 14
ĠT ina
ur m
AM IC
CO F
WA V
ĠSch l
Dr Evil
dom ain
TR P
ĠRobert o
ĠAv iv
ĠMARY LAND
Ġprefer ably
Duss eldorf
benh avn
E rika
T ra
c ence
c aml
20 52
al id
ĠF owler
Ġt umor
ĠR AS
ĠD S
ĠH ey
ĠG M
oc cer
AT KINSON
ĠCl are
TE CH
part y
TI ME
ĠSol aris
ĠStr and
Gro om
Rub y
UNC TION
Ġmetall ic
B j
K oz
h tar
ic um
il and
11 87
ĠB orn
Ġs amples
Ġb er
ber w
ich l
ĠTh rough
ĠCol t
Ġcl ients
Ġamendment s
Ġro bot
Ġ201 10
Lar amie
Hol ocene
Rob bie
909 3
ĠBroad cast
ĠRand olph
ĠSav oy
Gener ic
Lyn ne
Ġincorpor ating
Phen otype
ĠContr eras
F eder
G raf
O sw
g eland
g eneral
v ex
Ġ 000
ĠM errill
it ex
ĠP itt
ĠF res
ĠB auer
06 27
Ġs ix
Ġn otes
Ġ18 91
Atl as
ĠCon vention
END ED
GOLD MAN
ĠMel issa
Gran ite
Ġactiv ating
ĠBenn et
SIL ON
Ġadjust ing
ibb ean
ĠHarm on
Ġdon or
E fficacy
M ost
s peed
z immer
ĠT ail
ĠD ES
Ġs qu
01 30
if act
ĠCh ill
MO TOR
ĠSh ell
West field
ĠEn ix
Sch aub
ander ing
ĠHaw aii
ĠRodrig o
Bri anna
ĠBrand l
ĠCond ition
McG owan
R ac
S eg
U FA
V lg
i ya
m ate
Ġ icons
al ive
Ġo scill
03 00
Ġin coming
Ġw a
ER ICK
PA CT
ĠMar l
ĠFl ower
oly mer
ĠPat el
ĠSn ell
ĠStephen son
Burn ley
Ġsole ly
E clipse
G ang
H ousing
J AMES
b ob
d ad
m ess
ĠM oll
ĠR AN
ĠI v
ort es
Ġus b
Ġpl astic
MP SON
aj cia
Bel ton
Ġcomm ittee
BI O
Hill crest
ĠHank ins
luor ide
C nt
M ALE
c ross
f rey
ar ily
11 16
ĠR even
ĠD ETE
ĠG N
ĠG ang
ĠG unn
ess andro
Ġ5 90
AL A
ĠY am
ĠCh amp
ĠSp inners
Ro therham
ve en
Ġpresent ation
IF F
comp lex
atab ases
ĠArt ist
ĠMary s
ĠCON VER
Rem oved
ITT LE
ĠFO OT
- [
B ex
P ure
T ec
W ren
c irc
ag r
ans om
ĠPro bably
Ġsp read
73 0010
Ġres on
ij n
off ord
add ing
Ros eville
ĠProgram ming
Ġed ucation
Nic olas
zh ou
ĠKath ryn
Ġbound aries
Vik t
Ġsym bol
ĠBir ch
Ġdiscover ies
ĠINST IT
ĠUnivers ities
Kyrgyz stan
Hager stown
9 022
B etter
ĠC RA
ay o
11 19
ĠF ors
ip es
SI ST
Ġr ack
thor n
Br ampton
Ġun finished
Le ighton
rain ed
ĠMO INES
Rh odes
ĠGe og
mod ule
ĠMil ton
Ġfeat uring
Whe ther
Sid ney
geland et
J PM
S onny
h ole
p as
10 51
ul o
ĠL UC
iv el
ess on
all en
Ġre vised
pl ane
Bro ken
ĠEx cel
Pol aris
ingham shire
Ġj obs
ym metric
Ġoper able
304 2
Ġadjust ed
Ġep it
Monter rey
Eb ner
ĠBio Assay
umines cence
Ġdur ation
Crew e
Ġobt aining
Bluff ton
MIDDLES EX
" ___
G uild
G PRO
N OKIA
R ams
W ire
Z oo
w ave
ĠS even
ĠS ecurities
ĠC B
10 08
ĠB ram
Ġt ackle
Ġp lease
RE T
GN U
oy t
umb o
Car p
SE P
ana ugh
SO URI
ĠPr att
Hal on
ĠCan al
ĠCons ervation
Ġdes k
Ġhyd rolase
vol atile
ĠENTER PR
Namespace TestCase
Ġsubsequ ent
" +
B ET
D amon
P irates
S oh
p LC
ĠS oph
ĠT urbo
ĠF ax
ĠF uel
ĠB H
ĠR aleigh
ĠO ur
Ġh eter
ĠCh a
Gl amorgan
ason ic
Ir ene
Out door
Ġappro aches
Ġfre ely
epp ard
ĠEmb odim
Correspond ence
B are
B ates
I ow
U ganda
Ġ ribosomal
12 14
ĠB le
ĠI ris
ĠE M
Un named
ĠTh iele
Al ter
ĠAl pha
AD P
Le icestershire
ĠMor eno
Hay ley
orc in
Che vrolet
ql Fragment
ĠBi ennials
dr agon
ĠRA J
Bah rain
inth ead
Rach ael
ĠNU YS
Ġbrief s
C otton
N UM
R u
U ri
d im
f ers
11 15
ad r
ĠR OL
ĠW id
ĠH arb
01 31
02 14
ĠK end
ke gan
Ġ5 140
au ff
ĠNov el
rig an
ĠWh is
DA VIS
ĠAMERICA S
ĠBurn ing
ucc aneers
ĠGU IDE
ĠFac ilities
ĠPROPER TIES
ĠRECORD ING
Ard more
Gru po
Chitt enden
ĠEmbodim ents
U KE
c v
k erman
y ne
ĠM ats
Ġ2 17
Ġf uture
ĠG iles
Ġh ierarch
Th reshold
EST OWN
Ġpre judice
anda igua
END ING
Ġbro kers
ĠHend rix
ĠShield s
schem atics
quit lam
SERP INA
J AX
M ing
P RA
S ens
T erence
m ut
n ian
n ost
w ulf
ĠS DR
ĠP il
ĠD il
Ġin vert
ab elle
oc ke
Ch ude
AM C
io ch
ery th
ILL IN
ĠAss ignment
ĠMark s
Ġoutput s
ĠSteph an
Ġinteg ral
NAS DAQ
ĠLes lie
Jak arta
ĠEmp ire
O rang
Z d
in et
ic ide
ĠM ELL
ri us
ĠL L
Ġm uch
ect s
ES RI
Ġg ran
ies e
ĠIN NOV
sp otter
ott en
Pl ates
Ġal uminum
Par allax
Nash ua
ĠForm s
ops ie
Ġhom ology
Ġenter ed
ĠDub as
ĠPin ot
Hui yi
caml spotter
B rod
K IM
j am
n ode
ĠM U
ĠF unk
Ġo thers
ig gin
ew ind
Ġm useum
ĠV E
av age
Col leen
ĠAd ministrator
osh a
ĠCan ucks
Ġimp act
cer ol
agg ed
Fac ebook
Ale c
MONT GOMERY
BON NE
ĠHuang bin
A sc
B atch
B alk
C razy
K as
L ac
R ID
T AN
T RIN
h ob
Ġ raw
ar ity
Ġ1 27
le af
ĠM it
st ill
ad ers
and r
ol utions
ĠR ot
ĠL AM
Ġc ards
Ġb on
ĠJ ump
Ġ200 50
iel sen
Sh ipp
ĠZ oo
ĠDO WN
urr ence
Christ ophe
Ġcol i
157 01
ĠSk ill
Hel otes
ĠHer ald
Refer ee
ĠLiving ston
Ġcook ie
ĠSto oges
ĠCoy otes
J oint
L acey
O BC
P ush
P HL
b aden
ĠS andy
11 10
ĠP k
ĠP OR
ch anger
ĠR AND
ĠD orado
Ġs led
Ch oral
ass et
SIGN AL
TER MIN
iz zy
ĠSch n
La usanne
Can andaigua
Ġrec overy
Le z
Ġdis able
SF O
Sol ano
Long view
ĠHum ph
ĠFace Time
ĠOsw ego
H ilo
M ean
P ython
V ail
d iplom
l t
ĠC edar
ĠM UTUAL
12 30
12 22
Ġp rim
Ġs kin
ĠH ALL
ep e
ĠO bs
our ney
ph ire
Sun set
South west
ĠSp ark
Ġall ocated
Sw ord
amb as
Bel t
ĠPet e
STE IN
Ben fica
ĠIsland er
ĠAs k
Com erica
ĠGro ove
Ġinc reasing
ĠAdvis or
ĠRound table
Rat liff
ĠEQU IP
Pv P
Transc end
diplom ov
B ound
C af
D ion
L orcin
f ound
n el
s outh
Ġb urn
em pl
ir ling
Ch eckl
ack i
Ġ18 00
ĠCh at
by te
ĠBr endan
Ġacc eler
Ġinter connect
ĠBlack Berry
CP Us
Med icine
Pre c
ĠSim one
ĠNot ts
ĠBo opsie
osp el
ĠEver ett
irth day
ĠRece iver
ĠVaugh n
ĠRoch elle
40647 14
51254 14
C rawley
D olphins
N ever
W SH
f ur
n ud
ĠS ob
ĠS ize
le z
ĠF ay
Ġf ill
Ġt urns
ĠD raw
ĠH ark
ec l
Ġ- >
adi es
NY R
iew icz
ĠAn alyst
ĠCO MMER
Ġch art
gl ass
Log o
Ġla unch
OND ELL
INDIAN APOLIS
B anks
E US
O deon
T ammy
Z ion
p ap
ĠB ast
ĠW orc
est ad
Ġ19 09
ub ble
Ġ18 97
fer encing
ĠCl oth
IR ON
PE ORIA
BO W
106 00
ĠAb straction
ĠCons ort
bro se
Ste aua
ĠFXST B
Ġprevent ing
Ġdele ted
Ġaggreg ating
ĠCaf es
ĠKING DOM
ĠSTRUCT URE
Mold ova
ĠSPEC IAL
ĠColleg iate
B ucks
D aw
L is
Y ang
am ide
ĠB N
ĠB olt
Ġf ew
ĠR OD
ĠG ros
ĠE val
IT O
oh a
Ġout come
omb ard
act ic
Ġ2007 04
ĠJun iors
ai ian
HE EL
Ġmin im
Ġhigh ly
ĠCom edy
ĠCr ack
409 1
Ġtechn ical
zz zz
ĠFLST C
Jen kins
von ne
ĠAccount s
lymph ocyte
. *
T ree
[ ?]
ĠA VA
ĠP arr
ĠR out
01 68
ig ail
ĠK arnataka
ĠIn put
res idential
ual ian
ĠRes id
ĠRes ponse
andon ed
Angel o
syn apt
Tin y
Fal mouth
Bremer ton
D ane
H aver
N ec
f iche
j al
q varna
ĠM ines
10 93
ĠD ome
ĠG ap
ĠV ick
ut down
ip ers
riv acy
SE MICONDUCTOR
me at
Ġz oom
ĠRod ney
echn ology
Trans fer
umn i
gn om
ĠMos es
Method s
Ġenc oded
ĠAlbert o
Mur phy
Trad itional
Musc arella
ĠMID DLE
Ġ201407 02
ĠGeog hegan
B enny
K ok
S end
d ot
s ualian
w id
en berger
03 27
Un released
eg os
ĠCo ff
For ged
Ġtrans formation
Sam oa
vel ope
CB J
lest own
War p
ĠSi bert
Ġrout es
ĠAbb ott
ĠSHAR P
ĠMcEl roy
E Q
L ew
L ars
R uff
S ug
S ak
b um
ĠM L
ĠP ure
ĠP istons
Ġs i
ĠE y
ĠE ch
Ġm al
Ġ18 76
ĠCh ile
ĠSun set
South port
enc o
ĠTele vision
Ġz ilver
press es
301 3
Su i
ĠEurope an
Greens burg
ĠXml Value
ĠMir anda
Capt cha
ĠRest aurant
PHO ENIX
B ANT
D ess
H od
T ah
V in
d rop
m os
z illa
ĠC ry
ĠM iche
ĠP ull
ĠN ever
ĠL ux
Ġb rake
us es
CH EN
CH AND
Al z
ign er
ĠJan ice
Bro chure
De V
Sal Gre
BM X
ĠMad d
Ġfin ish
WH ITE
udi ob
Ġlog in
ĠSy ndicate
ĠSuz anne
775 00000
MUR RAY
ĠBB Q
uten ant
Ġtransd ucer
ĠB ased
ĠR te
ĠR amp
Ġs ampl
qu et
ĠCh es
Car rie
Ġsp ect
ĠAnd ersen
amb o
LY B
MON ROE
Ġdeb ugging
Ha as
Ġdescrib es
Guy ana
Togg le
FRE ESCALE
30248 02
51833 02
record ed
D errick
G ARD
P omeroy
r p
Ġ ip
or en
ĠG ift
Mar cy
ĠK not
ant is
Ġ15 5
ator ial
sp ection
ild e
ĠDO U
ĠX C
oth ers
Ġdep osit
Ly ons
Ġge ographic
Ġseg ments
ĠPAC s
C ram
D IN
F eed
H indi
K V
K u
L eth
L RR
N ING
p revious
on ge
re place
ĠP unch
ĠH oughton
ev ie
ĠAd mir
Out reach
Lat ino
ĠOrt ega
book s
ĠConn or
ĠDick inson
Ġlater al
Beck y
Hem eroc
abul ary
A O
D uc
M ate
N yk
X ombie
b red
k man
p ret
el ing
ĠM OH
ĠF lying
ĠW asher
ĠL ate
Ġin strument
ab s
ev ery
end oth
Ġ7 82
WA VE
als a
Ġ00 605
row ing
Pol it
ĠAc id
Mal ibu
Bil bao
Bas que
Winn er
ĠRand all
Ġparticip ants
V erm
h en
k as
ĠM olina
ĠP ike
ĠB icycles
ol son
Ġs ale
Ġm s
ĠK C
pl an
ens ch
Ġst abil
ile t
ans ett
Bl edsoe
TI KA
TR N
Out field
Ġred uction
imp lement
Ġconvert ing
Ġmir ror
ĠANTON IO
G ig
R ot
Ġ1 19
ĠP ipe
Ġf raction
ĠD up
ĠG S
ĠK ul
EL SON
ass o
Ġ14 5
Ġ2014 1014
ru v
bur ne
Mon etary
pe th
RA EL
Ins ert
de er
Alb ania
HAR ES
umm y
DU E
ĠWil mington
Hard y
YL OR
sun shine
ĠCant rell
Request s
54135 15
Nad ler
ĠSou p
Ridg ewood
Toy ota
GRANT ED
4 200
G OPRO
I z
N IE
W oj
on om
an en
ĠT all
Ġt ape
ĠL ook
Mar issa
Ġl ed
Sp arks
An k
ĠRep eater
Mad agascar
ĠIm port
alth am
Ġsol ar
Quarter ly
407 8
ĠFarm er
ĠWolf e
Pur ple
Ġprom pt
ĠHEALTH CARE
ĠClement ine
Trav erse
B uzz
H G
S ad
ĠS idd
Ġ1 18
ĠP ablo
ĠF ind
ĠR ex
ĠR ina
ĠE E
ĠV isc
ER T
St ack
ip ation
FR AN
ric ane
ĠAr n
El kh
ven ing
ĠTr out
Ġdisc uss
ĠAc oustic
CR C
Ġdep osition
ĠSam oa
Ġterm s
Cent ennial
Repl ies
ROCK FORD
Wat ford
Anim als
Ġproble ms
arh us
Stell ino
4 3750000
B em
F ED
G ator
R auh
m w
m ot
s odium
ĠS elf
ĠC ad
12 19
18 17
ĠE gypt
ect ions
art e
ath ers
TO CK
Ġsh ock
aul k
Ġ201 008
Dis allowed
Ġread er
Hay den
ĠBer kshire
Order ed
nb utter
Wat son
Patch ogue
80623 13
92822 13
S ave
W arr
k ol
ĠP ORT
05 01
Ġs aving
ĠH ood
ĠH rvats
Ġm ob
ter is
St acy
Ġ14 70
CO S
Sh akh
Al ways
oy bean
ĠCl ippers
lic t
its ch
HL AND
IP v
rim ack
ĠWat kins
ĠLuc ie
ĠOrder ed
Past or
ĠMex ican
ĠCelt ics
; "
L TB
N ursing
N urnberg
R ash
ĠC ounter
Ġf erry
ĠSt uff
ĠD onna
ĠL iter
ĠL oad
Ġ3 37
Ġv ary
ĠK op
Ġ18 95
ans ki
TO ANO
ĠBl umen
MM ORTS
Ex port
Sal v
Fin ish
Ġcre ates
IGHT S
Gen esis
ĠMix ing
Soph ie
JP Y
ĠURL s
Beck er
Shawn ee
!! !
Press ure
ĠMot ors
ĠPHIL IP
8 0000000
F ive
O GE
V ASC
p ose
ĠM IL
ĠM ick
ĠM ey
ĠT iger
ĠW ATER
ĠL al
ĠV ehicle
ĠK Part
Ġ18 14
Ġ13 6
oma ine
ink y
AD AMS
Ġcons isting
rop ical
Ġem ission
Prov ide
Fred dy
emp ts
ĠEX P
Ġins ulation
Ġterm inals
COOP ER
dev ice
Pont e
Ġfac ility
Ġconvert ed
ĠHIGH WAY
ĠSens ing
ĠWO OD
ĠTriv ia
ILLIN OIS
ĠHrvats ki
B ak
D aly
K ovalev
W IDE
e FG
p iece
w orld
x on
ĠS eat
10 63
00 027
Ġt argets
05 08
ĠO EHHA
24 000
ĠK iss
CO LA
rid i
Or ion
Bar nsley
Declar ed
Prov o
ĠMe ans
Ġaccount ing
rec eptor
ĠDem ographics
Hob art
ĠOPER ATING
Chel msford
ĠINSTRU MENTS
oxygen ase
4 268
C WS
C rypt
O EHHA
W X
ĠS laughter
ĠC RE
ĠA TA
10 61
om ed
Ġp ark
ĠN F
ĠG ables
ĠV HF
ĠK us
St ates
ud ge
Ġg a
GA KW
For rest
Ġac utely
[...]
