{"<s>":0,"<pad>":1,"</s>":2,"<unk>":3,"<mask>":4,"!":5,"\"":6,"#":7,"$":8,"%":9,"&":10,"'":11,"(":12,")":13,"*":14,"+":15,",":16,"-":17,".":18,"/":19,"0":20,"1":21,"2":22,"3":23,"4":24,"5":25,"6":26,"7":27,"8":28,"9":29,":":30,";":31,"<":32,"=":33,">":34,"?":35,"@":36,"A":37,"B":38,"C":39,"D":40,"E":41,"F":42,"G":43,"H":44,"I":45,"J":46,"K":47,"L":48,"M":49,"N":50,"O":51,"P":52,"Q":53,"R":54,"S":55,"T":56,"U":57,"V":58,"W":59,"X":60,"Y":61,"Z":62,"[":63,"\\":64,"]":65,"^":66,"_":67,"`":68,"a":69,"b":70,"c":71,"d":72,"e":73,"f":74,"g":75,"h":76,"i":77,"j":78,"k":79,"l":80,"m":81,"n":82,"o":83,"p":84,"q":85,"r":86,"s":87,"t":88,"u":89,"v":90,"w":91,"x":92,"y":93,"z":94,"{":95,"|":96,"}":97,"~":98,"¡":99,"¢":100,"£":101,"¤":102,"¥":103,"¦":104,"§":105,"¨":106,"©":107,"ª":108,"«":109,"¬":110,"®":111,"¯":112,"°":113,"±":114,"²":115,"³":116,"´":117,"µ":118,"¶":119,"·":120,"¸":121,"¹":122,"º":123,"»":124,"¼":125,"½":126,"¾":127,"¿":128,"À":129,"Á":130,"Â":131,"Ã":132,"Ä":133,"Å":134,"Æ":135,"Ç":136,"È":137,"É":138,"Ê":139,"Ë":140,"Ì":141,"Í":142,"Î":143,"Ï":144,"Ð":145,"Ñ":146,"Ò":147,"Ó":148,"Ô":149,"Õ":150,"Ö":151,"×":152,"Ø":153,"Ù":154,"Ú":155,"Û":156,"Ü":157,"Ý":158,"Þ":159,"ß":160,"à":161,"á":162,"â":163,"ã":164,"ä":165,"å":166,"æ":167,"ç":168,"è":169,"é":170,"ê":171,"ë":172,"ì":173,"í":174,"î":175,"ï":176,"ð":177,"ñ":178,"ò":179,"ó":180,"ô":181,"õ":182,"ö":183,"÷":184,"ø":185,"ù":186,"ú":187,"û":188,"ü":189,"ý":190,"þ":191,"ÿ":192,"Ā":193,"ā":194,"Ă":195,"ă":196,"Ą":197,"ą":198,"Ć":199,"ć":200,"Ĉ":201,"ĉ":202,"Ċ":203,"ċ":204,"Č":205,"č":206,"Ď":207,"ď":208,"Đ":209,"đ":210,"Ē":211,"ē":212,"Ĕ":213,"ĕ":214,"Ė":215,"ė":216,"Ę":217,"ę":218,"Ě":219,"ě":220,"Ĝ":221,"ĝ":222,"Ğ":223,"ğ":224,"Ġ":225,"ġ":226,"Ģ":227,"ģ":228,"Ĥ":229,"ĥ":230,"Ħ":231,"ħ":232,"Ĩ":233,"ĩ":234,"Ī":235,"ī":236,"Ĭ":237,"ĭ":238,"Į":239,"į":240,"İ":241,"ı":242,"Ĳ":243,"ĳ":244,"Ĵ":245,"ĵ":246,"Ķ":247,"ķ":248,"ĸ":249,"Ĺ":250,"ĺ":251,"Ļ":252,"ļ":253,"Ľ":254,"ľ":255,"Ŀ":256,"ŀ":257,"Ł":258,"ł":259,"Ń":260,"20":261,"201":262,"er":263,"on":264,"in":265,"an":266,"at":267,"ar":268,"or":269,"en":270,"es":271,"\"\"":272,"ĠS":273,"Ġ1":274,"al":275,"th":276,"ed":277,"le":278,"ĠC":279,"as":280,"ic":281,"ay":282,"is":283,"el":284,"ĠA":285,"200":286,"19":287,"ou":288,"ĠM":289,"10":290,"re":291,"2015":292,"Ġ2":293,"it":294,"00":295,"ing":296,"il":297,"ro":298,"am":299,"ion":300,"11":301,"ĠP":302,"ct":303,"2012":304,"st":305,"ĠT":306,"ad":307,"ent":308,"2013":309,"ch":310,"12":311,"and":312,"om":313,"ĠF":314,"ĠB":315,"ol":316,"Ġf":317,"ĠSt":318,"Ġt":319,"ĠR":320,"ĠD":321,"Ġth":322,"ri":323,"et":324,"07":325,"ur":326,"Ġp":327,"un":328,"day":329,"2014":330,"ot":331,"Ġo":332,"06":333,"Ġ(":334,"05":335,"ĠN":336,"ul":337,"Ġs":338,"Ġthe":339,"04":340,"ĠW":341,"ĠL":342,"Ġc":343,"id":344,"08":345,"ate":346,"Ġa":347,"ĠI":348,"Ġof":349,"09":350,"2011":351,"Ġb":352,"ĠH":353,"03":354,"01":355,"02":356,"15":357,"Ġto":358,"18":359,"ep":360,"um":361,"ec":362,"ation":363,"Ġd":364,"13":365,"ac":366,"os":367,"14":368,"ĠG":369,"ĠJ":370,"ov":371,"Ġin":372,"he":373,"ĠE":374,"pr":375,"em":376,"30":377,"ĠO":378,"ir":379,"Ġ200":380,"Mar":381,"ig":382,"25":383,"ag":384,"ers":385,"17":386,"Ġ-":387,"us":388,"eb":389,"ew":390,"16":391,"24":392,"iv":393,"ow":394,"Ġand":395,"ab":396,"2010":397,"ly":398,"OR":399,"im":400,"23":401,"est":402,"Ġw":403,"Ġm":404,"27":405,"26":406,"29":407,"od":408,"ĠV":409,"Ġ19":410,"ia":411,"ear":412,"Ġ3":413,"IN":414,"ort":415,"ER":416,"28":417,"ap":418,"Ġv":419,"Apr":420,"22":421,"ex":422,"ce":423,"ON":424,"ess":425,"oc":426,"ut":427,"orm":428,"21":429,"Un":430,"ment":431,"av":432,"CA":433,"all":434,"ev":435,"ug":436,"ĠK":437,"ter":438,"nd":439,"ton":440,"ill":441,"AS":442,"Sep":443,".\"":444,"Ġn":445,"Ġl":446,"ell":447,"ber":448,"Oct":449,"199":450,"Ġ2015":451,"ke":452,"Ġ4":453,"St":454,"ant":455,"ect":456,"AN":457,"ES":458,"ity":459,"if":460,"Nov":461,"adi":462,"31":463,"son":464,"art":465,"iel":466,"Ġ5":467,"ist":468,"Ch":469,"op":470,"ra":471,"AT":472,"ich":473,"ine":474,"end":475,"ard":476,"Ġy":477,"out":478,"adium":479,"EN":480,"ran":481,"ĠStadium":482,"2009":483,"ont":484,"ip":485,"ff":486,"eg":487,"AR":488,"esday":489,"ack":490,"ub":491,"ield":492,"Ġ10":493,"Feb":494,"EL":495,"outh":496,"AL":497,"US":498,"ond":499,"ase":500,"Ġ15":501,"ĠY":502,"ord":503,"ass":504,"SI":505,"ie":506,"Ġ8":507,"New":508,"May":509,"ail":510,"ah":511,"ver":512,"ge":513,"RE":514,"Ġre":515,"ive":516,"Ġh":517,"ain":518,"Ġ7":519,"Ġyear":520,"ud":521,"ee":522,"Ġ12":523,"Ġfor":524,"rom":525,"Ġ6":526,"land":527,"CH":528,"nt":529,"ith":530,"AM":531,"ll":532,"Ġpro":533,"igh":534,"ille":535,"qu":536,"pl":537,"able":538,"are":539,"Ġ16":540,"omp":541,"our":542,"GN":543,"og":544,"IT":545,"ĠState":546,"Ġyears":547,"ark":548,"Ġon":549,"ast":550,"Ġ14":551,"form":552,"33":553,"ĠIn":554,"ob":555,"IL":556,"Aug":557,"Ġby":558,"50":559,"io":560,"Ġ9":561,"atch":562,"te":563,"NC":564,"Ġ18":565,"res":566,"Sp":567,"NY":568,"wn":569,"Dec":570,"Jan":571,"ust":572,"SIGN":573,"ak":574,"Jul":575,"Ġ13":576,"per":577,"Ġ11":578,"198":579,"ville":580,"Ġ23":581,"PA":582,"45":583,"Ġ20":584,"ork":585,"She":586,"ick":587,"ry":588,"Ġ17":589,"se":590,"ide":591,"age":592,"ame":593,"ited":594,"Ġg":595,"ary":596,"34":597,"ult":598,"ale":599,"ore":600,"uc":601,"isc":602,"Shea":603,"ĠTh":604,"Th":605,"oh":606,"Ġ07":607,"orth":608,"ĠUn":609,"46":610,"kl":611,"47":612,"Ġ2013":613,"Ġ21":614,"CO":615,"ĠU":616,"Ġis":617,"35":618,"ates":619,"TV":620,"FL":621,"Ġ2012":622,"ue":623,"urs":624,"otes":625,"ire":626,"ated":627,"Jun":628,"ial":629,"ED":630,"ach":631,"sh":632,"37":633,"man":634,"Ġ22":635,"ng":636,"ice":637,"ure":638,"ne":639,"ph":640,"ĠCh":641,"FR":642,"36":643,"ence":644,"ash":645,"Ġfrom":646,"ory":647,"MO":648,"Fl":649,"ons":650,"ian":651,"pp":652,"ies":653,"ull":654,"ley":655,"ĠMon":656,"48":657,"39":658,"LA":659,"TER":660,"2008":661,"Ġ2014":662,"Sat":663,"Sh":664,"ailable":665,"38":666,"RO":667,"In":668,"ree":669,"iz":670,"Ġ&":671,"TX":672,"riv":673,"iss":674,"49":675,"ood":676,"Al":677,"ost":678,"Sun":679,"..":680,"ET":681,"0000":682,"ib":683,"aw":684,"ts":685,"Ġan":686,"ount":687,"2007":688,"ok":689,"au":690,"ST":691,"32":692,"Am":693,"ern":694,"40":695,"ext":696,"uesday":697,"edn":698,"ina":699,"ens":700,"Ġst":701,"one":702,"The":703,"ednesday":704,"ursday":705,"rou":706,"Ġwith":707,"gh":708,"amp":709,"omm":710,"MI":711,"ember":712,"ile":713,"SIGNOR":714,"197":715,"ock":716,"ication":717,"Ġvot":718,"ome":719,"Ġare":720,"MA":721,"Ġ2009":722,"ĠThe":723,"riday":724,"ans":725,"ohn":726,")\"":727,"Ġat":728,"Watch":729,"Ġ199":730,"ask":731,"ĠStates":732,"ington":733,"Ġr":734,"OL":735,"Ġbase":736,"Ġ27":737,"Ġ26":738,"ĠAS":739,"ric":740,"ind":741,"ead":742,"IS":743,"ĠRo":744,"Ġ28":745,"Ġor":746,"ĠYork":747,"urday":748,"44":749,"ef":750,"ĠIN":751,"ru":752,"irst":753,"56":754,"ight":755,"ĠSen":756,"endment":757,"Ġ06":758,"Ġout":759,"Ġ30":760,"55":761,"Cl":762,"ther":763,"cl":764,"ĠMan":765,"ING":766,"Ġform":767,"orts":768,"Ġ0":769,"ish":770,"iam":771,"Ġ2011":772,"Col":773,"ual":774,"oma":775,"ENT":776,"Ġ29":777,"Ġex":778,"2006":779,"Watched":780,"own":781,"Ġ24":782,"51":783,"ele":784,"San":785,"ĠCar":786,"bur":787,"ator":788,"ĠCity":789,"ĠSun":790,"ĠSc":791,"57":792,"int":793,"ford":794,"USA":795,"Mon":796,"anc":797,"ace":798,"67":799,"41":800,"58":801,"enn":802,"ction":803,"South":804,"43":805,"rivate":806,"reet":807,"Ġbe":808,"Ġ2010":809,"LE":810,"CT":811,"ath":812,"Ġfield":813,"ĠTuesday":814,"Ġfirst":815,"99":816,"Ġ25":817,"ĠThursday":818,"ĠWednesday":819,"ĠPro":820,"pe":821,"Ġname":822,"tion":823,"fer":824,"ĠMonday":825,"ffect":826,"ĠCA":827,"Ġvs":828,"ox":829,"OH":830,"53":831,"att":832,"Mich":833,"urn":834,"ss":835,"59":836,"ĠStreet":837,"VA":838,"AME":839,"ĠMar":840,"cess":841,"FB":842,"ĠOF":843,"eth":844,"sp":845,"ahoma":846,"klahoma":847,"Ġ2008":848,"ĠSat":849,"by":850,"54":851,"osed":852,"IC":853,"exas":854,"iew":855,"ĠSunday":856,"IA":857,"up":858,"omb":859,"SU":860,"ĠAn":861,"oy":862,"Oklahoma":863,"ks":864,"ang":865,"act":866,"WA":867,"Gre":868,"Ġtext":869,"196":870,"Ġus":871,"ĠAd":872,"ĠPl":873,"Ġcomp":874,"ĠFriday":875,"Ġag":876,"Ġwh":877,"red":878,"NV":879,"ĠPark":880,"enter":881,"ite":882,"EST":883,"2005":884,"ann":885,"Ġformat":886,"ĠFree":887,"ical":888,"42":889,"wner":890,"ĠSaturday":891,"ĠUnited":892,"ft":893,"ĠAr":894,"Ġdate":895,"thor":896,"Ġ2007":897,"roll":898,"Pro":899,"Los":900,"old":901,"orn":902,"arl":903,"52":904,"ffective":905,"86":906,"ingle":907,"Ph":908,"ION":909,"inal":910,"Las":911,"ĠVeg":912,"Cle":913,"North":914,"ime":915,"Ad":916,"ĠCl":917,"FRAME":918,"UC":919,"UR":920,"Ġ08":921,"ouis":922,"REEL":923,"ASSIGNOR":924,"Br":925,"ID":926,"Ġle":927,"yst":928,"isb":929,"ational":930,"ress":931,"Texas":932,"An":933,"vailable":934,"ĠSh":935,"igan":936,"2004":937,"mouth":938,"plication":939,"ĠVegas":940,"ance":941,"avid":942,"Ġvoted":943,"inn":944,"ouse":945,"ject":946,"ane":947,"der":948,"ins":949,"Ar":950,"ester":951,"ign":952,"reg":953,"90":954,"ix":955,"ida":956,"UT":957,"ĠSp":958,"ĠField":959,"format":960,"way":961,"Ġprivate":962,"erv":963,"75":964,"ĠNotes":965,"ĠRoad":966,"Ġthat":967,"GA":968,"ĠInc":969,"ĠNo":970,"notes":971,"NA":972,"000":973,"isbn":974,"66":975,"ater":976,"ey":977,"lor":978,"ings":979,"econd":980,"pen":981,"Ġass":982,"ham":983,"rid":984,"ages":985,"Ġ31":986,"ayment":987,"als":988,"yl":989,"Ind":990,"ake":991,"ech":992,"ĠINC":993,"field":994,"ool":995,"Year":996,"Ġ2006":997,"ition":998,"MENT":999,"ied":1000,"ama":1001,"Ġcont":1002,"John":1003,"SC":1004,"ild":1005,"78":1006,"ris":1007,"ĠAm":1008,"ĠEffective":1009,"ong":1010,"ett":1011,"95":1012,"eter":1013,"ecif":1014,"OS":1015,"ral":1016,"ik":1017,"Se":1018,"artmouth":1019,"umb":1020,"Ro":1021,"United":1022,"ino":1023,"tt":1024,"ĠSA":1025,"ĠCO":1026,"TO":1027,"NE":1028,"ombin":1029,"Ġpayment":1030,"olina":1031,"ounty":1032,"Ġch":1033,"anta":1034,"onn":1035,"64":1036,"ystem":1037,"Ġ/":1038,"tern":1039,"round":1040,"evel":1041,"Ġfee":1042,"ous":1043,"ĠCo":1044,"PAY":1045,"West":1046,"PM":1047,"bert":1048,"ata":1049,"available":1050,"62":1051,"cc":1052,"Ġ09":1053,"Unavailable":1054,"FPAY":1055,"Michigan":1056,"Qu":1057,"itt":1058,"Ġval":1059,"Ġad":1060,"Bl":1061,"author":1062,"ier":1063,"Ġk":1064,"ĠManual":1065,".;":1066,"eal":1067,".,":1068,"over":1069,"LC":1070,"Win":1071,"ink":1072,"MS":1073,"Ġ03":1074,"Ġpm":1075,"David":1076,"min":1077,"rans":1078,"regon":1079,"65":1080,"clud":1081,"Ġball":1082,"77":1083,"ĠRep":1084,"lic":1085,"ĠBl":1086,"88":1087,"Owner":1088,"not":1089,"100":1090,"2003":1091,"Miss":1092,"ashington":1093,"ĠCounty":1094,"erson":1095,"79":1096,"EC":1097,"Ġam":1098,"Available":1099,"TN":1100,"ston":1101,"aper":1102,"ONE":1103,"eor":1104,"UN":1105,"ott":1106,"no":1107,"Spell":1108,"Aust":1109,"Act":1110,"formation":1111,"amil":1112,"ĠINTER":1113,"ames":1114,"68":1115,"ĠCol":1116,"2002":1117,"back":1118,"ĠSenate":1119,"ream":1120,"ions":1121,"yn":1122,"ĠZ":1123,"tl":1124,"ĠJun":1125,"Ġe":1126,"enc":1127,"und":1128,"ĠScroll":1129,"Oregon":1130,"Flor":1131,"Car":1132,"72":1133,"tein":1134,"ago":1135,"ada":1136,"70":1137,"ors":1138,"ower":1139,"Louis":1140,"az":1141,"ona":1142,"ĠAl":1143,"60":1144,"2000":1145,"ĠCarolina":1146,"69":1147,"Read":1148,"new":1149,"Port":1150,"Ġev":1151,"2001":1152,"ound":1153,"inc":1154,"Home":1155,"Ġ04":1156,"itch":1157,"RA":1158,"Ġago":1159,"ank":1160,"les":1161,"ike":1162,"Ġ01":1163,"ĠAug":1164,"irect":1165,"ĠJul":1166,"Ġ05":1167,"HI":1168,"Mult":1169,"ĠBe":1170,"Final":1171,"ode":1172,"Ġsh":1173,"ASS":1174,"Sc":1175,"Amendment":1176,"unn":1177,"Sports":1178,"burg":1179,"dress":1180,"ax":1181,"illiam":1182,"righ":1183,"ATION":1184,"Ġsp":1185,"air":1186,"ĠNY":1187,"98":1188,"ener":1189,"ngel":1190,"orp":1191,"rist":1192,"aylor":1193,"ĠAN":1194,"co":1195,"ert":1196,"MD":1197,"Ġ02":1198,"HA":1199,"ept":1200,"ĠINTEREST":1201,"Florida":1202,"ere":1203,"Full":1204,"SE":1205,"ari":1206,"ĠFran":1207,"Washington":1208,"Ġas":1209,"ental":1210,"ule":1211,"--":1212,"Ġinclud":1213,"RI":1214,"eam":1215,"iple":1216,"ĠEn":1217,"Men":1218,"hio":1219,"ara":1220,"ery":1221,"MM":1222,"ĠSch":1223,"mkl":1224,"rew":1225,"mklz":1226,"SD":1227,"76":1228,"ram":1229,"OK":1230,"OT":1231,"ORP":1232,"ĠST":1233,"80":1234,"Want":1235,"Ġpl":1236,"WI":1237,"ocation":1238,"Open":1239,"mson":1240,"NJ":1241,"Ġline":1242,"Ġsecond":1243,"rike":1244,"ĠAver":1245,"Green":1246,"ĠOct":1247,"erman":1248,"ĠNight":1249,"ĠJan":1250,"Ġinformation":1251,"ĠRe":1252,"icago":1253,"ondon":1254,"ose":1255,"DE":1256,"ĠIll":1257,"lex":1258,"ouri":1259,"ron":1260,"74":1261,"84":1262,"ĠFL":1263,"Ġun":1264,"85":1265,"ĠNov":1266,"ĠPRO":1267,"ĠLLC":1268,"onf":1269,"ESS":1270,"HO":1271,"ĠASSIGN":1272,"Fres":1273,"ĠDec":1274,"Louisville":1275,"rod":1276,"PI":1277,"uss":1278,"upp":1279,"rikeout":1280,"ody":1281,"ĠAverages":1282,"iron":1283,"ource":1284,"ĠMc":1285,"onsin":1286,"DONE":1287,"Ex":1288,"isconsin":1289,"ĠASSIGNMENT":1290,"alk":1291,"iver":1292,"onent":1293,"yd":1294,"its":1295,"itu":1296,"Shel":1297,"63":1298,"Co":1299,"Not":1300,"71":1301,"Clemson":1302,"ĠOr":1303,"AD":1304,"Fran":1305,"Stan":1306,"Chicago":1307,"strikeout":1308,"ets":1309,"abama":1310,"Ohio":1311,"eck":1312,"ĠNightly":1313,"alt":1314,"ĠPM":1315,"ai":1316,"ael":1317,"application":1318,"right":1319,"Ġall":1320,"LSU":1321,"Ed":1322,"On":1323,"),":1324,"rad":1325,"lo":1326,"ĠASSIGNOR":1327,"Multiple":1328,"83":1329,"ĠDO":1330,"ĠAngel":1331,"AZ":1332,"ĠDartmouth":1333,"viron":1334,"Wisconsin":1335,"vironment":1336,"ĠEd":1337,"GR":1338,"line":1339,"bs":1340,"idence":1341,"MP":1342,"ĠBro":1343,"ommun":1344,"Atl":1345,"ĠSenator":1346,"eric":1347,"73":1348,"MN":1349,"olog":1350,"TH":1351,"Ġ2005":1352,"...":1353,"ivers":1354,"itor":1355,"En":1356,"Missouri":1357,"ĠX":1358,"ĠJohn":1359,"Alabama":1360,"af":1361,"AND":1362,"ĠASSIGNORS":1363,"posed":1364,"Jack":1365,"ement":1366,"ĠMay":1367,"ys":1368,"ature":1369,"Ġcomput":1370,"ĠFeb":1371,"resent":1372,"Fri":1373,"Fresno":1374,"Shelby":1375,"els":1376,"ĠGu":1377,"port":1378,"87":1379,"Ġwhich":1380,"ars":1381,"rib":1382,"ĠPaper":1383,"omen":1384,"Ġtown":1385,"Ġ00":1386,"ony":1387,"AB":1388,"ring":1389,"IR":1390,"lin":1391,"Ġexper":1392,"Tot":1393,"ĠPA":1394,"oo":1395,"iami":1396,"Ġ[":1397,"isco":1398,"oss":1399,"arb":1400,"Male":1401,"ating":1402,"ior":1403,"ote":1404,"89":1405,"ics":1406,"Ins":1407,"ublic":1408,"let":1409,"UCLA":1410,"eland":1411,"any":1412,"ĠTX":1413,"ico":1414,"1999":1415,"vironmental":1416,"Ġcombin":1417,"Stanford":1418,"London":1419,"SA":1420,"Miami":1421,"ld":1422,"ute":1423,"ferred":1424,"Man":1425,"ĠAngeles":1426,"uck":1427,"her":1428,"ĠNorth":1429,"La":1430,"Ġres":1431,"ateg":1432,"BA":1433,"Gr":1434,"aster":1435,"Eng":1436,"ook":1437,"TE":1438,"onc":1439,"riz":1440,"ethod":1441,"eless":1442,"ĠApr":1443,"ows":1444,"Bro":1445,"ger":1446,"Loss":1447,"Baylor":1448,"Ġprotein":1449,"ETTER":1450,"vent":1451,"ĠMen":1452,"El":1453,"ĠTech":1454,"Ġsystem":1455,"ĠAM":1456,"Aub":1457,"Phil":1458,"ve":1459,"aul":1460,"81":1461,"June":1462,"wood":1463,"ype":1464,"ivity":1465,"Ġint":1466,"ĠLETTER":1467,"Ġexperim":1468,"pm":1469,"Ġcombination":1470,"inu":1471,"alif":1472,"ĠCenter":1473,"ĠPaperback":1474,"ĠCORP":1475,"rig":1476,"Ġinferred":1477,"82":1478,"ireless":1479,"Ġexperimental":1480,"96":1481,"MB":1482,"stream":1483,"Mov":1484,"err":1485,"Auburn":1486,"ĠFull":1487,"Charl":1488,"ĠFranc":1489,"pt":1490,"Ġevidence":1491,"Gl":1492,"ave":1493,"ĠFile":1494,"AP":1495,"Ġcl":1496,"HE":1497,"ĠAnd":1498,"oll":1499,"Ġpresent":1500,"emb":1501,"ular":1502,"Portland":1503,"ĠWatch":1504,"ĠSep":1505,"IF":1506,"UL":1507,"uccess":1508,"oin":1509,"Ġcomputational":1510,"ols":1511,"ĠMore":1512,"we":1513,"Ġsub":1514,"Ġwee":1515,"ALL":1516,"Dan":1517,"inois":1518,"apol":1519,"Ġproposed":1520,"ĠComp":1521,"arm":1522,"ĠNew":1523,"elect":1524,"DIS":1525,"yc":1526,"PAT":1527,"ĠTime":1528,"ner":1529,"Kn":1530,"Ġprov":1531,"And":1532,"ĠBr":1533,"1998":1534,"oice":1535,"ĠQu":1536,"ridge":1537,"Min":1538,"ĠWest":1539,"ald":1540,").":1541,"ĠIL":1542,"61":1543,"Can":1544,"GE":1545,"For":1546,"ayer":1547,"ĠBeach":1548,"March":1549,"erry":1550,"erm":1551,"eph":1552,"July":1553,"Ġnot":1554,"CC":1555,"VE":1556,"Ġone":1557,"Ġpart":1558,"Insitu":1559,"AK":1560,"Disc":1561,"ĠAddress":1562,"ene":1563,"Friday":1564,"ota":1565,"oct":1566,"Or":1567,"Ġrec":1568,"eng":1569,"Ġsc":1570,"ĠSP":1571,"Ġim":1572,"Ġcan":1573,"ME":1574,"Ġ*":1575,"1996":1576,"Success":1577,"ILL":1578,"KY":1579,"rizona":1580,"ise":1581,"ĠPh":1582,"upport":1583,"house":1584,"ases":1585,"ection":1586,"Tuesday":1587,"Ġph":1588,"ategory":1589,"ĠAPI":1590,"Wednesday":1591,"oe":1592,"Ġdata":1593,"Columb":1594,"Davidson":1595,"uild":1596,"Ġ#":1597,"Cell":1598,"97":1599,"pro":1600,"oat":1601,"1997":1602,"Thursday":1603,"Movie":1604,"bject":1605,"Sept":1606,"Ġde":1607,"DC":1608,"Fil":1609,"ison":1610,"mer":1611,"ana":1612,"500":1613,"ices":1614,"aint":1615,"Le":1616,"ĠFrancisco":1617,"ersh":1618,"shire":1619,"use":1620,"Cit":1621,"ITY":1622,"ird":1623,"Ġvalid":1624,"Fr":1625,"apolis":1626,"Mont":1627,"OVA":1628,"ler":1629,"This":1630,"uff":1631,"CE":1632,"ober":1633,"Ġ2004":1634,"Ġcenter":1635,"attle":1636,"Atlanta":1637,"ĠHigh":1638,"eros":1639,"Sw":1640,"ĠPart":1641,"ĠIs":1642,"Monday":1643,"ĠUT":1644,"ĠHill":1645,"amb":1646,"ĠWireless":1647,"arr":1648,"octet":1649,"All":1650,"Ġthis":1651,"ade":1652,"Ġrel":1653,"FC":1654,"Pl":1655,"CHED":1656,"SL":1657,"Flask":1658,"240":1659,"ĠSouth":1660,"Ġal":1661,"mith":1662,"92":1663,"ertion":1664,"ĠEx":1665,"ĠReports":1666,"adel":1667,"April":1668,"ado":1669,"row":1670,"umber":1671,"Ġac":1672,"ium":1673,"unt":1674,"aj":1675,"Ġleft":1676,"ĠWh":1677,"Ġwill":1678,"94":1679,"asters":1680,"93":1681,"ĠFor":1682,"PIT":1683,"CS":1684,"rap":1685,"DISPAT":1686,"Arizona":1687,"DISPATCHED":1688,"Direct":1689,"Ġ2003":1690,"ility":1691,"ural":1692,"que":1693,"PE":1694,"1995":1695,"ĠMA":1696,"Web":1697,"Ġassertion":1698,"erd":1699,"gan":1700,"Ġdis":1701,"ĠAct":1702,"urr":1703,"ermany":1704,"earch":1705,"91":1706,"Ġamendment":1707,"Ġhas":1708,"Ġspecif":1709,"eff":1710,"Rep":1711,"ki":1712,"Ġpre":1713,"task":1714,"ERS":1715,"ased":1716,"Comp":1717,"uary":1718,"Pol":1719,"ĠInd":1720,"VD":1721,"Ġright":1722,"Aeros":1723,"Den":1724,"So":1725,"lish":1726,"oston":1727,"ident":1728,"ward":1729,"ros":1730,"GB":1731,"ces":1732,"**":1733,"Ġmethod":1734,"Ġab":1735,"eta":1736,"PR":1737,"rive":1738,"Ġtrans":1739,"phia":1740,"esh":1741,"Aerosols":1742,"ba":1743,"Dr":1744,"udio":1745,"adelphia":1746,"aliforn":1747,"Ġup":1748,"ortst":1749,"Rec":1750,"reen":1751,"face":1752,"ecial":1753,"IG":1754,"ipp":1755,"ience":1756,"Ġvalidated":1757,"alifornia":1758,"FX":1759,"Ag":1760,"Thu":1761,"250":1762,"Norm":1763,"onst":1764,"ven":1765,"Mc":1766,"rian":1767,"ĠFood":1768,"ĠPlan":1769,"ĠIllinois":1770,"ansas":1771,"ĠNO":1772,"ents":1773,"chester":1774,"Tor":1775,"pplication":1776,"Closed":1777,"ĠLe":1778,"Ġacc":1779,"lement":1780,"ĠHard":1781,"ush":1782,"ideo":1783,"ĠPROGR":1784,"uct":1785,"roup":1786,"pring":1787,"PS":1788,"Geor":1789,"750":1790,"Fort":1791,"ĠAND":1792,"aska":1793,"NS":1794,"ĠCorp":1795,"IM":1796,"ĠServ":1797,"110":1798,"Ġdev":1799,"ney":1800,"lect":1801,"ortstop":1802,"From":1803,"Res":1804,"DB":1805,"eas":1806,"irm":1807,"rol":1808,"ations":1809,"ĠAss":1810,"Austin":1811,"Par":1812,"itoring":1813,"Ġprovid":1814,"ampton":1815,"ĠDoc":1816,"arg":1817,"me":1818,"ĠFl":1819,"Level":1820,"ouston":1821,"ership":1822,"ĠLa":1823,"Jackson":1824,"EV":1825,"Ġinter":1826,"Philadelphia":1827,"ĠPROGRESS":1828,"ELL":1829,"SO":1830,"Away":1831,"II":1832,"Robert":1833,"ative":1834,"155":1835,"Saturday":1836,"Greenhouse":1837,"Rich":1838,"ĠGases":1839,"ĠVol":1840,"2016":1841,"aly":1842,"onnect":1843,"ASSED":1844,"oth":1845,"Tue":1846,"ingham":1847,"oul":1848,"quest":1849,"erc":1850,"LIN":1851,"Ġground":1852,"Other":1853,"Ġhe":1854,"KS":1855,"mp":1856,"Wed":1857,"Boston":1858,"RIN":1859,"Ġday":1860,"Float":1861,"ena":1862,"ĠGl":1863,"Category":1864,"ĠCORPOR":1865,"Seattle":1866,"William":1867,"Ġ,":1868,"ĠView":1869,"ĠRes":1870,"emale":1871,"TA":1872,"ines":1873,"ĠDe":1874,"Masters":1875,"ĠVal":1876,"ocial":1877,"ICA":1878,"ble":1879,"oint":1880,"eview":1881,"bor":1882,"ITH":1883,"comp":1884,"ove":1885,"To":1886,"ĠGA":1887,"De":1888,"LAT":1889,"ano":1890,"ĠAg":1891,"win":1892,"ources":1893,"lands":1894,"ĠMonitoring":1895,"It":1896,"entral":1897,"Activity":1898,"yr":1899,"ology":1900,"ĠCORPORATION":1901,"ELE":1902,"allas":1903,"WC":1904,"ARI":1905,"usic":1906,"atic":1907,"Ġ2002":1908,"part":1909,"Nash":1910,"Normal":1911,"amilton":1912,"ommunication":1913,"Pr":1914,"evelop":1915,"ĠDB":1916,"atus":1917,"ĠKing":1918,"ĠWilliam":1919,"gin":1920,"ĠNE":1921,"Sen":1922,"key":1923,"Ġweeks":1924,"Germany":1925,"ĠBay":1926,"apan":1927,"DF":1928,"ones":1929,"Houston":1930,"eriz":1931,"Ne":1932,"Bar":1933,"Ġro":1934,"Int":1935,"rick":1936,"Mil":1937,"ruary":1938,"BO":1939,"Ġdot":1940,"ĠDC":1941,"ole":1942,"ĠYES":1943,"Ġgener":1944,"dy":1945,"ocket":1946,"Ġvoting":1947,"TON":1948,"SM":1949,"ĠDr":1950,"oci":1951,"lyn":1952,"ralia":1953,"Nashville":1954,"Ġnear":1955,"ica":1956,"Citi":1957,"uk":1958,"Sunday":1959,"ession":1960,"Ġsingle":1961,"ĠLake":1962,"ulture":1963,"Female":1964,"ĠCont":1965,"ĠRec":1966,"oly":1967,"Tr":1968,"ĠGuide":1969,"omas":1970,"Santa":1971,"dt":1972,"ORE":1973,"August":1974,"October":1975,"ues":1976,"amily":1977,"ĠFC":1978,"FA":1979,"December":1980,"ĠQ":1981,"ption":1982,"erver":1983,"ross":1984,"Mad":1985,"ĠBHA":1986,"OP":1987,"ASSIGNORS":1988,"ĠWt":1989,"ĠOH":1990,"rete":1991,"onfig":1992,"ĠPr":1993,"ĠSEC":1994,"ondo":1995,"iles":1996,"ĠDi":1997,"ebr":1998,"Ġ*\"":1999,"str":2000,"sc":2001,"November":2002,"onto":2003,"com":2004,"Michael":2005,"roc":2006,"ware":2007,"ma":2008,"fly":2009,"Re":2010,"None":2011,"cover":2012,"idd":2013,"app":2014,"CHN":2015,"eat":2016,"Bel":2017,"Canada":2018,"won":2019,"single":2020,"1993":2021,"Ġlbs":2022,"ĠPartn":2023,"arri":2024,"ures":2025,"1992":2026,"uilding":2027,"uro":2028,"rough":2029,"mon":2030,"Sal":2031,"ĠTr":2032,"obile":2033,"eld":2034,"obs":2035,"ĠAge":2036,"thly":2037,"etro":2038,"iversity":2039,"west":2040,"Dallas":2041,"HL":2042,"September":2043,"ights":2044,"1994":2045,"ider":2046,"erly":2047,"exico":2048,"tonio":2049,"erizon":2050,"154":2051,"som":2052,"Land":2053,"SF":2054,"Rule":2055,"ĠHardcover":2056,"ML":2057,"ĠAmendment":2058,"Northern":2059,"ibr":2060,"ury":2061,"Ġannot":2062,"play":2063,"107":2064,"Comm":2065,"Ġ35":2066,"ict":2067,"Filly":2068,"Hamilton":2069,"osh":2070,"Ġincludes":2071,"Combin":2072,"VER":2073,"ruct":2074,"CL":2075,"ified":2076,"erican":2077,"ient":2078,"ty":2079,"Ġannotation":2080,"1988":2081,"of":2082,"mond":2083,"ĠPower":2084,"MIN":2085,"ebraska":2086,"ĠMI":2087,"Condo":2088,"irgin":2089,"owf":2090,"alled":2091,"ired":2092,"uring":2093,"Ġcom":2094,"eston":2095,"ebody":2096,"uke":2097,"uch":2098,"Combined":2099,"ĠEnvironmental":2100,"Ġj":2101,"ĠMich":2102,"ĠPartnership":2103,"walk":2104,"000000":2105,"ĠSpecial":2106,"ground":2107,"ats":2108,"somebody":2109,"Discrete":2110,"Ġinst":2111,"ĠAG":2112,"rain":2113,"Ġmod":2114,"00000":2115,"Ġu":2116,"Ġsouth":2117,"Rel":2118,"kins":2119,"ava":2120,"Har":2121,"Totals":2122,"ĠSM":2123,"UCF":2124,"riculture":2125,"wowf":2126,"wowfie":2127,"ĠWITH":2128,"RAN":2129,"ref":2130,"ĠLouis":2131,"ĠMark":2132,"January":2133,"Ġabout":2134,"ego":2135,"erg":2136,"106":2137,"Ġhh":2138,"Ġport":2139,"kn":2140,"ĠOwner":2141,"ampa":2142,"ision":2143,"itz":2144,"Indian":2145,"Gu":2146,"ĠEl":2147,"iff":2148,"orado":2149,"Sch":2150,"DA":2151,"de":2152,"BC":2153,"Japan":2154,"apt":2155,"PH":2156,"As":2157,"Ġlink":2158,"ette":2159,"Brook":2160,"ency":2161,"ĠUS":2162,"work":2163,"ania":2164,"icle":2165,"ĠAntonio":2166,"111":2167,"Ġvalue":2168,"Mary":2169,"CK":2170,"Toronto":2171,"OW":2172,"Nor":2173,"Ġper":2174,"Ma":2175,"ENE":2176,"ĠHouse":2177,"ĠOn":2178,"eve":2179,"BER":2180,"1990":2181,"ason":2182,"Dartmouth":2183,"Private":2184,"1989":2185,"Australia":2186,"Wh":2187,"ml":2188,"300":2189,"Knox":2190,"bon":2191,"ocal":2192,"utom":2193,"COL":2194,"Minn":2195,"na":2196,"ĠOper":2197,"Funn":2198,"India":2199,"Ġvote":2200,"ĠAf":2201,"Nebraska":2202,"ĠSmith":2203,"Ġact":2204,"ycow":2205,"Funnycow":2206,"Ġdevice":2207,"1991":2208,"ĠGr":2209,"ific":2210,"irginia":2211,"reed":2212,"Monthly":2213,"ternal":2214,"ĠTE":2215,"yan":2216,"Denver":2217,"Christ":2218,"ities":2219,"Directory":2220,"ecur":2221,"ense":2222,"Chris":2223,"Be":2224,"Ġdba":2225,"iller":2226,"ontinu":2227,"iter":2228,"td":2229,"MAN":2230,"ĠHe":2231,"jp":2232,"ARD":2233,"Bus":2234,"burgh":2235,"Amdt":2236,"Ġapp":2237,"illa":2238,"Reading":2239,"Ġlayer":2240,"Ġbeen":2241,"Jeff":2242,"ĠTest":2243,"ĠWomen":2244,"Ġmember":2245,"alls":2246,"istan":2247,"Alex":2248,"ASE":2249,"uper":2250,"put":2251,"ĠHar":2252,"Ġnorth":2253,"ommunications":2254,"Ġtime":2255,"Active":2256,"lege":2257,"ĠAll":2258,"302":2259,"ĠCH":2260,"oints":2261,"Kansas":2262,"Ġvoice":2263,"kee":2264,"Cellco":2265,"gram":2266,"ati":2267,"Ġ:":2268,"ling":2269,"veland":2270,"1909":2271,"101":2272,"ka":2273,"evin":2274,"James":2275,"Mike":2276,"ved":2277,"OG":2278,"fr":2279,"iness":2280,"oz":2281,"ĠHol":2282,"rica":2283,"HT":2284,"eed":2285,"ez":2286,"Ġit":2287,"SP":2288,"dom":2289,"Em":2290,"Sl":2291,"otte":2292,"Ġsources":2293,"date":2294,"ĠHall":2295,"Ġset":2296,"ouble":2297,"ĠSchool":2298,"Ġ3240":2299,"REG":2300,"Saint":2301,"urrent":2302,"Total":2303,"ĠSource":2304,"Ġ+":2305,"Pet":2306,"Ġdef":2307,"Ġelect":2308,"raph":2309,"ution":2310,"206":2311,"ĠManually":2312,"Ġmon":2313,"AU":2314,"unning":2315,"yle":2316,"LATIN":2317,"Ġen":2318,"Single":2319,"even":2320,"rie":2321,"ĠTeam":2322,"1987":2323,"NH":2324,"ĠBuilding":2325,"oard":2326,"ounds":2327,"125":2328,"Ġ2000":2329,"ĠII":2330,"DVD":2331,"aid":2332,"ĠVerizon":2333,"oft":2334,"ĠMor":2335,"TI":2336,"oel":2337,"Review":2338,"uz":2339,"ĠEng":2340,"ORN":2341,"ĠTO":2342,"UM":2343,"Ġind":2344,"ung":2345,"otion":2346,"ĠComm":2347,"EF":2348,"KB":2349,"Sr":2350,"aff":2351,"Ġdisc":2352,"TY":2353,"PL":2354,"image":2355,"1984":2356,"ĠSw":2357,"specif":2358,"Public":2359,"esota":2360,"ait":2361,"Ġcol":2362,"Agriculture":2363,"lar":2364,"esc":2365,"ĠRed":2366,"ĠDame":2367,"Ġreg":2368,"FRA":2369,"gia":2370,"arks":2371,"ij":2372,"NM":2373,"ersion":2374,"Ġapplication":2375,"??":2376,"ract":2377,"ANK":2378,"Relocation":2379,"Ast":2380,"ĠPDB":2381,"SW":2382,"etwork":2383,"ĠCOMP":2384,"known":2385,"Adult":2386,"view":2387,"String":2388,"sport":2389,"ilver":2390,"ĠSMALL":2391,"ĠJobs":2392,"ĠServices":2393,"ĠAL":2394,"bury":2395,"English":2396,"ely":2397,"Ted":2398,"ough":2399,"sw":2400,"App":2401,"Ġprocess":2402,"Ġevidencei":2403,"ĠSC":2404,"Mor":2405,"Ġother":2406,"Mark":2407,"ife":2408,"ĠDiego":2409,"ĠReform":2410,"Ġmin":2411,"MT":2412,"1986":2413,"Notre":2414,"ĠBar":2415,"Jacksonville":2416,"HC":2417,"ĠCamp":2418,"component":2419,"uel":2420,"ĠTN":2421,"113":2422,"ky":2423,"ĠuM":2424,"ĠMain":2425,"Cleveland":2426,"utes":2427,"oper":2428,"AC":2429,"Hal":2430,"lost":2431,"Women":2432,"Ġnumber":2433,"SR":2434,"irc":2435,"igned":2436,"ids":2437,"CD":2438,"Is":2439,"Ġthrough":2440,"1911":2441,"oot":2442,"ffic":2443,"ission":2444,"ero":2445,"Ġfl":2446,"Ġend":2447,"France":2448,"Per":2449,"ĠRiver":2450,"209":2451,"ND":2452,"ĠNC":2453,"ĠRead":2454,"Colt":2455,"den":2456,"Ġused":2457,"alm":2458,"ween":2459,"ording":2460,"ean":2461,"urface":2462,"LOS":2463,"ĠDay":2464,"February":2465,"ĠWA":2466,"Team":2467,"ĠJr":2468,"bl":2469,"rey":2470,"ules":2471,"CON":2472,"ĠWeb":2473,"ĠCommunications":2474,"Ġaccess":2475,"Reg":2476,"Environmental":2477,"Ġ2001":2478,"AA":2479,"**)":2480,"ĠBell":2481,"ĠBrown":2482,"ibrary":2483,"Ġlist":2484,"amin":2485,"unch":2486,"Val":2487,"itts":2488,"Bob":2489,"Brian":2490,"Cal":2491,"Def":2492,"Ġ1998":2493,"ĠCat":2494,"150":2495,"Wil":2496,"Ġfile":2497,"unction":2498,"osition":2499,"ĠThis":2500,"Ġbet":2501,"ĠManag":2502,"PITAL":2503,"Tampa":2504,"ĠOR":2505,"fl":2506,"ĠPet":2507,"ĠPaul":2508,"raz":2509,"ourn":2510,"oun":2511,"ĠQuick":2512,"andy":2513,"ĠNOT":2514,"Ġnew":2515,"1910":2516,"Ġtype":2517,"Columbus":2518,"Ġscience":2519,"urope":2520,"dra":2521,"avis":2522,"Ġant":2523,"104":2524,"180":2525,"Ġmay":2526,"Jr":2527,"Ġsign":2528,"Ġdrive":2529,"ĠMO":2530,"LAN":2531,"oen":2532,"GEL":2533,"acing":2534,"ria":2535,"Ġ1999":2536,"ux":2537,"ealth":2538,"ĠClass":2539,"ugh":2540,"Ġusing":2541,"Haw":2542,"ration":2543,"ĠChrist":2544,"ĠSECUR":2545,"ĠPAR":2546,"oln":2547,"load":2548,"ĠSocial":2549,"atab":2550,"Ġret":2551,"ains":2552,"ein":2553,"PASSED":2554,"ization":2555,"agn":2556,"Mr":2557,"Ann":2558,"ĠLow":2559,"BAL":2560,"Ġtest":2561,"Ġserv":2562,"Del":2563,"Ġrequest":2564,"ĠSECURITY":2565,"AG":2566,"120":2567,"gl":2568,"Red":2569,"itcher":2570,"Ġsupport":2571,"bit":2572,"CAN":2573,"Alb":2574,"MAR":2575,"awa":2576,"STE":2577,"xide":2578,"ander":2579,"Ġdays":2580,"ethane":2581,"ĠCAPITAL":2582,"Brooklyn":2583,"Manchester":2584,"Ġdevelop":2585,"ĠFOR":2586,"PG":2587,"Met":2588,"tr":2589,"Ġwhen":2590,"Jim":2591,"MIT":2592,"ants":2593,"def":2594,"Ġtop":2595,"imore":2596,"Mobile":2597,"ae":2598,"ĠBank":2599,"123":2600,"Columbia":2601,"ĠUTC":2602,"ĠCompany":2603,"KE":2604,"No":2605,"oys":2606,"LO":2607,"Ġonly":2608,"Ġaddress":2609,"Ġagreed":2610,"ĠOperator":2611,"Minnesota":2612,"BY":2613,"REE":2614,"second":2615,"ĠAfrica":2616,"ster":2617,"edia":2618,"ĠANGEL":2619,"ĠMart":2620,"ather":2621,"etermin":2622,"Pan":2623,"With":2624,"LY":2625,"ONSC":2626,"BR":2627,"eet":2628,"Ġ100":2629,"ONSCENE":2630,"altimore":2631,"IFORN":2632,"TR":2633,"FOR":2634,"DR":2635,"Teddy":2636,"rik":2637,"ĠANGELES":2638,"ĠPCS":2639,"deb":2640,"shortstop":2641,"Ac":2642,"ĠProject":2643,"andard":2644,"ital":2645,"Charlotte":2646,"End":2647,"erdale":2648,"olph":2649,"Ġleast":2650,"IFORNIA":2651,"uderdale":2652,"gen":2653,"Ġcons":2654,"ĠYou":2655,"Ġbetween":2656,"oor":2657,"151":2658,"HAR":2659,"JR":2660,"Dick":2661,"Ir":2662,"irl":2663,"leans":2664,"...\"":2665,"Ab":2666,"ontinuance":2667,"CY":2668,"Paul":2669,"ible":2670,"onfigur":2671,"PK":2672,"pon":2673,"EX":2674,"Ev":2675,"uthor":2676,"ryst":2677,"ser":2678,"Sam":2679,"ells":2680,"Ġmore":2681,"GER":2682,"ĠValley":2683,"Ġbl":2684,"ords":2685,"atabase":2686,"ĠCAL":2687,"Story":2688,"Ass":2689,"ese":2690,"121":2691,"Ġuse":2692,"ĠSY":2693,"lando":2694,"ĠIt":2695,"Minne":2696,"Ġautom":2697,"Mat":2698,"Ġinto":2699,"ĠAir":2700,"ĠLtd":2701,"OLD":2702,"cast":2703,"rop":2704,"ĠCon":2705,"PDF":2706,"Cr":2707,"han":2708,"wo":2709,"enh":2710,"Italy":2711,"Mel":2712,"ĠPASS":2713,"wau":2714,"ĠAc":2715,"ĠUniversity":2716,"Daniel":2717,"ĠBlack":2718,"specified":2719,"ĠNV":2720,"190":2721,"Pak":2722,"ecurity":2723,"Ġobject":2724,"Video":2725,"ĠCan":2726,"state":2727,"eptor":2728,"ĠSe":2729,"ĠAve":2730,"Pitts":2731,"IE":2732,"ault":2733,"berg":2734,"list":2735,"ange":2736,"umm":2737,"gz":2738,"ĠAZ":2739,"BM":2740,"ANY":2741,"1985":2742,"SON":2743,"monton":2744,"IP":2745,"Ġwater":2746,"Ber":2747,"Ġrece":2748,"Sub":2749,"ura":2750,"ĠMo":2751,"Im":2752,"GO":2753,"arc":2754,"waukee":2755,"REMI":2756,"Fin":2757,"ĠSpr":2758,"159":2759,"Baltimore":2760,"ites":2761,"ĠAR":2762,"CR":2763,"ittle":2764,"Spring":2765,"real":2766,"ĠCalifornia":2767,"Ġ1997":2768,"Ġdet":2769,"for":2770,"led":2771,"asterly":2772,"Ġ50":2773,"Black":2774,"Central":2775,"thers":2776,"iet":2777,"ĠUSA":2778,"ales":2779,"ĠRock":2780,"ecked":2781,"Russ":2782,"quence":2783,"ĠOrleans":2784,"useum":2785,"Real":2786,"vel":2787,"Pat":2788,"iction":2789,"ĠCharl":2790,"Stalled":2791,"Ġsim":2792,"ĠGreen":2793,"yp":2794,"Busch":2795,"etroit":2796,"OD":2797,"ĠArm":2798,"Ben":2799,"off":2800,"actor":2801,"owa":2802,"Madison":2803,"oud":2804,"ĠDID":2805,"rem":2806,"ills":2807,"Minneapolis":2808,"unspecified":2809,"earn":2810,"ference":2811,"105":2812,"rigley":2813,".)":2814,"oenix":2815,"Ret":2816,"aving":2817,"AV":2818,"ĠStudio":2819,"Ant":2820,"Don":2821,"Wrigley":2822,"arn":2823,"Ġuser":2824,"ĠMD":2825,"ship":2826,"aract":2827,"Ġcomm":2828,"California":2829,"Tig":2830,"East":2831,"hk":2832,"Ġ40":2833,"drawn":2834,"Orlando":2835,"df":2836,"ument":2837,"ita":2838,"ĠBel":2839,"inux":2840,"urt":2841,"1982":2842,"ĠDan":2843,"Case":2844,"ouver":2845,"NEM":2846,"Ġqu":2847,"Replic":2848,"ownload":2849,"incoln":2850,"Replicate":2851,"ments":2852,"TS":2853,"ĠMod":2854,"Cont":2855,"amm":2856,"EE":2857,"Ġaccording":2858,"Ġ201":2859,"incinn":2860,"Ġele":2861,"ĠKingdom":2862,"icense":2863,"incinnati":2864,"Dro":2865,"England":2866,"1980":2867,"oad":2868,"DU":2869,"TT":2870,"ĠWind":2871,"Add":2872,"const":2873,"Milwaukee":2874,"tar":2875,"ĠSta":2876,"ĠMat":2877,"ancouver":2878,"ĠMin":2879,"ourt":2880,"ĠEast":2881,"ola":2882,"Pittsburgh":2883,"inger":2884,"wich":2885,"205":2886,"rim":2887,"ATES":2888,"alo":2889,"ĠGeor":2890,"BL":2891,"esign":2892,"Opp":2893,"eder":2894,"thew":2895,"OU":2896,"Methane":2897,"oseph":2898,"Ġallows":2899,"Ġexp":2900,"ize":2901,"iana":2902,"WAS":2903,"Detroit":2904,"jpeg":2905,"Sar":2906,"Ġcontrol":2907,"partment":2908,"005":2909,"Pakistan":2910,"ĠArt":2911,"irmingham":2912,"oph":2913,"inding":2914,"acific":2915,"overn":2916,"PP":2917,"hib":2918,"Tim":2919,"ĠWay":2920,"CM":2921,"gar":2922,"Dod":2923,"Mexico":2924,"Ġgenerated":2925,"ĠTele":2926,"CHA":2927,"urg":2928,"Georgia":2929,"oration":2930,"aven":2931,"ĠSan":2932,"Declar":2933,"Hour":2934,"Test":2935,"ĠJohnson":2936,"Ġcompr":2937,"ĠWI":2938,"ĠRepublic":2939,"Ġconfigur":2940,"Object":2941,"Lar":2942,"aps":2943,"eneral":2944,"Cincinnati":2945,"204":2946,"Prot":2947,"oga":2948,"TD":2949,"urch":2950,"108":2951,"ĠJames":2952,"Sac":2953,"lean":2954,"eq":2955,"pped":2956,"112":2957,"Opponent":2958,"ĠMiss":2959,"ness":2960,"ĠWilliams":2961,"ĠCALIFORNIA":2962,"Tem":2963,"ape":2964,"ogs":2965,"Ġyou":2966,"Ġ>":2967,"Non":2968,"ĠNEW":2969,"Apartment":2970,"ĠFalls":2971,"ĠOf":2972,"109":2973,"Ġman":2974,"ĠDavid":2975,"ret":2976,"Ġclass":2977,"ism":2978,"arter":2979,"Ġportion":2980,"raw":2981,"ĠLibrary":2982,"Joe":2983,"acc":2984,"ym":2985,"HER":2986,"RED":2987,"Ġdisplay":2988,"Ġif":2989,"Hourly":2990,"adley":2991,"ariant":2992,"Ġ$":2993,"102":2994,"ictor":2995,"ising":2996,"ĠHighway":2997,"Class":2998,"QU":2999,"rd":3000,"Date":3001,"ribute":3002,"ek":3003,"Ġconnect":3004,"103":3005,"rs":3006,"read":3007,"Duke":3008,"Ott":3009,"ĠRich":3010,"Richard":3011,"ĠAnch":3012,"195":3013,"Ġover":3014,"uction":3015,"Ġoper":3016,"Hol":3017,"Phoenix":3018,"ĠCOMPANY":3019,"ever":3020,"NEW":3021,"Ġphone":3022,"HOU":3023,"ĠIsland":3024,"Indianapolis":3025,"well":3026,"American":3027,"ioxide":3028,"eries":3029,"ATE":3030,"Ġincluding":3031,"Ġfil":3032,"con":3033,"ĠGroup":3034,"Out":3035,"uf":3036,"ha":3037,"rict":3038,"owb":3039,"ransport":3040,"ension":3041,"ixed":3042,"Rock":3043,"Dropped":3044,"Law":3045,"ĠAugust":3046,"ĠSU":3047,"CP":3048,"Ġfly":3049,"Ken":3050,"ĠVA":3051,"1983":3052,"GL":3053,"PHI":3054,"ayout":3055,"ools":3056,"ORK":3057,"Vancouver":3058,"Ġwhere":3059,"CIN":3060,"153":3061,"Ġ1996":3062,"orner":3063,"Cam":3064,"boro":3065,"ally":3066,"ĠCT":3067,"Turn":3068,"inks":3069,"Matt":3070,"vention":3071,"ĠRacing":3072,"Ġmonth":3073,"331":3074,"Java":3075,"Ġtr":3076,"ancial":3077,"ala":3078,"SY":3079,"Frank":3080,"uth":3081,"elle":3082,"WV":3083,"115":3084,"Ġ45":3085,"enry":3086,"Ġrep":3087,"olk":3088,"ending":3089,"orage":3090,"SAN":3091,"usiness":3092,"ustin":3093,"ĠSystem":3094,"Ġ1995":3095,"lete":3096,"ĠDioxide":3097,"ĠWil":3098,"ĠOK":3099,"ua":3100,"aries":3101,"Ġ2016":3102,"TPE":3103,"acy":3104,"Senior":3105,"Off":3106,"ality":3107,"Vote":3108,"Grand":3109,"ograph":3110,"rum":3111,"ĠPer":3112,"ĠAncheta":3113,"Oak":3114,"1250":3115,"ĠUni":3116,"Johnoel":3117,"Ġreceptor":3118,"Watching":3119,"Ġatt":3120,"uit":3121,"099":3122,"ROM":3123,"range":3124,"ien":3125,"ĠVote":3126,"ĠShe":3127,"ĠReg":3128,"Ġspecified":3129,"pha":3130,"453":3131,"BOL":3132,"onduct":3133,"AUS":3134,"031":3135,"Ġdo":3136,"Mare":3137,"Drag":3138,"ĠLauderdale":3139,"ANA":3140,"ĠIntern":3141,"ĠOb":3142,"ny":3143,"ealand":3144,"Junior":3145,"ysis":3146,"1978":3147,"ives":3148,"CHO":3149,"Ġdetermin":3150,"third":3151,"TOR":3152,"ora":3153,"Ġcurrent":3154,"ylv":3155,"eature":3156,"md":3157,"ĠZealand":3158,"ized":3159,"ms":3160,"ope":3161,"CI":3162,"Ġhaving":3163,"atural":3164,"BE":3165,"aker":3166,"Con":3167,"Specif":3168,"VT":3169,"1976":3170,"Unknown":3171,"158":3172,"TRE":3173,"SH":3174,"ĠHyd":3175,"egr":3176,"ĠVoice":3177,"157":3178,"ta":3179,"ya":3180,"cont":3181,"Free":3182,"athan":3183,"Ġdouble":3184,"eman":3185,"140":3186,"ĠUniProt":3187,"och":3188,"ĠUniProtKB":3189,"506":3190,"GC":3191,"Ġeach":3192,"osit":3193,"ours":3194,"Andrew":3195,"tra":3196,"ĠInter":3197,"arbara":3198,"Ġrules":3199,"Dis":3200,"We":3201,"Ġunit":3202,"156":3203,"rip":3204,"rence":3205,"oute":3206,"ĠWood":3207,"elding":3208,"Ġcre":3209,"FT":3210,"iqu":3211,"ĠMarch":3212,"ample":3213,"oke":3214,"ĠRE":3215,"ernel":3216,"Ġcon":3217,"FI":3218,"Hon":3219,"ĠMN":3220,"active":3221,"Music":3222,"State":3223,"Dev":3224,"UK":3225,"Ottawa":3226,"Dodger":3227,"Buff":3228,"USC":3229,"ĠTHE":3230,"Lincoln":3231,"anda":3232,"fo":3233,"ĠRivers":3234,"FP":3235,"Ġext":3236,"134":3237,"1973":3238,"ĠAnt":3239,"ĠRd":3240,"1981":3241,"Vern":3242,"duct":3243,"Ġreport":3244,"Ġpoly":3245,"ĠSpring":3246,"128":3247,"venue":3248,"mark":3249,"Ut":3250,"STR":3251,"Ġshortstop":3252,"alysis":3253,"iving":3254,"Ġautomatic":3255,"strate":3256,"Sea":3257,"Forum":3258,"ĠSprings":3259,"ĠMuseum":3260,"pop":3261,"122":3262,"ATL":3263,"lymp":3264,"ĠClub":3265,"114":3266,"side":3267,"Meteor":3268,"arsing":3269,"Jon":3270,"river":3271,"olphin":3272,"ĠPar":3273,"Dig":3274,"ingular":3275,"RB":3276,"Ġsite":3277,"ĠJack":3278,"ĠDE":3279,"sch":3280,"val":3281,"Birmingham":3282,"Gelding":3283,"ilar":3284,"210":3285,"Cons":3286,"dale":3287,"Name":3288,"1977":3289,"Colorado":3290,"COM":3291,"ĠPol":3292,"ento":3293,"text":3294,"ender":3295,"ITA":3296,"Tom":3297,"116":3298,"ache":3299,"ĠRO":3300,"ĠDel":3301,"ĠMary":3302,"Acc":3303,"Ġfunction":3304,"ĠRELE":3305,"stone":3306,"ĠUp":3307,"460":3308,"unched":3309,"ĠAvenue":3310,"ĠLee":3311,"ephen":3312,"mall":3313,"ips":3314,"Effective":3315,"oom":3316,"1979":3317,"ĠAlex":3318,"ĠEm":3319,"ĠEag":3320,"ray":3321,"uther":3322,"130":3323,"Mac":3324,"Meteorology":3325,"like":3326,"RM":3327,"Spain":3328,"135":3329,"SG":3330,"Ġimage":3331,"heim":3332,"quired":3333,"adge":3334,"OLOG":3335,"abbit":3336,"118":3337,"ĠAb":3338,"SAX":3339,"Ġroad":3340,"National":3341,"roved":3342,"River":3343,"osph":3344,"Med":3345,"Montreal":3346,"ountain":3347,"ĠRELEASE":3348,"Bug":3349,"Ġbased":3350,"Ġspecific":3351,"Ġfamily":3352,"ĠCON":3353,"Ham":3354,"aining":3355,"Bill":3356,"Launched":3357,"1912":3358,"MIL":3359,"Veter":3360,"ĠBrook":3361,"onym":3362,"ociated":3363,"TREBOL":3364,"HOD":3365,"Ġtopic":3366,"MF":3367,"ĠCent":3368,"phy":3369,"ĠFr":3370,"la":3371,"Scott":3372,"met":3373,"202":3374,"ams":3375,"Ġadd":3376,"ĠParsing":3377,"TEX":3378,"idge":3379,"Carl":3380,"eh":3381,"otor":3382,"Ġprovided":3383,"Ġfactor":3384,"Page":3385,"ĠSingle":3386,"ĠMarket":3387,"CLE":3388,"olt":3389,"EA":3390,"stit":3391,"angu":3392,"opher":3393,"lington":3394,"124":3395,"ability":3396,"ĠCollege":3397,"Ġfr":3398,"ĠAnderson":3399,"203":3400,"China":3401,"ĠInt":3402,"airs":3403,"ĠFin":3404,"By":3405,"vert":3406,"HP":3407,"ĠBANK":3408,"ĠRh":3409,"Checked":3410,"ĠThomas":3411,"George":3412,"ister":3413,"Paris":3414,"Ġread":3415,"ĠCorporation":3416,"ĠTECHN":3417,"esterly":3418,"ĠNJ":3419,"127":3420,"uan":3421,"Ġapplications":3422,"Ġinclude":3423,"Ġmet":3424,"ĠJones":3425,"ĠIm":3426,"aron":3427,"RILL":3428,"ĠFund":3429,"ancy":3430,"defect":3431,"Ġhigh":3432,"razil":3433,"192":3434,"ĠCOL":3435,"ĠTechn":3436,"ournal":3437,"bell":3438,"Art":3439,"Ġany":3440,"za":3441,"Thomas":3442,"ĠMad":3443,"antic":3444,"Ġrulesi":3445,"emic":3446,"arriors":3447,"DI":3448,"175":3449,"160":3450,"Ġprovides":3451,"uman":3452,"lib":3453,"ĠGo":3454,"aterial":3455,"ETHOD":3456,"Europe":3457,"ĠProf":3458,"SK":3459,"leted":3460,"aters":3461,"Withdrawn":3462,"olf":3463,"Pre":3464,"Ġsignal":3465,"Ġz":3466,"Olymp":3467,"Ġsurface":3468,"ĠYORK":3469,"ĠJose":3470,"ps":3471,"147":3472,"ALE":3473,"Approved":3474,"1908":3475,"idae":3476,"ruction":3477,"also":3478,"akes":3479,"Ġdevelopers":3480,"Salt":3481,"129":3482,"Maryland":3483,"oform":3484,"GH":3485,"600":3486,"ically":3487,"rea":3488,"Ġpar":3489,"Ġprec":3490,"cpp":3491,"eds":3492,"lection":3493,"ript":3494,"ĠTECHNOLOG":3495,"ĠMichael":3496,"Ġdom":3497,"Ġno":3498,",\"":3499,"126":3500,"Peter":3501,"irus":3502,"Ġweek":3503,"med":3504,"ĠMur":3505,"therlands":3506,"Book":3507,"Ġem":3508,"istrict":3509,"ĠRadi":3510,"ĠCap":3511,"2500":3512,"Ryan":3513,"1975":3514,"ĠPat":3515,"END":3516,"inson":3517,"ĠRap":3518,"emy":3519,"Veterans":3520,"Ġduring":3521,"LINE":3522,"ĠPort":3523,"ĠFROM":3524,"Ġrun":3525,"orld":3526,"))":3527,"roke":3528,"DET":3529,"emory":3530,"Three":3531,"Card":3532,"117":3533,"Ġopen":3534,"ias":3535,"apping":3536,"ĠSal":3537,"plic":3538,"Tit":3539,"ĠSYSTE":3540,"ucation":3541,"eel":3542,"Li":3543,"onfirm":3544,"Ġhow":3545,"ĠRow":3546,"print":3547,"ĠFlor":3548,"iffer":3549,"aha":3550,"ula":3551,"Ġmess":3552,"ĠDirect":3553,"klin":3554,"Jo":3555,"PN":3556,"PF":3557,"hem":3558,"ranch":3559,"Ġse":3560,"ĠCooper":3561,"Person":3562,"GBR":3563,"ĠSilver":3564,"ĠRail":3565,"ems":3566,"ots":3567,"ĠCingular":3568,"ĠWhite":3569,"pdf":3570,"ĠSim":3571,"LP":3572,"145":3573,"OM":3574,"ĠHills":3575,"alth":3576,"ĠBill":3577,"ĠLife":3578,"esa":3579,"1974":3580,"Linux":3581,"Carbon":3582,"eden":3583,"Cat":3584,"ays":3585,"ĠAs":3586,"ench":3587,"ructure":3588,"Ġident":3589,"ĠLA":3590,"ĠRobert":3591,"vis":3592,"overnment":3593,"alc":3594,"ended":3595,"Mid":3596,"essions":3597,"aily":3598,"Dou":3599,"entina":3600,"rett":3601,"oon":3602,"CAL":3603,"ĠSE":3604,"ĠTexas":3605,"ker":3606,"207":3607,"Declaration":3608,"odd":3609,"erica":3610,"1972":3611,"Pres":3612,"IVE":3613,"1966":3614,"Ġrem":3615,"Kevin":3616,"ĠPASSED":3617,"PER":3618,"ĠTo":3619,"Ġmethods":3620,"ĠJune":3621,"AH":3622,"Ġinvention":3623,"rpm":3624,"Action":3625,"Bull":3626,"omin":3627,"ramento":3628,"QC":3629,"INE":3630,"ĠEagles":3631,"Ġmonths":3632,"Water":3633,"trans":3634,"ards":3635,"rison":3636,"ĠServer":3637,"Day":3638,"ĠBur":3639,"Storm":3640,"head":3641,"ĠDrive":3642,"170":3643,"Arg":3644,"119":3645,"Ath":3646,"CU":3647,"osm":3648,"Ġlight":3649,"Virginia":3650,"ampshire":3651,"Elect":3652,"Will":3653,"obal":3654,"Ġwe":3655,"br":3656,"Ġplural":3657,"Rob":3658,"ĠBand":3659,"Richmond":3660,"rif":3661,"Ġback":3662,"cel":3663,"SDSM":3664,"ĠSept":3665,"loss":3666,"Ġselect":3667,"ĠVirginia":3668,"ylvania":3669,"Ful":3670,"ĠSol":3671,"cy":3672,"152":3673,"osa":3674,"Ġsimilar":3675,"1971":3676,"System":3677,"400":3678,"dated":3679,"Camb":3680,"Over":3681,"Ġserver":3682,"WO":3683,"sey":3684,"FF":3685,"aracter":3686,"304":3687,"ustom":3688,"ĠJuly":3689,"mar":3690,"Rabbit":3691,"ĠON":3692,"owboys":3693,"eton":3694,"enna":3695,"eno":3696,"146":3697,"uy":3698,"Ġent":3699,"Penn":3700,"ĠCons":3701,"sa":3702,"ucle":3703,"ĠMass":3704,"Ġalso":3705,"about":3706,"ety":3707,"my":3708,"Er":3709,"Ġar":3710,"STON":3711,"208":3712,"ORTH":3713,"Victor":3714,"Matthew":3715,"ĠProt":3716,"idered":3717,"Ref":3718,"Prov":3719,"Ġrelocation":3720,"rome":3721,"LAPS":3722,"variant":3723,"ince":3724,"Oakland":3725,"TestCase":3726,"Inter":3727,"ittee":3728,"ĠDavis":3729,"Ġpass":3730,"RY":3731,"139":3732,"oto":3733,"ĠRob":3734,"action":3735,"SIGNING":3736,"SS":3737,"Ġhave":3738,"Wind":3739,"ĠDep":3740,"perty":3741,"Steve":3742,"ella":3743,"MON":3744,"DD":3745,"ĠWorth":3746,"INS":3747,"Ġplurality":3748,"174":3749,"ocument":3750,"Turner":3751,"165":3752,"Po":3753,"Stroke":3754,"Hard":3755,"Pacific":3756,"uis":3757,"Points":3758,"ĠDATES":3759,"verage":3760,"Ġsuch":3761,"Ġnon":3762,"ists":3763,"ĠDocket":3764,"ĠRD":3765,"sen":3766,"ious":3767,"RUS":3768,"ĠManagement":3769,"Sim":3770,"Ġyour":3771,"ĠDownload":3772,"ĠMusic":3773,"eer":3774,"Ġisoform":3775,"ordan":3776,"board":3777,"ĠTim":3778,"1956":3779,"ĠCal":3780,"Docket":3781,"ĠOnly":3782,"utter":3783,"plain":3784,"UP":3785,"ĠBen":3786,"akota":3787,"ves":3788,"reat":3789,"ĠPal":3790,"ece":3791,"dogs":3792,"ICE":3793,"ĠArch":3794,"chest":3795,"187":3796,"ĠUnder":3797,"188":3798,"Ġcomponent":3799,"Journal":3800,"ca":3801,"CB":3802,"161":3803,"ĠCentral":3804,"ĠCourt":3805,"alf":3806,"ĠUnion":3807,"nin":3808,"less":3809,"131":3810,"ĠGround":3811,"TION":3812,"142":3813,"141":3814,"be":3815,"oid":3816,"ĠEP":3817,"NO":3818,"leg":3819,"185":3820,"ursor":3821,"ĠCom":3822,"ĠHa":3823,"BOS":3824,"Brazil":3825,"ĠRapids":3826,"ĠBall":3827,"ersey":3828,"pool":3829,"181":3830,"ennis":3831,"front":3832,"Ġreview":3833,"aiders":3834,"1970":3835,"ĠApril":3836,"CHI":3837,"ĠHealth":3838,"ewis":3839,"Ġdep":3840,"WR":3841,"BU":3842,"based":3843,"Ġthan":3844,"INGTON":3845,"ĠTown":3846,"Netherlands":3847,"Sharks":3848,"OAK":3849,"Completed":3850,"sylvania":3851,"order":3852,"olic":3853,"lins":3854,"ĠLinks":3855,"ĠWe":3856,"acob":3857,"Greg":3858,"Ġcor":3859,"aver":3860,"ĠTested":3861,"usan":3862,"ump":3863,"ILLE":3864,"Rem":3865,"ectrum":3866,"178":3867,"ĠGold":3868,"itzer":3869,"Tigers":3870,"Fred":3871,"ification":3872,"elly":3873,"ivision":3874,"aleigh":3875,"RP":3876,"Sacramento":3877,"sea":3878,"ĠOut":3879,"Ġsource":3880,"021":3881,"463":3882,"Buffalo":3883,"Lake":3884,"Verno":3885,"mit":3886,"137":3887,"Ġgroup":3888,"ENS":3889,"Max":3890,"aka":3891,"Sa":3892,"abeth":3893,"erb":3894,"andon":3895,"thony":3896,"kk":3897,"Ġwork":3898,"Running":3899,"lywood":3900,"Ġside":3901,"LECT":3902,"error":3903,"IZ":3904,"Sold":3905,"lad":3906,"Great":3907,"Ġhealth":3908,"\"-":3909,"illage":3910,"ĠAF":3911,"Ġdirect":3912,"138":3913,"ercial":3914,"Commun":3915,"era":3916,"bab":3917,"ounted":3918,"ength":3919,"ential":3920,"asc":3921,"VAN":3922,"Bo":3923,"High":3924,"Ġavailable":3925,"1968":3926,"press":3927,"Ġsubstrate":3928,"aton":3929,"XML":3930,"ucky":3931,"136":3932,"ĠRuss":3933,"Age":3934,"Ġcorner":3935,"Code":3936,"vest":3937,"Warriors":3938,"Panthers":3939,"LD":3940,"Kent":3941,"172":3942,"Ġsoutherly":3943,"ARIZ":3944,"ĠIA":3945,"WAIT":3946,"ĠTrans":3947,"Sweden":3948,"roy":3949,"Ġunder":3950,"ĠKn":3951,"ĠSl":3952,"ails":3953,"1967":3954,"Dragons":3955,"ĠPrad":3956,"King":3957,"BI":3958,"Uni":3959,"Kar":3960,"ĠOl":3961,"ORT":3962,"jar":3963,"rodome":3964,"166":3965,"UNAT":3966,"onz":3967,"ional":3968,"ĠWat":3969,"inda":3970,"ĠKernel":3971,"ĠHAM":3972,"enb":3973,"167":3974,"eger":3975,"ived":3976,"iddle":3977,"149":3978,"add":3979,"Part":3980,"rail":3981,"Gold":3982,"133":3983,"Ros":3984,"arw":3985,"gom":3986,"Ġoff":3987,"Sprint":3988,"ple":3989,"ogg":3990,"Ġthen":3991,"Ġmult":3992,"teration":3993,"ables":3994,"vers":3995,"aces":3996,"gow":3997,"ĠMartin":3998,"LEY":3999,"pass":4000,"LAND":4001,"MC":4002,"INGS":4003,"132":4004,"ĠKY":4005,"Carolina":4006,"Tri":4007,"Ġour":4008,"ĠRel":4009,"Knights":4010,"Titans":4011,"reek":4012,"Wait":4013,"rich":4014,"Om":4015,"ĠStud":4016,"SEA":4017,"ituaries":4018,"yler":4019,"IES":4020,"AST":4021,"RES":4022,"ĠAt":4023,"icut":4024,"ĠObituaries":4025,"aro":4026,"ĠLaw":4027,"ohs":4028,"476":4029,"191":4030,"to":4031,"Ġ1994":4032,"urns":4033,"rocarb":4034,"ĠMurphy":4035,"Ġsol":4036,"Vol":4037,"Dolphin":4038,"string":4039,"Lanc":4040,"sur":4041,"gomery":4042,"alia":4043,"Eric":4044,"ww":4045,"the":4046,"Riverfront":4047,"Ġmaterial":4048,"Des":4049,"ipe":4050,"NYN":4051,"ĠSpectrum":4052,"ould":4053,"ĠMiller":4054,"Astrodome":4055,"183":4056,"Ġpr":4057,"asgow":4058,"Ġlicense":4059,"Cowboys":4060,"ĠDakota":4061,"arren":4062,"ĠAmerican":4063,"SDN":4064,"onnecticut":4065,"Bronc":4066,"rade":4067,"ĠAnalysis":4068,"Broncos":4069,"ĠEle":4070,"Ray":4071,"Ġasset":4072,"Raiders":4073,"izabeth":4074,"386":4075,"Ash":4076,"isa":4077,"Iowa":4078,"osters":4079,"ĠBridge":4080,"Cand":4081,"ĠMexico":4082,"BB":4083,"Ġtwo":4084,"ivirus":4085,"AF":4086,"bour":4087,"chestra":4088,"PT":4089,"omy":4090,"inter":4091,"onymous":4092,"WCM":4093,"ift":4094,"ify":4095,"Oper":4096,"utt":4097,"ears":4098,"Jason":4099,"ĠColorado":4100,"Sav":4101,"ĠPAT":4102,"ĠForm":4103,"SFN":4104,"ĠDev":4105,"477":4106,"ĠRod":4107,"Ġinterface":4108,"Ġbinding":4109,"rev":4110,"Eels":4111,"Os":4112,"east":4113,"Soft":4114,"CAR":4115,"Ġcirc":4116,"ancement":4117,"ema":4118,"oming":4119,"ĠTrain":4120,"eville":4121,"He":4122,"Bulldogs":4123,"Ġthird":4124,"184":4125,"Sk":4126,"ored":4127,"ĠAGREE":4128,"ĠHampshire":4129,"Ġdist":4130,"ĠYoung":4131,"470":4132,"Merc":4133,"Nick":4134,"Ġprecursor":4135,"ĠAGREEMENT":4136,"ĠOTH":4137,"Raleigh":4138,"Ġconc":4139,"ollow":4140,"Ġelement":4141,"Ġvis":4142,"Ġstate":4143,"ription":4144,"annel":4145,"ĠNetwork":4146,"ĠID":4147,"tim":4148,"164":4149,"ko":4150,"aging":4151,"004":4152,"1969":4153,"Oz":4154,"ĠEdition":4155,"Mal":4156,"Roosters":4157,"143":4158,"WAITING":4159,"Daily":4160,"Rabbitohs":4161,"Ġdatabase":4162,"enton":4163,"SEF":4164,"Poland":4165,"Argentina":4166,"inceton":4167,"ĠOne":4168,"---":4169,"ĠPra":4170,"ecut":4171,"ĠPradesh":4172,"ĠCarbon":4173,"Ġpack":4174,"MICH":4175,"arget":4176,"osta":4177,"179":4178,"ATIONAL":4179,"Digte":4180,"Ġdiffer":4181,"emph":4182,"ĠArticle":4183,"ĠSupport":4184,"ocomp":4185,"Cor":4186,"aratus":4187,"ĠCard":4188,"Gets":4189,"478":4190,"VI":4191,"heap":4192,"Ġpower":4193,"ORD":4194,"SLN":4195,"148":4196,"gy":4197,"Super":4198,"182":4199,"LL":4200,"169":4201,"irt":4202,"EW":4203,"Ġrelated":4204,"amed":4205,"194":4206,"Ġ55":4207,"ini":4208,"Up":4209,"mann":4210,"Key":4211,"sburg":4212,"225":4213,"under":4214,"quer":4215,"BUR":4216,"RU":4217,"Rh":4218,"shall":4219,"agen":4220,"Fire":4221,"ĠSk":4222,"ĠDen":4223,"168":4224,"Smith":4225,"Ġwas":4226,"atre":4227,"Ġ1993":4228,"folk":4229,"Ġoz":4230,"istory":4231,"Ġdomain":4232,"ĠSand":4233,"azz":4234,"OREG":4235,"Ġorg":4236,"Com":4237,"ck":4238,"ĠBack":4239,"Mart":4240,"rocarbons":4241,"215":4242,"163":4243,"ĠRidge":4244,"enz":4245,"ĠMed":4246,"urb":4247,"org":4248,"ĠAnn":4249,"ĠAFTER":4250,"ĠOTHERS":4251,"Cre":4252,"itzerland":4253,"ĠAvailable":4254,"raham":4255,"189":4256,"Ill":4257,"echn":4258,"Creston":4259,"176":4260,"avel":4261,"LEC":4262,"anim":4263,"Ġupdate":4264,"Sol":4265,"ifer":4266,"177":4267,"Ireland":4268,"ops":4269,"1963":4270,"stoneheap":4271,"Ġwhe":4272,"ĠAmerica":4273,"KG":4274,"ĠMAR":4275,"etts":4276,"ius":4277,"che":4278,"emphis":4279,"Fit":4280,"rogen":4281,"ĠColumb":4282,"Ġdel":4283,"Low":4284,"ĠRichard":4285,"icip":4286,"Ġli":4287,":/":4288,"RS":4289,"rock":4290,"Str":4291,"Dar":4292,"castle":4293,"ĠModule":4294,"atter":4295,"backs":4296,"Ge":4297,"NI":4298,"Ġposition":4299,"wh":4300,"Hay":4301,"General":4302,"imit":4303,"pitcher":4304,"ceed":4305,"ela":4306,"ĠMob":4307,"Discontinuance":4308,"College":4309,"Cambridge":4310,"ĠHydrocarbons":4311,"UniRule":4312,"herst":4313,"144":4314,"CHOOL":4315,"Considered":4316,"PO":4317,"iary":4318,"Ġdig":4319,"506300":4320,"Internal":4321,"171":4322,"ĠRI":4323,"ries":4324,"otal":4325,"Ġstart":4326,"Ġplay":4327,"220":4328,"Id":4329,"ĠGrounds":4330,"Trans":4331,"309":4332,"ĠUt":4333,"ĠInternational":4334,"enness":4335,"ĠChester":4336,"ĠForest":4337,"Jess":4338,"Mic":4339,"Mapping":4340,"Ġmeas":4341,"3750":4342,"ĠEdmonton":4343,"rystall":4344,"Conn":4345,"Ġx":4346,"inder":4347,"ĠFits":4348,"Recent":4349,"ih":4350,"Lawrence":4351,"Hel":4352,"1199":4353,"ĠHeights":4354,"Dub":4355,"Danish":4356,"Ġco":4357,"White":4358,"ĠGeorge":4359,"irie":4360,"212":4361,"ĠVersion":4362,"1965":4363,"Bry":4364,"ITED":4365,"itial":4366,"ĠHam":4367,"ĠPrint":4368,"Ġassociated":4369,"ĠClara":4370,"ude":4371,"Ġdetermined":4372,"atin":4373,"ayette":4374,"Average":4375,"BD":4376,"Ġbut":4377,"Si":4378,"ucson":4379,"ced":4380,"gary":4381,"634":4382,"1964":4383,"embly":4384,"Ġservice":4385,"test":4386,"ĠGames":4387,"Mun":4388,"Ġmemory":4389,"News":4390,"WY":4391,"ja":4392,"ĠGro":4393,"ĠHAMAP":4394,"173":4395,"ayne":4396,"1960":4397,"ĠKS":4398,"Ġ33":4399,"ĠAVE":4400,"ĠFX":4401,"comm":4402,"arge":4403,"ĠME":4404,"gium":4405,"ĠPeters":4406,"193":4407,"ides":4408,"Dj":4409,"oward":4410,"peed":4411,"Rog":4412,"ĠAdult":4413,"ivan":4414,"VM":4415,"ĠMac":4416,"ĠTheatre":4417,"Olympic":4418,"ositive":4419,"YS":4420,"ily":4421,"irk":4422,"458":4423,"Paw":4424,"RILLIC":4425,"Ġsimilarity":4426,"Polo":4427,"riginal":4428,"Glasgow":4429,"ĠEngland":4430,"ippi":4431,"PRO":4432,"ĠCast":4433,"tx":4434,"ĠTel":4435,"Franklin":4436,"ORG":4437,"Ġminutes":4438,"Last":4439,"ĠDEV":4440,"Ġ60":4441,"Tools":4442,"Ġ80":4443,"Ġconfigured":4444,"lest":4445,"cher":4446,"ĠUl":4447,"ebec":4448,"Hawks":4449,"ulation":4450,"ĠAcc":4451,"Long":4452,"Ġfiles":4453,"Wood":4454,"Ġtheir":4455,"ttp":4456,"Radi":4457,"Sing":4458,"ĠCharles":4459,"ycl":4460,"ario":4461,"Ġmotion":4462,"ennessee":4463,"Ġevent":4464,"ais":4465,"Mass":4466,"162":4467,"inase":4468,"ĠMe":4469,"Ġweb":4470,"Ġrepairs":4471,"Intern":4472,"464":4473,"ĠGe":4474,"Go":4475,");":4476,"Bil":4477,"uced":4478,"ĠGlide":4479,"ĠCle":4480,"Form":4481,"Tucson":4482,"terpr":4483,"ani":4484,"ĠJanuary":4485,"NZ":4486,"Ġnortherly":4487,"Work":4488,"get":4489,"quip":4490,"ĠCare":4491,"achus":4492,"Record":4493,"usc":4494,"ĠMETHOD":4495,"ises":4496,"yer":4497,"Sum":4498,"DL":4499,"ared":4500,"box":4501,"CYRILLIC":4502,"uments":4503,"ĠBranch":4504,"ences":4505,"Ġoption":4506,"ĠWashington":4507,"186":4508,"pond":4509,"issippi":4510,"Atlantic":4511,"Type":4512,"Switzerland":4513,"atory":4514,"ĠLTD":4515,"ĠNot":4516,"querque":4517,"ajor":4518,"AX":4519,"RC":4520,"ĠKit":4521,"orc":4522,"acks":4523,"ĠService":4524,"ettlement":4525,"ydney":4526,"Dem":4527,"UD":4528,"VILLE":4529,"ĠApplication":4530,"Ġcell":4531,"ĠVideo":4532,"BOSTON":4533,"stitute":4534,"aves":4535,"stein":4536,"uquerque":4537,"ila":4538,"Bur":4539,"Author":4540,"arry":4541,"Ġcap":4542,"Fair":4543,"1890":4544,"Conc":4545,"7220":4546,"Ġactivity":4547,"Ġforce":4548,"net":4549,"223":4550,"ERICA":4551,"ĠMet":4552,"ĠMuseums":4553,"ĠProgram":4554,"Hz":4555,"Ġwithout":4556,"Social":4557,"ĠSam":4558,"ished":4559,"Little":4560,"ANT":4561,"ĠMichigan":4562,"ĠCD":4563,"Tul":4564,"minist":4565,"elf":4566,"LB":4567,"ĠIII":4568,"ĠMa":4569,"enny":4570,"oftware":4571,"Ġintegr":4572,"Charles":4573,"anguage":4574,"rystalline":4575,"Ke":4576,"ulf":4577,"ĠFury":4578,"ĠScorp":4579,"istor":4580,"Utah":4581,"ĠCr":4582,"Fulton":4583,"Anonymous":4584,"Ġeffect":4585,"orpor":4586,"ĠMS":4587,"anning":4588,"achusetts":4589,"Layout":4590,"ronic":4591,"Josh":4592,"ullivan":4593,"road":4594,"Brist":4595,"509":4596,"ERAL":4597,"etta":4598,"Serv":4599,"ĠCanada":4600,"At":4601,"Vi":4602,"ĠHadley":4603,"Ġdifferent":4604,"KA":4605,"305":4606,"ĠPres":4607,"Adam":4608,"ĠBull":4609,"sk":4610,"Ġapparatus":4611,"Moss":4612,"Ġvari":4613,"ume":4614,"ĠCosm":4615,"AMED":4616,"untu":4617,"ĠScorpions":4618,"ĠStrik":4619,"HS":4620,"Ġlevel":4621,"Sn":4622,"ĠAust":4623,"Road":4624,"ĠEN":4625,"Brown":4626,"spaper":4627,"Ġed":4628,"229":4629,"Ġface":4630,"Ġi":4631,"ĠSeptember":4632,"OF":4633,"ĠPhil":4634,"Ġprot":4635,"ĠOak":4636,"oyd":4637,"303":4638,"DT":4639,"ĠVan":4640,"bourne":4641,"Norfolk":4642,"Beth":4643,"dies":4644,"Ġdr":4645,"ARE":4646,"Albuquerque":4647,"vin":4648,"elson":4649,"ĠTe":4650,"ponse":4651,"Ġeasterly":4652,"Ġdefin":4653,"Ġregion":4654,"xx":4655,"ilt":4656,"Sequence":4657,"ĠOff":4658,"Clean":4659,"CTOR":4660,"ibson":4661,"UAL":4662,"Ġred":4663,"PNA":4664,"vard":4665,"Mod":4666,"ĠOld":4667,"LI":4668,"Da":4669,"ĠJeff":4670,"Scot":4671,"Waters":4672,"raft":4673,"ĠPrairie":4674,"ĠArmada":4675,"ulu":4676,"hey":4677,"Ġgo":4678,"Ġcross":4679,"tha":4680,"ĠMike":4681,"Ġ38":4682,"ĠMobility":4683,"Ġperform":4684,"Henry":4685,"herited":4686,"ICK":4687,"ĠJersey":4688,"Calgary":4689,"Newspaper":4690,"ĠEleven":4691,"ĠCor":4692,"Indy":4693,"ager":4694,"ufact":4695,"211":4696,"Montgomery":4697,"ĠColumbia":4698,"Ġprogram":4699,"ĠStrikers":4700,"ĠFebruary":4701,"fc":4702,"ĠGood":4703,"CONN":4704,"umn":4705,"ball":4706,"ĠLab":4707,"edy":4708,"Ġbusiness":4709,"glas":4710,"ermont":4711,"ique":4712,"eptide":4713,"ĠCosmos":4714,"esville":4715,"406":4716,"Ġview":4717,"ĠMy":4718,"ĠScott":4719,"Dur":4720,"ief":4721,"ĠHollywood":4722,"ĠSilverbacks":4723,"Camp":4724,"UTE":4725,"Bran":4726,"imum":4727,"ĠDevelop":4728,"ĠRowdies":4729,"ĠRailHawks":4730,"ĠRhine":4731,"Beam":4732,"ror":4733,"ĠBadge":4734,"Ġdec":4735,"Ġmov":4736,"ĠBas":4737,"phone":4738,"MMER":4739,"ĠOctober":4740,"ĠMill":4741,"chi":4742,"Cur":4743,"Ġoutput":4744,"ĠBY":4745,"Eas":4746,"500000":4747,"spect":4748,"Fund":4749,"annah":4750,"Ġinhib":4751,"lestick":4752,"Af":4753,"umba":4754,"quipment":4755,"IND":4756,"Grant":4757,"Ġkey":4758,"ĠRem":4759,"ague":4760,"ĠHold":4761,"ĠJoseph":4762,"Belgium":4763,"Ġhand":4764,"Kat":4765,"leas":4766,"Ġpitcher":4767,"utherford":4768,"Candlestick":4769,"214":4770,"Ġelectrod":4771,"Princeton":4772,"Ġlocation":4773,"ĠBra":4774,"Springfield":4775,"tain":4776,"zech":4777,"ilities":4778,"ĠJackson":4779,"Ġwhether":4780,"idase":4781,"Ġft":4782,"Stephen":4783,"ren":4784,"ruz":4785,"ergy":4786,"Get":4787,"1961":4788,"ĠEdward":4789,"ĠSO":4790,"ĠAGENT":4791,"ĠSuper":4792,"ONG":4793,"Mo":4794,"York":4795,"ello":4796,"ĠLine":4797,"Senate":4798,"uto":4799,"Route":4800,"ĠMont":4801,"isk":4802,"Bas":4803,"ĠBer":4804,"Specifies":4805,"ATED":4806,"Ġinc":4807,"Roy":4808,"set":4809,"ĠWal":4810,"Liter":4811,"Ġindic":4812,"WEST":4813,"ause":4814,"ĠCITY":4815,"olas":4816,"emp":4817,"ensive":4818,"osure":4819,"mat":4820,"kt":4821,"bro":4822,"ĠCreek":4823,"mod":4824,"update":4825,"Ġnetwork":4826,"Illinois":4827,"Ġdesc":4828,"eginn":4829,"Waitlist":4830,"zip":4831,"Ġinch":4832,"iano":4833,"Ġcode":4834,"hol":4835,"elt":4836,"ĠVI":4837,"ubuntu":4838,"ĠPan":4839,"University":4840,"ĠNe":4841,"ĠDaniel":4842,"1962":4843,"Ġdefault":4844,"mm":4845,"ĠSession":4846,"ELESS":4847,"ĠMcC":4848,"edes":4849,"ĠELECT":4850,"onductor":4851,"Stream":4852,"ountry":4853,"SDHC":4854,"Ġpage":4855,"Western":4856,"EU":4857,"ĠLane":4858,"EVEN":4859,"da":4860,"sy":4861,"Quarter":4862,"AY":4863,"BEL":4864,"iro":4865,"Commune":4866,"Ġfin":4867,"Berlin":4868,"Estate":4869,"Ġwal":4870,"essor":4871,"Event":4872,"easterly":4873,"You":4874,"utions":4875,"pert":4876,"ĠWIR":4877,"222":4878,"irection":4879,"ĠConc":4880,"ICAL":4881,"ivid":4882,"Ġyrs":4883,"imited":4884,"ĠWalk":4885,"ĠSecurity":4886,"Fall":4887,"perature":4888,"itions":4889,"Ġcare":4890,"Miller":4891,"oney":4892,"Brad":4893,"ouch":4894,"GU":4895,"ĠLondon":4896,"utch":4897,"ĠDR":4898,"ĠMT":4899,"ride":4900,"ĠAB":4901,"ocks":4902,"Lost":4903,"468":4904,"ĠAD":4905,"ova":4906,"Ġhom":4907,"Ġstud":4908,"terprise":4909,"Sho":4910,"Kal":4911,"Vu":4912,"700":4913,"IGHT":4914,"witch":4915,"1011":4916,"ĠSeries":4917,"amon":4918,"MIA":4919,"PU":4920,"PC":4921,"ancel":4922,"TEL":4923,"ĠJud":4924,"ogen":4925,"worth":4926,"ĠMov":4927,"Learn":4928,"etic":4929,"ĠWIRELESS":4930,"ĠAv":4931,"Steven":4932,"City":4933,"Her":4934,"ĠArchives":4935,"Jay":4936,"Halocomp":4937,"Halocompounds":4938,"MER":4939,"Ġfeature":4940,"outdated":4941,"ĠPe":4942,"acle":4943,"ĠEll":4944,"isp":4945,"Zumba":4946,"NYA":4947,"Big":4948,"kin":4949,"Ġusers":4950,"://":4951,"ĠStandard":4952,"Ana":4953,"Johnson":4954,"1906":4955,"rystal":4956,"orea":4957,"GOLD":4958,"Rom":4959,"urther":4960,"Marc":4961,"ĠPalm":4962,"Ġstars":4963,"ores":4964,"ima":4965,"SB":4966,"km":4967,"Branson":4968,"nes":4969,"Ġproject":4970,"ĠCross":4971,"reak":4972,"Ġpath":4973,"Ġest":4974,"pres":4975,"stown":4976,"idth":4977,"ĠFire":4978,"ART":4979,"anna":4980,"226":4981,"UND":4982,"235":4983,"RON":4984,"Edmonton":4985,"Ġexpl":4986,"Williams":4987,"ONLINE":4988,"307":4989,"1025":4990,"ĠCommittee":4991,"kg":4992,"ĠRef":4993,"ista":4994,"Dab":4995,"):":4996,"BAG":4997,"Ġet":4998,"Citiz":4999,"Under":5000,"obody":5001,"Austria":5002,"gn":5003,"onfirmed":5004,"ĠWater":5005,"1957":5006,"Bor":5007,"AW":5008,"jo":5009,"iverpool":5010,"Ġgu":5011,"enbeck":5012,"anka":5013,"Bh":5014,"XL":5015,"istant":5016,"ĠManager":5017,"ĠSox":5018,"ipping":5019,"fficer":5020,"WH":5021,"Ġsessions":5022,"224":5023,"IAA":5024,"1959":5025,"Ġsch":5026,"Ġwithin":5027,"Blue":5028,"Beamer":5029,"atform":5030,"Ġmile":5031,"Ġsequence":5032,"yt":5033,"Ġrod":5034,"home":5035,"Ġimp":5036,"more":5037,"ANGE":5038,"228":5039,"accounted":5040,"ĠBook":5041,"Literature":5042,"Good":5043,"Gal":5044,"cht":5045,"Wr":5046,"ĠData":5047,"DjVu":5048,"HK":5049,"009":5050,"Ġits":5051,"ories":5052,"ĠMade":5053,"501":5054,"ĠWilson":5055,"ĠMGC":5056,"erence":5057,"Prof":5058,"Sydney":5059,"ĠNational":5060,"Por":5061,"Core":5062,"ĠIr":5063,"Ġdes":5064,"ĠWill":5065,"Newcastle":5066,"ĠHart":5067,"ĠEX":5068,"iki":5069,"Tulsa":5070,"ĠMead":5071,"ĠIf":5072,"ĠHear":5073,"WCH":5074,"Intro":5075,"ĠAmherst":5076,"Joseph":5077,"respond":5078,"007":5079,"ĠEv":5080,"onda":5081,"ĠRev":5082,"roe":5083,"375":5084,"Sri":5085,"Ġbody":5086,"rane":5087,"roller":5088,"Ġemb":5089,"Ġpages":5090,"ĠMatt":5091,"ennifer":5092,"Bank":5093,"Ġsl":5094,"ĠReport":5095,"Son":5096,"221":5097,"Inherited":5098,"Ġformed":5099,"Halenbeck":5100,"218":5101,"can":5102,"ĠHaw":5103,"raig":5104,"INF":5105,"Barbara":5106,"Dave":5107,"Post":5108,"Mississippi":5109,"ĠPlus":5110,"ridg":5111,"1944":5112,"Bru":5113,"Support":5114,"ĠMil":5115,"Research":5116,"nobody":5117,"ĠTer":5118,"orf":5119,"etter":5120,"Ġcontaining":5121,"ĠUnaccounted":5122,"Ġaccount":5123,"1958":5124,"aus":5125,"Commercial":5126,"Cop":5127,"Log":5128,"Donald":5129,"Christopher":5130,"oding":5131,"Slov":5132,"ĠDisc":5133,"epend":5134,"Ġparam":5135,"Dabitch":5136,"conomy":5137,"Memphis":5138,"800":5139,"olec":5140,"ĠSearch":5141,"ector":5142,"213":5143,"ĠLl":5144,"ĠElect":5145,"oupl":5146,"born":5147,"ĠBo":5148,"231":5149,"ĠReview":5150,"ĠPlace":5151,"efore":5152,"Citizens":5153,"ĠTaylor":5154,"kansas":5155,"evada":5156,"ĠProtection":5157,"Bang":5158,"216":5159,"ĠStation":5160,"town":5161,"Text":5162,"ĠDesign":5163,"Ferr":5164,"0001":5165,"Tony":5166,"Bristol":5167,"aden":5168,"atics":5169,"FS":5170,"ynam":5171,"Ġhours":5172,"ĠWork":5173,"closed":5174,"artment":5175,"abad":5176,"ĠSub":5177,"Ġretri":5178,"eri":5179,"point":5180,"1914":5181,"Ol":5182,"Hamburg":5183,"301":5184,"ĠBern":5185,"Ġalpha":5186,"ACT":5187,"olution":5188,"TBA":5189,"oulder":5190,"Power":5191,"ĠClark":5192,"Sarah":5193,"mission":5194,"Ġresult":5195,"Complete":5196,"rial":5197,"ĠMos":5198,"View":5199,"icks":5200,"Tyler":5201,"ederal":5202,"unk":5203,"Location":5204,"Audio":5205,"pect":5206,"ogle":5207,"Director":5208,"ĠAllen":5209,"wan":5210,"ĠDistrict":5211,"izen":5212,"hold":5213,"ASH":5214,"Ġexample":5215,"ĠREST":5216,"Carol":5217,"Wilson":5218,"Rena":5219,"ĠNor":5220,"Pass":5221,"Ole":5222,"amental":5223,"tle":5224,"ĠMag":5225,"325":5226,"ĠAp":5227,"ĠTom":5228,"obe":5229,"ega":5230,"enhancement":5231,"Ġart":5232,"Czech":5233,"celona":5234,"bj":5235,"Ġproceed":5236,"Old":5237,"ĠRos":5238,"erdam":5239,"AHL":5240,"oolean":5241,"erce":5242,"Personal":5243,"apter":5244,"Ġsame":5245,"451":5246,"OHN":5247,"ĠLanka":5248,"Health":5249,"Jer":5250,"anooga":5251,"Winn":5252,"Su":5253,"hi":5254,"GT":5255,"bug":5256,"attanooga":5257,"ushing":5258,"Positive":5259,"Brandon":5260,"230":5261,"Ġgas":5262,"ĠCAR":5263,"Hun":5264,"SITE":5265,"sterdam":5266,"WN":5267,"1953":5268,"ĠWith":5269,"ĠApp":5270,"Tele":5271,"488":5272,"itional":5273,"illo":5274,"ĠPATENT":5275,"ĠAlb":5276,"Ġinput":5277,"ĠDecember":5278,"Russia":5279,"rel":5280,"Ġorder":5281,"Union":5282,"Ġbeing":5283,"ELD":5284,"Ġbeta":5285,"olulu":5286,"ira":5287,"annon":5288,"ĠFri":5289,"Ġdiscontinuance":5290,"file":5291,"Love":5292,"Pa":5293,"ĠDon":5294,"217":5295,"Mtl":5296,"ires":5297,"rowth":5298,"DO":5299,"UB":5300,"Poems":5301,"abled":5302,"nam":5303,"ĠInteractive":5304,"Cap":5305,"Ġadmin":5306,"450":5307,"ĠDes":5308,"ĠOpen":5309,"Due":5310,"ompson":5311,"1062":5312,"Bell":5313,"etson":5314,"arden":5315,"Rochester":5316,"Screw":5317,"GRE":5318,"PD":5319,"Ġshort":5320,"434":5321,"untington":5322,"NZL":5323,"ĠET":5324,"Lor":5325,"onnection":5326,"ufacturing":5327,"Ġcircuit":5328,"219":5329,"peptide":5330,"483":5331,"FE":5332,"anon":5333,"WOOD":5334,"Ġrunning":5335,"BRO":5336,"ĠSu":5337,"atal":5338,"003":5339,"uzz":5340,"TB":5341,"identified":5342,"Lex":5343,"Susan":5344,"plicit":5345,"ommunity":5346,"ĠCollins":5347,"ĠAgency":5348,"ĠApplications":5349,"Hart":5350,"ika":5351,"yrtle":5352,"1955":5353,"ĠHay":5354,"ĠMid":5355,"ernand":5356,"001":5357,"My":5358,"Ly":5359,"ĠVa":5360,"UTH":5361,"una":5362,"Ġaf":5363,"ESP":5364,"icro":5365,"Van":5366,"eption":5367,"ĠInformation":5368,"EUR":5369,"ĠMel":5370,"iting":5371,"ĠReid":5372,"Ġmodule":5373,"inking":5374,"chen":5375,"Ġthere":5376,"Ġcu":5377,"750000":5378,"407":5379,"Moh":5380,"vey":5381,"VS":5382,"emiconductor":5383,"issa":5384,"Mill":5385,"va":5386,"ĠMoore":5387,"arrier":5388,"ĠBrad":5389,"Gibson":5390,"aki":5391,"ĠIslands":5392,"Ġprod":5393,"Mercedes":5394,"686":5395,"udi":5396,"ĠDevelopment":5397,"BERK":5398,"PRES":5399,"osp":5400,"ĠHarris":5401,"One":5402,"ynch":5403,"1940":5404,"Civ":5405,"Number":5406,"ĠEnergy":5407,"CRO":5408,"ĠBrit":5409,"Att":5410,"Ron":5411,"Renault":5412,"Stock":5413,"txt":5414,"Ġcit":5415,"ĠNovember":5416,"ĠMd":5417,"456":5418,"275":5419,"List":5420,"Pal":5421,"299":5422,"Ġ=":5423,"008":5424,"EFI":5425,"ĠEr":5426,"Minute":5427,"hyd":5428,"Ġlong":5429,"ocol":5430,"Omaha":5431,"ĠFort":5432,"rang":5433,"ecutive":5434,"amma":5435,"roduction":5436,"Ġsupp":5437,"ĠCategory":5438,"aptist":5439,"eeting":5440,"IAM":5441,"URED":5442,"ELEY":5443,"ĠAndrew":5444,"ĠHer":5445,"Ġlocal":5446,"ades":5447,"MMORP":5448,"Anaheim":5449,"Ġ36":5450,"ĠTECHNOLOGIES":5451,"Taylor":5452,"Ġelectric":5453,"yrac":5454,"Ġselected":5455,"Ġ1988":5456,"ĠProv":5457,"berts":5458,"Ġpoint":5459,"anks":5460,"ĠBL":5461,"oines":5462,"yracuse":5463,"QL":5464,"ĠAssoci":5465,"Pot":5466,"Ever":5467,"Mer":5468,"Tur":5469,"ĠTue":5470,"ĠEurope":5471,"Prez":5472,"ĠEducation":5473,"Retired":5474,"ĠAntivirus":5475,"Ġsee":5476,"une":5477,"Ġelectrode":5478,"604":5479,"Ġstructure":5480,"ĠMoines":5481,"Ġ.":5482,"SV":5483,"iac":5484,"asp":5485,"ĠPetersburg":5486,"Landline":5487,"ady":5488,"1907":5489,"Pennsylvania":5490,"ĠNick":5491,"Jordan":5492,"achine":5493,"ĠMedia":5494,"other":5495,"ĠAssess":5496,"Ġhi":5497,"ĠUs":5498,"010":5499,"Ġequ":5500,"247":5501,"essional":5502,"onia":5503,"1913":5504,"ĠLong":5505,"BERKELEY":5506,"entration":5507,"Time":5508,"elsea":5509,"ancer":5510,"hl":5511,"__":5512,"ube":5513,"Angel":5514,"Ox":5515,"intron":5516,"Ġdigits":5517,"Ġsens":5518,"Finland":5519,"ĠRet":5520,"Barcelona":5521,"ĠPlay":5522,"ĠRecord":5523,"sn":5524,"PET":5525,"Martin":5526,"othy":5527,"295":5528,"cell":5529,"Ġframe":5530,"Tennessee":5531,"Ġweekly":5532,"MMA":5533,"Gen":5534,"Ġwords":5535,"DEN":5536,"Park":5537,"ubb":5538,"ĠSUMMER":5539,"Vermont":5540,"ĠAMERICA":5541,"moo":5542,"ĠAC":5543,"ĠMountain":5544,"BERT":5545,"Ġcitizen":5546,"909":5547,"ĠNAME":5548,"SION":5549,"ht":5550,"IO":5551,"Honolulu":5552,"Rutherford":5553,"Ġfate":5554,"405":5555,"agon":5556,"Short":5557,"ĠPass":5558,"itchell":5559,"Ġcommand":5560,"Ġmeasure":5561,"IV":5562,"Sullivan":5563,"Ġeng":5564,"ido":5565,"Image":5566,"Ġ@":5567,"Ġtarget":5568,"Justin":5569,"Ġhiatus":5570,"Rick":5571,"Charleston":5572,"edo":5573,"agement":5574,"asm":5575,"Ġstring":5576,"ĠKey":5577,"ĠFrank":5578,"westerly":5579,"260":5580,"MtlSho":5581,"ineer":5582,"Ġwr":5583,"ICS":5584,"notice":5585,"Ġcomprising":5586,"verter":5587,"256":5588,"IDE":5589,"ĠPARTY":5590,"Ġinches":5591,"Ġfurther":5592,"ransportation":5593,"\"$":5594,"1950":5595,"bar":5596,"INT":5597,"ĠSec":5598,"ĠCampbell":5599,"Indiana":5600,"ĠRam":5601,"Ġins":5602,"House":5603,"ĠProduct":5604,"odim":5605,"rec":5606,"reas":5607,"bsk":5608,"Ell":5609,"Av":5610,"Pub":5611,"Set":5612,"anding":5613,"Salem":5614,"ĠCtr":5615,"Economy":5616,"War":5617,"DJ":5618,"CN":5619,"family":5620,"ĠReb":5621,"BP":5622,"Fre":5623,"ĠBarbara":5624,"ĠStab":5625,"Ġneed":5626,"ProRule":5627,"ĠLSU":5628,"ĠYOU":5629,"cer":5630,"Me":5631,"listed":5632,"ĠCruz":5633,"ĠBrew":5634,"Ġstorage":5635,"iday":5636,"KO":5637,"ĠNM":5638,"oux":5639,"634110":5640,"ĠMeas":5641,"ĠOs":5642,"Ġrods":5643,"Ġafter":5644,"Que":5645,"ĠEstate":5646,"ĠWindows":5647,"rank":5648,"XX":5649,"ĠPDF":5650,"MMORPG":5651,"uter":5652,"ĠStore":5653,"imm":5654,"INA":5655,"enow":5656,"DW":5657,"eft":5658,"Ozone":5659,"eline":5660,"Ġcontribute":5661,"ĠBrian":5662,"ORGAN":5663,"ntario":5664,"Ġarea":5665,"ĠPT":5666,"Ferrari":5667,"ynth":5668,"1951":5669,"ĠDriver":5670,"336":5671,"anie":5672,"Jean":5673,"006":5674,"Ġkinase":5675,"owski":5676,"eps":5677,"ends":5678,"arth":5679,"igen":5680,"enderson":5681,"Fundamental":5682,"Ġwalks":5683,"riff":5684,"Denmark":5685,"Patrick":5686,"ĠBC":5687,"ured":5688,"Ġpolypeptide":5689,"Vel":5690,"aple":5691,"ĠNorthampton":5692,"jan":5693,"Mag":5694,"Won":5695,"Amsterdam":5696,"Ġhead":5697,"Ġdeb":5698,"Bloom":5699,"aso":5700,"Ġreading":5701,"ĠHE":5702,"ugene":5703,"alian":5704,"ĠDur":5705,"ĠWhit":5706,"ĠSECURED":5707,"li":5708,"Main":5709,"Method":5710,"leasant":5711,"GI":5712,"yo":5713,"Todd":5714,"ful":5715,"465":5716,"Deep":5717,"ĠSn":5718,"ante":5719,"YL":5720,"2021":5721,"Pending":5722,"ashire":5723,"ĠSER":5724,"Ġ66":5725,"ĠMaster":5726,"Ġhomolog":5727,"elease":5728,"ĠDet":5729,"Ġpat":5730,"rush":5731,"ĠLi":5732,"Ġsearch":5733,"IZON":5734,"Luc":5735,"Ġ34":5736,"ecture":5737,"469":5738,"233":5739,"anne":5740,"Ġvisit":5741,"ĠRyan":5742,"1954":5743,"ĠFil":5744,"ĠRoy":5745,"Dun":5746,"SCH":5747,"py":5748,"odes":5749,"Clark":5750,"RIS":5751,"ican":5752,"ĠVER":5753,"Ġ1989":5754,"admin":5755,"238":5756,"Ju":5757,"zy":5758,"ifier":5759,"Ġdetails":5760,"3029":5761,"227":5762,"JA":5763,"anch":5764,"ze":5765,"aux":5766,"Ġdirection":5767,"Ġnucle":5768,"385":5769,"ZE":5770,"ertown":5771,"Resource":5772,"POL":5773,"ITT":5774,"Melbourne":5775,"ĠBox":5776,"ellsouth":5777,"gzip":5778,"ĠTw":5779,"ocated":5780,"PAC":5781,"ĠStr":5782,"ĠJon":5783,"234":5784,"omer":5785,"asket":5786,"awn":5787,"ĠEST":5788,"ĠFlorida":5789,"Multi":5790,"Ġ37":5791,"Ġvalues":5792,"Ġvia":5793,"Ġstandard":5794,"Alexand":5795,"ĠSW":5796,"losed":5797,"KCA":5798,"ĠTelecomm":5799,"verse":5800,"ploy":5801,"Online":5802,"268":5803,"Gary":5804,"inese":5805,"Ġallow":5806,"Hor":5807,"Ġ|":5808,"ĠPlans":5809,"atio":5810,"LAY":5811,"ye":5812,"RANCE":5813,"ugg":5814,"Maury":5815,"Service":5816,"ĠOther":5817,"ĠFiction":5818,"308":5819,"ĠMal":5820,"ĠCart":5821,"ĠInst":5822,"Dublin":5823,"250000":5824,"Greens":5825,"letion":5826,"Ġmode":5827,"402":5828,"ĠAssessment":5829,"Ġrepres":5830,"Ġrecomm":5831,"animous":5832,"unit":5833,"icon":5834,"Ġso":5835,"ĠCHANGE":5836,"Ġmessage":5837,"Ġchannel":5838,"nim":5839,"ga":5840,"pur":5841,"aren":5842,"perkins":5843,"bjperkins":5844,"ĠDBA":5845,"aga":5846,"eron":5847,"ĠAsh":5848,"ĠDo":5849,"iger":5850,"Ġproperty":5851,"Ġ32":5852,"Greenville":5853,"ewart":5854,"Bay":5855,"978":5856,"ils":5857,"Anthony":5858,"ĠOrchestra":5859,"Bellsouth":5860,"Ġfollow":5861,"Massachusetts":5862,"ns":5863,"Norway":5864,"avy":5865,"Arm":5866,"ographic":5867,"FORD":5868,"Ġ44":5869,"ĠBlue":5870,"Ġnature":5871,"486":5872,"Ġorgan":5873,"ĠAcad":5874,"ĠTor":5875,"ĠTerr":5876,"Band":5877,"Ġcity":5878,"mington":5879,"ĠStabenow":5880,"eller":5881,"Ġ1992":5882,"Explicit":5883,"Ġmodel":5884,"Warren":5885,"akers":5886,"lam":5887,"MX":5888,"Lnd":5889,"1920":5890,"Leg":5891,"ĠPack":5892,"uez":5893,"TOC":5894,"atur":5895,"ugal":5896,"Vienna":5897,"Ġhost":5898,"Ġkg":5899,"Ġacid":5900,"Douglas":5901,"edford":5902,"DCM":5903,"bably":5904,"1947":5905,"Boise":5906,"ynn":5907,"ĠIP":5908,"Mess":5909,"Ġ1991":5910,"RL":5911,"Cardiff":5912,"Ġflu":5913,"Ġchem":5914,"ANG":5915,"eek":5916,"ĠNatural":5917,"ĠWorld":5918,"ĠHot":5919,"Silver":5920,"ĠGar":5921,"Misc":5922,"1879":5923,"1949":5924,"485":5925,"ĠCF":5926,"jected":5927,"ammad":5928,"Back":5929,"ĠGran":5930,"Ġconnected":5931,"Gran":5932,"URE":5933,"Ġauthor":5934,"ĠPeter":5935,"ĠType":5936,"ĠSYSTEMS":5937,"SN":5938,"feat":5939,"ĠPH":5940,"Morgan":5941,"Parent":5942,"Gar":5943,"242":5944,"aut":5945,"1941":5946,"ĠWar":5947,"rov":5948,"Ġcorrespond":5949,"Ġadj":5950,"1896":5951,"ĠSea":5952,"ĠTy":5953,"ĠPO":5954,"anced":5955,"Ġintegrate":5956,"nimrod":5957,"Ġcontact":5958,"sv":5959,"uate":5960,"Database":5961,"Ġcomposition":5962,"itting":5963,"Ġdrinking":5964,"ĠDenver":5965,"HAM":5966,"Worc":5967,"Harris":5968,"ĠDays":5969,"1939":5970,"ĠPoint":5971,"Tok":5972,"Connecticut":5973,"Ġsection":5974,"Jose":5975,"ĠHaven":5976,"APAN":5977,"Anderson":5978,"utr":5979,"ĠGRO":5980,"PW":5981,"Chattanooga":5982,"die":5983,"ĠAqu":5984,"Ġmade":5985,"aur":5986,"Ġprocessing":5987,"Ġfunctionality":5988,"ĠEas":5989,"Ġvolt":5990,"ĠRou":5991,"Cro":5992,"ĠMED":5993,"ito":5994,"ĠMix":5995,"ĠStetson":5996,"MAC":5997,"ĠFLJ":5998,"amar":5999,"Chrome":6000,"ipper":6001,"ĠDirectory":6002,"Thunder":6003,"istry":6004,"ios":6005,"Phot":6006,"Ġair":6007,"1930":6008,"1952":6009,"ĠTrainer":6010,"1942":6011,"pa":6012,"ĠCarl":6013,"ĠGre":6014,"ĠSoc":6015,"DH":6016,"Wayne":6017,"ardo":6018,"ĠHel":6019,"Ġlog":6020,"ousing":6021,"sl":6022,"Ġbox":6023,"ferase":6024,"289":6025,"iform":6026,"Hy":6027,"IER":6028,"achel":6029,"ĠCET":6030,"UNT":6031,"Baptist":6032,"Kyle":6033,"Ġgame":6034,"Ġversion":6035,"ObjectTo":6036,"gr":6037,"Hear":6038,"ski":6039,"ĠDem":6040,"ĠSystems":6041,"uce":6042,"ĠtestObjectTo":6043,"Tempe":6044,"NW":6045,"Newport":6046,"Bol":6047,"246":6048,"457":6049,"ĠGermany":6050,"452":6051,"Albert":6052,"oop":6053,"ĠJoe":6054,"HH":6055,"ĠFarm":6056,"ected":6057,"aneous":6058,"ador":6059,"2199":6060,"Bradley":6061,"ĠHO":6062,"311":6063,"Software":6064,"jpg":6065,"Marshall":6066,"Ġtable":6067,"ĠBusiness":6068,"ĠHenry":6069,"burn":6070,"Point":6071,"PRESCHOOL":6072,"Ġresponse":6073,"Syracuse":6074,"Ġgr":6075,"heel":6076,"ailey":6077,"Char":6078,"ĠDVD":6079,"ui":6080,"ĠLuc":6081,"iece":6082,"Ġwherein":6083,"ameda":6084,"argo":6085,"NT":6086,"echan":6087,"first":6088,"Original":6089,"Ġalteration":6090,"ĠRoss":6091,"Qwest":6092,"ribution":6093,"Ap":6094,"Ġconst":6095,"Ġprovide":6096,"Arkansas":6097,"ĠGreg":6098,"1948":6099,"ĠRay":6100,"Pent":6101,"opro":6102,"245":6103,"ĠChurch":6104,"WE":6105,"down":6106,"DSL":6107,"ycle":6108,"alyt":6109,"rosoft":6110,"erick":6111,"ĠAna":6112,"WS":6113,"onesia":6114,"ĠControl":6115,"ao":6116,"Ġmatch":6117,"ATT":6118,"Maine":6119,"omet":6120,"Ġmed":6121,"Durham":6122,"ception":6123,"GM":6124,"Ġwesterly":6125,"atherine":6126,"doc":6127,"ĠHeart":6128,"ARK":6129,"ĠSites":6130,"aco":6131,"Ġ41":6132,"ĠFre":6133,"ahar":6134,"Arlington":6135,"epar":6136,"Ġ56":6137,"agh":6138,"Ser":6139,"Ġfeat":6140,"vet":6141,"1936":6142,"Wy":6143,"lan":6144,"ĠHILL":6145,"Laur":6146,"Liverpool":6147,"Ur":6148,"ken":6149,"ipeg":6150,"338":6151,"401":6152,"ĠLand":6153,"ministr":6154,"ares":6155,"ĠChris":6156,"Wal":6157,"ĠPenn":6158,"anny":6159,"Ġpress":6160,"ĠDun":6161,"ĠJim":6162,"315":6163,"Savings":6164,"illips":6165,"Villa":6166,"255":6167,"Jefferson":6168,"ĠRog":6169,"Ġproduct":6170,"righton":6171,"eason":6172,"Kentucky":6173,"ĠRom":6174,"rix":6175,"Jonathan":6176,"endo":6177,"Join":6178,"ĠDef":6179,"Ak":6180,"nol":6181,"ĠUnanimous":6182,"Live":6183,"aced":6184,"anti":6185,"ILLIAM":6186,"IAN":6187,"Soph":6188,"Ġ1990":6189,"TIM":6190,"ĠWall":6191,"Ġembodim":6192,"435":6193,"Spec":6194,"Ġcreate":6195,"erek":6196,"BRA":6197,"Ha":6198,"RMM":6199,"HR":6200,"var":6201,"Nic":6202,"nold":6203,"1900":6204,"boy":6205,"Rod":6206,"Che":6207,"Ġvol":6208,"ĠSer":6209,"chertown":6210,"udd":6211,"External":6212,"xy":6213,"FG":6214,"raine":6215,"mo":6216,"ĠGrove":6217,"Ġsmall":6218,"ĠKe":6219,"gs":6220,"ĠDEVICE":6221,"Ġtim":6222,"array":6223,"Ġcontains":6224,"see":6225,"Hung":6226,"ĠIndust":6227,"Ġfund":6228,"ĠJason":6229,"anger":6230,"409":6231,"002":6232,"Winnipeg":6233,"oles":6234,"Domin":6235,"Ġap":6236,"ĠLicense":6237,"ached":6238,"protein":6239,"412":6240,"Ġinstance":6241,"ĠImpro":6242,"go":6243,"Deb":6244,"Ġtotal":6245,"ĠMovies":6246,"Elizabeth":6247,"ĠTECHNOLOGY":6248,"CNV":6249,"Ġcontent":6250,"ĠFun":6251,"VIC":6252,"ENN":6253,"SPE":6254,"Ġcond":6255,"Search":6256,"Ġcarrier":6257,"ĠSound":6258,"ĠRadio":6259,"243":6260,"egan":6261,"Special":6262,"ĠSD":6263,"ONY":6264,"ĠAT":6265,"ĠLewis":6266,"Ġyd":6267,"HIP":6268,"Ġfilm":6269,"Cast":6270,"emperature":6271,"Ġchang":6272,"ĠSo":6273,"Providence":6274,"Ġ70":6275,"anner":6276,"ĠTri":6277,"Ġ1987":6278,"iti":6279,"ĠThompson":6280,"TRA":6281,"urf":6282,"ĠGal":6283,"Ġconnection":6284,"RNA":6285,"248":6286,"ĠBO":6287,"afe":6288,"ĠCoast":6289,"ĠReal":6290,"Civic":6291,"259":6292,"Darrow":6293,"265":6294,"339":6295,"462":6296,"istance":6297,"ĠResearch":6298,"Alameda":6299,"ĠKenn":6300,"Ġsemiconductor":6301,"461":6302,"Krist":6303,"nolib":6304,"Commerce":6305,"ĠPoints":6306,"ĠRES":6307,"041":6308,"esse":6309,"ĠCin":6310,"Ġenc":6311,"owell":6312,"Greene":6313,"ĠAtt":6314,"ĠIg":6315,"WAY":6316,"1000":6317,"ACH":6318,"482":6319,"Ġactiv":6320,"option":6321,"lease":6322,"PAL":6323,"owers":6324,"INING":6325,"Ġbefore":6326,"timate":6327,"HU":6328,"Ġcoupl":6329,"umer":6330,"Data":6331,"ĠClassic":6332,"Ġblock":6333,"Ġpost":6334,"ĠAlexander":6335,"png":6336,"Ġprev":6337,"ato":6338,"ĠSports":6339,"Brew":6340,"Report":6341,"ĠRidd":6342,"Lee":6343,"ted":6344,"FIN":6345,"Accord":6346,"them":6347,"ĠNelson":6348,"Ġexposure":6349,"Ġinfo":6350,"ructions":6351,"Ġmemb":6352,"ĠWalker":6353,"File":6354,"reme":6355,"Ġder":6356,"ĠXml":6357,"ĠEver":6358,"Ġcontain":6359,"1943":6360,"Nancy":6361,"ĠVillage":6362,"Ġbk":6363,"Ob":6364,"Ġseconds":6365,"Ġinstall":6366,"Ġvoltage":6367,"ĠMer":6368,"ĠJOHN":6369,"ĠEquipment":6370,"232":6371,"Pu":6372,"PORT":6373,"1895":6374,"oria":6375,"ĠGas":6376,"aho":6377,"Southern":6378,"ĠSouthern":6379,"Commercials":6380,"icester":6381,"olved":6382,"Ġrot":6383,"Display":6384,"time":6385,"heville":6386,"USD":6387,"Ġel":6388,"III":6389,"Ġhit":6390,"mont":6391,"254":6392,"ĠKhan":6393,"Front":6394,"erby":6395,"ĠAdd":6396,"Ġcomprises":6397,"Ġ63":6398,"word":6399,"tel":6400,"Ġpartic":6401,"Ġhyd":6402,"jamin":6403,"wer":6404,"ĠRoom":6405,"ĠBy":6406,"AUT":6407,"Hand":6408,"ĠMotor":6409,"berry":6410,"ĠStars":6411,"484":6412,"iod":6413,"ARL":6414,"ĠRiddim":6415,"ĠKind":6416,"Ġentry":6417,"lation":6418,"park":6419,"ARAT":6420,"atcher":6421,"web":6422,"anish":6423,"267":6424,"Ġ48":6425,"aking":6426,"AMES":6427,"Corn":6428,"Ġfeet":6429,"ĠWayne":6430,"arly":6431,"Ġref":6432,"ĠMax":6433,"amd":6434,"1937":6435,"ependent":6436,"Edward":6437,"aceae":6438,"Zach":6439,"ĠCenters":6440,"Ġsets":6441,"Cros":6442,"Ess":6443,"ĠSoftware":6444,"ĠCL":6445,"opp":6446,"Ian":6447,"Punt":6448,"Ter":6449,"ĠDEL":6450,"Ġassembly":6451,"333":6452,"1069":6453,"aware":6454,"ĠCell":6455,"ĠKevin":6456,"Kh":6457,"Ġwell":6458,"Wilmington":6459,"Ġbu":6460,"ĠConsent":6461,"Ġwind":6462,"Monroe":6463,"258":6464,"elli":6465,"ĠPARTN":6466,"gate":6467,"Marion":6468,"Ġmust":6469,"ĠRodrig":6470,"Dep":6471,"Eugene":6472,"Lancaster":6473,"IAL":6474,"NATIONAL":6475,"itted":6476,"oxide":6477,"Te":6478,"ylan":6479,"ali":6480,"ĠGlobal":6481,"1893":6482,"ottingham":6483,"ois":6484,"306":6485,"DUCT":6486,"Keyboard":6487,"TRO":6488,"Ġgl":6489,"ĠTechnology":6490,"chain":6491,"Ġdocument":6492,"266":6493,"Ġ64":6494,"Ec":6495,"ICATION":6496,"ql":6497,"ĠBest":6498,"Ġtransport":6499,"Ġsize":6500,"French":6501,"MAS":6502,"Greensboro":6503,"ĠStock":6504,"ellow":6505,"ĠMack":6506,"ĠLight":6507,"ances":6508,"ĠSH":6509,"Costa":6510,"Ġopt":6511,"ĠLove":6512,"ĠGeneral":6513,"sun":6514,"Ġ47":6515,"mich":6516,"ĠSalt":6517,"ounc":6518,"ĠPARTNERS":6519,"Ġrest":6520,"ulin":6521,"Force":6522,"Ġdevices":6523,"Az":6524,"ival":6525,"enia":6526,"Ġtyp":6527,"Leeds":6528,"ĠMotion":6529,"abin":6530,"arch":6531,"ĠOffice":6532,"Jennifer":6533,"Child":6534,"Ġeffects":6535,"Nap":6536,"ively":6537,"Ġ46":6538,"Larry":6539,"imal":6540,"Ġoperation":6541,"Air":6542,"Tall":6543,"Ġmessages":6544,"Motion":6545,"1938":6546,"Ġocc":6547,"acher":6548,"Cath":6549,"ebook":6550,"ĠKen":6551,"Ġcolumn":6552,"Ġlb":6553,"Us":6554,"Ġerror":6555,"angers":6556,"Sioux":6557,"Ver":6558,"ĠPost":6559,"YA":6560,").\"":6561,"UG":6562,"ologies":6563,"ĠBut":6564,"ĠWin":6565,"ĠSr":6566,"Ġrequired":6567,"1892":6568,"ĠHead":6569,"iate":6570,"TL":6571,"ĠLIM":6572,"ĠHome":6573,"ĠBelchertown":6574,"oprotein":6575,"lewood":6576,"endar":6577,"Alaska":6578,"rifice":6579,"Rol":6580,"ĠIowa":6581,"3011":6582,"Rest":6583,"Rece":6584,"ĠCooperative":6585,"Mos":6586,"Worcester":6587,"olar":6588,"arma":6589,"otals":6590,"Ġload":6591,"016":6592,"vr":6593,"amber":6594,"vt":6595,"poned":6596,"Giles":6597,"Lat":6598,"raf":6599,"ĠHonda":6600,"ĠExt":6601,"Lewis":6602,"Sand":6603,"type":6604,"ucket":6605,"Ġchange":6606,"ĠJAPAN":6607,"mad":6608,"fil":6609,"ĠFeder":6610,"REEK":6611,"double":6612,"Mountain":6613,"ĠFred":6614,"tertain":6615,"900":6616,"RIC":6617,"Unlisted":6618,"Uk":6619,"itness":6620,"Ġterm":6621,"Character":6622,"Ġnet":6623,"Ġliability":6624,"wide":6625,"Ġlimit":6626,"Camden":6627,"Ġtechn":6628,"eball":6629,"Ġphosph":6630,"420":6631,"fast":6632,"1933":6633,"gers":6634,"ysical":6635,"enburg":6636,"Ġmagn":6637,"Site":6638,"253":6639,"Ġconfiguration":6640,"iven":6641,"ogn":6642,"2041":6643,"keley":6644,"262":6645,"334":6646,"History":6647,"site":6648,"enda":6649,"etty":6650,"ĠNH":6651,"bes":6652,"inton":6653,"ĠSar":6654,"agan":6655,"ĠBrun":6656,"hman":6657,"Athens":6658,"Ġmark":6659,"Louisiana":6660,"Ġsoutheasterly":6661,"263":6662,"Assigned":6663,"iston":6664,"eto":6665,"Ġfree":6666,"Ġreviews":6667,"1903":6668,"afety":6669,"Sev":6670,"aph":6671,"ĠSte":6672,"ĠMadrid":6673,"usen":6674,"pload":6675,"uster":6676,"KC":6677,"heet":6678,"Ġreceived":6679,"Ġkm":6680,"ARG":6681,"osite":6682,"vestment":6683,"Ġcr":6684,"00000000":6685,"ansion":6686,"ĠIndies":6687,"Eastern":6688,"605":6689,"ĠKent":6690,"Ġshould":6691,"SCA":6692,"ĠPre":6693,"RR":6694,"iences":6695,"270":6696,"Ġla":6697,"Plan":6698,"Nevada":6699,"ĠTru":6700,"Laura":6701,"iquid":6702,"esis":6703,"1946":6704,"ĠGall":6705,"ĠBoy":6706,"Northampton":6707,"Ġservices":6708,"Ġcommon":6709,"Mohammad":6710,"Ġ1986":6711,"Asheville":6712,"Kath":6713,"ators":6714,"KI":6715,"But":6716,"ĠDou":6717,"hyp":6718,"Ġkn":6719,"ĠPel":6720,"ULAR":6721,"Knoxville":6722,"ineering":6723,"ĠCole":6724,"ĠBob":6725,"Cutter":6726,"276":6727,"width":6728,"1021":6729,"mok":6730,"agu":6731,"irtual":6732,"Vis":6733,"1934":6734,"310":6735,"Kay":6736,"Albany":6737,"Fayette":6738,"IDA":6739,"itors":6740,"ĠPublic":6741,"FLO":6742,"ĠSheet":6743,"ĠPleasant":6744,"ethyl":6745,"aft":6746,"par":6747,"ĠStephen":6748,"408":6749,"ĠFish":6750,"ĠObject":6751,"ĠRouge":6752,"ierre":6753,"ĠGrand":6754,"User":6755,"etical":6756,"erve":6757,"Christina":6758,"Feature":6759,"rael":6760,"Cla":6761,"7500":6762,"uba":6763,"ĠBru":6764,"urst":6765,"rl":6766,"intendo":6767,"Ġrank":6768,"rimary":6769,"530":6770,"ĠSee":6771,"ordin":6772,"Oil":6773,"Ġsubunit":6774,"GPL":6775,"ii":6776,"ĠCase":6777,"ĠAcademy":6778,"okane":6779,"Ġfollowing":6780,"Ġme":6781,"Ġ53":6782,"opy":6783,"eCommerce":6784,"273":6785,"Portugal":6786,"1928":6787,"241":6788,"iamond":6789,"Brit":6790,"Signed":6791,"ians":6792,"tertainment":6793,"ichita":6794,"sor":6795,"Ang":6796,"FACT":6797,"ĠLE":6798,"endale":6799,"FORT":6800,"aser":6801,"Kings":6802,"Ġ43":6803,"Ali":6804,"REET":6805,"Was":6806,"Ġther":6807,"Hartford":6808,"Ġsett":6809,"ĠYorkshire":6810,"Ġmiles":6811,"Ġcharacter":6812,"ĠIndia":6813,"ĠBry":6814,"urray":6815,"Randy":6816,"455":6817,"but":6818,"ĠMAN":6819,"GP":6820,"ideration":6821,"confirmed":6822,"olute":6823,"ĠMeasures":6824,"ĠGeorgia":6825,"Jerry":6826,"Doug":6827,"apore":6828,"low":6829,"ĠPhone":6830,"Wall":6831,"ĠMarc":6832,"ĠOil":6833,"rolled":6834,"RBK":6835,"County":6836,"337":6837,"Yan":6838,"2099":6839,"thur":6840,"OND":6841,"Financial":6842,"ĠFerry":6843,"ibility":6844,"lon":6845,"Ġcommunication":6846,"ĠGill":6847,"ĠChristopher":6848,"ĠBEA":6849,"onsor":6850,"3031":6851,"ĠLlc":6852,"Ġquest":6853,"239":6854,"Dom":6855,"Hungary":6856,"acrifice":6857,"HB":6858,"Mesa":6859,"ĠSI":6860,"Ġswitch":6861,"Lexington":6862,"zer":6863,"Sean":6864,"ASeven":6865,"ĠVel":6866,"ĠAPP":6867,"Ġsecurity":6868,"287":6869,"ĠOrgan":6870,"vd":6871,"encer":6872,"done":6873,"Dark":6874,"Mount":6875,"Reference":6876,"ĠBug":6877,"280":6878,"480":6879,"ĠHD":6880,"ĠMeadow":6881,"236":6882,"NOR":6883,"ĠAdams":6884,"iformes":6885,"ĠFederation":6886,"Ġ58":6887,"NED":6888,"config":6889,"1072":6890,"Ġelements":6891,"Ġresource":6892,"ĠTeams":6893,"derland":6894,"mag":6895,"SULP":6896,"ĠDirector":6897,"Element":6898,"umin":6899,"Peer":6900,"ĠChesterfield":6901,"Kim":6902,"Russian":6903,"ĠMaps":6904,"jug":6905,"ĠTA":6906,"ordon":6907,"drpm":6908,"ĠEnd":6909,"925":6910,"amie":6911,"906":6912,"uri":6913,"rior":6914,"324":6915,"so":6916,"ĠTig":6917,"Reno":6918,"mund":6919,"Order":6920,"Ġparameter":6921,"237":6922,"Ġpattern":6923,"BN":6924,"pie":6925,"Adobe":6926,"HAN":6927,"ĠBow":6928,"thampton":6929,"ĠDevel":6930,"Ġclient":6931,"bridge":6932,"michael":6933,"Jery":6934,"ĠGame":6935,"orporate":6936,"link":6937,"ĠOhio":6938,"Westph":6939,"Jerykk":6940,"ĠArab":6941,"ocale":6942,"Hampton":6943,"ĠFinance":6944,"ecurities":6945,"dele":6946,"zh":6947,"Ġconduct":6948,"MR":6949,"Mt":6950,"ATA":6951,"+)":6952,"kde":6953,"oam":6954,"ĠBa":6955,"293":6956,"Victoria":6957,"ĠHand":6958,"ellaneous":6959,"Member":6960,"SURANCE":6961,"403":6962,"LAM":6963,"Education":6964,"GS":6965,"uj":6966,"ĠLeg":6967,"ĠIND":6968,"Ġitem":6969,"miss":6970,"Ġ77":6971,"ĠCOR":6972,"Westphalia":6973,"anceled":6974,"936":6975,"SKY":6976,"Center":6977,"Ġreference":6978,"Est":6979,"Ni":6980,"Ġadverse":6981,"lying":6982,"ĠJacob":6983,"Chr":6984,"ussia":6985,"oa":6986,"ycrystalline":6987,"NCMS":6988,"454":6989,"ĠSenior":6990,"Aaron":6991,"ĠCam":6992,"ivia":6993,"ĠAk":6994,"ummer":6995,"ĠAli":6996,"edar":6997,"Spokane":6998,"AIR":6999,"350":7000,"othetical":7001,"317":7002,"BAR":7003,"Ġmax":7004,"ogging":7005,"Vac":7006,"iah":7007,"Dor":7008,"285":7009,"iot":7010,"akh":7011,"COMB":7012,"Youth":7013,"1945":7014,"ĠPRODUCT":7015,"usion":7016,"fin":7017,"ĠMess":7018,"ĠLittle":7019,"fox":7020,"Glen":7021,"Rio":7022,"Ġcomputer":7023,"Commission":7024,"Ġge":7025,"mitter":7026,"Som":7027,"ĠBenn":7028,"ernandez":7029,"Sport":7030,"ĠTEX":7031,"hypothetical":7032,"ĠFair":7033,"ised":7034,"Office":7035,"ĠBaker":7036,"ĠSet":7037,"1915":7038,"Document":7039,"TP":7040,"ĠUN":7041,"Ġboth":7042,"Ġsepar":7043,"udy":7044,"inging":7045,"Dear":7046,"ĠHor":7047,"Chester":7048,"ĠCOLLAT":7049,"343":7050,"ĠWolf":7051,"wr":7052,"ĠCre":7053,"First":7054,"ĠSa":7055,"idential":7056,"Ġcollection":7057,"otus":7058,"NF":7059,"EAR":7060,"1029":7061,"Decision":7062,"1916":7063,"ĠLind":7064,"Wichita":7065,"ĠRating":7066,"http":7067,"UE":7068,"ĠSteel":7069,"ĠSpecif":7070,"abel":7071,"Unc":7072,"Ġ59":7073,"Ġmetal":7074,"Delaware":7075,"Ġvideo":7076,"TIMORE":7077,"Ġ800":7078,"egirl":7079,"Ġcorresponding":7080,"WM":7081,"aii":7082,"Ġidentify":7083,"320":7084,"ĠAh":7085,"log":7086,"286":7087,"oir":7088,"ims":7089,"ography":7090,"db":7091,"Peerless":7092,"wick":7093,"plate":7094,"STL":7095,"249":7096,"ĠKindle":7097,"Coc":7098,"Evan":7099,"Ġfilter":7100,"ĠBLVD":7101,"rog":7102,"Gil":7103,"ĠOregon":7104,"Baton":7105,"ĠWright":7106,"Ġdisclosed":7107,"mn":7108,"279":7109,"quare":7110,"Les":7111,"Myrtle":7112,"Jessica":7113,"ĠCLEC":7114,"ĠPolycrystalline":7115,"ĠSil":7116,"ĠOfficer":7117,"Ġlower":7118,"epted":7119,"oster":7120,"BANK":7121,"Ġ2391":7122,"eyer":7123,"Nationals":7124,"minated":7125,"Ball":7126,"don":7127,"Bul":7128,"ĠRey":7129,"acker":7130,"ZH":7131,"NB":7132,"Nintendo":7133,"Ġ49":7134,"KR":7135,"ĠGi":7136,"Ġdisposed":7137,"Federal":7138,"vol":7139,"ĠGa":7140,"mart":7141,"ĠGil":7142,"ĠProd":7143,"ĠMasters":7144,"ITE":7145,"bin":7146,"here":7147,"466":7148,"oof":7149,"ĠEvent":7150,"TAM":7151,"DP":7152,"BALTIMORE":7153,"467":7154,"anel":7155,"ĠBernard":7156,"ĠMount":7157,"ailand":7158,"mid":7159,"ensus":7160,"Ġuses":7161,"ĠMode":7162,"1929":7163,"Colomb":7164,"ĠUltimate":7165,"Di":7166,"Ġrequ":7167,"ETT":7168,"Family":7169,"QB":7170,"ummary":7171,"come":7172,"Chelsea":7173,"340":7174,"ĠChair":7175,"iley":7176,"urora":7177,"ostal":7178,"Status":7179,"ĠDL":7180,"phosph":7181,"Head":7182,"Ġspell":7183,"Tokyo":7184,"0000000":7185,"ĠFitness":7186,"Ġmain":7187,"RF":7188,"VEL":7189,"Rank":7190,"Verizon":7191,"244":7192,"ĠVista":7193,"phony":7194,"redit":7195,"asy":7196,"264":7197,"ĠVilla":7198,"Johnny":7199,"furt":7200,"avar":7201,"Ġplug":7202,"Ġhalf":7203,"Ġrecord":7204,"pet":7205,"ĠTop":7206,"kes":7207,"ĠChristian":7208,"arcin":7209,"FIELD":7210,"Bedford":7211,"SKI":7212,"Ġdown":7213,"ĠAccess":7214,"ĠEric":7215,"ĠArena":7216,"plied":7217,"istorical":7218,"CZE":7219,"ĠMiddle":7220,"ĠINSURANCE":7221,"Bloomington":7222,"formed":7223,"ĠMatter":7224,"ĠNon":7225,"men":7226,"ĠProspect":7227,"yna":7228,"ĠTelephone":7229,"362":7230,"Young":7231,"Ġappro":7232,"Lancashire":7233,"ĠLIMITED":7234,"ĠXI":7235,"Ġactive":7236,"AAA":7237,"ĠCommunity":7238,"ĠMonoxide":7239,"GEN":7240,"UMB":7241,"syn":7242,"512":7243,"ĠCorn":7244,"aby":7245,"479":7246,"ĠUtd":7247,"Global":7248,"Ġlists":7249,"Ġ%":7250,"sporte":7251,"rime":7252,"ulated":7253,"ObjectFrom":7254,"uv":7255,"ToObjectFrom":7256,"ĠtestXML":7257,"ĠtestXMLToObjectFrom":7258,"Kel":7259,"013":7260,"uffer":7261,"ĠKennedy":7262,"ĠSur":7263,"ĠMem":7264,"ĠGriff":7265,"Ġantigen":7266,"Lecture":7267,"ĠHOLD":7268,"261":7269,"HD":7270,"Sil":7271,"Ġinstructions":7272,"ming":7273,"ambl":7274,"ricia":7275,"gress":7276,"Lind":7277,"UST":7278,"ĠAdam":7279,"sporteegirl":7280,"name":7281,"ĠTRUS":7282,"Philipp":7283,"ARATUS":7284,"252":7285,"overy":7286,"ĠTheater":7287,"ĠCooperation":7288,"ladesh":7289,"903":7290,"Bos":7291,"Ġdesign":7292,"cean":7293,"Ġstatus":7294,"Ġfull":7295,"borough":7296,"www":7297,"Fab":7298,"bie":7299,"GY":7300,"olo":7301,"ĠLuis":7302,"inburgh":7303,"ILE":7304,"ĠElizabeth":7305,"ĠFrom":7306,"ĠArea":7307,"Velvet":7308,"Jacob":7309,"Dearborn":7310,"RECT":7311,"Spl":7312,"orge":7313,"Boulder":7314,"EP":7315,"Ġ57":7316,"inki":7317,"ĠBritain":7318,"Ġhel":7319,"LS":7320,"ĠFT":7321,"Ġbridge":7322,"Williamson":7323,"svn":7324,"816":7325,"Ġseason":7326,"alpha":7327,"Specific":7328,"gu":7329,"senal":7330,"ĠSection":7331,"igo":7332,"ricket":7333,"1776":7334,"VMST":7335,"Ġamount":7336,"ĠTurn":7337,"Ġupper":7338,"SMM":7339,"Carroll":7340,"ĠBEACH":7341,"Dyer":7342,"1935":7343,"olecular":7344,"ĠFront":7345,"312":7346,"ĠJudic":7347,"CELL":7348,"%)":7349,"Cent":7350,"ĠAdvis":7351,"stra":7352,"lock":7353,"Singapore":7354,"aine":7355,"Robertson":7356,"ĠPrinted":7357,"Nam":7358,"cfc":7359,"ĠTotals":7360,"015":7361,"Ġstory":7362,"Film":7363,"Wales":7364,"YN":7365,"Alan":7366,"ĠFIN":7367,"transferase":7368,"ĠIgG":7369,"206190":7370,"Ġ42":7371,"ĠFe":7372,"Filed":7373,"perties":7374,"Sy":7375,"ĠCustom":7376,"Ġrelates":7377,"Business":7378,"Jake":7379,"lett":7380,"Clay":7381,"ANCE":7382,"Sumner":7383,"ĠCarroll":7384,"EFF":7385,"Ġconsideration":7386,"frast":7387,"ĠMethod":7388,"ĠIndex":7389,"ĠSTREET":7390,"Lisa":7391,"ĠGoogle":7392,"Rev":7393,"Ġlayout":7394,"ĠRoberts":7395,"ĠAnthony":7396,"itter":7397,"ĠFut":7398,"elsinki":7399,"ĠWestern":7400,"Ġsites":7401,"ĠKah":7402,"weet":7403,"1919":7404,"emeter":7405,"istics":7406,"MEX":7407,"ĠKings":7408,"eastern":7409,"ĠAirport":7410,"Henderson":7411,"SWE":7412,"Ukraine":7413,"ately":7414,"izer":7415,"ĠArbor":7416,"Ġlev":7417,"277":7418,"Christian":7419,"ulating":7420,"Carlos":7421,"ĠMult":7422,"ĠPacific":7423,"omore":7424,"Ġkit":7425,"Nottingham":7426,"Ġ1983":7427,"Fiction":7428,"Ġaction":7429,"ĠREC":7430,"pression":7431,"abri":7432,"ESPN":7433,"Weak":7434,"XO":7435,"ĠLawrence":7436,"Ġbar":7437,"Tol":7438,"usp":7439,"oxidase":7440,"Ġbel":7441,"Protein":7442,"amination":7443,"frastructure":7444,"ĠBurn":7445,"ĠTracks":7446,"Natural":7447,"ĠPond":7448,"Ġ1985":7449,"Rogers":7450,"Worksh":7451,"Ġflow":7452,"ilda":7453,"9199":7454,"JW":7455,"Ġforming":7456,"ĠTigers":7457,"ĠOnline":7458,"Berkeley":7459,"ĠDepartment":7460,"ĠStan":7461,"Ġprint":7462,"Ġdi":7463,"ĠChild":7464,"IX":7465,"ĠCall":7466,"McMinn":7467,"ĠNATIONAL":7468,"Ġ76":7469,"Milan":7470,"ĠJuan":7471,"See":7472,"Ġreceive":7473,"ipton":7474,"Ġ006":7475,"Han":7476,"Ġbas":7477,"ĠSport":7478,"ĠChe":7479,"Early":7480,"Ġbuild":7481,"ĠRussell":7482,"Ġdefined":7483,"emetery":7484,"Pop":7485,"via":7486,"ĠHC":7487,"Ġsubst":7488,"roduced":7489,"Luis":7490,"ENA":7491,"ohen":7492,"Ġradi":7493,"424":7494,"Laser":7495,"iy":7496,"Ġlocated":7497,"Prote":7498,"ĠJudiciary":7499,"ĠBills":7500,"ĠFinancial":7501,"ĠCOLLATERAL":7502,"Pom":7503,"USE":7504,"9099":7505,"ALD":7506,"Palm":7507,"ebast":7508,"Bangladesh":7509,"ĠPresident":7510,"eport":7511,"Ġcharact":7512,"Pentec":7513,"yth":7514,"ĠLo":7515,"leen":7516,"Ġcarb":7517,"Stinging":7518,"Ġpiece":7519,"StingingVelvet":7520,"ENG":7521,"GRA":7522,"MY":7523,"ĠNow":7524,"Electric":7525,"Ste":7526,"Ġrepresent":7527,"Item":7528,"MET":7529,"Rail":7530,"CAT":7531,"surance":7532,"Bern":7533,"sr":7534,"Ġob":7535,"366":7536,"ULL":7537,"Colombia":7538,"osome":7539,"icholas":7540,"German":7541,"SOL":7542,"Bow":7543,"ĠDead":7544,"Ġstruct":7545,"Click":7546,"Ġalong":7547,"ailed":7548,"Ġindex":7549,"iche":7550,"ĠRodriguez":7551,"WD":7552,"auer":7553,"ĠSaint":7554,"ework":7555,"Thailand":7556,"489":7557,"Ġpoints":7558,"Ġbook":7559,"ĠArts":7560,"\"(":7561,"ALI":7562,"COMBINING":7563,"ĠPaso":7564,"Ġsup":7565,"Ġflex":7566,"uh":7567,"Ġdirectory":7568,"atar":7569,"Ġ75":7570,"orton":7571,"ertical":7572,"garet":7573,"ĠCycl":7574,"Pentecostal":7575,"ĠProcess":7576,"Ġcamp":7577,"290":7578,"360":7579,"ĠContent":7580,"Ġsystems":7581,"ĠBi":7582,"ĠOrt":7583,"Curated":7584,"Ġearn":7585,"Ġ1984":7586,"ĠINTERNATIONAL":7587,"Alteration":7588,"onnie":7589,"ughes":7590,"Radio":7591,"HOR":7592,"806":7593,"Ġold":7594,"ucks":7595,"Jac":7596,"Wild":7597,"ebl":7598,"ORY":7599,"Ġ500":7600,"water":7601,"sponsor":7602,"Ġconcentration":7603,"Krov":7604,"wa":7605,"Ġheat":7606,"achi":7607,"MOD":7608,"icop":7609,"Krovven":7610,"Ġgate":7611,"ĠCumm":7612,"COOP":7613,"ĠAustralia":7614,"251":7615,"Sophomore":7616,"ĠCob":7617,"ĠJane":7618,"Arch":7619,"Idaho":7620,"Crosley":7621,"agg":7622,"Ġcheck":7623,"335":7624,"ĠRAM":7625,"edro":7626,"raul":7627,"onic":7628,"Ġpackage":7629,"tsdale":7630,"byter":7631,"Icy":7632,"Ġ65":7633,"024":7634,"Major":7635,"Put":7636,"1894":7637,"ĠFRAN":7638,"atia":7639,"Allen":7640,"sych":7641,"ATER":7642,"Clar":7643,"Ġlevels":7644,"orial":7645,"Ġcover":7646,"Katie":7647,"iza":7648,"ĠTEXAS":7649,"Proteome":7650,"Ġfre":7651,"Ġnow":7652,"Craig":7653,"bird":7654,"ĠSteven":7655,"Government":7656,"isl":7657,"ĠTV":7658,"illy":7659,"ĠDAV":7660,"Ġsome":7661,"STAR":7662,"Exp":7663,"Ġmultiple":7664,"ges":7665,"Sab":7666,"byterian":7667,"ĠTELE":7668,"017":7669,"Acquired":7670,"ĠSYSTEM":7671,"ĠCEST":7672,"071":7673,"fred":7674,"ividual":7675,"Ġ?":7676,"ĠRose":7677,"Irv":7678,"hra":7679,"Beginn":7680,"etch":7681,"Play":7682,"Security":7683,"1932":7684,"Steph":7685,"agle":7686,"269":7687,"udson":7688,"loor":7689,"Antoid":7690,"surf":7691,"IcyAntoid":7692,"Mandy":7693,"ĠBlues":7694,"ĠMatthew":7695,"Nonf":7696,"build":7697,"Enterprise":7698,"Whit":7699,"ĠFO":7700,"OSE":7701,"Ext":7702,"revor":7703,"Ġcall":7704,"1887":7705,"423":7706,"Ġhere":7707,"CHAR":7708,"025":7709,"Harvard":7710,"Surface":7711,"UPM":7712,"afayette":7713,"Andy":7714,"Alexandria":7715,"018":7716,"487":7717,"ennes":7718,"IDGE":7719,"ĠRelease":7720,"ĠInstitute":7721,"MICRO":7722,"ĠQue":7723,"ras":7724,"Dayton":7725,"Connie":7726,"rest":7727,"nut":7728,"Ġann":7729,"Minor":7730,"aca":7731,"BS":7732,"ĠConnecticut":7733,"ĠBR":7734,"027":7735,"AMAG":7736,"Asp":7737,"earing":7738,"ĠRebounds":7739,"ĠNic":7740,"ĠWILLIAM":7741,"014":7742,"STRAT":7743,"sville":7744,"ili":7745,"Ġpred":7746,"Link":7747,"pent":7748,"378":7749,"gg":7750,"attery":7751,"ĠRemix":7752,"Sale":7753,"ĠDown":7754,"Carter":7755,"TEN":7756,":(":7757,"ĠPennsylvania":7758,"SMMM":7759,"Ġcrossing":7760,"Vill":7761,"Ġprotect":7762,"297":7763,"ISYS":7764,"ensen":7765,"Ġnorthwesterly":7766,"Oxford":7767,"ĠSciences":7768,"Coors":7769,"ATP":7770,"lyc":7771,"KN":7772,"ĠGROUP":7773,"Ġbadge":7774,"Ġremov":7775,"Ġdem":7776,"ĠScience":7777,"Charlott":7778,"Vic":7779,"Ġcapt":7780,"KER":7781,"Ġsec":7782,"Norwich":7783,"Ġsupported":7784,"zz":7785,"plies":7786,"ĠSi":7787,"ĠRath":7788,"Ġphen":7789,"jugated":7790,"GSM":7791,"olding":7792,"Ul":7793,"AMP":7794,"UTM":7795,"Weakley":7796,"322":7797,"edul":7798,"related":7799,"GIN":7800,"040":7801,"GCL":7802,"ucc":7803,"026":7804,"Decatur":7805,"ĠParker":7806,"HMS":7807,"dev":7808,"Ġstation":7809,"410":7810,"enberg":7811,"Ġcreated":7812,"Luke":7813,"ĠCalif":7814,"boolean":7815,"Ġrespect":7816,"cow":7817,"estin":7818,"cott":7819,"ulator":7820,"uthent":7821,"Food":7822,"ootball":7823,"Article":7824,"html":7825,"ĠNote":7826,"Ġyr":7827,"wy":7828,"ĠHA":7829,"Ġanother":7830,"ĠProducts":7831,"ĠMun":7832,"354":7833,"ĠMinn":7834,"inals":7835,"ouncil":7836,"enez":7837,"ĠLI":7838,"Bu":7839,"van":7840,"Ġju":7841,"ĠMagn":7842,"ĠDave":7843,"Greece":7844,"Ġcoupled":7845,"CHE":7846,"Juan":7847,"ĠGU":7848,"ucing":7849,"Israel":7850,"Ġcalc":7851,"Lev":7852,"MAT":7853,"Ġtool":7854,"288":7855,"ASSACH":7856,"Haywood":7857,"444":7858,"Middle":7859,"Ġ51":7860,"1931":7861,"Thurs":7862,"Troy":7863,"Club":7864,"ĠStar":7865,"unknown":7866,"eva":7867,"OWN":7868,"Beer":7869,"Ġ...":7870,"443":7871,"MMUN":7872,"Southampton":7873,"ĠAlbert":7874,"enger":7875,"1927":7876,"ĠWild":7877,"ĠLaur":7878,"ĠAPPARATUS":7879,"1905":7880,"Montana":7881,"EFORE":7882,"Returns":7883,"Ready":7884,"430":7885,"Ġstr":7886,"ĠBackground":7887,"Ġearned":7888,"CMS":7889,"ĠCarter":7890,"ĠWorthington":7891,"Call":7892,"iber":7893,"ĠWing":7894,"iner":7895,"]\"":7896,"je":7897,"kh":7898,"Wyoming":7899,"user":7900,"inity":7901,"rob":7902,"ĠBAR":7903,"Ġreturn":7904,"ĠConjugated":7905,"xi":7906,"Conference":7907,"arcia":7908,"+**":7909,"Tues":7910,"swick":7911,"Peroxidase":7912,"ĠShare":7913,"ĠResources":7914,"ĠPL":7915,"girl":7916,"ĠASSO":7917,"1917":7918,"ĠContract":7919,"SYN":7920,"mel":7921,"Ġiss":7922,"Actor":7923,"ortsmouth":7924,"ĠCook":7925,"ĠPlanning":7926,"ILM":7927,"ĠSpringfield":7928,"NHL":7929,"ĠIV":7930,"Ġfluid":7931,"ĠElement":7932,"Ġimplement":7933,"ooth":7934,"Ġremote":7935,"anies":7936,"British":7937,"leton":7938,"060":7939,"0500":7940,"ĠOver":7941,"Ġwindow":7942,"ĠMER":7943,"chool":7944,"417":7945,"LU":7946,"Ġcause":7947,"sha":7948,"Ġattribute":7949,"356":7950,"VN":7951,"reatment":7952,"Care":7953,"Hum":7954,"Brighton":7955,"Gh":7956,"SEY":7957,"Ġarticle":7958,"PubMed":7959,"ĠWed":7960,"otter":7961,"force":7962,"cha":7963,"1899":7964,"Ġprobably":7965,"Astros":7966,"ĠMr":7967,"ussels":7968,"ĠSolutions":7969,"Ġpop":7970,"380":7971,"ERSON":7972,"hydrogen":7973,"ĠBEFORE":7974,"Ġsample":7975,"uxe":7976,"Derek":7977,"Ger":7978,"Ġlow":7979,"ĠSteve":7980,"ourse":7981,"ĠScot":7982,"Mah":7983,"vanced":7984,"chem":7985,"ĠWare":7986,"Sacred":7987,"ĠSuite":7988,"Confirm":7989,"Ġsession":7990,"CAS":7991,"ĠProfile":7992,"ĠCAN":7993,"ĠUCS":7994,"ummit":7995,"Hill":7996,"Edinburgh":7997,"ĠJR":7998,"ĠBroad":7999,"Petition":8000,"ĠRick":8001,"358":8002,"ĠFLST":8003,"DS":8004,"aya":8005,"etime":8006,"tes":8007,"Tiger":8008,"ĠMaryland":8009,"ĠPalace":8010,"Obion":8011,"romosome":8012,"Ġwhile":8013,"Ġdescrib":8014,"book":8015,"assigned":8016,"323":8017,"1904":8018,"oli":8019,"IAP":8020,"257":8021,"outer":8022,"Peru":8023,"Ġ78":8024,"Ġassay":8025,"ASSACHUS":8026,"Ġfunds":8027,"ĠTerminated":8028,"ĠCommission":8029,"ĠROBERT":8030,"Ġboard":8031,"ami":8032,"Ġcolor":8033,"yte":8034,"avier":8035,"enses":8036,"ĠEnfield":8037,"Presbyterian":8038,"olin":8039,"Wireless":8040,"eu":8041,"Ic":8042,"ĠDist":8043,"3021":8044,"Radiation":8045,"475":8046,"bo":8047,"Ġvotes":8048,"Travel":8049,"change":8050,"Ġretriev":8051,"ĠMitchell":8052,"ĠKorea":8053,"CF":8054,"Mash":8055,"Transportation":8056,"Hawaii":8057,"Pe":8058,"Map":8059,"1250000":8060,"ouses":8061,"Valley":8062,"314":8063,"DEL":8064,"inez":8065,"cludes":8066,"Hardeman":8067,"arian":8068,"Ġ90":8069,"ĠASSOCI":8070,"Ġway":8071,"298":8072,"Ġstarted":8073,"ĠPRODUCTS":8074,"Ram":8075,"Spanish":8076,"Newark":8077,"Cedar":8078,"ĠComplex":8079,"ĠCartridge":8080,"ĠCa":8081,"442":8082,"Ġchild":8083,"aiwan":8084,"ĠCentre":8085,"ĠWes":8086,"804":8087,"Corp":8088,"1924":8089,"ĠFI":8090,"ĠGonz":8091,"brand":8092,"Charlottesville":8093,"District":8094,"Ġarrang":8095,"ETTS":8096,"Philippines":8097,"SPM":8098,"Tipton":8099,"Ġcache":8100,"ĠChief":8101,"UTUAL":8102,"Du":8103,"Ġnode":8104,"ĠLos":8105,"ls":8106,"chiev":8107,"ĠCHASE":8108,"LONG":8109,"278":8110,"ĠMorris":8111,"snag":8112,"rawford":8113,"away":8114,"ĠBlvd":8115,"ĠPARTNERSHIP":8116,"Receiving":8117,"nchen":8118,"ĠNews":8119,"Ġdevelopment":8120,"Ġsupply":8121,"Death":8122,"themed":8123,"Human":8124,"WP":8125,"ĠDI":8126,"ĠLy":8127,"ĠCalendar":8128,"Pad":8129,"ĠJAMES":8130,"ĠWV":8131,"ĠLimited":8132,"Ġ84":8133,"OTA":8134,"otide":8135,"Ġthey":8136,"Singles":8137,"Ġtransm":8138,"ĠBugsnag":8139,"ĠBu":8140,"ĠPrice":8141,"Ġwild":8142,"ological":8143,"wen":8144,"ĠEDT":8145,"ĠGard":8146,"oxi":8147,"Quebec":8148,"Auto":8149,"yb":8150,"hatt":8151,"Indonesia":8152,"Ġconsum":8153,"ĠRadiation":8154,"ĠPE":8155,"izz":8156,"Load":8157,"Kelly":8158,"ehicle":8159,"812":8160,"ĠBoard":8161,"icole":8162,"ruic":8163,"Hot":8164,"aged":8165,"GREEK":8166,"Bhruic":8167,"Ġ1982":8168,"Lock":8169,"Ġtransaction":8170,"do":8171,"ENRO":8172,"Bobby":8173,"ĠLocal":8174,"1880":8175,"Englewood":8176,"Option":8177,"1022":8178,"274":8179,"beta":8180,"Ġseries":8181,"Ġgovernment":8182,"Ġchecked":8183,"ĠSale":8184,"347":8185,"ĠLif":8186,"Start":8187,"COTT":8188,"neth":8189,"271":8190,"1921":8191,"Ġreceiving":8192,"ĠTRUST":8193,"439":8194,"1926":8195,"Ġcontroller":8196,"ĠBlock":8197,"urtis":8198,"MEN":8199,"rican":8200,"Scottsdale":8201,"066":8202,"ĠJazz":8203,"ople":8204,"Myst":8205,"stan":8206,"Ġreal":8207,"Ġantib":8208,"ĠKat":8209,"Ġimpro":8210,"awks":8211,"367":8212,"2031":8213,"ĠCPU":8214,"EK":8215,"Design":8216,"ĠHow":8217,"Ġincre":8218,"Sask":8219,"aml":8220,"ĠDu":8221,"Annapolis":8222,"idate":8223,"ĠOracle":8224,"Keith":8225,"Ġrecommit":8226,"ĠAIR":8227,"ĠFac":8228,"Dyna":8229,"itar":8230,"ĠPoly":8231,"Ġinternal":8232,"Croatia":8233,"BELL":8234,"Print":8235,"ĠRand":8236,"Ġcustom":8237,"Ġassemb":8238,"Slovak":8239,"Ġchemical":8240,"Confirmatory":8241,"329":8242,"AKE":8243,"CHAEL":8244,"Ġdebate":8245,"Yorkshire":8246,"rypt":8247,"ASSACHUSETTS":8248,"itive":8249,"650":8250,"TM":8251,"Ġhome":8252,"ENROUTE":8253,"()":8254,"iency":8255,"zen":8256,"ĠPa":8257,"ament":8258,"uma":8259,"Standard":8260,"canceled":8261,"Ġpanel":8262,"ĠKyle":8263,"ĠSoccer":8264,"Dennis":8265,"MID":8266,"itten":8267,"Singlespeed":8268,"ĠIl":8269,"ĠOrder":8270,"Helsinki":8271,"357":8272,"class":8273,"aza":8274,"Cook":8275,"lymouth":8276,"Ġprof":8277,"DAM":8278,"ĠLog":8279,"Flat":8280,"Media":8281,"ĠGB":8282,"Ġ54":8283,"iddles":8284,"ĠNad":8285,"achy":8286,"ottom":8287,"Neil":8288,"Ġobjects":8289,"Ġprevious":8290,"Bridg":8291,"Ġrange":8292,"ĠConn":8293,"404":8294,"vertising":8295,"012":8296,"Microsoft":8297,"ĠKIAA":8298,"ĠContest":8299,"AWARE":8300,"ALON":8301,"ĠTenn":8302,"Sher":8303,"Lauderdale":8304,"Ġacross":8305,"urich":8306,"Ġ39":8307,"Petitions":8308,"ANS":8309,"ĠDig":8310,"ayments":8311,"ĠDevice":8312,"Biloxi":8313,"Local":8314,"Hick":8315,"assee":8316,"ĠManufacturing":8317,"gart":8318,"Sail":8319,"ĠGrant":8320,"Ep":8321,"Ġarray":8322,"uras":8323,"AMEDISYS":8324,"Orange":8325,"ĠSant":8326,"Ġplate":8327,"ERN":8328,"ĠNW":8329,"ĠList":8330,"ĠKong":8331,"376":8332,"ansfield":8333,"ĠAssociation":8334,"Ġliquid":8335,"Jeremy":8336,"ĠKahrl":8337,"ĠEnglish":8338,"209180":8339,"Ġquery":8340,"Professional":8341,"mes":8342,"ĠAth":8343,"ĠHAR":8344,"aud":8345,"ĠJapan":8346,"ĠPARK":8347,"omal":8348,"Jimmy":8349,"330":8350,"Ġens":8351,"ĠLead":8352,"Chuck":8353,"Ġphot":8354,"Census":8355,"ĠDomin":8356,"294":8357,"Scotland":8358,"ĠUpload":8359,"ttar":8360,"206180":8361,"aman":8362,"Ġcorporate":8363,"ocus":8364,"Huntington":8365,"ĠPress":8366,"Wer":8367,"ĠJosh":8368,"425":8369,"olia":8370,"Ġax":8371,"ublish":8372,"brook":8373,"Ġmi":8374,"ĠGE":8375,"erto":8376,"292":8377,"PDPK":8378,"Brussels":8379,"ĠBraun":8380,"Project":8381,"Ġimport":8382,"706":8383,"332":8384,"OC":8385,"ĠMIC":8386,"usk":8387,"emberg":8388,"Linda":8389,"kDa":8390,"ĠNET":8391,"COMP":8392,"ways":8393,"Ġ300":8394,"FIX":8395,"Messaging":8396,"ĠCountry":8397,"arbor":8398,"284":8399,"Church":8400,"ĠPalmer":8401,"Ġscreen":8402,"Ġsubfamily":8403,"0100":8404,"|-":8405,"ĠMobile":8406,"ĠEnterprise":8407,"Ġne":8408,"aints":8409,"ĠYears":8410,"ramework":8411,"Pomona":8412,"Mandymoo":8413,"Ġincluded":8414,"011":8415,"ainder":8416,"IK":8417,"ĠCab":8418,"321":8419,"Bri":8420,"apel":8421,"905":8422,"Metro":8423,"ĠBou":8424,"ĠMcG":8425,"ĠRathman":8426,"Field":8427,"Thund":8428,"Ġsensor":8429,"mediate":8430,"Preschool":8431,"Campbell":8432,"Graham":8433,"JF":8434,"Leon":8435,"rin":8436,"igg":8437,"contrib":8438,"Turkey":8439,"Fay":8440,"ingo":8441,"318":8442,"holm":8443,"NET":8444,"Ontario":8445,"Viet":8446,"Unit":8447,"keep":8448,"ĠMir":8449,"Forward":8450,"Operational":8451,"ĠVERIZON":8452,"atoga":8453,"Bec":8454,"mail":8455,"ĠDeb":8456,"Blog":8457,"Whe":8458,"415":8459,"346":8460,"quez":8461,"Ġ73":8462,"296":8463,"283":8464,"Bryan":8465,"Eth":8466,"ttemberg":8467,"ĠForce":8468,"341":8469,"ĠKelly":8470,"irit":8471,"Displays":8472,"ĠImp":8473,"1925":8474,"Sur":8475,"ĠMaria":8476,"Perry":8477,"Show":8478,"ĠBal":8479,"unct":8480,"Cy":8481,"open":8482,"ided":8483,"Ġagain":8484,"Acad":8485,"Toledo":8486,"Hunter":8487,"Near":8488,"SX":8489,"ĠMorgan":8490,"METHOD":8491,"Ġnonc":8492,"440":8493,"Introduced":8494,"YD":8495,"ARY":8496,"348":8497,"LINS":8498,"Techn":8499,"arp":8500,"ĠSing":8501,"ĠAtl":8502,"ĠMah":8503,"281":8504,"election":8505,"ĠFly":8506,"olly":8507,"Holy":8508,"INES":8509,"phal":8510,"Ġstudents":8511,"umble":8512,"Emily":8513,"OIS":8514,"ĠCW":8515,"ĠLor":8516,"Ġexperience":8517,"BROOK":8518,"lev":8519,"ĠCany":8520,"Ġmechan":8521,"272":8522,"CHARD":8523,"ISH":8524,"ĠAquatics":8525,"ĠAdmin":8526,"Horror":8527,"389":8528,"ĠPAL":8529,"arious":8530,"ĠTrack":8531,"Bandwidth":8532,"organ":8533,"pace":8534,"akersfield":8535,"Ġfour":8536,"ĠHDD":8537,"Ġmobile":8538,"ĠHoliday":8539,"Det":8540,"ortg":8541,"Nathan":8542,"Ġ250":8543,"ĠNORTH":8544,"Ġinside":8545,"Ġless":8546,"Ġchanges":8547,"ĠJordan":8548,"282":8549,"encing":8550,"isode":8551,"ĠRub":8552,"Ġser":8553,"Ġcase":8554,"ĠEc":8555,"emont":8556,"316":8557,"Ty":8558,"roid":8559,"Ġopp":8560,"349":8561,"letic":8562,"ĠAgriculture":8563,"Reformed":8564,"ĠRobinson":8565,"mom":8566,"alez":8567,"INGULAR":8568,"michaelm":8569,"COR":8570,"Sup":8571,"ĠMonoc":8572,"ighting":8573,"345":8574,"JP":8575,"ĠDis":8576,"aminant":8577,"ĠBul":8578,"WMAC":8579,"Lauren":8580,"Blues":8581,"Coed":8582,"Charlie":8583,"iaz":8584,"Gro":8585,"Reb":8586,"ĠEst":8587,"Ġintroduction":8588,"ounced":8589,"ĠJac":8590,"Ġhousing":8591,"ĠEngineering":8592,"ĠCORRECT":8593,"gamma":8594,"Ġ69":8595,"4011":8596,"Advent":8597,"Indio":8598,"Ġkde":8599,"rake":8600,"Harry":8601,"Ġcost":8602,"irates":8603,"ĠUse":8604,"Ġperm":8605,"ĠKasp":8606,"ercent":8607,"po":8608,"ivated":8609,"ĠKim":8610,"Division":8611,"SWORTH":8612,"ĠCisco":8613,"ĠBailey":8614,"Ġtoward":8615,"CHAT":8616,"til":8617,"ĠPLC":8618,"Initial":8619,"Rhode":8620,"ĠGovernment":8621,"Valenc":8622,"Wes":8623,"Unidentified":8624,"PMORGAN":8625,"Ġlearn":8626,"Ġ62":8627,"Writer":8628,"ĠHo":8629,"astic":8630,"UMass":8631,"1012":8632,"ĠKh":8633,"ĠTyne":8634,"BK":8635,"Korea":8636,"Ġcells":8637,"uzzle":8638,"359":8639,"Saratoga":8640,"ĠLevel":8641,"ĠLeon":8642,"ĠGen":8643,"Od":8644,"473":8645,"Photos":8646,"NP":8647,"Prince":8648,"surfrad":8649,"CHICA":8650,"SCAQ":8651,"ĠDAVID":8652,"Ġdownload":8653,"361":8654,"Desc":8655,"ĠKr":8656,"Ġgrowth":8657,"Do":8658,"Ġrail":8659,"fficial":8660,"PAR":8661,"ĠSanta":8662,"ĠWOL":8663,"ansea":8664,"Ashley":8665,"ĠCINGULAR":8666,"ELECT":8667,"ĠPelham":8668,"Bud":8669,"Use":8670,"399":8671,"Karen":8672,"504":8673,"PRU":8674,"ENCE":8675,"Ġ79":8676,"ĠRequest":8677,"war":8678,"ĠJava":8679,"ĠDetection":8680,"Diary":8681,"isle":8682,"Blount":8683,"ĠBallpark":8684,"Ġdial":8685,"ĠJer":8686,"cription":8687,"ffield":8688,"nas":8689,"Defect":8690,"Ġexplore":8691,"291":8692,"Ġhard":8693,"ronics":8694,"magpie":8695,"idg":8696,"Ġ67":8697,"ANI":8698,"Macon":8699,"ango":8700,"Remainder":8701,"resh":8702,"355":8703,"KIAA":8704,"sub":8705,"zman":8706,"ĠStats":8707,"ications":8708,"732":8709,"ji":8710,"ĠSQL":8711,"ucker":8712,"RFC":8713,"Ratio":8714,"Ġachiev":8715,"ĠJAX":8716,"Inst":8717,"Aurora":8718,"ĠEvans":8719,"ESC":8720,"oose":8721,"SUI":8722,"ĠAutom":8723,"ahassee":8724,"BURG":8725,"core":8726,"peachy":8727,"erez":8728,"Repl":8729,"AVALON":8730,"VEN":8731,"oni":8732,"ĠFR":8733,"atty":8734,"Sem":8735,"imen":8736,"Maug":8737,"ĠSwift":8738,"SGD":8739,"Source":8740,"enham":8741,"ĠCampus":8742,"Yankee":8743,"Ġ112":8744,"ĠMesa":8745,"Ġquestion":8746,"Fac":8747,"Ġ68":8748,"Ġenter":8749,"ĠId":8750,"Taiwan":8751,"390":8752,"ĠAsia":8753,"368":8754,"International":8755,"CHICAGO":8756,"hard":8757,"GF":8758,"TELUS":8759,"Iron":8760,"NER":8761,"ĠInitial":8762,"CMG":8763,"POR":8764,"Ġ52":8765,"Jane":8766,"westphal":8767,"Ġmm":8768,"578":8769,"pons":8770,"oves":8771,"Laren":8772,"618":8773,"OUR":8774,"Ġ)":8775,"Harrisburg":8776,"CELLCO":8777,"7200":8778,"Fest":8779,"ĠDocuments":8780,"ĠMonocrystalline":8781,"Regional":8782,"MARY":8783,"hydrogenase":8784,"FMM":8785,"Ġmot":8786,"Ġexpansion":8787,"Bst":8788,"BRE":8789,"onna":8790,"erts":8791,"SER":8792,"ags":8793,"Pete":8794,"Rollin":8795,"Maugeri":8796,"king":8797,"STAN":8798,"ennial":8799,"Ġspace":8800,"ĠIntel":8801,"Left":8802,"urance":8803,"hel":8804,"Ġdoes":8805,"Ġadditional":8806,"ĠParis":8807,"ĠBennett":8808,".)\"":8809,"ĠKaspers":8810,"alle":8811,"ĠBenjamin":8812,"Thundr":8813,"RollinThundr":8814,"RAM":8815,"Ġrow":8816,"Ġfound":8817,"ogenic":8818,"cent":8819,"eeds":8820,"Lin":8821,"des":8822,"(+)":8823,"ĠHat":8824,"Seph":8825,"iance":8826,"black":8827,"uttgart":8828,"ĠMyers":8829,"oner":8830,"ĠLuke":8831,"ĠJohnston":8832,"LT":8833,"stad":8834,"ĠStaff":8835,"1897":8836,"Ġcomplex":8837,"ĠGranby":8838,"Ġbill":8839,"Corpus":8840,"isting":8841,"mokaren":8842,"022":8843,"ISP":8844,"\\\"\"":8845,"artz":8846,"....":8847,"Dominican":8848,"hour":8849,"ffee":8850,"IFIER":8851,"CESS":8852,"Ġsk":8853,"Shaw":8854,"ĠTechnologies":8855,"EH":8856,"ESTER":8857,"364":8858,"NORTH":8859,"VICES":8860,"Lak":8861,"TAL":8862,"Alexander":8863,"with":8864,"ĠSCHOOL":8865,"ĠVictor":8866,"IGH":8867,"Bruce":8868,"Ġnucleotide":8869,"butane":8870,"DAL":8871,"Vent":8872,"ĠSite":8873,"older":8874,"ognition":8875,"TIN":8876,"ially":8877,"ĠMetal":8878,"KF":8879,"atas":8880,"365":8881,"ĠUtah":8882,"Court":8883,"Ġmake":8884,"ĠCath":8885,"ĠJean":8886,"Casey":8887,"1922":8888,"ĠEss":8889,"Ġperiod":8890,"Beginner":8891,"atically":8892,"ĠGarcia":8893,"351":8894,"ĠExamination":8895,"Imp":8896,"ĠBright":8897,"ORA":8898,"ucer":8899,"Ġparticular":8900,"RSA":8901,"Houses":8902,"CFC":8903,"ĠPop":8904,"Ġnov":8905,"ĠCrew":8906,"ĠJER":8907,"4099":8908,"Ka":8909,"Pvt":8910,"Flats":8911,"RW":8912,"dg":8913,"ined":8914,"Ġ329":8915,"Science":8916,"Circ":8917,"Ston":8918,"umeric":8919,"ĠMissouri":8920,"empt":8921,"agua":8922,"iation":8923,"ĠYear":8924,"oba":8925,"atase":8926,"eblood":8927,"Ġhttp":8928,"Ġgreen":8929,"ĠSimon":8930,"ĠUnit":8931,"369":8932,"har":8933,"ociety":8934,"ĠCapital":8935,"Anna":8936,"326":8937,"ounting":8938,"ministrator":8939,"Karl":8940,"Royal":8941,"CHATSWORTH":8942,"Cel":8943,"tm":8944,"Ġlike":8945,"370":8946,"fficiency":8947,"411":8948,"MMUNICATION":8949,"enance":8950,"Ġvariant":8951,"352":8952,"space":8953,"night":8954,"ablish":8955,"Ġmakes":8956,"aney":8957,"SWOR":8958,"BLR":8959,"EMP":8960,"ĠTob":8961,"ĠUSB":8962,"1902":8963,"illon":8964,"associated":8965,"0400":8966,"ĠConst":8967,"awk":8968,"Bre":8969,"resents":8970,"ĠPhillips":8971,"Ġdehydrogenase":8972,"CIS":8973,"ĠMic":8974,"artet":8975,"Concord":8976,"Tallahassee":8977,"ĠSIGN":8978,"SWORv":8979,"344":8980,"aum":8981,"1901":8982,"itals":8983,"OX":8984,"Ġpressure":8985,"ewood":8986,"387":8987,"1031":8988,"ĠTR":8989,"abb":8990,"Blu":8991,"ometric":8992,"JPN":8993,"Letter":8994,"1923":8995,"Ġgene":8996,"estyle":8997,"ĠKl":8998,"LAB":8999,"Ġindicates":9000,"Ġoptical":9001,"Sepharo":9002,"ĠLED":9003,"2375":9004,"aching":9005,"tsville":9006,"Ġinteract":9007,"Ġresults":9008,"ĠWel":9009,"evens":9010,"aldwin":9011,"Rand":9012,"entry":9013,"olves":9014,"ĠHamilton":9015,"SIL":9016,"EM":9017,"ĠEp":9018,"ĠOriginal":9019,"ĠShort":9020,"ĠFRU":9021,"ĠBond":9022,"raphics":9023,"ĠMaple":9024,"Cov":9025,"Travis":9026,"ĠSERVICES":9027,"lie":9028,"ĠHI":9029,"Forbes":9030,"Ġebook":9031,"amis":9032,"ĠAnti":9033,"ĠCastle":9034,"313":9035,"Buck":9036,"Ġposs":9037,"rance":9038,"Ġproof":9039,"oryou":9040,"OWER":9041,"ĠVAL":9042,"aintenance":9043,"Boy":9044,"Ġsaid":9045,"ĠSong":9046,"ably":9047,"pub":9048,"Sign":9049,"ogene":9050,"Bi":9051,"342":9052,"Municip":9053,"Ġmaximum":9054,"auber":9055,"Ġdetect":9056,"ĠTER":9057,"Ġpix":9058,"Sta":9059,"615":9060,"Roane":9061,"ĠFRUIT":9062,"NG":9063,"Terry":9064,"Frontier":9065,"Cornell":9066,"midt":9067,"472":9068,"518":9069,"ige":9070,"Summer":9071,"iers":9072,"izard":9073,"ĠTrueblood":9074,"storm":9075,"Ġsuper":9076,"Lotus":9077,"di":9078,"ĠMIN":9079,"amaz":9080,"Ġelectronic":9081,"ĠCoding":9082,"ĠPlatform":9083,".-":9084,"Dades":9085,"ĠPROSITE":9086,"scape":9087,"353":9088,"cluded":9089,"ĠCinema":9090,"ashtra":9091,"Roger":9092,"Cape":9093,"ered":9094,"ĠLever":9095,"Staff":9096,"Notes":9097,"ĠGraham":9098,"Ġshot":9099,"SOUTH":9100,"Ġretrieve":9101,"ampaign":9102,"ĠMON":9103,"$$":9104,"erset":9105,"Ġtransfer":9106,"ĠGirl":9107,"ONYM":9108,"arwick":9109,"Pont":9110,"Ġstream":9111,"avor":9112,"iler":9113,"uda":9114,"izing":9115,"ĠMate":9116,"aceut":9117,"1800":9118,"Amy":9119,"GLEND":9120,"Ġpolymer":9121,"Ġsheet":9122,"bach":9123,"fixed":9124,"wall":9125,"ixon":9126,"416":9127,"LM":9128,"Ġantivirus":9129,"SYNONYM":9130,"ugar":9131,"Historical":9132,"Ġlast":9133,"Ġbelow":9134,"ĠAff":9135,"Ġperson":9136,",...\"":9137,"471":9138,"armaceut":9139,"Aqu":9140,"Danny":9141,"Group":9142,"erite":9143,"quency":9144,"izes":9145,"Executive":9146,"Frederick":9147,"ĠURL":9148,"505":9149,"ampion":9150,"Ġaudio":9151,"NOS":9152,"LAKE":9153,"Ġagent":9154,"ĠASSOCIATION":9155,"hurst":9156,"Ġmedia":9157,"499":9158,"Bon":9159,"Lith":9160,"iane":9161,"oca":9162,"Fi":9163,"ĠHuntington":9164,"Gray":9165,"ĠMICHAEL":9166,"Ġtownship":9167,"Gregory":9168,"usical":9169,"RIST":9170,"col":9171,"ĠName":9172,"Ġgiven":9173,"icates":9174,"ĠHTT":9175,"Ġbit":9176,"Molecular":9177,"hr":9178,"ĠGod":9179,"Ġorchestra":9180,"etteville":9181,"1918":9182,"eters":9183,"Morrison":9184,"Ġund":9185,"NES":9186,"396":9187,"ĠMinutes":9188,"arwal":9189,"Hong":9190,"isch":9191,"Psych":9192,"ĠKar":9193,"Romania":9194,"MUTUAL":9195,"solute":9196,"alph":9197,"Aves":9198,"asher":9199,"Ġadjust":9200,"egative":9201,"Ġhuman":9202,"actory":9203,"Bronz":9204,"edin":9205,"Anne":9206,"319":9207,"CTION":9208,"327":9209,"raffic":9210,"ĠPROPER":9211,"ĠRecordings":9212,"ĠUploaded":9213,"pack":9214,"Star":9215,"ĠBeat":9216,"Rachel":9217,"itage":9218,"ĠWY":9219,"Reader":9220,"rockbox":9221,"ĠKaspersky":9222,"ORIDA":9223,"Ren":9224,"adata":9225,"ĠActive":9226,"Ġupon":9227,"NSW":9228,"ĠLowell":9229,"Only":9230,"Ġdistribution":9231,"Walk":9232,"ĠProtein":9233,"ĠJo":9234,"SEM":9235,"Jeffrey":9236,"ĠETF":9237,"Lan":9238,"complement":9239,"ĠFlorence":9240,"jm":9241,"Far":9242,"NR":9243,"Ġtemperature":9244,"ANO":9245,"ĠWOLFE":9246,"ĠCore":9247,"iva":9248,"Specimen":9249,"andro":9250,"Ġthereof":9251,"Bronze":9252,"Ġwt":9253,"show":9254,"acey":9255,"Bryant":9256,"uart":9257,"edd":9258,"ĠAgarwal":9259,"WAL":9260,"ĠArizona":9261,"Ġterminal":9262,"859":9263,"ĠEarth":9264,"ĠMartinez":9265,"recht":9266,"chromosome":9267,"Ġauthent":9268,"374":9269,"ĠLev":9270,"ABLE":9271,"dr":9272,")-":9273,"Bad":9274,"Lo":9275,"ĠBoys":9276,"ĠYale":9277,"ĠBoston":9278,"ĠWinn":9279,"Japanese":9280,"ĠCompletion":9281,"Building":9282,"377":9283,"ĠMARK":9284,"857":9285,"ĠBEL":9286,"Slovenia":9287,"Mint":9288,"ĠMurray":9289,"Ġcatcher":9290,"apins":9291,"Advertising":9292,"Hickman":9293,"Ġchamber":9294,"Benton":9295,"Pens":9296,"ĠSav":9297,"minster":9298,"Ġunidentified":9299,"WL":9300,"ĠReed":9301,"ĠPhot":9302,"standing":9303,"Ġvocal":9304,"atham":9305,"ĠElectric":9306,"Rub":9307,"ĠGer":9308,"ĠLabor":9309,"904":9310,"Hail":9311,"Ġfinger":9312,"Howard":9313,"Ġcompound":9314,"raulg":9315,"binding":9316,"107220":9317,"Ġsoftware":9318,"363":9319,"Napa":9320,"ĠHu":9321,"ĠHan":9322,"ĠRECORD":9323,"Helical":9324,"ĠSarah":9325,"Firefox":9326,"aring":9327,"stonia":9328,"Crystal":9329,"Ġinhibitor":9330,"Ġproofread":9331,"amas":9332,"ĠHun":9333,"474":9334,"ĠJunior":9335,"701":9336,"cano":9337,"jet":9338,"Ġtension":9339,"Ġdraw":9340,"Collection":9341,"Italian":9342,"Billy":9343,"ĠSign":9344,"ĠND":9345,"Urb":9346,"gal":9347,"1886":9348,"ĠWard":9349,"ĠLP":9350,"emouth":9351,"ignment":9352,"Integer":9353,"ĠTerrapins":9354,"ĠCant":9355,"ĠRoll":9356,"Ġdriv":9357,"SEAD":9358,"utrition":9359,"ĠBat":9360,"McLaren":9361,"SANTA":9362,"431":9363,"ĠBrunswick":9364,"ipk":9365,"ĠInfo":9366,"ĠAssembly":9367,"Hawkins":9368,"Kingston":9369,"ĠMemorial":9370,"HORNS":9371,"berger":9372,"ETH":9373,"SEADRILL":9374,"SDLP":9375,"HORNSBY":9376,"426":9377,"Ġpublic":9378,"ĠORM":9379,"orde":9380,"Ġadoption":9381,"incent":9382,"Ah":9383,"oula":9384,"SuMen":9385,"TOW":9386,"HARMA":9387,"Ġ61":9388,"OLF":9389,"uania":9390,"ĠTan":9391,"388":9392,"ĠWilliamsburg":9393,"Magn":9394,"Bal":9395,"Megan":9396,"kay":9397,"otential":9398,"Latvia":9399,"OES":9400,"ds":9401,"Ġwithdrawn":9402,"models":9403,"ynchron":9404,"oline":9405,"ĠDynam":9406,"uela":9407,"ĠGreenwich":9408,"rified":9409,"inch":9410,"ĠRon":9411,"ribut":9412,"Ġantibody":9413,"Ġcm":9414,"Property":9415,"eginning":9416,"ZZ":9417,"ĠSessions":9418,"ĠDub":9419,"Russell":9420,"XMLStream":9421,"struments":9422,"fort":9423,"isbane":9424,"Deepesh":9425,"ĠMERGER":9426,"ĠCode":9427,"ĠExecutive":9428,"720030":9429,"ĠBend":9430,"Julie":9431,"ĠMK":9432,"chez":9433,"Ġcard":9434,"ĠHon":9435,"opl":9436,"wig":9437,"Ġfeatures":9438,"DY":9439,"door":9440,"ĠAdvent":9441,"ements":9442,"aharashtra":9443,"JO":9444,"379":9445,"Ġfeed":9446,"Philip":9447,"ĠKan":9448,"Ġtrue":9449,"ĠClean":9450,"loat":9451,"Farm":9452,"ĠSurface":9453,"flipper":9454,"ĠBernardino":9455,"ĠXML":9456,"Country":9457,"MINI":9458,"ĠRogers":9459,"Ġknown":9460,"Pap":9461,"ĠSmall":9462,"398":9463,"Ġcomponents":9464,"Ġhandling":9465,"ĠHosp":9466,"dsc":9467,"Ġnoncarcin":9468,"ecoming":9469,"Ġdie":9470,"istic":9471,"If":9472,"ĠTrail":9473,"Ġfoam":9474,"ĠDiamond":9475,"ourg":9476,"Loud":9477,"328":9478,"jav":9479,"ĠPine":9480,"Ġfinished":9481,"Ġ10000":9482,"ĠPRE":9483,"DDR":9484,"MU":9485,"ĠSm":9486,"Career":9487,"Nature":9488,"itty":9489,"ĠHTTP":9490,"429":9491,"Dead":9492,"Norman":9493,"Mrs":9494,"bal":9495,"code":9496,"ĠString":9497,"ĠDivision":9498,"chmn":9499,"ngdt":9500,"flyngdt":9501,"flyngdtchmn":9502,"Ġpolic":9503,"ĠMEDICAL":9504,"mine":9505,"aris":9506,"Florence":9507,"ĠFutures":9508,"Zurich":9509,"ĠFirst":9510,"445":9511,"Ġtreatment":9512,"DUCTOR":9513,"Gi":9514,"locale":9515,"utral":9516,"ericas":9517,"uki":9518,"495":9519,"ni":9520,"Ġsynth":9521,"ĠProfessor":9522,"Midland":9523,"Right":9524,"rown":9525,"imension":9526,"ommy":9527,"414":9528,"ĠSoul":9529,"ouc":9530,"Ġown":9531,"Ġlines":9532,"Ġspec":9533,"ebastian":9534,"ĠMixed":9535,"agara":9536,"Ġque":9537,"999":9538,"ubbock":9539,"MOV":9540,"TIP":9541,"ĠCummington":9542,"Ġ72":9543,"coin":9544,"Ġmix":9545,"ishop":9546,"they":9547,"Well":9548,"Arc":9549,"1064":9550,"Ġtimes":9551,"ĠChristi":9552,"Ġemploy":9553,"pat":9554,"MODIFIER":9555,"Portsmouth":9556,"373":9557,"ĠHOLDINGS":9558,"Bend":9559,"ĠSome":9560,"rect":9561,"Fly":9562,"ĠSteph":9563,"Ġmodified":9564,"ĠMedical":9565,"Game":9566,"LER":9567,"jd":9568,"Ġouter":9569,"ands":9570,"European":9571,"Ġclassified":9572,"ĠBuck":9573,"Maria":9574,"ĠArabia":9575,"ĠMeeting":9576,"ĠVis":9577,"Ġproviding":9578,"Dul":9579,"ĠCur":9580,"iguel":9581,"ITION":9582,"aches":9583,"Internet":9584,"Erik":9585,"Touch":9586,"ĠFamily":9587,"ĠSTATES":9588,"debian":9589,"COMM":9590,"berty":9591,"RAY":9592,"Ġrequests":9593,"ulty":9594,"RINC":9595,"overs":9596,"ĠWASH":9597,"ohann":9598,"Institute":9599,"ADA":9600,"Chinese":9601,"ĠMann":9602,"Ġthree":9603,"enhagen":9604,"Ġfront":9605,"Just":9606,"augh":9607,"Stewart":9608,"ĠTrust":9609,"aurant":9610,"ĠTem":9611,"Queens":9612,"Hannah":9613,"Pack":9614,"Rap":9615,"Winston":9616,"Academic":9617,"TC":9618,"ĠAudio":9619,"Ġcur":9620,"Sheffield":9621,"URING":9622,"GLENDALE":9623,"028":9624,"ĠWarner":9625,"397":9626,"Michelle":9627,"MED":9628,"ĠJunction":9629,"Arsenal":9630,"Apple":9631,"Ġmanagement":9632,"ĠGonzalez":9633,"western":9634,"amonkey":9635,"ĠWEST":9636,"459":9637,"ogue":9638,"Ġzone":9639,"413":9640,"ALT":9641,"Value":9642,"Payments":9643,"ĠWoodlands":9644,"terations":9645,"Fayetteville":9646,"ĠEt":9647,"ually":9648,"ĠDisp":9649,"apers":9650,"Capt":9651,"Market":9652,"ĠDIG":9653,"emon":9654,"ogl":9655,"Gain":9656,"ĠFox":9657,"ĠNam":9658,"ĠHernandez":9659,"ĠGoat":9660,"iak":9661,"Ġwalk":9662,"Ġspecify":9663,"ONALD":9664,"cles":9665,"Component":9666,"Zim":9667,"Stud":9668,"ĠELECTRON":9669,"PEN":9670,"Ġabove":9671,"icy":9672,"eckl":9673,"Ġ92":9674,"language":9675,"armv":9676,"Ġstructures":9677,"CUL":9678,"ĠPatrick":9679,"Tin":9680,"ĠMint":9681,"490":9682,"icture":9683,"nolds":9684,"Putnam":9685,"ĠCosta":9686,"ĠStewart":9687,"Ġrelative":9688,"Light":9689,"cut":9690,"ĠPi":9691,"ĠHoward":9692,"acola":9693,"Drum":9694,"hattan":9695,"393":9696,"Jones":9697,"sel":9698,"ĠGHz":9699,"Flag":9700,"ministration":9701,"source":9702,"Expl":9703,"Fairfield":9704,"ĠRanch":9705,"pentane":9706,"507":9707,"JAC":9708,"081":9709,"ientific":9710,"ĠWoods":9711,"Mystery":9712,"Declarations":9713,"Midfield":9714,"Ġembodiment":9715,"current":9716,"du":9717,"rees":9718,"868":9719,"foryou":9720,"ĠPR":9721,"ĠFootball":9722,"ĠKansas":9723,"ĠNorwich":9724,"version":9725,"ĠSaints":9726,"ĠRica":9727,"ifton":9728,"urgical":9729,"ĠEdwards":9730,"Top":9731,"Ġvehicle":9732,"372":9733,"864":9734,"371":9735,"Jesse":9736,"427":9737,"nie":9738,"arecoming":9739,"ĠCIR":9740,"492":9741,"Golden":9742,"theyarecoming":9743,"theyarecomingforyou":9744,"Ġsil":9745,"ADD":9746,"601":9747,"ĠNutrition":9748,"Amanda":9749,"running":9750,"ĠGL":9751,"MOST":9752,"Defensive":9753,"ĠDELAWARE":9754,"ĠGriffin":9755,"ĠMateo":9756,"1041":9757,"estic":9758,"9011":9759,"Freshman":9760,"MHz":9761,"Ġorig":9762,"ĠWhen":9763,"ĠWheel":9764,"earl":9765,"ocr":9766,"Stat":9767,"ĠArray":9768,"fan":9769,"ĠTact":9770,"ĠMarie":9771,"863":9772,"Saudi":9773,"ĠBaseball":9774,"QLD":9775,"ĠFle":9776,"Ġthese":9777,"omena":9778,"Ġexternal":9779,"inst":9780,"Brisbane":9781,"ĠCOLLINS":9782,"Tech":9783,"Ġriver":9784,"eves":9785,"ampl":9786,"ĠWhole":9787,"Any":9788,"Ġunl":9789,"HOMAS":9790,"ĠMICRO":9791,"ĠBass":9792,"Es":9793,"Ġsocket":9794,"osomal":9795,"Ale":9796,"Kinder":9797,"ewhere":9798,"airy":9799,"ĠCert":9800,"ĠCirc":9801,"Ġeast":9802,"ĠOS":9803,"382":9804,"Tun":9805,"fish":9806,"ibb":9807,"Script":9808,"umberland":9809,"Cocke":9810,"Ġut":9811,"ĠFo":9812,"Ġcent":9813,"720":9814,"Baden":9815,"ĠAhmed":9816,"Cash":9817,"Ġautomatically":9818,"PROSITE":9819,"ĠFall":9820,"pens":9821,"ĠShaw":9822,"ĠHoldings":9823,"ebecca":9824,"Ġengine":9825,"ĠMull":9826,"ĠHistory":9827,"Jarry":9828,"WELL":9829,"abe":9830,"ĠGray":9831,"Ġep":9832,"Rushing":9833,"395":9834,"LYN":9835,"year":9836,"ĠBig":9837,"ĠLic":9838,"ĠTur":9839,"Pos":9840,"aa":9841,"ackware":9842,"Ġstored":9843,"Larson":9844,"Ġexplos":9845,"Lubbock":9846,"mac":9847,"uador":9848,"umes":9849,"ĠGEN":9850,"ĠBase":9851,"gt":9852,"ĠKle":9853,"angel":9854,"Substrate":9855,"IRGIN":9856,"NL":9857,"ĠPHARMA":9858,"ĠDylan":9859,"ither":9860,"Britt":9861,"hill":9862,"Sailor":9863,"Ġlif":9864,"mas":9865,"ĠDennis":9866,"1891":9867,"ĠTHER":9868,"Missoula":9869,"ĠResettlement":9870,"Ġ101":9871,"Ġpunct":9872,"ĠKnight":9873,"Fel":9874,"alse":9875,"Resettlement":9876,"ĠDepth":9877,"Officer":9878,"Tal":9879,"Electra":9880,"Ġcapac":9881,"ACTIVE":9882,"Softail":9883,"Mir":9884,"Ġmap":9885,"sons":9886,"gor":9887,"hand":9888,"ĠGTX":9889,"ĠCLE":9890,"oda":9891,"Ġvan":9892,"lectic":9893,"INTER":9894,"Ġlength":9895,"oyle":9896,"Blind":9897,"aac":9898,"384":9899,"cedure":9900,"Derby":9901,"mt":9902,"ĠVer":9903,"Oslo":9904,"ĠWASHINGTON":9905,"ibor":9906,"controlled":9907,"ĠHVS":9908,"491":9909,"Statewide":9910,"|-|-":9911,"Best":9912,"iott":9913,"Saf":9914,"Karachi":9915,"aragua":9916,"ĠBet":9917,"Ġnoncarcinogenic":9918,"FIR":9919,"Roll":9920,"ĠIss":9921,"391":9922,"Ġcolored":9923,"?)":9924,"Ġrule":9925,"Glendale":9926,"Windsor":9927,"Catholic":9928,"gran":9929,"hoof":9930,"annot":9931,"cr":9932,"ĠChem":9933,"Ġselection":9934,"035":9935,"ijing":9936,"Sauber":9937,"aste":9938,"Dav":9939,"lee":9940,"erner":9941,"GAJA":9942,"azar":9943,"Screen":9944,"ĠFXST":9945,"ĠCellular":9946,"armaceutical":9947,"ĠBon":9948,"Ġcompounds":9949,"eshire":9950,"3750000":9951,"Nik":9952,"light":9953,"Ġtask":9954,"ĠRA":9955,"loy":9956,"vale":9957,"ĠHughes":9958,"023":9959,"Ġconductive":9960,"Ġride":9961,"amine":9962,"ĠBeck":9963,"Ġsent":9964,"Ġinner":9965,"opez":9966,"Ġretrieving":9967,"Disk":9968,"ĠPad":9969,"mist":9970,"formance":9971,"afael":9972,"ĠSy":9973,"ĠYour":9974,"ORPOR":9975,"Estonia":9976,"ansing":9977,"ĠLifestyle":9978,"ISBN":9979,"Rhe":9980,"ĠBrothers":9981,"ĠBruce":9982,"ainer":9983,"ĠMinnesota":9984,"vision":9985,"walled":9986,"ĠBreak":9987,"Ġbuoy":9988,"Nep":9989,"VANIA":9990,"Pensacola":9991,"ĠROAD":9992,"ĠRussia":9993,"Brett":9994,"KIN":9995,"Motor":9996,"lehem":9997,"Savannah":9998,"brandnew":9999,"Ġdistance":10000,"PUR":10001,"ĠPu":10002,"ĠRosa":10003,"ĠLit":10004,"mean":10005,"msbrandnew":10006,"ĠReturn":10007,"ĠBelow":10008,"HUN":10009,"agger":10010,"ĠPanel":10011,"ĠTable":10012,"ĠDav":10013,"ĠJay":10014,"020":10015,"RHP":10016,"leased":10017,"antiago":10018,"amanda":10019,"Kin":10020,"TU":10021,"Two":10022,"ĠBI":10023,"Polk":10024,"ĠDoor":10025,"Ġoffer":10026,"oshen":10027,"ĠSalon":10028,"494":10029,"ĠHolland":10030,"Stephanie":10031,"icles":10032,"1898":10033,"ussex":10034,"NSYL":10035,"Joan":10036,"Highland":10037,"Bulgar":10038,"Ġspellings":10039,"reys":10040,"Evil":10041,"ĠAng":10042,"Andhra":10043,"ĠHydrogen":10044,"Stockholm":10045,"Leicester":10046,"Methodist":10047,"VAL":10048,"hu":10049,"ANE":10050,"ĠAuthor":10051,"eware":10052,"Ġshow":10053,"852":10054,"Net":10055,"ĠPBI":10056,"Ġsacrifice":10057,"Ġnext":10058,"ombe":10059,"Brent":10060,"3051":10061,"853":10062,"ozwalled":10063,"alytics":10064,"ĠAK":10065,"umbers":10066,"LOY":10067,"Geometric":10068,"Loading":10069,"amazoo":10070,"oring":10071,"ĠHop":10072,"AMA":10073,"Joel":10074,"ĠInvestment":10075,"ocolate":10076,"ĠCt":10077,"2110":10078,"Ġloud":10079,"Sevier":10080,"Davis":10081,"VED":10082,"Ġcert":10083,"Ġrepe":10084,"ĠNadu":10085,"babwe":10086,"itude":10087,"ĠILLIN":10088,"ĠUltra":10089,"Tu":10090,"ZA":10091,"ĠSon":10092,"Ġbr":10093,"abi":10094,"ĠReserve":10095,"Ġmechanism":10096,"Lithuania":10097,"ĠFar":10098,"394":10099,"gypt":10100,"istro":10101,"ĠCOMMUNICATION":10102,"san":10103,"ahl":10104,"MICON":10105,"adow":10106,"antasy":10107,"ĠAugustine":10108,"JI":10109,"inary":10110,"osis":10111,"ĠCraig":10112,"ĠPage":10113,"ĠPerry":10114,"ivery":10115,"441":10116,"Ġachievement":10117,"Legacy":10118,"Brewpub":10119,"KFZ":10120,"Self":10121,"ĠBRO":10122,"Ġpe":10123,"Ġwall":10124,"383":10125,"BLE":10126,"3110":10127,"ĠFla":10128,"ĠBol":10129,"Franc":10130,"Ecuador":10131,"Rose":10132,"Ġsecurities":10133,"RIG":10134,"ĠINCORPOR":10135,"arrell":10136,"WQ":10137,"Ġlock":10138,"Access":10139,"ĠDick":10140,"iri":10141,"Evans":10142,"Ġexpected":10143,"ĠMadison":10144,"Slackware":10145,"Ġcontract":10146,"815":10147,"ĠUK":10148,"hart":10149,"axy":10150,"ĠSanders":10151,"Kl":10152,"Lux":10153,"NUT":10154,"zb":10155,"Ġdescribed":10156,"Mansfield":10157,"ho":10158,"java":10159,"381":10160,"Goal":10161,"Drew":10162,"Mouse":10163,"Raj":10164,"dam":10165,"ione":10166,"Marvel":10167,"aley":10168,"blue":10169,"ECK":10170,"ĠStone":10171,"ustang":10172,"Barry":10173,"ructural":10174,"Betty":10175,"Custom":10176,"ĠCoward":10177,"ournemouth":10178,"Cas":10179,"029":10180,"392":10181,"Cabin":10182,"Ġget":10183,"ĠADMINI":10184,"ĠStage":10185,"ĠNumber":10186,"Burlington":10187,"Ġtsun":10188,"NSYLVANIA":10189,"Ib":10190,"Roma":10191,"Vertical":10192,"Ġlo":10193,"ĠApache":10194,"Ġphenomena":10195,"RT":10196,"ĠVII":10197,"Pur":10198,"isbury":10199,"ĠTraining":10200,"CGN":10201,"Ġsummary":10202,"ĠLearn":10203,"Ġmiss":10204,"498":10205,"affe":10206,"pson":10207,"ĠLO":10208,"Ġ96":10209,"shi":10210,"Lah":10211,"Nob":10212,"ĠTalk":10213,"ĠFE":10214,"Ġ95":10215,"ĠHarrison":10216,"specific":10217,"Ġtsunamis":10218,"ĠMASSACHUSETTS":10219,"Ġteam":10220,"1849":10221,"cellent":10222,"Lim":10223,"Toul":10224,"ĠSouthampton":10225,"Abb":10226,"ĠAccomp":10227,"GAR":10228,"Ġadapt":10229,"rockett":10230,"acet":10231,"Ġbuoyancy":10232,"ĠSusan":10233,"ĠMachine":10234,"ĠHen":10235,"ĠFLHT":10236,"MOR":10237,"ĠBrooks":10238,"ĠGoal":10239,"Hann":10240,"Lynn":10241,"uron":10242,"Ġ99":10243,"Ġinteg":10244,"ayers":10245,"ĠTH":10246,"1889":10247,"Holiness":10248,"eRe":10249,"esus":10250,"ĠPreston":10251,"MICONDUCTOR":10252,"Nsw":10253,"World":10254,"roph":10255,"Ġcore":10256,"eme":10257,"Ġstd":10258,"AUD":10259,"Asia":10260,"Duluth":10261,"Ġexplosions":10262,"este":10263,"spar":10264,"ĠClar":10265,"yltransferase":10266,"ĠMosch":10267,"ĠDominion":10268,"ĠBrightly":10269,"Ile":10270,"Mur":10271,"NOT":10272,"Ġ74":10273,"aks":10274,"ĠExp":10275,"chant":10276,"Chi":10277,"BYV":10278,"ĠOrganization":10279,"Ġtypes":10280,"ĠBA":10281,"Ġopening":10282,"Ġassembled":10283,"Ġpunctuate":10284,"gie":10285,"antha":10286,"ĠAustin":10287,"Cameron":10288,"Windows":10289,"Kalamazoo":10290,"ĠPick":10291,"etz":10292,"ĠGener":10293,"ATOR":10294,"ĠREEL":10295,"alu":10296,"animent":10297,"Fitness":10298,"Attribute":10299,"Ġarranged":10300,"FAR":10301,"Lyon":10302,"Timothy":10303,"eritech":10304,"ĠSTE":10305,"unted":10306,"Nicaragua":10307,"ĠMANU":10308,"Ġprom":10309,"ĠDeMint":10310,"Ġinstallation":10311,"VO":10312,"ĠRound":10313,"Ġlibrary":10314,"ĠOntario":10315,"unner":10316,"ydolphin":10317,"mistydolphin":10318,"MARK":10319,"VHS":10320,"ĠSquare":10321,"ĠCas":10322,"ancell":10323,"Ġnortheasterly":10324,"Second":10325,"ĠDAB":10326,"ĠWell":10327,"uw":10328,"ĠGate":10329,"Ġlead":10330,"Ġguide":10331,"ĠAccompaniment":10332,"Const":10333,"Ġav":10334,"ĠUnified":10335,"kkad":10336,"ĠPlayer":10337,"rigger":10338,"Humph":10339,"855":10340,"ingen":10341,"Ġprote":10342,"Ġcontaminant":10343,"Eddie":10344,"ĠMarshall":10345,"acts":10346,"synonym":10347,"Ven":10348,"ilton":10349,"onny":10350,"Creature":10351,"Ġinhibitors":10352,"ĠLang":10353,"fe":10354,"entional":10355,"497":10356,"Americas":10357,"Dam":10358,"xs":10359,"Sharon":10360,"ĠILLINOIS":10361,"orary":10362,"ĠInfrastructure":10363,"trakkad":10364,"REL":10365,"agar":10366,"URL":10367,"jarat":10368,"758":10369,"481":10370,"Ġcompanies":10371,"Ġplan":10372,"Qatar":10373,"Ġproperties":10374,"ierce":10375,"Walter":10376,"cat":10377,"NK":10378,"ĠPerez":10379,"ĠWorks":10380,"More":10381,"ĠCir":10382,"ĠMP":10383,"ĠMetro":10384,"php":10385,"embership":10386,"ĠCycling":10387,"Some":10388,"Ta":10389,"Ġcount":10390,"rach":10391,"Workshops":10392,"ructor":10393,"utheran":10394,"Simon":10395,"422":10396,"XMA":10397,"ounter":10398,"Niagara":10399,"ĠTotal":10400,"676":10401,"Ġshall":10402,"hoofd":10403,"ĠLin":10404,"Ġmachine":10405,"kees":10406,"witches":10407,"Ventura":10408,"Ġ71":10409,"807":10410,"Cuba":10411,"wagen":10412,"ESH":10413,"ierra":10414,"ĠForestry":10415,"ĠRoute":10416,"Ġarch":10417,"ĠHILLS":10418,"tf":10419,"Burn":10420,"mu":10421,"Ġdam":10422,"Committee":10423,"Zimbabwe":10424,"Area":10425,"Ġmat":10426,"Chad":10427,"Ġmanufacturing":10428,"Bethlehem":10429,"ĠTu":10430,"ĠJos":10431,"ansk":10432,"Iceland":10433,"ĠSAM":10434,"Ġcatal":10435,"ĠVi":10436,"Select":10437,"ĠDor":10438,"ĠCorner":10439,"Ġrate":10440,"Sonoma":10441,"fs":10442,"Ġoperating":10443,"Ġdetermining":10444,"Box":10445,"Ville":10446,"ivals":10447,"ĠCla":10448,"ening":10449,"ĠDIA":10450,"Bron":10451,"evo":10452,"IRGINIA":10453,"ienne":10454,"Ġmembrane":10455,"Sec":10456,"ĠDar":10457,"Manhattan":10458,"ĠDam":10459,"Borussia":10460,"ĠBeng":10461,"ĠHOOK":10462,"star":10463,"Ġvirtual":10464,"ISF":10465,"Ġmagnetic":10466,"greg":10467,"Application":10468,"Table":10469,"Rate":10470,"xim":10471,"Minutes":10472,"aqu":10473,"zie":10474,"ĠCong":10475,"osl":10476,"FORM":10477,"Ġextending":10478,"Thunderstorm":10479,"STRATIVE":10480,"rys":10481,"ĠClay":10482,"Ġels":10483,"ĠJOSE":10484,"ĠLeague":10485,"yaml":10486,"ĠRangers":10487,"ĠAP":10488,"Ġexec":10489,"ĠBldg":10490,"Ġdisk":10491,"723":10492,"Ġ1981":10493,"Ġmeans":10494,"ĠIF":10495,"ĠHRP":10496,"ĠJesse":10497,"580":10498,"linked":10499,"Kam":10500,"Kate":10501,"Ġetc":10502,"ĠMidlands":10503,"ĠTownship":10504,"Lille":10505,"Lead":10506,"git":10507,"SITION":10508,"Grass":10509,"Create":10510,"Ġembodiments":10511,"ĠPEN":10512,"onduras":10513,"ahn":10514,"Patricia":10515,"Ġfinancial":10516,"Ġelsewhere":10517,"ĠAud":10518,"Opera":10519,"center":10520,"ĠCrow":10521,"Ġpaper":10522,"1888":10523,"imi":10524,"Indicates":10525,"Aj":10526,"NAT":10527,"ĠGordon":10528,"Copenhagen":10529,"Nate":10530,"ĠCE":10531,"ĠPeterson":10532,"ĠCollection":10533,"essa":10534,"Beijing":10535,"ĠJERSEY":10536,"HY":10537,"bow":10538,"andidate":10539,"ĠFer":10540,"Ġ98":10541,"Ġwho":10542,"Everton":10543,"Plymouth":10544,"epts":10545,"ĠFLORIDA":10546,"ĠRICHARD":10547,"cluding":10548,"Postponed":10549,"ayre":10550,"Of":10551,"nest":10552,"Ġnatural":10553,"Ġlater":10554,"Ġ802":10555,"eduled":10556,"rott":10557,"ipl":10558,"asha":10559,"Designated":10560,"Stoke":10561,"seille":10562,"intentional":10563,"Ġhelp":10564,"Ġlifetime":10565,"rus":10566,"ĠSociety":10567,"Deluxe":10568,"Cos":10569,"omes":10570,"Program":10571,"428":10572,"ĠDh":10573,"ĠHalf":10574,"ĠInjected":10575,"minors":10576,"Belfast":10577,"736":10578,"Polink":10579,"ĠSheff":10580,"ĠSax":10581,"adian":10582,"Ġgenerate":10583,"Cass":10584,"zi":10585,"raising":10586,"607":10587,"micro":10588,"ĠINCORPORATED":10589,"ĠMANUFACT":10590,"Crockett":10591,"ĠHoff":10592,"izations":10593,"ĠBurlington":10594,"Snow":10595,"ĠTower":10596,"Region":10597,"Ġsolo":10598,"Ġdescription":10599,"ĠEclectic":10600,"Ġenvironment":10601,"CALIFORNIA":10602,"Ġmotif":10603,"Cody":10604,"inancial":10605,"ktop":10606,"riority":10607,"enezuela":10608,"REF":10609,"Ġallowed":10610,"ĠBrand":10611,"Bond":10612,"nan":10613,"orig":10614,"lets":10615,"angle":10616,"ĠSpain":10617,"809":10618,"JE":10619,"ĠBear":10620,"ĠDons":10621,"Ġdise":10622,"Ġrefer":10623,"Ġ1000":10624,"olver":10625,"QUE":10626,"Winter":10627,"ĠElm":10628,"Festivals":10629,"Kru":10630,"ĠCover":10631,"ĠBart":10632,"Ġfac":10633,"ĠDigital":10634,"PY":10635,"orah":10636,"10000":10637,"eby":10638,"ĠUC":10639,"arwater":10640,"Ġmove":10641,"ĠGreat":10642,"Huntsville":10643,"Base":10644,"Rik":10645,"3305":10646,"Ġ978":10647,"ĠArmy":10648,"GREEN":10649,"510":10650,"swered":10651,"Ġobtain":10652,"ĠCrawford":10653,"493":10654,"Ġcontinu":10655,"ĠCY":10656,"Ġinters":10657,"Beck":10658,"bb":10659,"itan":10660,"uts":10661,"VR":10662,"SLAM":10663,"Ġsouthwest":10664,"Asbury":10665,"1074":10666,"Storage":10667,"AMS":10668,"ĠShow":10669,"ĠBrom":10670,"Ġbytes":10671,"418":10672,"Ġmortg":10673,"Ġreb":10674,"ijay":10675,"Ġfrequency":10676,"shaw":10677,"ibia":10678,"etermined":10679,"Tw":10680,"VIN":10681,"feld":10682,"ĠChicago":10683,"Ġexecut":10684,"ĠStreets":10685,"Seamonkey":10686,"isions":10687,"itation":10688,"ĠHuman":10689,"Ġrelease":10690,"annual":10691,"PALMD":10692,"Ġidentifier":10693,"856":10694,"Ross":10695,"ĠLakes":10696,"omic":10697,"Augusta":10698,"Logan":10699,"Pts":10700,"Chile":10701,"raduate":10702,"Ġquality":10703,"606":10704,"FIXED":10705,"NOVA":10706,"support":10707,"iso":10708,"ĠDownloadable":10709,"Ġannounced":10710,"ĠSOL":10711,"arrington":10712,"Kenya":10713,"ĠAy":10714,"ĠGRA":10715,"ĠBluff":10716,"Entertainment":10717,"UMAR":10718,"ori":10719,"ĠLower":10720,"KING":10721,"umar":10722,"rous":10723,"Ġ!":10724,"uture":10725,"Forest":10726,"Melinda":10727,"white":10728,"stock":10729,"ĠClemson":10730,"PALMDALE":10731,"sim":10732,"ORITY":10733,"orman":10734,"ournament":10735,"ĠAward":10736,"Ġver":10737,"ormal":10738,"reshold":10739,"ĠSecor":10740,"epp":10741,"deen":10742,"Defender":10743,"ĠFrench":10744,"ĠPhilip":10745,"MEL":10746,"endrick":10747,"ĠComics":10748,"ĠKentucky":10749,"ĠACT":10750,"419":10751,"702":10752,"ĠCarr":10753,"Jamie":10754,"1071":10755,"andler":10756,"ĠBre":10757,"oses":10758,"rolling":10759,"Ġworld":10760,"FLA":10761,"Honduras":10762,"ELLI":10763,"PMID":10764,"Ġmedium":10765,"WJ":10766,"ĠSab":10767,"ĠHits":10768,"1885":10769,"642110":10770,"643110":10771,"Ġsetting":10772,"Lov":10773,"olan":10774,"Cloud":10775,"Seal":10776,"Ġjan":10777,"SHA":10778,"Monster":10779,"boygan":10780,"free":10781,"ADENA":10782,"Miscellaneous":10783,"AE":10784,"LF":10785,"ĠTRAN":10786,"ĠThor":10787,"Nat":10788,"Ml":10789,"1030":10790,"Seoul":10791,"421":10792,"Ġprop":10793,"embourg":10794,"Ġtransmission":10795,"ĠKath":10796,"Ġservers":10797,"Frankfurt":10798,"estination":10799,"Iran":10800,"ĠAdvisory":10801,"DK":10802,"hancement":10803,"atibility":10804,"enne":10805,"Ġwest":10806,"leep":10807,"Bulgaria":10808,"7000":10809,"ĠWings":10810,"ĠOklahoma":10811,"Ġ400":10812,"ĠFound":10813,"utsch":10814,"ovan":10815,"Munich":10816,"Jos":10817,"ĠMall":10818,"447":10819,"city":10820,"olid":10821,"ĠDod":10822,"CAA":10823,"Ġvariable":10824,"Moore":10825,"Down":10826,"osing":10827,"ubs":10828,"WOR":10829,"Wake":10830,"yann":10831,"utual":10832,"WEA":10833,"ĠBor":10834,"ĠBron":10835,"ĠPROPERTY":10836,"ĠLicenses":10837,"JPMORGAN":10838,"Piet":10839,"XM":10840,"eny":10841,"engu":10842,"Ġcarbon":10843,"level":10844,"ĠTerry":10845,"ĠLn":10846,"inski":10847,"GG":10848,"ĠBuff":10849,"Various":10850,"Coll":10851,"EY":10852,"ede":10853,"ĠCemetery":10854,"CARE":10855,"Aspen":10856,"thy":10857,"acket":10858,"loride":10859,"Ġpers":10860,"ĠLeicester":10861,"Ronald":10862,"Ġcompositions":10863,"Aber":10864,"SLC":10865,"everly":10866,"496":10867,"cho":10868,"Ġsur":10869,"antes":10870,"ircraft":10871,"Ġpitch":10872,"Salisbury":10873,"Ġitems":10874,"ĠRegion":10875,"ĠMassachusetts":10876,"ĠGiants":10877,"Blake":10878,"CENT":10879,"oj":10880,"Phone":10881,"Glg":10882,"Erin":10883,"ewan":10884,"Ġroute":10885,"atterson":10886,"azon":10887,"aiti":10888,"Panama":10889,"fw":10890,"fre":10891,"Eden":10892,"Ġagainst":10893,"Il":10894,"ĠBUS":10895,"ĠLopez":10896,"asse":10897,"ahan":10898,"ĠUpon":10899,"iang":10900,"Ġsignals":10901,"ĠUtility":10902,"Lafayette":10903,"Trip":10904,"BIKE":10905,"Ġbound":10906,"ĠOp":10907,"Ameritech":10908,"Andrea":10909,"bi":10910,"ĠSAME":10911,"ĠStorage":10912,"Ġbeginning":10913,"ĠHouston":10914,"ĠCONTRO":10915,"ĠWi":10916,"erse":10917,"ĠTurner":10918,"rah":10919,"ĠWr":10920,"oven":10921,"When":10922,"ĠSwitch":10923,"Ġperformance":10924,"438":10925,"030":10926,"elete":10927,"ĠADMINISTRATIVE":10928,"Equ":10929,"odcast":10930,"ente":10931,"OHNS":10932,"Adrian":10933,"remen":10934,"itely":10935,"Shawn":10936,"ĠMaine":10937,"Ġequal":10938,"isted":10939,"Ġportions":10940,"Bit":10941,"ĠBrow":10942,"Ġadded":10943,"ĠIce":10944,"PHJF":10945,"cyt":10946,"aguay":10947,"ĠRi":10948,"ĠChocolate":10949,"draw":10950,"ĠINTEL":10951,"Offensive":10952,"ividend":10953,"Scar":10954,"ĠLAKE":10955,"ATO":10956,"lem":10957,"Ġbattery":10958,"Mari":10959,"ohan":10960,"Perth":10961,"Ġfix":10962,"Burg":10963,"Hall":10964,"aysia":10965,"Elite":10966,"Moscow":10967,"ĠImpact":10968,"3099":10969,"Fighting":10970,"ĠShipping":10971,"Ġprovider":10972,"sec":10973,"illing":10974,"Ġgamma":10975,"Ġevents":10976,"GOLF":10977,"Ra":10978,"wur":10979,"Ġlanguage":10980,"arta":10981,"Decl":10982,"faces":10983,"IGAN":10984,"Aston":10985,"OUS":10986,"ĠPER":10987,"1875":10988,"energy":10989,"Ġplace":10990,"apoli":10991,"Mitchell":10992,"ĠUpdate":10993,"ĠBrooklyn":10994,"Toulouse":10995,"ĠLanc":10996,"ĠIK":10997,"ĠJu":10998,"Bah":10999,"ĠSem":11000,"032":11001,"Sheboygan":11002,"Ġcontainer":11003,"ersville":11004,"urement":11005,"ĠParks":11006,"Ġmarket":11007,"ĠFRANCIS":11008,"Gra":11009,"Puz":11010,"Akron":11011,"Tamil":11012,"XME":11013,"anded":11014,"oreign":11015,"Aliado":11016,"ĠMills":11017,"HTML":11018,"432":11019,"Mik":11020,"gi":11021,"oms":11022,"acement":11023,"==":11024,"ĠKir":11025,"Northeastern":11026,"linux":11027,"strong":11028,"Puzlar":11029,"ĠMason":11030,"indi":11031,"Ġdetection":11032,"Student":11033,"owe":11034,"ADR":11035,"ĠComputer":11036,"448":11037,"ĠMajor":11038,"ĠTools":11039,"ĠHP":11040,"ĠOx":11041,"place":11042,"embrane":11043,"MONT":11044,"Bolivia":11045,"DG":11046,"Rome":11047,"kat":11048,"ĠLar":11049,"avi":11050,"wurttemberg":11051,"436":11052,"Ġyard":11053,"Gard":11054,"Sm":11055,"Ġmicro":11056,"Niger":11057,"car":11058,"ĠHoly":11059,"Outcome":11060,"Ġunlimit":11061,"Eagle":11062,"bike":11063,"enos":11064,"ONA":11065,"opping":11066,"!!":11067,"446":11068,"538":11069,"NAS":11070,"ĠLoc":11071,"Ġrespons":11072,"ershire":11073,"ĠProfessional":11074,"851":11075,"BAS":11076,"SQL":11077,"Margaret":11078,"RANCHO":11079,"CBF":11080,"Translation":11081,"ĠKra":11082,"ĠFrancis":11083,"Cricket":11084,"thing":11085,"Ġthread":11086,"ARA":11087,"Ġrout":11088,"abriel":11089,"ĠTodd":11090,"ĠJoy":11091,"estershire":11092,"Coffee":11093,"FClick":11094,"Ġinv":11095,"Essex":11096,"arez":11097,"ĠFrance":11098,"Result":11099,"Telephony":11100,"HF":11101,"Make":11102,"golia":11103,"ARAB":11104,"Graph":11105,"Ġpostponed":11106,"ĠNicolas":11107,"iop":11108,"Colgate":11109,"Joshua":11110,"WHIT":11111,"Ġpredetermined":11112,"Ġmounted":11113,"VERIZON":11114,"ĠPrescott":11115,"mouse":11116,"ovo":11117,"Ġuntil":11118,"BLA":11119,"CXL":11120,"ortmund":11121,"ĠABO":11122,"entown":11123,"...@":11124,"ĠSPR":11125,"ĠRichardson":11126,"ĠJAXB":11127,"Sara":11128,"Ġ85":11129,"ĠFilm":11130,"Ġvolume":11131,"rost":11132,"ĠTHOMAS":11133,"Ġseal":11134,"ĠWells":11135,"lbs":11136,"alog":11137,"DM":11138,"PON":11139,"ĠKA":11140,"Physical":11141,"Config":11142,"serv":11143,"irement":11144,"Ġbutton":11145,"Ġmill":11146,"ultural":11147,"Answered":11148,"XBB":11149,"reation":11150,"ĠFork":11151,"Provides":11152,"Hob":11153,"Mail":11154,"Ġcoll":11155,"irth":11156,"ATIONS":11157,"Laz":11158,"Ġstore":11159,"Antwer":11160,"ĠRelocation":11161,"449":11162,"ĠSpeed":11163,"lys":11164,"Ġparts":11165,"ĠFord":11166,"ervoir":11167,"TAFR":11168,"ĠFitz":11169,"imp":11170,"Inhib":11171,"Ġlisting":11172,"ĠSanchez":11173,"Ġsy":11174,"ĠComment":11175,"Kalb":11176,"XBA":11177,"Ġimages":11178,"Ġestim":11179,"ando":11180,"ĠFel":11181,"ĠRest":11182,"KT":11183,"Raw":11184,"Version":11185,"Ġbird":11186,"MIS":11187,"BLND":11188,"Ġtrack":11189,"PETC":11190,"Marseille":11191,"DEAF":11192,"deleted":11193,"ĠLincoln":11194,"596":11195,"nasl":11196,"WCBD":11197,"enhund":11198,"WCHR":11199,"WCHS":11200,"820":11201,"Lab":11202,"PNC":11203,"XBE":11204,"inar":11205,"MBXME":11206,"TAFG":11207,"WCMP":11208,"WCHC":11209,"SPEQ":11210,"rv":11211,"amaha":11212,"Paraguay":11213,"Kenneth":11214,"amblen":11215,"HOL":11216,"CASTER":11217,"Gainesville":11218,"Kinderwagen":11219,"Blindenhund":11220,"ĠStat":11221,"Represents":11222,"Landscape":11223,"433":11224,"Ga":11225,"ĠWide":11226,"Structural":11227,"liness":11228,"ontinued":11229,"Pietist":11230,"nb":11231,"ĠPrem":11232,"Ġcharacters":11233,"Hull":11234,"Hugh":11235,"Wrap":11236,"Ġcannot":11237,"Verona":11238,"Psychic":11239,"Tac":11240,"lip":11241,"ĠMap":11242,"ĠPip":11243,"Ġseg":11244,"ĠVT":11245,"Electronic":11246,"Sel":11247,"ryn":11248,"FCC":11249,"Hamblen":11250,"ĠCC":11251,"ĠGarden":11252,"ugu":11253,"Monter":11254,"ispo":11255,"ĠTennessee":11256,"ĠHours":11257,"033":11258,"ĠKirk":11259,"MAJ":11260,"ĠBulls":11261,"734":11262,"ĠRice":11263,"acer":11264,"ĠMACH":11265,"ĠReds":11266,"bilt":11267,"Ġprimary":11268,"Ġlinks":11269,"ancock":11270,"Added":11271,"Supreme":11272,"Warwick":11273,"cs":11274,"ATING":11275,"spapers":11276,"Liens":11277,"ĠCoburn":11278,"ĠPALOS":11279,"437":11280,"760":11281,"Nicole":11282,"OO":11283,"ĠFITT":11284,"ursu":11285,"Ġgoal":11286,"asota":11287,"ĠRen":11288,"ĠDividend":11289,"uns":11290,"letics":11291,"ĠHunter":11292,"ĠMt":11293,"grade":11294,"Ġfixed":11295,"Dickson":11296,"Ja":11297,"1121":11298,"NEY":11299,"ĠMANUFACTURING":11300,"oust":11301,"isha":11302,"965":11303,"Dale":11304,"Meg":11305,"ĠDallas":11306,"ĠYards":11307,"Ġdesired":11308,"3091":11309,"Ġmembers":11310,"Games":11311,"ĠHospital":11312,"eryl":11313,"ĠPlain":11314,"Ġresources":11315,"Irvine":11316,"Elm":11317,"ĠObispo":11318,"valid":11319,"Current":11320,"Ġdu":11321,"ĠXL":11322,"653":11323,"sky":11324,"ĠLov":11325,"acent":11326,"Quinn":11327,"ĠRATED":11328,"abilities":11329,"Janet":11330,"DeKalb":11331,"Ruth":11332,"CED":11333,"Dover":11334,"UNC":11335,"School":11336,"ĠFundraising":11337,"Ġ1980":11338,"ranton":11339,"estone":11340,"Kan":11341,"just":11342,"0700":11343,"Spencer":11344,"ROCK":11345,"Ġcurrently":11346,"Museum":11347,"ĠLEC":11348,"ractice":11349,"Ġrailroad":11350,"TOWER":11351,"Haiti":11352,"Ġlig":11353,"Anch":11354,"scar":11355,"Ġparameters":11356,"ĠAle":11357,"Ġthem":11358,"Orth":11359,"ĠActivity":11360,"ĠIndustries":11361,"Neutral":11362,"Melissa":11363,"ĠABOVE":11364,"ĠSup":11365,"Ġanti":11366,"ĠEqu":11367,"Content":11368,"ĠSkills":11369,"Marie":11370,"Ġunique":11371,"Ġoperations":11372,"ĠSupp":11373,"Ġcle":11374,"Carr":11375,"Endpoint":11376,"Cleanliness":11377,"omey":11378,"106220":11379,"107210":11380,"Loudon":11381,"Clifton":11382,"Ġaround":11383,"808":11384,"Jew":11385,"Ster":11386,"inge":11387,"ĠHeat":11388,"COT":11389,"Ve":11390,"wise":11391,"201507":11392,"Clearwater":11393,"ĠFLH":11394,"ĠAssistant":11395,"Hannover":11396,"Rivers":11397,"ĠWa":11398,"ETE":11399,"UTION":11400,"Ġevery":11401,"Ġapplied":11402,"ĠAIRLINE":11403,"iatic":11404,"arus":11405,"ĠIS":11406,"oody":11407,"DRB":11408,"ĠGroups":11409,"essel":11410,"Abd":11411,"WASH":11412,"ĠFITTINGS":11413,"ĠLeft":11414,"1201":11415,"845":11416,"ees":11417,"anos":11418,"Butler":11419,"ĠVander":11420,"elaide":11421,"614":11422,"Ġbec":11423,"ĠHorn":11424,"Ġgre":11425,"Ġconvert":11426,"ĠTit":11427,"ĠLIC":11428,"iring":11429,"Assistant":11430,"ARABIC":11431,"tucket":11432,"monthly":11433,"erbai":11434,"Ms":11435,"uor":11436,"Queen":11437,"713":11438,"ĠDerby":11439,"endan":11440,"CHL":11441,"kla":11442,"ĠAdapter":11443,"Street":11444,"ubl":11445,"ĠBasic":11446,"ĠSky":11447,"ĠINSPE":11448,"ĠNewspapers":11449,"ampionship":11450,"Kirk":11451,"Sandy":11452,"hang":11453,"ĠPav":11454,"ĠWeek":11455,"egbike":11456,"Demo":11457,"SPR":11458,"ĠRug":11459,"unting":11460,"Heather":11461,"Nicholas":11462,"Qld":11463,"3023":11464,"ĠAutomatic":11465,"Ten":11466,"iral":11467,"ĠMoon":11468,"2111":11469,"DER":11470,"Task":11471,"ĠBad":11472,"atem":11473,"Lahore":11474,"Ġfell":11475,"zig":11476,"Ġcam":11477,"Ġband":11478,"lynn":11479,"hes":11480,"ĠSafety":11481,"ĠACC":11482,"oman":11483,"781":11484,"Ġestablish":11485,"ngo":11486,"afood":11487,"Ġpolicy":11488,"RPG":11489,"ĠHOL":11490,"Ġ88":11491,"Ġmovement":11492,"Carolyn":11493,"928":11494,"Ud":11495,"Ġgeneral":11496,"Village":11497,"ernet":11498,"Proc":11499,"putStream":11500,"Settlement":11501,"ĠPool":11502,"ĠRa":11503,"url":11504,"ĠPetition":11505,"ynamic":11506,"Passed":11507,"ĠElementary":11508,"Life":11509,"Sant":11510,"Tott":11511,"andra":11512,"Arthur":11513,"Organ":11514,"ĠEntertainment":11515,"Ġsouthwesterly":11516,"RD":11517,"ĠTELECOMM":11518,"rot":11519,"Manit":11520,"LANCASTER":11521,"Clint":11522,"Nepal":11523,"555":11524,"Cole":11525,"Schw":11526,"addle":11527,"thaca":11528,"ĠMids":11529,"Ġniche":11530,"Maur":11531,"Dunedin":11532,"ĠCox":11533,"ĠMeyer":11534,"rano":11535,"yles":11536,"ĠVALLEY":11537,"ĠSpl":11538,"550":11539,"mun":11540,"ĠLive":11541,"Ġmolec":11542,"ATH":11543,"Town":11544,"1200":11545,"Fido":11546,"fvar":11547,"zinc":11548,"ĠHoll":11549,"iques":11550,"istered":11551,"Rangers":11552,"Ġjunction":11553,"Vf":11554,"irez":11555,"ĠShop":11556,"rights":11557,"asaki":11558,"ĠDba":11559,"Sunderland":11560,"atalie":11561,"dis":11562,"ĠAnne":11563,"ĠQuinn":11564,"Temperature":11565,"Touchdown":11566,"bul":11567,"ĠPC":11568,"866":11569,"Gill":11570,"rell":11571,"Canton":11572,"Player":11573,"ĠUSD":11574,"InBlack":11575,"???":11576,"MITK":11577,"ĠCS":11578,"Upper":11579,"ĠENER":11580,"INESS":11581,"ĠMAS":11582,"iga":11583,"ĠInverter":11584,"alcons":11585,"Ġheader":11586,"elin":11587,"ROKE":11588,"562":11589,"QWEST":11590,"idel":11591,"085":11592,"iph":11593,"ĠSunderland":11594,"ĠGh":11595,"yrs":11596,"ĠEvents":11597,"719":11598,"Ġtools":11599,"ĠEL":11600,"ORO":11601,"CAM":11602,"ĠReading":11603,"Tottenham":11604,"Suz":11605,"iser":11606,"ilo":11607,"ĠGraphics":11608,"Nova":11609,"erty":11610,"Swansea":11611,"Bakersfield":11612,"MAM":11613,"Corey":11614,"ĠLu":11615,"EG":11616,"ĠInf":11617,"McN":11618,"Namibia":11619,"NESOTA":11620,"Wizard":11621,"itte":11622,"1877":11623,"ĠTransmitter":11624,"Ġdeter":11625,"ĠRoyal":11626,"john":11627,"ĠDOT":11628,"050":11629,"Ġlittle":11630,"ĠColor":11631,"ociate":11632,"ĠCardin":11633,"levard":11634,"ĠFranklin":11635,"ĠPENNSYLVANIA":11636,"Wolf":11637,"ĠFa":11638,"ĠStevens":11639,"Ġcontext":11640,"Ġunits":11641,"Serb":11642,"ĠMath":11643,"ĠBirmingham":11644,"ested":11645,"Buffa":11646,"ĠCasey":11647,"699":11648,"staff":11649,"BOOT":11650,"1881":11651,"umor":11652,"ĠCHARL":11653,"ĠHolding":11654,"Lutheran":11655,"bis":11656,"1309":11657,"Ġmouse":11658,"ULT":11659,"765":11660,"059":11661,"ĠPaulo":11662,"ĠBrake":11663,"Sin":11664,"ĠRico":11665,"Luxembourg":11666,"Council":11667,"DES":11668,"ĠFloor":11669,"ĠEnt":11670,"errors":11671,"wiches":11672,"Naturalization":11673,"IED":11674,"Wat":11675,"ĠWash":11676,"illet":11677,"Ġanalysis":11678,"Scheu":11679,"ĠReynolds":11680,"alias":11681,"ĠHER":11682,"ĠBlake":11683,"Restaurant":11684,"Valencia":11685,"rc":11686,"project":11687,"Ġaltern":11688,"HM":11689,"ĠMB":11690,"Ġstage":11691,"Ġrisk":11692,"Plug":11693,"complete":11694,"Ġoccur":11695,"LN":11696,"ĠCrystal":11697,"omi":11698,"astings":11699,"ĠZone":11700,"ĠPo":11701,"idi":11702,"UNITED":11703,"VERSI":11704,"Medical":11705,"Fabu":11706,"BecFabu":11707,"513":11708,"704":11709,"Now":11710,"power":11711,"spur":11712,"NAc":11713,"ĠSchmidt":11714,"ptim":11715,"Belle":11716,"ĠStudent":11717,"Drama":11718,"CCl":11719,"Kenn":11720,"Tan":11721,"alert":11722,"ĠCR":11723,"ĠBrett":11724,"ĠDream":11725,"Shar":11726,"ĠCloud":11727,"SOFT":11728,"Ġwon":11729,"LEX":11730,"rickson":11731,"Fe":11732,"sm":11733,"zo":11734,"ĠMu":11735,"ĠBeth":11736,"Ġtem":11737,"Ġtranscription":11738,"Andre":11739,"Ġ>>":11740,"ĠRailroad":11741,"Events":11742,"zbek":11743,"Recipe":11744,"ĠMagnus":11745,"ĠRun":11746,"ishing":11747,"ĠAnna":11748,"662":11749,"ĠConcerts":11750,"Optional":11751,"Ġpres":11752,"ĠWine":11753,"ĠYe":11754,"ohl":11755,"724":11756,"BAN":11757,"Ġenergy":11758,"icate":11759,"Strength":11760,"Ġphosphatase":11761,"624":11762,"uyah":11763,"ĠELECTRIC":11764,"ursuant":11765,"Broad":11766,"828":11767,"ĠMyrtle":11768,"Mongolia":11769,"Ġcapable":11770,"erbaijan":11771,"ĠSV":11772,"1023":11773,"625":11774,"nik":11775,"ĠTax":11776,"Ġbottom":11777,"eoria":11778,"imb":11779,"opper":11780,"Ġ600":11781,"uyahoga":11782,"Ci":11783,"Ġ{":11784,"ĠPCR":11785,"enture":11786,"ĠIC":11787,"Ġbi":11788,"ĠHIGH":11789,"ETTE":11790,"ĠLas":11791,"ĠExpress":11792,"argin":11793,"ĠLearning":11794,"GK":11795,"Hair":11796,"Jen":11797,"ĠBerg":11798,"ĠStorm":11799,"Steel":11800,"ĠEasthampton":11801,"Autom":11802,"ĠGET":11803,"USF":11804,"Ġagency":11805,"ĠNorthwest":11806,"max":11807,"eda":11808,"ĠGMT":11809,"ĠAlso":11810,"Ġconnecting":11811,"Sah":11812,"alb":11813,"rep":11814,"Ġbuffer":11815,"Needs":11816,"ĠValue":11817,"Ġprocessor":11818,"mi":11819,"unj":11820,"Ġbond":11821,"997":11822,"Scope":11823,"Pawtucket":11824,"LES":11825,"ĠWhey":11826,"Ġcancer":11827,"therham":11828,"ICON":11829,"ngoing":11830,"Ġ110":11831,"ĠNash":11832,"Ġwireless":11833,"Enc":11834,"ĠUNITED":11835,"Path":11836,"ĠSpe":11837,"Ġbro":11838,"Ġprevent":11839,"Ġauthentication":11840,"Way":11841,"ĠLinux":11842,"Catherine":11843,"1862":11844,"ASC":11845,"Ġlarge":11846,"ĠInsurance":11847,"Ġphase":11848,"Concentration":11849,"avaria":11850,"asville":11851,"ĠBus":11852,"UNG":11853,"Digital":11854,"ĠToomey":11855,"ĠHaz":11856,"Assists":11857,"ĠUtilities":11858,"Continu":11859,"Ġdiff":11860,"Leb":11861,"Yale":11862,"ĠFAR":11863,"MINN":11864,"ĠAlbion":11865,"Small":11866,"numeric":11867,"itical":11868,"Ġnames":11869,"Ġlook":11870,"ĠSpurs":11871,"ĠTwp":11872,"0200":11873,"Ent":11874,"Living":11875,"pol":11876,"588":11877,"Guard":11878,"0800":11879,"1835":11880,"Fargo":11881,"ĠYan":11882,"ouls":11883,"OV":11884,"Puerto":11885,"HILL":11886,"ogne":11887,"tico":11888,"omon":11889,"ĠBuch":11890,"ĠBoulevard":11891,"Hu":11892,"MALI":11893,"prime":11894,"Ġgen":11895,"FLJ":11896,"Riverside":11897,"rvats":11898,"ĠLam":11899,"CAC":11900,"Phillips":11901,"989":11902,"ĠOrch":11903,"Ġworking":11904,"Bass":11905,"Ġtrip":11906,"ĠBrowser":11907,"Ari":11908,"ĠWire":11909,"ĠWords":11910,"iney":11911,"Insurance":11912,"KSON":11913,"Ġenabled":11914,"Press":11915,"Tommy":11916,"Ġelectrical":11917,"916":11918,"lake":11919,"ĠMrs":11920,"ĠBos":11921,"074":11922,"Ġ81":11923,"BAC":11924,"ĠWebb":11925,"714":11926,"Cuyahoga":11927,"ĠJOSEPH":11928,"Tel":11929,"fix":11930,"vi":11931,"ĠDa":11932,"ĠLes":11933,"Delta":11934,"atoon":11935,"1077":11936,"Song":11937,"ĠSK":11938,"ĠBrick":11939,"ĠRevolution":11940,"copy":11941,"table":11942,"ĠCost":11943,"Ġtherm":11944,"pressed":11945,"635":11946,"Cosm":11947,"oral":11948,"Activated":11949,"lette":11950,"Ġpossible":11951,"Ġwritten":11952,"DX":11953,"NX":11954,"Round":11955,"Ridge":11956,"ĠCave":11957,"Ġ1976":11958,"ĠSTROKE":11959,"Ġindividual":11960,"Juvent":11961,"ĠMethods":11962,"Ġ120":11963,"ĠGoshen":11964,"ĠJen":11965,"Handler":11966,"ordeaux":11967,"4031":11968,"Pick":11969,"etti":11970,"THE":11971,"ĠMoran":11972,"Ġdisplayed":11973,"Turnover":11974,"Network":11975,"ĠNevada":11976,"Ġstack":11977,"Administrator":11978,"ghan":11979,"586":11980,"getown":11981,"Ġprotocol":11982,"Jill":11983,"Len":11984,"3012":11985,"ĠOFF":11986,"MOND":11987,"LTT":11988,"urp":11989,"adiens":11990,"ralian":11991,"Offline":11992,"Ġdirectly":11993,"Ġorganic":11994,"ĠINSPECTOR":11995,"division":11996,"Humphreys":11997,"854":11998,"Esp":11999,"kid":12000,"ĠNature":12001,"Ġlive":12002,"ĠBUSINESS":12003,"Fixed":12004,"ving":12005,"ologna":12006,"Uncasville":12007,"609":12008,"Egypt":12009,"Kaz":12010,"ĠLock":12011,"odi":12012,"ARC":12013,"ussion":12014,"ĠMAIN":12015,"kar":12016,"operator":12017,"Cross":12018,"Uzbek":12019,"ding":12020,"ĠPin":12021,"ĠEach":12022,"eba":12023,"iscellaneous":12024,"ĠTire":12025,"ĠWolves":12026,"ĠOaks":12027,"asma":12028,"ILD":12029,"Police":12030,"ĠRefin":12031,"WMST":12032,"Parker":12033,"Berg":12034,"Fer":12035,"kinson":12036,"ĠSym":12037,"ĠLions":12038,"Spa":12039,"oxy":12040,"incip":12041,"Atltico":12042,"iborne":12043,"OHNSON":12044,"say":12045,"LECTUAL":12046,"ĠMemphis":12047,"Venezuela":12048,"1013":12049,"ewater":12050,"Ġmen":12051,"ADO":12052,"UCT":12053,"now":12054,"ĠRight":12055,"ĠSpecialist":12056,"ĠInternet":12057,"Lud":12058,"del":12059,"eign":12060,"CAST":12061,"IRR":12062,"Ġdeploy":12063,"ĠSamuel":12064,"Procurement":12065,"media":12066,"ĠMOT":12067,"DEP":12068,"Glouc":12069,"ĠAbb":12070,"rier":12071,"Summit":12072,"iast":12073,"post":12074,"070":12075,"Ġmit":12076,"optim":12077,"Heritage":12078,"ĠIreland":12079,"ĠPerson":12080,"Ġlayers":12081,"ĠSTATE":12082,"odox":12083,"ĠKerry":12084,"kernel":12085,"Request":12086,"BRL":12087,"Juventus":12088,"Trad":12089,"1111":12090,"1847":12091,"Ġlens":12092,"Ġ150":12093,"1866":12094,"icine":12095,"ĠTennis":12096,"rews":12097,"JAM":12098,"ĠRad":12099,"ĠIMA":12100,"Madrid":12101,"Ġprogress":12102,"Array":12103,"ĠActiv":12104,"lb":12105,"Ġ1200":12106,"Stuttgart":12107,"Harrison":12108,"Hop":12109,"mb":12110,"ĠRIGHT":12111,"ĠGrowth":12112,"ĠInternes":12113,"gnome":12114,"Confirmed":12115,"Injected":12116,"ĠLeaf":12117,"Emm":12118,"Cumberland":12119,"Jet":12120,"avin":12121,"ĠTimes":12122,"Maximum":12123,"Sets":12124,"ĠOrange":12125,"Phill":12126,"ĠDouglas":12127,"owan":12128,"ĠThorn":12129,"Azerbaijan":12130,"atemala":12131,"727":12132,"ĠBasket":12133,"ĠDX":12134,"ĠGER":12135,"Clinton":12136,"ĠRECORDED":12137,"539":12138,"Release":12139,"ĠBryant":12140,"ĠINTELLECTUAL":12141,"UTER":12142,"ĠFM":12143,"Ġsept":12144,"aken":12145,"Cloth":12146,"ĠMail":12147,"rics":12148,"Ġsettings":12149,"Kr":12150,"ĠSecond":12151,"Ġpol":12152,"ellite":12153,"Scranton":12154,"anguard":12155,"Gb":12156,"Ġmost":12157,"rup":12158,"HAI":12159,"Hollywood":12160,"Westernerd":12161,"cup":12162,"ĠTemperature":12163,"ĠGO":12164,"ĠCond":12165,"ESIS":12166,"ĠSandwiches":12167,"Anchorage":12168,"080":12169,"ELF":12170,"Done":12171,"Chapel":12172,"Nit":12173,"fax":12174,"alp":12175,"Ġweight":12176,"MALIBU":12177,"646":12178,"ĠUttar":12179,"ZONE":12180,"Southeast":12181,"ĠAtlantic":12182,"2022":12183,"ĠSHI":12184,"ĠChap":12185,"Rele":12186,"ti":12187,"Ġexc":12188,"ĠRadial":12189,"char":12190,"CHT":12191,"stitution":12192,"034":12193,"MLB":12194,"Marcus":12195,"cz":12196,"Ġcyt":12197,"Ġnorthwest":12198,"Pas":12199,"than":12200,"Ġconnector":12201,"ĠBroadway":12202,"Master":12203,"Tusc":12204,"Ġcandidate":12205,"ĠUser":12206,"ĠTBD":12207,"ĠLIN":12208,"ĠFisher":12209,"Earl":12210,"xml":12211,"Ġpair":12212,"Cosworth":12213,"ifies":12214,"ROLL":12215,"Prop":12216,"Lowell":12217,"METR":12218,"elia":12219,"ĠHis":12220,"Centre":12221,"Saskatoon":12222,"Finn":12223,"Nas":12224,"Flash":12225,"erved":12226,"ĠSTAN":12227,"Ġruns":12228,"ĠMcD":12229,"Solana":12230,"Claiborne":12231,"ĠSher":12232,"Ġmotor":12233,"Danielle":12234,"Ġintersection":12235,"ĠRugby":12236,"bool":12237,"wind":12238,"Ġrights":12239,"GHz":12240,"Kingdom":12241,"EARCH":12242,"ROW":12243,"LINC":12244,"ĠMinor":12245,"Circuit":12246,"edora":12247,"Enhancement":12248,"rosis":12249,"ĠSEMICONDUCTOR":12250,"Athina":12251,"pyyaml":12252,"Trevor":12253,"ehan":12254,"ĠFul":12255,"Hat":12256,"Jar":12257,"ĠTransportation":12258,"ophila":12259,"forceable":12260,"Adventure":12261,"Dal":12262,"vy":12263,"1848":12264,"irley":12265,"umbler":12266,"Place":12267,"PETCO":12268,"ĠFRAME":12269,"Ġgreater":12270,"askell":12271,"ĠJonathan":12272,"817":12273,"Ithaca":12274,"ĠCav":12275,"Chem":12276,"Meeting":12277,"Na":12278,"big":12279,"imer":12280,"uces":12281,"BATE":12282,"CES":12283,"1211":12284,"ĠAires":12285,"Tacoma":12286,"1100":12287,"fire":12288,"560":12289,"Ġcomplete":12290,"ĠArthur":12291,"amaica":12292,"glut":12293,"LAYTON":12294,"Ġrecorded":12295,"Boca":12296,"Dylan":12297,"Mand":12298,"NIA":12299,"ilot":12300,"ĠTournament":12301,"ablo":12302,"036":12303,"Ġinitial":12304,"ORB":12305,"ThuAd":12306,"ĠFoods":12307,"Intel":12308,"Puzzle":12309,"Ġonline":12310,"829":12311,"Pine":12312,"Wowb":12313,"ANCM":12314,"Wowbagger":12315,"ĠCohen":12316,"Ġfri":12317,"ĠWee":12318,"formerly":12319,"Stanley":12320,"ictory":12321,"ĠRegional":12322,"Ġvon":12323,"ĠColeman":12324,"Nigeria":12325,"Rebecca":12326,"ĠNik":12327,"ĠHans":12328,"Ġdiss":12329,"Ġ1978":12330,"avens":12331,"enced":12332,"ĠQuebec":12333,"Asiatic":12334,"aumont":12335,"ĠPOL":12336,"forming":12337,"path":12338,"ĠMICH":12339,"Visual":12340,"Uzbekistan":12341,"Ġfamil":12342,"oder":12343,"Actual":12344,"KOR":12345,"fels":12346,"Ġerrors":12347,"ĠText":12348,"auf":12349,"iversal":12350,"Price":12351,"Ġ1979":12352,"Refer":12353,"ĠCarlos":12354,"Gulf":12355,"Mnchen":12356,"Rut":12357,"ĠWales":12358,"039":12359,"owder":12360,"Benn":12361,"Cott":12362,"Univ":12363,"Ġdocumentation":12364,"allel":12365,"ĠPatch":12366,"Ġcer":12367,"Ġwid":12368,"iketo":12369,"ĠCup":12370,"ĠRF":12371,"Ġox":12372,"okine":12373,"Ġstudent":12374,"Patch":12375,"ĠAJ":12376,"1874":12377,"ivo":12378,"Ġwing":12379,"Ot":12380,"Ġpercent":12381,"Blocks":12382,"GLAS":12383,"Documentation":12384,"leuk":12385,"icz":12386,"Ġeither":12387,"Milton":12388,"pell":12389,"elo":12390,"Ġmo":12391,"Ġnec":12392,"ochond":12393,"Ġpassword":12394,"ĠAaron":12395,"aming":12396,"Ġtag":12397,"raining":12398,"Orthodox":12399,"occo":12400,"atchewan":12401,"Emma":12402,"Kenzie":12403,"Napoli":12404,"ĠTRA":12405,"ĠTyler":12406,"ĠDoyle":12407,"iper":12408,"ĠAmiketo":12409,"Mashiki":12410,"ALB":12411,"manuel":12412,"Ġemitting":12413,"why":12414,"718":12415,"Koln":12416,"aved":12417,"ancing":12418,"ĠGolden":12419,"Ġplugin":12420,"Ibiza":12421,"ĠQR":12422,"REDIT":12423,"keeper":12424,"WASHINGTON":12425,"641":12426,"9071":12427,"ients":12428,"ĠSor":12429,"ĠGT":12430,"Ġmusic":12431,"hat":12432,"mf":12433,"lines":12434,"40000":12435,"devel":12436,"anova":12437,"ĠLim":12438,"Ġwere":12439,"Ġplatform":12440,"ĠPAUL":12441,"Dean":12442,"Comcast":12443,"ĠCANADA":12444,"Ġconsuming":12445,"Osh":12446,"rak":12447,"Thunderbird":12448,"Tob":12449,"ĠAz":12450,"ĠIndian":12451,"15714":12452,"iddlesex":12453,"801":12454,"Ġmulti":12455,"Cleanup":12456,"Lib":12457,"ĠEsp":12458,"ĠHeight":12459,"Athletic":12460,"ĠIndustrial":12461,"ĠBELOW":12462,"Yr":12463,"gle":12464,"ĠEdit":12465,"Potter":12466,"BW":12467,"HLA":12468,"Ing":12469,"VIS":12470,"Very":12471,"rh":12472,"anum":12473,"room":12474,"ĠBan":12475,"Ġwidth":12476,"54135":12477,"ĠGoldstein":12478,"Door":12479,"ĠPit":12480,"ĠJennifer":12481,"ĠVice":12482,"Ġexisting":12483,"inner":12484,"Glc":12485,"igation":12486,"ĠGuard":12487,"rosine":12488,"Malaysia":12489,"eler":12490,"078":12491,"containing":12492,"ĠPROCESS":12493,"ĠFlat":12494,"ĠBurns":12495,"ĠNA":12496,"ĠIns":12497,"Ġreturns":12498,"AMI":12499,"URA":12500,"Guatemala":12501,"Ġstep":12502,"ĠExtra":12503,"ĠConference":12504,"ĠGalaxy":12505,"Fox":12506,"Chula":12507,"Steals":12508,"Ġopposite":12509,"Ki":12510,"cab":12511,"two":12512,"ĠDer":12513,"1884":12514,"ĠKeck":12515,"Ġsolution":12516,"Ġsubstant":12517,"Ġimportant":12518,"Ġpixel":12519,"ĠWinners":12520,"BIT":12521,"WAR":12522,"wens":12523,"Ġpin":12524,"CRON":12525,"Snipe":12526,"music":12527,"ĠWarriors":12528,"raction":12529,"racht":12530,"ĠChannel":12531,"Ġmetall":12532,"WIN":12533,"1500":12534,"CHER":12535,"ĠGuitar":12536,"ributes":12537,"BUF":12538,"Ġbuilt":12539,"ĠDispatch":12540,"RIGHT":12541,"enheim":12542,"ĠBerry":12543,"Cater":12544,"Maple":12545,"ĠGAM":12546,"ĠVOL":12547,"Ġequipment":12548,"DEX":12549,"Torino":12550,"ĠButler":12551,"Ġdetermine":12552,"Kil":12553,"Ġ205":12554,"ĠTher":12555,"ĠThere":12556,"Agent":12557,"kel":12558,"elkay":12559,"Ġliter":12560,"ENCY":12561,"Laugh":12562,"elkaywhy":12563,"hawks":12564,"live":12565,"Ġcredit":12566,"Ġhouse":12567,"Ġ2406":12568,"Ġinstalled":12569,"ĠWatson":12570,"Ġoffers":12571,"UPMKY":12572,"741":12573,"Cancel":12574,"ea":12575,"sjm":12576,"1081":12577,"ulner":12578,"SanDisk":12579,"Ġfood":12580,"Ġoct":12581,"Ġbest":12582,"Ġ2363":12583,"cre":12584,"ĠLat":12585,"Ġ2392":12586,"Ġenh":12587,"951":12588,"Ġ102":12589,"ĠKay":12590,"ĠRece":12591,"Import":12592,"Ġedge":12593,"ĠDynamo":12594,"Ġloans":12595,"Hudson":12596,"ĠMAT":12597,"Ġsafety":12598,"esto":12599,"Ġoutside":12600,"ĠHayes":12601,"PORTLAND":12602,"KH":12603,"TOTAL":12604,"ĠCharleston":12605,"Hanover":12606,"Ġspeed":12607,"Ġshown":12608,"ĠAtkins":12609,"Department":12610,"Ġqueue":12611,"Liv":12612,"Ocean":12613,"Ġ105":12614,"Ġvalve":12615,"AudioEndpoint":12616,"ĠHum":12617,"Colin":12618,"DJM":12619,"ĠEverton":12620,"BBC":12621,"Girl":12622,"Kend":12623,"Late":12624,"iling":12625,"otype":12626,"ĠNonf":12627,"Evanston":12628,"ĠCanyon":12629,"Ric":12630,"Ralph":12631,"nucle":12632,"arct":12633,"ĠSL":12634,"Ġconsent":12635,"Finished":12636,"remote":12637,"ĠCareer":12638,"ĠRamirez":12639,"Efficiency":12640,"ĠLynn":12641,"Ġattach":12642,"Wasatch":12643,"GlcNAc":12644,"AAP":12645,"FO":12646,"WHL":12647,"ĠHT":12648,"Samantha":12649,"optimization":12650,"riba":12651,"Christine":12652,"ĠTI":12653,"acon":12654,"ĠOcean":12655,"ĠChelsea":12656,"issue":12657,"Raymond":12658,"942":12659,"Mas":12660,"ĠRack":12661,"cm":12662,"lesville":12663,"STRATE":12664,"Ġvarious":12665,"Africa":12666,"ĠFarms":12667,"Ey":12668,"***":12669,"SOA":12670,"ĠCrossing":12671,"Four":12672,"ĠChina":12673,"Robin":12674,"ĠScotia":12675,"ĠWesthampton":12676,"ĠDKFZ":12677,"666":12678,"LOBAL":12679,"ochrome":12680,"ĠSelect":12681,"ĠSullivan":12682,"Ġdigital":12683,"Ġ>>>":12684,"ried":12685,"Ġprobe":12686,"ashi":12687,"ĠAndroid":12688,"Ġrole":12689,"equ":12690,"lated":12691,"lym":12692,"Ġcombined":12693,"prop":12694,"arrior":12695,"ĠRESEARCH":12696,"Ġarm":12697,"Ġ125":12698,"ĠMik":12699,"olm":12700,"1872":12701,"ĠNich":12702,"ĠHS":12703,"onder":12704,"ĠCLEAN":12705,"Fouls":12706,"sg":12707,"1014":12708,"ATHER":12709,"plug":12710,"ISE":12711,"thorpe":12712,"uckland":12713,"CX":12714,"Ġcaus":12715,"ovich":12716,"term":12717,"ained":12718,"577":12719,"Ġinsurance":12720,"ĠSharma":12721,"Aberdeen":12722,"047":12723,"aba":12724,"ĠSheehan":12725,"Ġinsert":12726,"oplasm":12727,"MG":12728,"gae":12729,"ilion":12730,"Completion":12731,"ĠIndians":12732,"604060":12733,"Evansville":12734,"obulin":12735,"atinum":12736,"Ġrebounds":12737,"Bart":12738,"Ġgenerating":12739,"Sally":12740,"ĠSpringer":12741,"Word":12742,"XBRL":12743,"ĠOri":12744,"ĠUnions":12745,"ĠJust":12746,"ĠKate":12747,"ahs":12748,"hematics":12749,"ĠRevised":12750,"ĠRaton":12751,"1878":12752,"Shane":12753,"Ġnotification":12754,"prof":12755,"SYSM":12756,"idad":12757,"Ġglyc":12758,"remont":12759,"Pri":12760,"ader":12761,"888":12762,"Ġcondition":12763,"ĠRaw":12764,"Ġstaff":12765,"Islam":12766,"042":12767,"ĠMonica":12768,"Brun":12769,"oncaster":12770,"onstration":12771,"MITEK":12772,"sten":12773,"ĠDNA":12774,"ĠWalter":12775,"nick":12776,"Ġvi":12777,"Allentown":12778,"ILMINGTON":12779,"Ġelectrically":12780,"Bordeaux":12781,"idden":12782,"track":12783,"Rated":12784,"sja":12785,"ĠSuz":12786,"rox":12787,"1870":12788,"Glenn":12789,"Ġinstit":12790,"Ġgoose":12791,"ĠENERGY":12792,"Ġiniti":12793,"Ġhour":12794,"Ġtypically":12795,"BT":12796,"ALTH":12797,"ĠInstruments":12798,"ounded":12799,"Hayes":12800,"ĠDefault":12801,"700010":12802,"ghanistan":12803,"ZER":12804,"sacrifice":12805,"Ġresolution":12806,"forge":12807,"Hers":12808,"JHL":12809,"hya":12810,"ĠFirm":12811,"Ġchain":12812,"Computer":12813,"ĠDean":12814,"Hof":12815,"IPR":12816,"alifax":12817,"MV":12818,"poly":12819,"urrency":12820,"erized":12821,"Ġmortgages":12822,"rn":12823,"Ġbrow":12824,"1883":12825,"ermain":12826,"Flagstaff":12827,"98750":12828,"Somerset":12829,"Mang":12830,"ĠMariana":12831,"none":12832,"Regina":12833,"ĠAndrews":12834,"ĠStanley":12835,"Sid":12836,"kley":12837,"Released":12838,"hall":12839,"ĠMerc":12840,"ocyte":12841,"LAC":12842,"ennan":12843,"ĠWalsh":12844,"0104":12845,"gb":12846,"Ġclean":12847,"Advanced":12848,"NECT":12849,"Ġprofessor":12850,"ĠCHARLES":12851,"Email":12852,"ĠStein":12853,"ĠJustin":12854,"estant":12855,"ĠKarl":12856,"Lady":12857,"rosophila":12858,"HLJ":12859,"Ġadjacent":12860,"data":12861,"fect":12862,"otic":12863,"ĠLisa":12864,"ĠMorrison":12865,"ĠSpencer":12866,"Ġrecording":12867,"Ġmodules":12868,"ju":12869,"ĠWisconsin":12870,"106210":12871,"106230":12872,"ĠHayden":12873,"ĠGregory":12874,"107230":12875,"Ġ1967":12876,"Ġ1831":12877,"efer":12878,"ĠShel":12879,"770":12880,"proprotein":12881,"ĠUsing":12882,"Serge":12883,"ĠNonfiction":12884,"Baldwin":12885,"Lower":12886,"046":12887,"TIER":12888,"ĠParish":12889,"ĠCOMMUNICATIONS":12890,"Garden":12891,"Ġfuel":12892,"apor":12893,"Ġcoordin":12894,"Ġmissing":12895,"Bath":12896,"bz":12897,"fk":12898,"yk":12899,"ĠSoft":12900,"ĠLAB":12901,"ĠArriba":12902,"Wilkes":12903,"FM":12904,"GUL":12905,"ĠMas":12906,"ĠMST":12907,"ĠRing":12908,"Ġsocial":12909,"Ġassigned":12910,"Allow":12911,"Ġmetadata":12912,"aisal":12913,"Tumbler":12914,"ĠFab":12915,"Ġ--":12916,"Ġdisp":12917,"Fat":12918,"ĠTen":12919,"TAIN":12920,"icopee":12921,"Shawl":12922,"Bons":12923,"Cohen":12924,"Ġsect":12925,"ĠCommon":12926,"ĠBarry":12927,"Lou":12928,"ĠPrivate":12929,"Ġoxide":12930,"1492":12931,"CAP":12932,"ĠUNI":12933,"Amherst":12934,"ĠPerformance":12935,"Ġextension":12936,"Error":12937,"ĠStudies":12938,"Ġoptions":12939,"Ġneeds":12940,"McNairy":12941,"Lane":12942,"Ġcommun":12943,"ĠISL":12944,"Ġdestination":12945,"ITAL":12946,"Nag":12947,"ning":12948,"777":12949,"ĠSeafood":12950,"ĠEllis":12951,"LR":12952,"Peoria":12953,"ten":12954,"ersfield":12955,"Host":12956,"Pam":12957,"master":12958,"Montral":12959,"elling":12960,"ipher":12961,"Ġcaptain":12962,"Ġjuin":12963,"STA":12964,"iedad":12965,"Kir":12966,"ĠFalcons":12967,"ĠGary":12968,"Cologne":12969,"ambers":12970,"base":12971,"plant":12972,"ĠTravel":12973,"ministrative":12974,"Ġmatrix":12975,"Ca":12976,"green":12977,"ĠSin":12978,"ĠTrade":12979,"clair":12980,"Ġadhes":12981,"Exception":12982,"McG":12983,"MANN":12984,"Mem":12985,"ĠAgent":12986,"ĠRear":12987,"oval":12988,"SCI":12989,"Jared":12990,"Mu":12991,"ters":12992,"ĠISO":12993,"ĠLaura":12994,"control":12995,"ynthia":12996,"867":12997,"XT":12998,"hab":12999,"mustang":13000,"ĠTa":13001,"avan":13002,"Ġ412":13003,"860":13004,"DEFIN":13005,"ĠOperations":13006,"Clarkston":13007,"Bridgeport":13008,"525":13009,"03750":13010,"ĠPlate":13011,"Genus":13012,"ĠCro":13013,"ently":13014,"estnut":13015,"Ġ97":13016,"Erie":13017,"KEN":13018,"dates":13019,"1850":13020,"Ġcorrect":13021,"deletion":13022,"How":13023,"ĠHenderson":13024,"Stuart":13025,"Ġbeh":13026,"VADA":13027,"ĠDeep":13028,"ĠQU":13029,"Sporting":13030,"ĠSS":13031,"ĠBud":13032,"Ġ1970":13033,"Classic":13034,"BROOKLYN":13035,"Rhea":13036,"810":13037,"riots":13038,"quarter":13039,"Shares":13040,"ĠTimothy":13041,"games":13042,"ĠHal":13043,"Ġ1969":13044,"946":13045,"Beverly":13046,"agner":13047,"Antarct":13048,"Hardin":13049,"Bowling":13050,"Bra":13051,"Eint":13052,"Joy":13053,"Miguel":13054,"Rat":13055,"olation":13056,"Belize":13057,"ĠDDR":13058,"iding":13059,"Ġ1968":13060,"ĠChall":13061,"ĠItalian":13062,"ecklenburg":13063,"utton":13064,"ensburg":13065,"activ":13066,"Missing":13067,"Management":13068,"ĠRecords":13069,"President":13070,"Ġprojects":13071,"kingdom":13072,"802":13073,"BIN":13074,"Gene":13075,"ĠConnect":13076,"ĠTab":13077,"ĠTrevor":13078,"Ġcool":13079,"ĠTransmission":13080,"ĠACUTE":13081,"Cisco":13082,"Dari":13083,"foot":13084,"ecks":13085,"Toddler":13086,"oplasmic":13087,"Sarasota":13088,"Ashland":13089,"Species":13090,"Ġintegration":13091,"mustangkid":13092,"Chase":13093,"GBP":13094,"ĠDrug":13095,"Subkingdom":13096,"ĠSpecifications":13097,"ĠBeatles":13098,"ĠCros":13099,"awson":13100,"ync":13101,"Ġspecifies":13102,"Defens":13103,"3041":13104,"ivalent":13105,"ĠAuthority":13106,"::":13107,"Oc":13108,"TRAN":13109,"nia":13110,"ĠJaffe":13111,"Ġ1930":13112,"Und":13113,"Chief":13114,"ĠInvest":13115,"ockanum":13116,"ruit":13117,"matilda":13118,"4021":13119,"left":13120,"ĠCov":13121,"Impro":13122,"VELAND":13123,"Pin":13124,"WARD":13125,"small":13126,"Marin":13127,"eech":13128,"ISO":13129,"Foreign":13130,"ĠNancy":13131,"Ġexpression":13132,"ĠFriend":13133,"Bonsai":13134,"Barb":13135,"fel":13136,"ads":13137,"quis":13138,"Carb":13139,"Carson":13140,"Samuel":13141,"Ġreported":13142,"Eintracht":13143,"ĠBird":13144,"Guy":13145,"Liberty":13146,"ĠCleveland":13147,"itary":13148,"uty":13149,"Roberts":13150,"Judy":13151,"Ġaxis":13152,"iopia":13153,"ochondrial":13154,"Lau":13155,"Pierre":13156,"ĠAlabama":13157,"ULTRA":13158,"ĠValle":13159,"inen":13160,"Ġ604":13161,"Ġphysical":13162,"ĠEastern":13163,"ennials":13164,"DNA":13165,"Ġsteps":13166,"ository":13167,"ĠGardens":13168,"ĠFRANCISCO":13169,"971":13170,"ĠEs":13171,"Ġpreproprotein":13172,"Georgetown":13173,"Liber":13174,"ĠCatholic":13175,"775":13176,"Fal":13177,"Swe":13178,"Dow":13179,"ĠDual":13180,"Ġmars":13181,"keeps":13182,"Ġhad":13183,"595":13184,"ĠBurke":13185,"Ġshortcut":13186,"Ġtransporter":13187,"Hem":13188,"Kenny":13189,"ĠTi":13190,"ĠBistro":13191,"ĠOption":13192,"ĠTERMIN":13193,"Ġinvestment":13194,"TERS":13195,"Employ":13196,"Fan":13197,"Mead":13198,"ĠSide":13199,"ĠCricket":13200,"ĠBanks":13201,"ĠItaly":13202,"Ġconnections":13203,"APA":13204,"ensions":13205,"Beaver":13206,"aharan":13207,"Krueger":13208,"service":13209,"JON":13210,"ĠRivera":13211,"MOVY":13212,"Gonz":13213,"Ġabs":13214,"Ax":13215,"von":13216,"rika":13217,"Ġpul":13218,"068":13219,"agin":13220,"Ġmiscellaneous":13221,"avity":13222,"Ġreaction":13223,"Shannon":13224,"ĠUpper":13225,"urer":13226,"Ġeff":13227,"ĠDonald":13228,"ĠFoundation":13229,"Fle":13230,"Nun":13231,"sd":13232,"ĠDRI":13233,"Ġsourceforge":13234,"Superdivision":13235,"GIS":13236,"Methyl":13237,"ulate":13238,"ĠVill":13239,"Subclass":13240,"Ġmaking":13241,"okie":13242,"Bir":13243,"Dome":13244,"Ġsend":13245,"1871":13246,"REY":13247,"ĠDrum":13248,"ĠPolicy":13249,"lay":13250,"pin":13251,"ĠLud":13252,"ĠProtestant":13253,"ĠHotspur":13254,"Cosmo":13255,"DEFINITION":13256,"Ġ301":13257,"overty":13258,"ĠJohnny":13259,"ĠBrewing":13260,"1873":13261,"ĠVall":13262,"ursing":13263,"01250":13264,"832":13265,"VID":13266,"irty":13267,"ordy":13268,"Disabled":13269,"ĠBraunfels":13270,"Bark":13271,"fg":13272,"ilia":13273,"amo":13274,"omo":13275,"5300":13276,"Ġintegrated":13277,"UBLE":13278,"ernando":13279,"KL":13280,"ĠMoh":13281,"ĠPicture":13282,"ĠHollow":13283,"Ġ1915":13284,"INFO":13285,"Ġfamilies":13286,"Dist":13287,"ĠCord":13288,"addy":13289,"Ġdead":13290,"Ġ89":13291,"Connor":13292,"Description":13293,"ĠDance":13294,"ESI":13295,"eful":13296,"____":13297,"Ġpropag":13298,"Racing":13299,"Saharan":13300,"ingray":13301,"ĠFace":13302,"ĠBRE":13303,"ĠAssistance":13304,"lies":13305,"ĠSummer":13306,"Ġ1973":13307,"awasaki":13308,"Ġconsidered":13309,"Benjamin":13310,"Ġoriginal":13311,"Ġfind":13312,"ĠDriv":13313,"ĠEDW":13314,"Ġclose":13315,"Morris":13316,"ĠHU":13317,"037":13318,"1882":13319,"Ġrepresents":13320,"Municipality":13321,"Ġsubstantially":13322,"ĠMR":13323,"ĠRain":13324,"Ġprepar":13325,"ĠSociedad":13326,"Ġrequires":13327,"Wolver":13328,"Ġ~":13329,"ĠBarb":13330,"ĠBoot":13331,"Ġtre":13332,"undle":13333,"petual":13334,"Musc":13335,"ĠHudson":13336,"ĠVM":13337,"Ġshaft":13338,"Ġproceeded":13339,"BG":13340,"Yuk":13341,"Ġmaint":13342,"ĠKa":13343,"Multioperator":13344,"ocratic":13345,"mama":13346,"ĠTub":13347,"TERN":13348,"ĠCOUN":13349,"ĠColl":13350,"aldo":13351,"Og":13352,"dan":13353,"PEG":13354,"Ġdamage":13355,"sites":13356,"ilis":13357,"ĠNebraska":13358,"Ġsuccess":13359,"96250":13360,"Ġpassed":13361,"ĠProduction":13362,"Ġarg":13363,"Trent":13364,"BYW":13365,"Ġwebsite":13366,"roud":13367,"ervation":13368,"ĠHamburg":13369,"ĠHawks":13370,"Caroline":13371,"Grainger":13372,"yme":13373,"1829":13374,"athi":13375,"POST":13376,"YO":13377,"ĠNos":13378,"ĠKrist":13379,"SAC":13380,"941":13381,"Wa":13382,"Wheel":13383,"ĠExpl":13384,"opeka":13385,"Rad":13386,"SMS":13387,"ĠWord":13388,"ĠCAROL":13389,"Tinley":13390,"Ġlaw":13391,"12500":13392,"ĠFig":13393,"Ġput":13394,"Ġforeign":13395,"Ġgraph":13396,"shot":13397,"anya":13398,"ĠCOMPO":13399,"++":13400,"Aud":13401,"Fish":13402,"etarian":13403,"ĠOt":13404,"oxyl":13405,"ĠSwim":13406,"Ground":13407,"psw":13408,"inic":13409,"ĠCount":13410,"icated":13411,"unc":13412,"UTHER":13413,"Stone":13414,"CV":13415,"Gener":13416,"MUL":13417,"Vik":13418,"1312":13419,"ensity":13420,"olphins":13421,"emporary":13422,"Antarctica":13423,"Defenseman":13424,"float":13425,"Ġaverage":13426,"Ġavr":13427,"1715":13428,"ĠBE":13429,"Ġtit":13430,"ĠAlan":13431,"ĠKH":13432,"ĠPlains":13433,"Excellent":13434,"Cardio":13435,"ĠSimpson":13436,"ĠEpisode":13437,"Auckland":13438,"Diane":13439,"Lyn":13440,"ĠBag":13441,"Ġcat":13442,"Valid":13443,"ĠTechnical":13444,"Ġdisease":13445,"caboose":13446,"DOU":13447,"PAS":13448,"Ġ1933":13449,"ĠCardinals":13450,"1864":13451,"SAM":13452,"Ġmai":13453,"ILLA":13454,"rise":13455,"ategy":13456,"Ġprovisions":13457,"Ġvalidation":13458,"9031":13459,"ovak":13460,"Ġ1977":13461,"resolved":13462,"male":13463,"alta":13464,"cos":13465,"Alterations":13466,"RAD":13467,"Ġsimple":13468,"Ġrestart":13469,"iggins":13470,"oustic":13471,"vada":13472,"1860":13473,"Ġ1975":13474,"Stef":13475,"anted":13476,"ĠIndonesia":13477,"vijay":13478,"ĠInk":13479,"ĠNewcastle":13480,"LOCK":13481,"Billings":13482,"ĠFairfield":13483,"UA":13484,"ĠBed":13485,"1825":13486,"Marsh":13487,"SIS":13488,"ianne":13489,"Grund":13490,"PHIL":13491,"Potential":13492,"HelicalSequence":13493,"705":13494,"Ġsn":13495,"Ġ1932":13496,"Flint":13497,"Holiday":13498,"Ġaddition":13499,"pswich":13500,"ĠByr":13501,"ĠVern":13502,"Ġ1974":13503,"Ġeven":13504,"Ġdefines":13505,"ĠTelecom":13506,"Ġoffered":13507,"ku":13508,"ischer":13509,"adena":13510,"Ġsince":13511,"ĠOz":13512,"Ġ1972":13513,"Jacqu":13514,"pc":13515,"uM":13516,"2091":13517,"asi":13518,"ĠEth":13519,"Collins":13520,"Dog":13521,"JAN":13522,"map":13523,"ĠMID":13524,"ĠFoster":13525,"ĠHolyoke":13526,"1876":13527,"ondale":13528,"Ġreleased":13529,"RICH":13530,"SLR":13531,"uddersfield":13532,"ORGE":13533,"Thesis":13534,"Leslie":13535,"PUNT":13536,"ĠPak":13537,"ĠFramework":13538,"ĠLiverpool":13539,"Ġcentury":13540,"iram":13541,"Sha":13542,"Walker":13543,"Ridgefield":13544,"rate":13545,"ĠLN":13546,"opys":13547,"Platform":13548,"722020":13549,"ĠSerial":13550,"ĠISLAND":13551,"BLAYTON":13552,"721030":13553,"ĠGrass":13554,"NOV":13555,"722030":13556,"722090":13557,"Doc":13558,"vo":13559,"865":13560,"HART":13561,"Brittany":13562,"ancelled":13563,"Nad":13564,"ĠPers":13565,"umen":13566,"roups":13567,"SYSTE":13568,"utchinson":13569,"ĠIncludes":13570,"107231":13571,"Domestic":13572,"ĠMulti":13573,"Ġsuperfamily":13574,"Esc":13575,"Nelson":13576,"anche":13577,"aling":13578,"onte":13579,"ipped":13580,"ĠBradley":13581,"Mack":13582,"Ġwrite":13583,"UCTT":13584,"019":13585,"Ira":13586,"Pen":13587,"kusen":13588,"ĠAst":13589,"imo":13590,"antucket":13591,"ENSE":13592,"Retail":13593,"QUI":13594,"Weather":13595,"ĠCharlton":13596,"Bench":13597,"Curve":13598,"ĠELECTRONICS":13599,"Ġunknown":13600,"TRY":13601,"ledge":13602,"Sao":13603,"film":13604,"Bayer":13605,"Bologna":13606,"Hi":13607,"qgg":13608,"ĠMoss":13609,"CDP":13610,"qggino":13611,"nis":13612,"ĠTEL":13613,"Ġvillage":13614,"Ġlib":13615,"derabad":13616,"Ba":13617,"ĠMaharashtra":13618,"ENTER":13619,"accepted":13620,"Easton":13621,"Noblesville":13622,"gon":13623,"ĠCAT":13624,"Ġbank":13625,"Control":13626,"850":13627,"Kill":13628,"Vocal":13629,"lia":13630,"appy":13631,"Ġvariety":13632,"HorrorScope":13633,"lang":13634,"ahy":13635,"Willie":13636,"ĠCircle":13637,"Curtis":13638,"Susp":13639,"ĠMC":13640,"ebe":13641,"OSHI":13642,"ĠBeaver":13643,"Cob":13644,"Sud":13645,"Togg":13646,"eine":13647,"anth":13648,"058":13649,"Spect":13650,"ĠContact":13651,"Alberta":13652,"Sus":13653,"Yes":13654,"words":13655,"reb":13656,"Jud":13657,"Ky":13658,"Kon":13659,"ĠMoody":13660,"ĠWy":13661,"1868":13662,"UNI":13663,"Exeter":13664,"ambliss":13665,"Aw":13666,"mons":13667,"ĠEAST":13668,"Ġ883":13669,"ullah":13670,"ĠBlade":13671,"Residential":13672,"Ġqualif":13673,"MW":13674,"ĠCHE":13675,"ĠMaterial":13676,"ĠRush":13677,"iba":13678,"Rapid":13679,"Ġpeople":13680,"SIN":13681,"near":13682,"DEBATE":13683,"Contra":13684,"Helen":13685,"Manitoba":13686,"Wounded":13687,"ged":13688,"ĠSens":13689,"ĠTUR":13690,"ĠNg":13691,"gether":13692,"omez":13693,"Perpetual":13694,"80000":13695,"erk":13696,"ĠKam":13697,"mini":13698,"ribosomal":13699,"ĠParty":13700,"Guest":13701,"Ġdepend":13702,"ĠRace":13703,"Grace":13704,"Ġflag":13705,"Ġmanual":13706,"MSTR":13707,"ĠMANA":13708,"rose":13709,"ĠDISP":13710,"ubiqu":13711,"eptidase":13712,"ulfur":13713,"Ġproducing":13714,"keepsie":13715,"Tex":13716,"edge":13717,"icity":13718,"Plate":13719,"Afghanistan":13720,"CULVER":13721,"Hershey":13722,"det":13723,"igs":13724,"ĠProperty":13725,"Adelaide":13726,"ĠCoach":13727,"oughkeepsie":13728,"IEW":13729,"Ġrequire":13730,"Baker":13731,"Ntt":13732,"ĠDow":13733,"Ġhold":13734,"Ġclone":13735,"Ġlisted":13736,"islative":13737,"Diana":13738,"Hills":13739,"ĠHus":13740,"ysteine":13741,"Scheduled":13742,"Caterham":13743,"DN":13744,"Mitch":13745,"ĠDoll":13746,"Jackie":13747,"Beaumont":13748,"Kelsey":13749,"Ġear":13750,"ĠLinda":13751,"ĠDOUBLE":13752,"CEUT":13753,"Ident":13754,"ĠMANAGE":13755,"Sov":13756,"Tier":13757,"ĠRu":13758,"PhD":13759,"Ġinterfaces":13760,"Ġattached":13761,"ĠMontgomery":13762,"Jazz":13763,"band":13764,"non":13765,"ĠChambliss":13766,"USTRI":13767,"Carrboro":13768,"ĠBishop":13769,"ĠTracy":13770,"iec":13771,"Ġdc":13772,"amba":13773,"Slash":13774,"088":13775,"orning":13776,"Resolved":13777,"ĠJeffrey":13778,"Ġperformed":13779,"Ġneeded":13780,"Aircraft":13781,"Sierra":13782,"Shipping":13783,"ĠCoordin":13784,"Ġapproxim":13785,"ĠVictoria":13786,"ĠBromwich":13787,"Ġdue":13788,"Gujarat":13789,"Ġpackets":13790,"WHITTIER":13791,"ĠMot":13792,"ĠHi":13793,"ĠGolf":13794,"Ġstat":13795,"ĠAlv":13796,"ĠHarvard":13797,"Ġcollect":13798,"ammy":13799,"Ġmic":13800,"Ġ1961":13801,"quakes":13802,"Cly":13803,"top":13804,"ERESIS":13805,"ĠChicopee":13806,"Google":13807,"rogue":13808,"case":13809,"ĠDillon":13810,"ĠKil":13811,"WORKS":13812,"ĠLancashire":13813,"Terr":13814,"illard":13815,"iko":13816,"Ġquick":13817,"Ġdelivery":13818,"50000":13819,"Kos":13820,"ĠTree":13821,"emann":13822,"Ġlot":13823,"Ġplayer":13824,"anoke":13825,"Technical":13826,"Midfielder":13827,"ĠOxford":13828,"Halifax":13829,"Julia":13830,"ĠIrish":13831,"+/":13832,"MVN":13833,"jas":13834,"kers":13835,"ĠHose":13836,"Marussia":13837,"Ġmer":13838,"ĠUniv":13839,"ĠComplete":13840,"Granville":13841,"Nhl":13842,"Pull":13843,"ĠMiami":13844,"ĠTAX":13845,"ĠMagic":13846,"Edit":13847,"Rfw":13848,"Ġpublish":13849,"Ġcal":13850,"Shah":13851,"Ġeas":13852,"optional":13853,"Poughkeepsie":13854,"kowski":13855,"Ġturn":13856,"orno":13857,"Contains":13858,"Message":13859,"Ġfluor":13860,"CUS":13861,"erton":13862,"ĠPitts":13863,"ĠJO":13864,"Ġ82":13865,"arium":13866,"untime":13867,"Granada":13868,"Bronx":13869,"cogene":13870,"pear":13871,"Ġsubject":13872,"Accept":13873,"Faisal":13874,"Krys":13875,"Wend":13876,"Ġdele":13877,"Ġ83":13878,"quires":13879,"RAND":13880,"Sayre":13881,"ĠBrist":13882,"Ġdepos":13883,"ĠCinem":13884,"enguins":13885,"Sebastian":13886,"Ġ104":13887,"ĠAriz":13888,"Ġconfig":13889,"idal":13890,"Pontiac":13891,"ĠAdventures":13892,"Cannon":13893,"Range":13894,"nh":13895,"ĠLIGHT":13896,"Ġdrop":13897,"Ġnonf":13898,"Sevilla":13899,"astop":13900,"ĠArmstrong":13901,"ĠPATENTS":13902,"aray":13903,"ĠSR":13904,"NYJ":13905,"ocompatibility":13906,"Ġinsulating":13907,"Ġconditions":13908,"cock":13909,"ĠMargaret":13910,"Ġtransistor":13911,"ĠBurton":13912,"Antwerp":13913,"pellier":13914,"CRA":13915,"Six":13916,"TUR":13917,"status":13918,"uru":13919,"Edm":13920,"Ġextract":13921,"istocompatibility":13922,"Cheryl":13923,"ushi":13924,"ĠMOB":13925,"madison":13926,"Meat":13927,"Topeka":13928,"yes":13929,"ĠCapt":13930,"Ellen":13931,"FER":13932,"Goat":13933,"dependent":13934,"ued":13935,"Ġthose":13936,"errill":13937,"ĠQual":13938,"ĠDogs":13939,"allis":13940,"Ġ203":13941,"----":13942,"ĠCARON":13943,"orate":13944,"FXO":13945,"Aly":13946,"look":13947,"Common":13948,"FU":13949,"Indust":13950,"IFIC":13951,"Ġgroups":13952,"Working":13953,"ĠReference":13954,"ĠGilbert":13955,"ĠMINNESOTA":13956,"isia":13957,"ĠStart":13958,"TEST":13959,"ĠBarr":13960,"odium":13961,"Amar":13962,"BOX":13963,"Carlisle":13964,"ĠSussex":13965,"ĠRaj":13966,"BERG":13967,"Ġjanv":13968,"Yukon":13969,"GAL":13970,"alke":13971,"Ġfab":13972,"ĠMETHODS":13973,"ĠAssociates":13974,"FORMATION":13975,"ĠSPRINGS":13976,"last":13977,"tor":13978,"thouse":13979,"590":13980,"ĠAdministration":13981,"ĠBarrett":13982,"ĠDIAERESIS":13983,"bol":13984,"cap":13985,"087":13986,"usement":13987,"INO":13988,"Inf":13989,"MBER":13990,"Ġoccurs":13991,"Ġsym":13992,"083":13993,"ĠJar":13994,"udad":13995,"Flo":13996,"Room":13997,"ĠBrent":13998,"ĠEarthquakes":13999,"858":14000,"IB":14001,"Ġlab":14002,"Stockton":14003,"Ġproducts":14004,"Wellington":14005,"725":14006,"Mex":14007,"ĠFour":14008,"075":14009,"antown":14010,"Ġgreat":14011,"pty":14012,"Marietta":14013,"Quick":14014,"CKARD":14015,"Sayreville":14016,"madisonrogue":14017,"strom":14018,"ĠLiving":14019,"allow":14020,"Ġresin":14021,"merg":14022,"ybrid":14023,"REN":14024,"Ġdeg":14025,"Ġdriver":14026,"17500":14027,"ĠKaren":14028,"ificate":14029,"Ġpacket":14030,"ĠINDUSTRI":14031,"Lang":14032,"yrosine":14033,"ĠYellow":14034,"Montpellier":14035,"nyder":14036,"Ġpresented":14037,"Slovakia":14038,"Mitt":14039,"Sell":14040,"Ġbreak":14041,"ĠModel":14042,"ĠSIL":14043,"ĠMnchen":14044,"ovic":14045,"aze":14046,"ĠCharlotte":14047,"Santiago":14048,"ĠOd":14049,"anto":14050,"ĠDurastop":14051,"ucci":14052,"ĠCurtis":14053,"ĠBoo":14054,"amic":14055,"ĠWarren":14056,"ĠHav":14057,"Westbury":14058,"ANDER":14059,"arning":14060,"haust":14061,"ĠHorse":14062,"ĠMicrosoft":14063,"mode":14064,"used":14065,"ristown":14066,"Ban":14067,"batter":14068,"OSH":14069,"patrick":14070,"Sir":14071,"ĠBit":14072,"Ġcpe":14073,"Stub":14074,"acht":14075,"annie":14076,"Ġshows":14077,"Ġclasses":14078,"2121":14079,"Hampshire":14080,"VAR":14081,"ĠLynch":14082,"ogan":14083,"ĠStudy":14084,"Professor":14085,"NOTE":14086,"ĠES":14087,"Ġdrawing":14088,"Ġdriving":14089,"stingray":14090,"ĠDro":14091,"acell":14092,"oya":14093,"Ġshared":14094,"AAPL":14095,"ITCH":14096,"obby":14097,"anni":14098,"ĠOliver":14099,"9021":14100,"UW":14101,"ĠCP":14102,"ĠCash":14103,"ĠHas":14104,"Ġaggreg":14105,"ĠEns":14106,"Ġhandle":14107,"Laughlin":14108,"Cup":14109,"Has":14110,"ĠJam":14111,"ORS":14112,"Moder":14113,"ĠProvided":14114,"acetyl":14115,"Based":14116,"ĠCouncil":14117,"Ġfive":14118,"EMPLOY":14119,"length":14120,"orable":14121,"ĠPS":14122,"ĠWas":14123,"egu":14124,"tele":14125,"!\"":14126,"97500":14127,"Boss":14128,"RPM":14129,"thal":14130,"rocery":14131,"Mason":14132,"iders":14133,"Ġprocesses":14134,"Ġproduction":14135,"RN":14136,"Ġnit":14137,"ranspar":14138,"ILAB":14139,"mdel":14140,"ifying":14141,"Lebanon":14142,"ĠTerm":14143,"FLEX":14144,"Move":14145,"Oracle":14146,"ripts":14147,"1837":14148,"Community":14149,"Tes":14150,"xz":14151,"2051":14152,"atte":14153,"ĠPiz":14154,"ĠButter":14155,"Ġsurf":14156,"ergus":14157,"Ġenable":14158,"HARRIS":14159,"Ġfiled":14160,"Rosemont":14161,"Lazio":14162,"Cool":14163,"Address":14164,"044":14165,"ĠWAR":14166,"1831":14167,"Ġsecondary":14168,"ounsel":14169,"Holmdel":14170,"Ġmolecule":14171,"ĠMi":14172,"ĠMCL":14173,"uge":14174,"Ġprofile":14175,"orean":14176,"587":14177,"ylinder":14178,"ĠElf":14179,"ĠHotel":14180,"Ġherein":14181,"520":14182,"BAT":14183,"eun":14184,"Ġhis":14185,"Info":14186,"ĠRequired":14187,"Ġ(%)":14188,"ĠNeeds":14189,"ĠMarkets":14190,"Brooks":14191,"apeut":14192,"\"\\\"\"":14193,"Yak":14194,"foul":14195,"ĠHull":14196,"038":14197,"agli":14198,"Ġ419":14199,"ĠBryan":14200,"\\\"\"\"":14201,"\"\\\"\"\\\"\"\"":14202,"Mecklenburg":14203,"ĠLT":14204,"Roanoke":14205,"Param":14206,"Ice":14207,"Tre":14208,"kirk":14209,"ĠWend":14210,"566":14211,"series":14212,"GAN":14213,"ilene":14214,"Ġ86":14215,"Joey":14216,"ĠProvince":14217,"Ġprinted":14218,"color":14219,"jandro":14220,"icia":14221,"hew":14222,"ĠKin":14223,"Stl":14224,"Store":14225,"onner":14226,"...)":14227,"ĠSOLUTION":14228,"PRE":14229,"hm":14230,"ĠPierre":14231,"enta":14232,"Ġcar":14233,"ĠJenn":14234,"ieri":14235,"ĠRepl":14236,"flu":14237,"asing":14238,"ĠStra":14239,"ĠDiv":14240,"ĠNou":14241,"Ġbunted":14242,"berly":14243,"Alfred":14244,"oken":14245,"ĠShah":14246,"Introduction":14247,"UKR":14248,"Nonfarm":14249,"Monterey":14250,"Emmett":14251,"Lav":14252,"ĠFest":14253,"istration":14254,"Change":14255,"ĠBarn":14256,"ĠConverter":14257,"ĠBritish":14258,"Bondio":14259,"Soviet":14260,"Supp":14261,"2029":14262,"arreal":14263,"ĠVac":14264,"ĠSharks":14265,"XP":14266,"Knight":14267,"ĠRecreation":14268,"grounds":14269,"ĠWhitec":14270,"ĠDIST":14271,"stadt":14272,"Pedro":14273,"inct":14274,"alan":14275,"Ethiopia":14276,"BRI":14277,"Jamaica":14278,"wmu":14279,"edon":14280,"ĠPOWER":14281,"ĠTool":14282,"ĠFerr":14283,"umo":14284,"ationship":14285,"Infin":14286,"Prod":14287,"ELLS":14288,"ĠPortland":14289,"Ġnonfinancial":14290,"CIT":14291,"ĠJUL":14292,"Ort":14293,"Eb":14294,"kc":14295,"Shoot":14296,"Ġclosed":14297,"Ġjust":14298,"robat":14299,"Cab":14300,"bh":14301,"ĠPath":14302,"ĠLan":14303,"inea":14304,"ĠAssy":14305,"Viewing":14306,"ĠHTML":14307,"627":14308,"Bast":14309,"MORGAN":14310,"dj":14311,"eria":14312,"ĠBir":14313,"ĠJordy":14314,"ackle":14315,"Antonio":14316,"ĠAlt":14317,"3071":14318,"Serbia":14319,"Chang":14320,"uguay":14321,"itin":14322,"ĠNicholas":14323,"1869":14324,"ĠMarin":14325,"Robinson":14326,"Ġconcepts":14327,"Board":14328,"Ġfavor":14329,"ĠHod":14330,"Ġgood":14331,"ĠUr":14332,"flow":14333,"filter":14334,"ĠEtienne":14335,"XMLE":14336,"ĠWeekly":14337,"ĠBristol":14338,"Ġfocus":14339,"ĠVegan":14340,"RESOL":14341,"Mot":14342,"mir":14343,"ĠGay":14344,"AMERICA":14345,"plt":14346,"Spirit":14347,"ETA":14348,"ropic":14349,"ĠRicky":14350,"Ġda":14351,"Ġupdated":14352,"avenport":14353,"Ġfunctions":14354,"Ll":14355,"pg":14356,"ĠSou":14357,"ĠCamb":14358,"ĠBrighton":14359,"ĠGRE":14360,"ĠJEFF":14361,"ersen":14362,"plus":14363,"564":14364,"clusion":14365,"ategories":14366,"ipset":14367,"ĠMICHIGAN":14368,"AI":14369,"Server":14370,"wing":14371,"charge":14372,"Alt":14373,"Ġrepeat":14374,"FK":14375,"Ker":14376,"TK":14377,"1099":14378,"56250":14379,"MILL":14380,"ĠPowell":14381,"ĠBab":14382,"orders":14383,"seud":14384,"571":14385,"URI":14386,"Official":14387,"VENT":14388,"ĠBridg":14389,"indenture":14390,"Ġphoto":14391,"Swimm":14392,"FRE":14393,"WARE":14394,"ĠBurg":14395,"Ġcycl":14396,"Ġbranch":14397,"Splash":14398,"515":14399,"ugues":14400,"enden":14401,"Ames":14402,"ĠClient":14403,"incy":14404,"McCle":14405,"Ġcharacterized":14406,"Ace":14407,"Kit":14408,"ĠThese":14409,"Fulham":14410,"ĠTeacher":14411,"Ġexecution":14412,"ĠSaxony":14413,"JUD":14414,"ĠBoulder":14415,"uga":14416,"ĠPorter":14417,"Ġchemistry":14418,"53750":14419,"brough":14420,"ĠCass":14421,"ĠMUL":14422,"Ġcrystal":14423,"ĠHarbor":14424,"Ġ1925":14425,"Brand":14426,"ĠRecovery":14427,"Demonstration":14428,"ĠDeadline":14429,"ĠLeadership":14430,"ĠGENERAL":14431,"ĠEDWARD":14432,"rex":14433,"Monaco":14434,"ysql":14435,"PHA":14436,"WATER":14437,"inas":14438,"ctic":14439,"51250":14440,"PIN":14441,"SEC":14442,"ERA":14443,"etto":14444,"Ġregul":14445,"Ġdomains":14446,"bee":14447,"omfield":14448,"Ġcatalyst":14449,"Pottery":14450,"Sony":14451,"erie":14452,"ĠBELL":14453,"ĠLarge":14454,"Ġcart":14455,"ackville":14456,"BAY":14457,"Ġglass":14458,"Hofstra":14459,"bel":14460,"ĠPed":14461,"ĠBrazil":14462,"ĠThunder":14463,"48750":14464,"IFE":14465,"lectric":14466,"Capcom":14467,"WJCC":14468,"811":14469,"MAL":14470,"high":14471,"unes":14472,"Ġwant":14473,"95000":14474,"KEY":14475,"ĠtestXMLToObjectFromXMLStream":14476,"cytochrome":14477,"XMLEvent":14478,"ĠtestXMLToObjectFromXMLStreamReader":14479,"Rey":14480,"Shake":14481,"Ciudad":14482,"Cottage":14483,"Hab":14484,"20121201":14485,"1833":14486,"ocating":14487,"Ġlat":14488,"ĠWAY":14489,"ĠWhitecaps":14490,"MH":14491,"PASS":14492,"Wel":14493,"bot":14494,"yers":14495,"ĠHank":14496,"46250":14497,"Process":14498,"rows":14499,"DAY":14500,"ĠTERMINATION":14501,"Pay":14502,"ĠSMS":14503,"ĠMul":14504,"etan":14505,"ĠNi":14506,"ROS":14507,"Ġschool":14508,"haskell":14509,"Ġtouch":14510,"ĠDATA":14511,"ELOP":14512,"Ġhole":14513,"570":14514,"Cooper":14515,"RANT":14516,"Ġdetected":14517,"ĠFlores":14518,"RailWizard":14519,"neg":14520,"02500":14521,"ORADO":14522,"Still":14523,"Ġoncogene":14524,"Speed":14525,"ĠVegetarian":14526,"urchase":14527,"ĠPerrott":14528,"ĠRoger":14529,"089":14530,"Battle":14531,"Mit":14532,"avut":14533,"Manager":14534,"Default":14535,"Ġbackground":14536,"Ġstudy":14537,"FLAQ":14538,"Ġampl":14539,"Overton":14540,"Explore":14541,"ĠSplash":14542,"voor":14543,"Ġoil":14544,"ĠLarry":14545,"Ġinject":14546,"3022":14547,"reyer":14548,"Donna":14549,"Je":14550,"ĠStream":14551,"Ġthreshold":14552,"otton":14553,"ĠEngine":14554,"Ġsegment":14555,"540":14556,"Ivan":14557,"life":14558,"Ġcomb":14559,"Ġinterval":14560,"Railroad":14561,"875":14562,"EPS":14563,"Esk":14564,"Ġwire":14565,"ĠKal":14566,"Ġareas":14567,"loo":14568,"Ġreflect":14569,"Ġpool":14570,"hee":14571,"Ġmaps":14572,"ogleg":14573,"Inside":14574,"Urban":14575,"NIAG":14576,"Jam":14577,"ĠMoto":14578,"ĠMHz":14579,"1600":14580,"essert":14581,"ĠCONFIR":14582,"ĠPursuant":14583,"Ġports":14584,"ĠOkla":14585,"ITS":14586,"ĠWhat":14587,"209040":14588,"ALTADENA":14589,"rine":14590,"ĠMand":14591,"ĠFast":14592,"Ġtables":14593,"25000":14594,"ĠAndy":14595,"ĠBrandon":14596,"jetxx":14597,"5000":14598,"Tax":14599,"1357":14600,"icki":14601,"Ġdiscover":14602,"ĠELECTION":14603,"ĠSecret":14604,"Ġsupplies":14605,"Ġissues":14606,"60000":14607,"ĠLanguage":14608,"Ġbal":14609,"ĠGermain":14610,"ĠKel":14611,"REW":14612,"ĠSpa":14613,"ought":14614,"Ġemail":14615,"ĠWallace":14616,"Tab":14617,"bij":14618,"ĠMach":14619,"ĠPodcast":14620,"illed":14621,"ĠMonster":14622,"Information":14623,"Ġrecognition":14624,"ĠHighlands":14625,"ĠHatfield":14626,"Cord":14627,"icycle":14628,"idan":14629,"avia":14630,"Chair":14631,"Ġ87":14632,"47500":14633,"Ġcla":14634,"Ġcluster":14635,"Switch":14636,"Ġproceedings":14637,"Gerald":14638,"Ġutil":14639,"ĠTHERE":14640,"9041":14641,"CHUN":14642,"Buenos":14643,"JACKSON":14644,"KIA":14645,"UX":14646,"Ġage":14647,"ĠThu":14648,"amsung":14649,"cycl":14650,"ĠBerlin":14651,"LED":14652,"Voice":14653,"Ġbio":14654,"Allison":14655,"ĠQC":14656,"ĠDEVELOP":14657,"Backend":14658,"hn":14659,"ĠMak":14660,"ĠLink":14661,"ĠFilter":14662,"Buy":14663,"WIL":14664,"ĠRc":14665,"ELS":14666,"Ġgrade":14667,"057":14668,"ĠInhib":14669,"ĠSnow":14670,"Ġhardware":14671,"isf":14672,"1001":14673,"Ġfalse":14674,"Ġcourse":14675,"atti":14676,"ortster":14677,"Trust":14678,"VERT":14679,"oglegroups":14680,"655":14681,"8099":14682,"Denton":14683,"Gs":14684,"KAT":14685,"wal":14686,"ĠWinter":14687,"quist":14688,"ĠInch":14689,"oyer":14690,"ĠQuad":14691,"Ġregard":14692,"Ġbackup":14693,"ĠLucas":14694,"ĠLiturgical":14695,"ĠSOLUTIONS":14696,"server":14697,"ilyn":14698,"indy":14699,"Ġcontrolling":14700,"ĠExam":14701,"Response":14702,"Poster":14703,"Lip":14704,"stage":14705,"Ġfast":14706,"ĠIsaac":14707,"ĠMathematics":14708,"ĠInstruction":14709,"31250":14710,"Gas":14711,"rove":14712,"ĠPF":14713,"Ġauto":14714,"ickets":14715,"OTT":14716,"ĠXP":14717,"borne":14718,"Run":14719,"clean":14720,"ENI":14721,"Ġring":14722,"umbai":14723,"CUMENT":14724,"ĠHEALTH":14725,"ĠFreeman":14726,"projects":14727,"IHL":14728,"Tow":14729,"membrane":14730,"amer":14731,"ssa":14732,"ĠMcCar":14733,"ĠIndiana":14734,"Ġhighway":14735,"ORGIA":14736,"ĠElectronics":14737,"535":14738,"Line":14739,"ettstown":14740,"WIP":14741,"ĠMcK":14742,"Belarus":14743,"amples":14744,"ĠPerrotto":14745,"cia":14746,"Ġpotential":14747,"ĠNAS":14748,"082":14749,"ĠHell":14750,"Ġland":14751,"MANY":14752,"Ġgooglegroups":14753,"Ġligand":14754,"825":14755,"oura":14756,"ĠBattle":14757,"ĠDw":14758,"Ġpatch":14759,"zyme":14760,"ĠActivities":14761,"511":14762,"Murray":14763,"WILMINGTON":14764,"bk":14765,"vro":14766,"Ġaot":14767,"Ġ2389":14768,"ribes":14769,"JUDGE":14770,"ĠDiaz":14771,"essionals":14772,"IMA":14773,"uca":14774,"ĠExper":14775,"ĠGlass":14776,"plicate":14777,"ĠDhaka":14778,"ĠLeafs":14779,"ovakia":14780,"EMPLOYERS":14781,"JM":14782,"Kurt":14783,"Chico":14784,"Ġsupports":14785,"ĠProcessing":14786,"ĠNa":14787,"Ġsynchron":14788,"ĠHy":14789,"Ġnews":14790,"Warwickshire":14791,"Fa":14792,"Ġvers":14793,"ĠPrinceton":14794,"ĠKnow":14795,"Gilbert":14796,"RESOLVED":14797,"Count":14798,"Jol":14799,"hampton":14800,"kb":14801,"077":14802,"Ġpump":14803,"Ġsurn":14804,"iman":14805,"ĠPlaza":14806,"604066":14807,"Workshop":14808,"BJ":14809,"ĠRutherford":14810,"Ġmold":14811,"ategor":14812,"serine":14813,"Personality":14814,"Hardcopy":14815,"Saskatchewan":14816,"Abs":14817,"BF":14818,"Sound":14819,"TRI":14820,"Term":14821,"adri":14822,"unix":14823,"oro":14824,"ĠFantasy":14825,"shipping":14826,"veau":14827,"TENSION":14828,"Ġdetecting":14829,"fd":14830,"ĠBeg":14831,"ĠLess":14832,"ĠHockanum":14833,"epper":14834,"Adams":14835,"ĠAccount":14836,"Chesterfield":14837,"Hrvats":14838,"Nice":14839,"Waco":14840,"Ġ106":14841,"ĠPUR":14842,"iburg":14843,"PHP":14844,"Abilene":14845,"ĠVanderbilt":14846,"ĠSymphony":14847,"Mario":14848,"ĠJudge":14849,"ĠSales":14850,"Ġcommunity":14851,"ewell":14852,"Spart":14853,"indon":14854,"yline":14855,"Ġresistance":14856,"ĠLeverkusen":14857,"Parma":14858,"ĠKer":14859,"ĠCarol":14860,"ĠRecomm":14861,"Roman":14862,"43750":14863,"Fion":14864,"Ho":14865,"Hur":14866,"Lu":14867,"ĠPresent":14868,"ĠLip":14869,"azion":14870,"errick":14871,"uctase":14872,"Ġsolid":14873,"Campus":14874,"502":14875,"71250":14876,"Nantes":14877,"Sett":14878,"zeg":14879,"ĠLOU":14880,"ĠGir":14881,"ĠVIRGINIA":14882,"ieu":14883,"TEMP":14884,"ĠPhoto":14885,"Baseball":14886,"Bradford":14887,"955":14888,"CER":14889,"EIG":14890,"LEN":14891,"MESC":14892,"ateur":14893,"ĠHwy":14894,"Elk":14895,"Ġmonoc":14896,"Lucas":14897,"KK":14898,"elyn":14899,"ĠAUT":14900,"Ġsat":14901,"ĠJets":14902,"igible":14903,"ndale":14904,"7400":14905,"Basic":14906,"Magic":14907,"Jorge":14908,"076":14909,"ĠVIII":14910,"Defense":14911,"Udinese":14912,"Tube":14913,"unte":14914,"ĠLafayette":14915,"ĠGomez":14916,"ective":14917,"CHESTER":14918,"LINK":14919,"alytic":14920,"chemical":14921,"from":14922,"ĠSummit":14923,"ĠTucker":14924,"Ġtrigger":14925,"ĠDark":14926,"agment":14927,"Chandler":14928,"Pra":14929,"ĠIan":14930,"NYSE":14931,"encies":14932,"Debbie":14933,"Ġradio":14934,"ĠVincent":14935,"Ġ1962":14936,"563":14937,"itorium":14938,"acellular":14939,"UMP":14940,"otive":14941,"UTHERN":14942,"FGA":14943,"aran":14944,"ĠHunt":14945,"ĠJess":14946,"immer":14947,"ĠVen":14948,"Ġnortheast":14949,"onfiguration":14950,"weg":14951,"Ġtyrosine":14952,"072":14953,"ĠLion":14954,"ĠRotherham":14955,"Ġscript":14956,"ĠSchools":14957,"imensional":14958,"VP":14959,"ĠSau":14960,"unningham":14961,"axter":14962,"ĠAssisted":14963,"BAND":14964,"Katherine":14965,"acco":14966,"Ġ1963":14967,"Ġprocedure":14968,"Hrvatska":14969,"Jenny":14970,"ĠTre":14971,"ete":14972,"ĠWear":14973,"shine":14974,"Shirley":14975,"olla":14976,"Calc":14977,"utting":14978,"ĠAustria":14979,"ĠBrewer":14980,"auty":14981,"vs":14982,"esium":14983,"ĠBuffer":14984,"olocation":14985,"unthorpe":14986,"ĠWhe":14987,"Ġdielectric":14988,"Ocala":14989,"Memory":14990,"Ġ..":14991,"ĠPatterson":14992,"ĠDunn":14993,"Ġspe":14994,"Ġ1948":14995,"Operating":14996,"ĠMessenger":14997,"Hancock":14998,"Ġfan":14999,"ĠAdv":15000,"zel":15001,"ĠSaw":15002,"ĠTP":15003,"ĠTwo":15004,"Ġfail":15005,"069":15006,"ĠLou":15007,"NYG":15008,"Ġspecial":15009,"Outstanding":15010,"Villanova":15011,"Veeba":15012,"Sass":15013,"bers":15014,"095":15015,"owitz":15016,"107240":15017,"106240":15018,"Ġdiscl":15019,"Splish":15020,"VERSITY":15021,"Swimmers":15022,"Wau":15023,"adev":15024,"Ġtree":15025,"Ġsem":15026,"23750":15027,"Flushing":15028,"Color":15029,"Anim":15030,"772":15031,"Frances":15032,"GRAPH":15033,"93750":15034,"Lansing":15035,"ĠPublish":15036,"Ġmeeting":15037,"EVER":15038,"Uruguay":15039,"Ring":15040,"ĠTol":15041,"olate":15042,"onga":15043,"Ġability":15044,"Temple":15045,"istone":15046,"ĠVernon":15047,"RG":15048,"ĠFUND":15049,"ĠChampionship":15050,"ĠReaper":15051,"ĠLamb":15052,"ĠHur":15053,"LV":15054,"ture":15055,"included":15056,"1125":15057,"ĠPot":15058,"Ġmargin":15059,"673":15060,"ĠNorthern":15061,"Courtney":15062,"508":15063,"SJ":15064,"Vanguard":15065,"ĠDob":15066,"ichron":15067,"Deutsch":15068,"Ġparallel":15069,"Fairfax":15070,"ĠSingh":15071,"gorith":15072,"ĠTransport":15073,"ĠJSON":15074,"ALLS":15075,"Dana":15076,"ĠHardware":15077,"GHWA":15078,"eunichron":15079,"Develop":15080,"KU":15081,"usa":15082,"OMY":15083,"icopa":15084,"Ġsilicon":15085,"21250":15086,"ĠClement":15087,"ician":15088,"ilio":15089,"ĠPCI":15090,"ĠRafael":15091,"ĠRichmond":15092,"81250":15093,"1024":15094,"Ġbuilding":15095,"Ġnodes":15096,"ĠWatchESPN":15097,"ĠHolmes":15098,"utesbury":15099,"CHUNGHWA":15100,"ĠWatchESPNFinal":15101,"Ford":15102,"ivot":15103,"Brendan":15104,"ĠConway":15105,"Ġcreating":15106,"ascript":15107,"ĠLauren":15108,"OUSLY":15109,"ĠEffect":15110,"Ġcomposite":15111,"862":15112,"Sales":15113,"ĠEXTENSION":15114,"EI":15115,"PLA":15116,"ĠRange":15117,"Ġcould":15118,"Creates":15119,"zt":15120,"ĠPen":15121,"ĠPedro":15122,"ĠGet":15123,"ERI":15124,"occ":15125,"Ġlip":15126,"iele":15127,"ĠRoth":15128,"Ġsoutheast":15129,"Ġtraffic":15130,"ighton":15131,"otti":15132,"ĠIntl":15133,"Burgettstown":15134,"745":15135,"Driver":15136,"EAST":15137,"alers":15138,"rief":15139,"Ġshe":15140,"ĠGul":15141,"ucible":15142,"orset":15143,"einstein":15144,"Ġmaterials":15145,"Replaces":15146,"Safari":15147,"ZF":15148,"joy":15149,"entin":15150,"integer":15151,"567":15152,"76250":15153,"ĠNortheastern":15154,"ĠCONTROL":15155,"Series":15156,"afer":15157,"ĠDortmund":15158,"073":15159,"Ġ1937":15160,"borg":15161,"ĠSUB":15162,"ĠDuncan":15163,"propane":15164,"KAL":15165,"PVT":15166,"2042":15167,"ĠCAMP":15168,"SBN":15169,"ĠAttempt":15170,"quarterly":15171,"ĠCAROLINA":15172,"ĠDom":15173,"Ġparks":15174,"ĠGut":15175,"ĠSCI":15176,
[...]
