#version: 0.2 - Trained by `huggingface/tokenizers`
2 0
20 1
e r
o n
i n
a n
a t
a r
o r
e n
e s
" "
Ġ S
Ġ 1
a l
t h
e d
l e
Ġ C
a s
i c
a y
i s
e l
Ġ A
20 0
1 9
o u
Ġ M
1 0
r e
201 5
Ġ 2
i t
0 0
in g
i l
r o
a m
i on
1 1
Ġ P
c t
201 2
s t
Ġ T
a d
en t
201 3
c h
1 2
an d
o m
Ġ F
Ġ B
o l
Ġ f
ĠS t
Ġ t
Ġ R
Ġ D
Ġ th
r i
e t
0 7
u r
Ġ p
u n
d ay
201 4
o t
Ġ o
0 6
Ġ (
0 5
Ġ N
u l
Ġ s
Ġth e
0 4
Ġ W
Ġ L
Ġ c
i d
0 8
at e
Ġ a
Ġ I
Ġo f
0 9
201 1
Ġ b
Ġ H
0 3
0 1
0 2
1 5
Ġt o
1 8
e p
u m
e c
at ion
Ġ d
1 3
a c
o s
1 4
Ġ G
Ġ J
o v
Ġ in
h e
Ġ E
p r
e m
3 0
Ġ O
i r
Ġ 200
M ar
i g
2 5
a g
er s
1 7
Ġ -
u s
e b
e w
1 6
2 4
i v
o w
Ġ and
a b
201 0
l y
O R
i m
2 3
es t
Ġ w
Ġ m
2 7
2 6
2 9
o d
Ġ V
Ġ1 9
i a
e ar
Ġ 3
I N
or t
E R
2 8
a p
Ġ v
A pr
2 2
e x
c e
O N
es s
o c
u t
or m
2 1
U n
m ent
a v
C A
al l
e v
u g
Ġ K
t er
n d
t on
il l
A S
S ep
. "
Ġ n
Ġ l
el l
b er
O ct
19 9
Ġ 2015
k e
Ġ 4
S t
an t
e ct
A N
E S
it y
i f
N ov
ad i
3 1
s on
ar t
i el
Ġ 5
is t
C h
o p
r a
A T
ic h
in e
en d
ar d
Ġ y
ou t
adi um
E N
r an
ĠSt adium
200 9
on t
i p
f f
e g
A R
es day
ac k
u b
iel d
Ġ1 0
F eb
E L
ou th
A L
U S
on d
as e
Ġ1 5
Ġ Y
or d
as s
S I
i e
Ġ 8
N ew
M ay
a il
a h
v er
g e
R E
Ġ re
iv e
Ġ h
a in
Ġ 7
Ġy ear
u d
e e
Ġ1 2
Ġf or
ro m
Ġ 6
l and
C H
n t
i th
A M
l l
Ġp ro
ig h
il le
q u
p l
ab le
ar e
Ġ1 6
om p
ou r
G N
o g
I T
ĠSt ate
Ġyear s
ar k
Ġ on
as t
Ġ1 4
f orm
3 3
ĠI n
o b
I L
A ug
Ġb y
5 0
i o
Ġ 9
at ch
t e
N C
Ġ1 8
r es
S p
N Y
w n
D ec
J an
u st
SI GN
a k
J ul
Ġ1 3
p er
Ġ1 1
19 8
v ille
Ġ2 3
P A
4 5
Ġ 20
or k
S he
ic k
r y
Ġ1 7
s e
id e
ag e
am e
it ed
Ġ g
ar y
3 4
ul t
al e
or e
u c
is c
She a
ĠT h
T h
o h
Ġ 07
or th
Ġ Un
4 6
k l
4 7
Ġ 2013
Ġ2 1
C O
Ġ U
Ġ is
3 5
at es
T V
F L
Ġ 2012
u e
ur s
ot es
i re
at ed
J un
i al
E D
a ch
s h
3 7
m an
Ġ2 2
n g
ic e
u re
n e
p h
ĠC h
F R
3 6
en ce
as h
Ġf rom
or y
M O
F l
on s
i an
p p
i es
ul l
le y
ĠM on
4 8
3 9
L A
T ER
200 8
Ġ 2014
S at
S h
ail able
3 8
R O
I n
re e
i z
Ġ &
T X
ri v
is s
4 9
o od
A l
o st
S un
. .
E T
00 00
i b
a w
t s
Ġ an
ou nt
200 7
o k
a u
S T
3 2
A m
er n
4 0
ex t
u esday
ed n
in a
en s
Ġ st
on e
T he
edn esday
urs day
r ou
Ġw ith
g h
am p
om m
M I
em ber
i le
SIGN OR
19 7
oc k
ic ation
Ġv ot
om e
Ġ are
M A
Ġ200 9
ĠT he
ri day
an s
oh n
) "
Ġ at
W atch
Ġ19 9
as k
ĠSt ates
ing ton
Ġ r
O L
Ġb ase
Ġ2 7
Ġ2 6
ĠA S
r ic
in d
e ad
I S
ĠR o
Ġ2 8
Ġ or
ĠY ork
ur day
4 4
e f
ĠI N
r u
ir st
5 6
igh t
ĠS en
end ment
Ġ 06
Ġ out
Ġ 30
5 5
C l
th er
c l
ĠM an
IN G
Ġf orm
ort s
Ġ 0
is h
i am
Ġ 2011
C ol
u al
om a
EN T
Ġ2 9
Ġ ex
200 6
Watch ed
ow n
Ġ2 4
5 1
e le
S an
ĠC ar
b ur
at or
ĠC ity
ĠS un
ĠS c
5 7
in t
f ord
US A
M on
an c
ac e
6 7
4 1
5 8
en n
ct ion
S outh
4 3
riv ate
re et
Ġb e
Ġ 2010
L E
C T
at h
Ġf ield
ĠT uesday
Ġf irst
9 9
Ġ2 5
ĠTh ursday
ĠW ednesday
ĠP ro
p e
Ġn ame
t ion
f er
ĠMon day
ff ect
ĠC A
Ġv s
o x
O H
5 3
at t
M ich
ur n
s s
5 9
ĠSt reet
V A
AM E
ĠM ar
c ess
F B
ĠO F
e th
s p
ah oma
kl ahoma
Ġ200 8
ĠS at
b y
5 4
os ed
I C
ex as
i ew
ĠSun day
I A
u p
om b
S U
ĠA n
o y
O klahoma
k s
an g
a ct
W A
G re
Ġt ext
19 6
Ġ us
ĠA d
ĠP l
Ġc omp
ĠF riday
Ġa g
Ġw h
r ed
N V
ĠP ark
ent er
it e
ES T
200 5
an n
Ġform at
ĠF ree
ic al
4 2
wn er
ĠSat urday
ĠUn ited
f t
ĠA r
Ġd ate
th or
Ġ200 7
ro ll
P ro
L os
ol d
or n
ar l
5 2
ffect ive
8 6
ing le
P h
I ON
in al
L as
ĠV eg
C le
N orth
im e
A d
ĠC l
FR AME
U C
U R
Ġ 08
ou is
RE EL
AS SIGNOR
B r
I D
Ġ le
y st
is b
ation al
r ess
T exas
A n
v ailable
ĠS h
ig an
200 4
m outh
pl ication
ĠVeg as
an ce
av id
Ġvot ed
in n
ou se
j ect
an e
d er
in s
A r
est er
ig n
re g
9 0
i x
id a
U T
ĠS p
ĠF ield
form at
w ay
Ġp rivate
er v
7 5
ĠN otes
ĠRo ad
Ġth at
G A
ĠIn c
ĠN o
n otes
N A
00 0
isb n
6 6
at er
e y
l or
ing s
ec ond
p en
Ġ ass
h am
ri d
ag es
Ġ3 1
ay ment
al s
y l
I nd
a ke
e ch
ĠI NC
f ield
o ol
Y ear
Ġ200 6
it ion
M ENT
i ed
am a
Ġc ont
J ohn
S C
il d
7 8
r is
ĠA m
ĠE ffective
on g
et t
9 5
et er
ec if
O S
r al
i k
S e
art mouth
um b
R o
Un ited
in o
t t
ĠS A
ĠC O
T O
N E
omb in
Ġp ayment
ol ina
ount y
Ġ ch
ant a
on n
6 4
yst em
Ġ /
ter n
rou nd
ev el
Ġf ee
ou s
ĠC o
PA Y
W est
P M
ber t
at a
av ailable
6 2
c c
Ġ 09
Un available
F PAY
Mich igan
Q u
it t
Ġv al
Ġ ad
B l
au thor
i er
Ġ k
ĠMan ual
. ;
e al
. ,
ov er
L C
W in
in k
M S
Ġ 03
Ġp m
D avid
m in
ran s
reg on
6 5
cl ud
Ġb all
7 7
ĠR ep
l ic
ĠB l
8 8
O wner
n ot
10 0
200 3
M iss
ash ington
ĠC ounty
ers on
7 9
E C
Ġ am
A vailable
T N
st on
ap er
ON E
e or
U N
ot t
n o
Sp ell
A ust
A ct
form ation
am il
ĠIN TER
am es
6 8
ĠC ol
200 2
b ack
ĠSen ate
re am
ion s
y n
Ġ Z
t l
ĠJ un
Ġ e
en c
un d
ĠSc roll
O regon
Fl or
C ar
7 2
te in
ag o
ad a
7 0
or s
ow er
L ouis
a z
on a
ĠA l
6 0
200 0
ĠCar olina
6 9
R ead
n ew
P ort
Ġ ev
200 1
ou nd
in c
H ome
Ġ 04
it ch
R A
Ġag o
an k
l es
i ke
Ġ 01
ĠA ug
ire ct
ĠJ ul
Ġ 05
H I
M ult
ĠB e
F inal
od e
Ġs h
AS S
S c
Am endment
un n
Sp orts
bur g
d ress
a x
ill iam
ri gh
AT ION
Ġs p
a ir
ĠN Y
9 8
en er
ng el
or p
r ist
ay lor
ĠA N
c o
er t
M D
Ġ 02
H A
ep t
ĠINTER EST
Flor ida
er e
F ull
S E
ar i
ĠF ran
W ashington
Ġ as
ent al
u le
- -
Ġin clud
R I
e am
ip le
ĠE n
M en
h io
ar a
er y
M M
ĠS ch
m kl
re w
mkl z
S D
7 6
r am
O K
O T
OR P
ĠS T
8 0
W ant
Ġp l
W I
oc ation
O pen
m son
N J
Ġl ine
Ġs econd
ri ke
ĠA ver
Gre en
ĠO ct
er man
ĠN ight
ĠJ an
Ġin formation
ĠR e
ic ago
ond on
os e
D E
ĠI ll
le x
ou ri
r on
7 4
8 4
ĠF L
Ġ un
8 5
ĠN ov
ĠP RO
ĠL LC
on f
ES S
H O
ĠAS SIGN
F res
ĠD ec
Louis ville
ro d
P I
us s
u pp
rike out
od y
ĠAver ages
ir on
our ce
ĠM c
ons in
D ONE
E x
isc onsin
ĠASSIGN MENT
al k
iv er
on ent
y d
it s
it u
Sh el
6 3
C o
N ot
7 1
Cle mson
ĠO r
A D
F ran
St an
Ch icago
st rikeout
et s
ab ama
O hio
ec k
ĠNight ly
al t
ĠP M
a i
a el
ap plication
righ t
Ġ all
L SU
E d
O n
) ,
r ad
l o
ĠAS SIGNOR
Mult iple
8 3
ĠD O
ĠA ngel
A Z
ĠD artmouth
v iron
W isconsin
viron ment
ĠE d
G R
l ine
b s
id ence
M P
ĠB ro
omm un
A tl
ĠSen ator
er ic
7 3
M N
ol og
T H
Ġ200 5
.. .
iv ers
it or
E n
Miss ouri
Ġ X
ĠJ ohn
Al abama
a f
AN D
ĠASSIGNOR S
p osed
J ack
em ent
ĠM ay
y s
at ure
Ġcomp ut
ĠF eb
res ent
F ri
Fres no
Shel by
el s
ĠG u
p ort
8 7
Ġwh ich
ar s
ri b
ĠP aper
om en
Ġto wn
Ġ 00
on y
A B
r ing
I R
l in
Ġex per
T ot
ĠP A
o o
iam i
Ġ [
isc o
os s
ar b
M ale
at ing
i or
ot e
8 9
ic s
In s
ub lic
le t
UC LA
el and
an y
ĠT X
ic o
199 9
vironment al
Ġc ombin
Stan ford
L ondon
S A
M iami
l d
ut e
fer red
M an
ĠAngel es
uc k
h er
ĠN orth
L a
Ġ res
ate g
B A
G r
as ter
E ng
o ok
T E
on c
ri z
eth od
el ess
ĠA pr
ow s
B ro
g er
Los s
B aylor
Ġpro tein
ET TER
v ent
ĠM en
E l
ĠT ech
Ġs ystem
ĠA M
A ub
Ph il
v e
a ul
8 1
Jun e
w ood
y pe
iv ity
Ġin t
ĠL ETTER
Ġexper im
p m
Ġcombin ation
in u
al if
ĠC enter
ĠPaper back
ĠC ORP
ri g
Ġin ferred
8 2
ir eless
Ġexperim ental
9 6
M B
st ream
M ov
er r
Aub urn
ĠF ull
Ch arl
ĠFran c
p t
Ġev idence
G l
av e
ĠF ile
A P
Ġc l
H E
ĠA nd
ol l
Ġp resent
em b
ul ar
Port land
ĠW atch
ĠS ep
I F
U L
uc cess
o in
Ġcomput ational
ol s
ĠM ore
w e
Ġs ub
Ġw ee
AL L
D an
ino is
ap ol
Ġpro posed
ĠC omp
ar m
ĠN ew
ele ct
D IS
y c
P AT
ĠT ime
n er
K n
Ġpro v
A nd
ĠB r
199 8
o ice
Ġ Qu
rid ge
M in
ĠW est
al d
) .
ĠI L
6 1
C an
G E
F or
ay er
ĠBe ach
Mar ch
er ry
er m
ep h
Jul y
Ġn ot
C C
V E
Ġon e
Ġp art
Ins itu
A K
D isc
ĠAd dress
en e
F riday
ot a
o ct
O r
Ġre c
en g
Ġs c
ĠS P
Ġ im
Ġc an
M E
Ġ *
199 6
S uccess
IL L
K Y
riz ona
is e
ĠP h
upp ort
h ouse
as es
ect ion
T uesday
Ġp h
ateg ory
ĠA PI
W ednesday
o e
Ġd ata
Col umb
David son
u ild
Ġ #
C ell
9 7
p ro
o at
199 7
Th ursday
Mov ie
b ject
Sep t
Ġd e
D C
F il
is on
m er
an a
5 00
ic es
ain t
L e
ĠFranc isco
ers h
sh ire
us e
C it
IT Y
ir d
Ġval id
F r
apol is
M ont
O VA
l er
Th is
u ff
C E
o ber
Ġ200 4
Ġc enter
att le
Atl anta
ĠH igh
er os
S w
ĠP art
ĠI s
Mon day
ĠU T
ĠH ill
am b
ĠW ireless
ar r
oct et
A ll
Ġth is
ad e
Ġr el
F C
P l
CH ED
S L
Fl ask
24 0
ĠS outh
Ġ al
m ith
9 2
er tion
ĠE x
ĠRep orts
ad el
Apr il
ad o
ro w
um ber
Ġa c
i um
un t
a j
Ġle ft
ĠW h
Ġw ill
9 4
ast ers
9 3
ĠF or
P IT
C S
r ap
DIS PAT
A rizona
DISPAT CHED
D irect
Ġ200 3
il ity
ur al
qu e
P E
199 5
ĠM A
W eb
Ġass ertion
er d
g an
Ġd is
ĠA ct
ur r
erman y
ear ch
9 1
Ġam endment
Ġh as
Ġsp ecif
e ff
R ep
k i
Ġp re
t ask
ER S
as ed
C omp
u ary
P ol
ĠI nd
V D
Ġ right
A eros
D en
S o
l ish
ost on
id ent
w ard
ro s
G B
c es
* *
Ġm ethod
Ġa b
et a
P R
riv e
Ġt rans
ph ia
es h
Aeros ols
b a
D r
ud io
adel phia
alif orn
Ġ up
ort st
R ec
re en
f ace
ec ial
I G
ip p
i ence
Ġvalid ated
aliforn ia
F X
A g
Th u
25 0
N orm
on st
v en
M c
ri an
ĠF ood
ĠPl an
ĠIll inois
ans as
ĠN O
ent s
ch ester
T or
p plication
Cl osed
ĠL e
Ġa cc
le ment
ĠH ard
us h
ide o
ĠPRO GR
u ct
rou p
pr ing
P S
G eor
7 50
F ort
ĠAN D
ask a
N S
ĠC orp
I M
ĠS erv
1 10
Ġd ev
ne y
le ct
ortst op
F rom
R es
D B
e as
ir m
ro l
ation s
ĠA ss
Aust in
P ar
itor ing
Ġprov id
amp ton
ĠD oc
ar g
m e
ĠF l
L evel
ou ston
ersh ip
ĠL a
Jack son
E V
Ġin ter
Phil adelphia
ĠPROGR ESS
EL L
S O
A way
I I
Ro bert
at ive
15 5
Sat urday
Green house
R ich
ĠG ases
ĠV ol
201 6
al y
onn ect
ASS ED
o th
T ue
ing ham
ou l
qu est
er c
L IN
Ġg round
O ther
Ġ he
K S
m p
W ed
B oston
R IN
Ġ day
Fl oat
en a
ĠG l
C ategory
ĠCORP OR
Se attle
W illiam
Ġ ,
ĠV iew
ĠR es
em ale
T A
in es
ĠD e
M asters
ĠV al
oc ial
I CA
b le
o int
ev iew
b or
IT H
c omp
ov e
T o
ĠG A
D e
L AT
an o
ĠA g
w in
our ces
land s
ĠMon itoring
I t
ent ral
Act ivity
y r
olog y
ĠCORPOR ATION
EL E
all as
W C
AR I
us ic
at ic
Ġ200 2
p art
N ash
Norm al
amil ton
ommun ication
P r
evel op
ĠD B
at us
ĠK ing
ĠW illiam
g in
ĠN E
S en
ke y
Ġwee ks
G ermany
ĠB ay
ap an
D F
on es
H ouston
er iz
N e
B ar
Ġ ro
I nt
r ick
M il
ru ary
B O
Ġd ot
ĠD C
o le
ĠY ES
Ġg ener
d y
ock et
Ġvot ing
T ON
S M
ĠD r
oc i
ly n
ral ia
Nash ville
Ġn ear
ic a
Cit i
u k
Sun day
ess ion
Ġs ingle
ĠL ake
ult ure
F emale
ĠC ont
ĠR ec
ol y
T r
ĠGu ide
om as
S anta
d t
OR E
Aug ust
Oct ober
u es
amil y
ĠF C
F A
Dec ember
Ġ Q
p tion
er ver
ro ss
M ad
ĠB HA
O P
ASSIGNOR S
ĠW t
ĠO H
re te
onf ig
ĠP r
ĠS EC
ond o
il es
ĠD i
eb r
Ġ* "
st r
s c
Nov ember
ont o
c om
Mich ael
ro c
w are
m a
f ly
R e
N one
c over
id d
ap p
CH N
e at
B el
Can ada
w on
s ingle
199 3
Ġl bs
ĠPart n
ar ri
ur es
199 2
uild ing
u ro
rou gh
m on
S al
ĠT r
ob ile
el d
ob s
ĠA ge
th ly
et ro
ivers ity
w est
D allas
H L
Sept ember
igh ts
199 4
id er
er ly
ex ico
ton io
eriz on
15 4
s om
L and
S F
R ule
ĠHard cover
M L
ĠAm endment
North ern
ib r
ur y
Ġan not
pl ay
10 7
C omm
Ġ3 5
ic t
Fil ly
H amilton
os h
Ġinclud es
C ombin
V ER
ru ct
C L
if ied
eric an
i ent
t y
Ġannot ation
198 8
o f
m ond
ĠP ower
M IN
ebr aska
ĠM I
C ondo
ir gin
ow f
all ed
ir ed
ur ing
Ġc om
est on
eb ody
u ke
u ch
Combin ed
ĠEn vironmental
Ġ j
ĠM ich
ĠPartn ership
w alk
0000 00
ĠSp ecial
g round
at s
som ebody
Disc rete
Ġin st
ĠA G
ra in
Ġm od
0000 0
Ġ u
Ġs outh
R el
k ins
av a
H ar
Tot als
ĠS M
UC F
ric ulture
w owf
wowf ie
ĠW ITH
R AN
re f
ĠL ouis
ĠM ark
Jan uary
Ġab out
eg o
er g
10 6
Ġh h
Ġp ort
k n
ĠO wner
amp a
is ion
it z
Ind ian
G u
ĠE l
if f
or ado
S ch
D A
d e
B C
J apan
ap t
P H
A s
Ġl ink
et te
Bro ok
enc y
Ġ US
w ork
an ia
ic le
ĠAn tonio
11 1
Ġval ue
Mar y
C K
Tor onto
O W
N or
Ġp er
M a
EN E
ĠH ouse
ĠO n
ev e
B ER
199 0
as on
D artmouth
P rivate
198 9
Aust ralia
W h
m l
3 00
Kn ox
b on
oc al
ut om
CO L
M inn
n a
ĠO per
F unn
Ind ia
Ġvot e
ĠA f
N ebraska
ĠS mith
Ġa ct
yc ow
Funn ycow
Ġdev ice
199 1
ĠG r
if ic
irgin ia
re ed
Mon thly
tern al
ĠT E
y an
Den ver
Ch rist
it ies
Direct ory
ec ur
en se
Ch ris
B e
Ġd ba
ill er
ont inu
it er
t d
M AN
ĠH e
j p
AR D
B us
bur gh
Am dt
Ġa pp
ill a
Read ing
Ġl ayer
Ġbe en
J eff
ĠT est
ĠW omen
Ġm ember
all s
ist an
A lex
AS E
u per
p ut
ĠH ar
Ġn orth
ommunication s
Ġt ime
Act ive
le ge
ĠA ll
3 02
ĠC H
oin ts
K ansas
Ġv oice
ke e
Cell co
g ram
at i
Ġ :
l ing
v eland
19 09
10 1
k a
ev in
J ames
M ike
v ed
O G
f r
in ess
o z
ĠH ol
ric a
H T
e ed
e z
Ġ it
S P
d om
E m
S l
ot te
Ġs ources
d ate
ĠH all
Ġs et
ou ble
ĠSch ool
Ġ3 240
RE G
S aint
urr ent
Tot al
ĠS ource
Ġ +
P et
Ġd ef
Ġ elect
rap h
ut ion
20 6
ĠManual ly
Ġm on
A U
unn ing
y le
LAT IN
Ġ en
S ingle
ev en
ri e
ĠT eam
198 7
N H
ĠB uilding
o ard
ound s
12 5
Ġ200 0
ĠI I
D VD
a id
ĠV erizon
o ft
ĠM or
T I
o el
R eview
u z
ĠE ng
OR N
ĠT O
U M
Ġin d
un g
ot ion
ĠC omm
E F
K B
S r
a ff
Ġd isc
T Y
P L
im age
198 4
ĠS w
sp ecif
P ublic
es ota
a it
Ġc ol
Ag riculture
l ar
es c
ĠR ed
ĠD ame
Ġre g
FR A
g ia
ark s
i j
N M
ers ion
Ġa pplication
? ?
ra ct
AN K
Rel ocation
A st
ĠP DB
S W
et work
ĠCO MP
kn own
Ad ult
v iew
St ring
sp ort
il ver
ĠSM ALL
ĠJ obs
ĠServ ices
ĠA L
bur y
Eng lish
el y
T ed
ou gh
s w
A pp
Ġpro cess
Ġevidence i
ĠS C
M or
Ġo ther
Mar k
if e
ĠDi ego
ĠRe form
Ġm in
M T
198 6
Not re
ĠB ar
Jackson ville
H C
ĠC amp
comp onent
u el
ĠT N
11 3
k y
Ġu M
ĠM ain
Cle veland
ut es
op er
A C
H al
l ost
W omen
Ġn umber
S R
ir c
ign ed
id s
C D
I s
Ġth rough
19 11
o ot
ff ic
iss ion
er o
Ġf l
Ġ end
Fran ce
P er
ĠR iver
20 9
N D
ĠN C
ĠR ead
Col t
d en
Ġus ed
al m
we en
ord ing
e an
ur face
L OS
ĠD ay
Feb ruary
ĠW A
T eam
ĠJ r
b l
re y
ul es
C ON
ĠW eb
ĠC ommunications
Ġac cess
R eg
En vironmental
Ġ200 1
A A
** )
ĠB ell
ĠBro wn
ibr ary
Ġl ist
am in
un ch
V al
it ts
B ob
B rian
C al
D ef
Ġ199 8
ĠC at
15 0
W il
Ġf ile
un ction
os ition
ĠTh is
Ġb et
ĠMan ag
PIT AL
T ampa
ĠO R
f l
ĠP et
ĠP aul
ra z
our n
ou n
ĠQu ick
and y
ĠN OT
Ġn ew
19 10
Ġt ype
Columb us
Ġsc ience
uro pe
d ra
av is
Ġ ant
10 4
18 0
Ġm ay
J r
Ġs ign
Ġd rive
ĠM O
L AN
o en
G EL
ac ing
ri a
Ġ199 9
u x
eal th
ĠCl ass
ug h
Ġus ing
H aw
r ation
ĠCh rist
ĠSEC UR
ĠP AR
ol n
lo ad
ĠS ocial
at ab
Ġre t
ain s
e in
P ASSED
iz ation
ag n
M r
An n
ĠL ow
B AL
Ġt est
Ġs erv
D el
Ġre quest
ĠSECUR ITY
A G
1 20
g l
R ed
itch er
Ġs upport
b it
CA N
Al b
M AR
aw a
ST E
x ide
and er
Ġday s
eth ane
ĠCA PITAL
Brook lyn
Man chester
Ġd evelop
ĠF OR
P G
M et
t r
Ġwh en
J im
M IT
ant s
d ef
Ġto p
im ore
M obile
a e
ĠB ank
12 3
Columb ia
ĠUT C
ĠComp any
K E
N o
oy s
L O
Ġon ly
Ġad dress
Ġag reed
ĠOper ator
Minn esota
B Y
RE E
s econd
ĠAf rica
st er
ed ia
ĠAN GEL
ĠM art
ath er
eter min
P an
W ith
L Y
ON SC
B R
e et
Ġ1 00
ONSC ENE
alt imore
IF ORN
T R
F OR
D R
Ted dy
ri k
ĠANGEL ES
ĠP CS
d eb
sh ortstop
A c
ĠPro ject
and ard
it al
Charl otte
E nd
erd ale
ol ph
Ġle ast
IFORN IA
ud erdale
g en
Ġc ons
ĠY ou
Ġbet ween
o or
15 1
H AR
J R
D ick
I r
ir l
le ans
.. ."
A b
ontinu ance
C Y
P aul
ib le
onfig ur
P K
p on
E X
E v
u thor
ry st
s er
S am
ell s
Ġm ore
G ER
ĠVal ley
Ġb l
ord s
atab ase
ĠC AL
St ory
A ss
es e
12 1
Ġus e
ĠS Y
land o
ĠI t
Min ne
Ġa utom
M at
Ġint o
ĠA ir
ĠL td
OL D
c ast
ro p
ĠC on
P DF
C r
h an
w o
en h
It aly
M el
ĠP ASS
w au
ĠA c
ĠUn iversity
Dan iel
ĠBl ack
specif ied
ĠN V
19 0
P ak
ecur ity
Ġo bject
V ideo
ĠC an
st ate
ept or
ĠS e
ĠA ve
P itts
I E
a ult
ber g
l ist
an ge
um m
g z
ĠA Z
B M
AN Y
198 5
S ON
mon ton
I P
Ġw ater
B er
Ġre ce
S ub
ur a
ĠM o
I m
G O
ar c
wau kee
RE MI
F in
ĠS pr
15 9
B altimore
it es
ĠA R
C R
itt le
S pring
re al
ĠC alifornia
Ġ199 7
Ġd et
f or
l ed
aster ly
Ġ5 0
Bl ack
C entral
th ers
i et
Ġ USA
al es
ĠR ock
eck ed
R uss
qu ence
ĠOr leans
use um
R eal
v el
P at
ic tion
ĠCh arl
St alled
Ġs im
ĠG reen
y p
Bus ch
etro it
O D
ĠAr m
B en
o ff
act or
ow a
Mad ison
ou d
ĠD ID
re m
ill s
Minne apolis
un specified
ear n
fer ence
10 5
rig ley
. )
oen ix
R et
av ing
A V
ĠSt udio
A nt
D on
W rigley
ar n
Ġus er
ĠM D
sh ip
ar act
Ġc omm
C alifornia
T ig
E ast
h k
Ġ4 0
dra wn
Or lando
d f
um ent
it a
ĠB el
inu x
ur t
198 2
ĠD an
C ase
ou ver
NE M
Ġ qu
Rep lic
own load
inc oln
Replic ate
ment s
T S
ĠM od
C ont
am m
E E
Ġacc ording
Ġ 201
inc inn
Ġ ele
ĠKing dom
ic ense
incinn ati
D ro
Eng land
198 0
o ad
D U
T T
ĠW ind
Ad d
c onst
Mil waukee
t ar
ĠSt a
ĠM at
anc ouver
ĠM in
our t
ĠE ast
ol a
Pitts burgh
ing er
w ich
20 5
ri m
AT ES
al o
ĠG eor
B L
es ign
O pp
ed er
th ew
O U
M ethane
os eph
Ġall ows
Ġex p
iz e
ian a
W AS
D etroit
jp eg
S ar
Ġcont rol
part ment
00 5
Pak istan
ĠAr t
irm ingham
op h
ind ing
ac ific
ov ern
P P
h ib
T im
ĠW ay
C M
g ar
D od
M exico
Ġgener ated
ĠT ele
CH A
ur g
Geor gia
or ation
av en
ĠS an
Dec lar
H our
T est
ĠJohn son
Ġcom pr
ĠW I
ĠRep ublic
Ġc onfigur
O bject
L ar
ap s
ener al
C incinnati
20 4
Pro t
og a
T D
ur ch
10 8
ĠJ ames
S ac
le an
e q
pp ed
11 2
Opp onent
ĠM iss
n ess
ĠWilliam s
ĠCAL IFORNIA
T em
ap e
og s
Ġy ou
Ġ >
N on
ĠNE W
A partment
ĠF alls
ĠO f
10 9
Ġm an
ĠD avid
re t
Ġcl ass
is m
ar ter
Ġport ion
ra w
ĠL ibrary
J oe
ac c
y m
H ER
RE D
Ġdis play
Ġ if
Hour ly
ad ley
ari ant
Ġ $
10 2
ict or
is ing
ĠHigh way
Cl ass
Q U
r d
D ate
rib ute
e k
Ġc onnect
10 3
r s
re ad
D uke
O tt
ĠR ich
Rich ard
ĠAn ch
19 5
Ġo ver
u ction
Ġo per
H ol
Ph oenix
ĠCOMP ANY
ev er
NE W
Ġph one
HO U
ĠIs land
Indian apolis
w ell
Am erican
io xide
er ies
AT E
Ġinclud ing
Ġf il
c on
ĠG roup
O ut
u f
h a
ric t
ow b
ran sport
ens ion
ix ed
R ock
Dro pped
L aw
ĠAug ust
ĠS U
C P
Ġf ly
K en
ĠV A
198 3
G L
P HI
ay out
ool s
OR K
V ancouver
Ġwh ere
C IN
15 3
Ġ199 6
orn er
C am
bor o
al ly
ĠC T
T urn
in ks
M att
vent ion
ĠR acing
Ġmon th
3 31
J ava
Ġt r
anc ial
al a
S Y
Fran k
u th
el le
W V
11 5
Ġ4 5
en ry
Ġre p
ol k
end ing
or age
S AN
us iness
ust in
ĠS ystem
Ġ199 5
le te
ĠD ioxide
ĠW il
ĠO K
u a
ar ies
Ġ 2016
T PE
ac y
Sen ior
O ff
al ity
V ote
Gr and
og raph
r um
ĠP er
ĠAnch eta
O ak
12 50
ĠUn i
John oel
Ġrec eptor
Watch ing
Ġat t
u it
09 9
RO M
ran ge
i en
ĠV ote
ĠS he
ĠR eg
Ġspecif ied
ph a
45 3
B OL
ond uct
A US
03 1
Ġd o
Mar e
Dr ag
ĠLa uderdale
AN A
ĠIn tern
ĠO b
n y
eal and
Jun ior
ys is
197 8
iv es
CH O
Ġd etermin
th ird
T OR
or a
Ġc urrent
yl v
e ature
m d
ĠZ ealand
iz ed
m s
op e
C I
Ġh aving
at ural
B E
ak er
C on
Sp ecif
V T
197 6
Un known
15 8
T RE
S H
ĠH yd
eg r
ĠV oice
15 7
t a
y a
c ont
F ree
ath an
Ġd ouble
em an
14 0
ĠUni Prot
o ch
ĠUniProt KB
5 06
G C
Ġe ach
os it
our s
And rew
t ra
ĠIn ter
arb ara
Ġr ules
D is
W e
Ġun it
15 6
ri p
r ence
out e
ĠW ood
eld ing
Ġc re
F T
i qu
ĠMar ch
amp le
o ke
ĠR E
ern el
Ġc on
F I
H on
ĠM N
act ive
M usic
St ate
D ev
U K
Ott awa
Dod ger
B uff
US C
ĠT HE
L incoln
and a
f o
ĠR ivers
F P
Ġ ext
13 4
197 3
ĠA nt
ĠR d
198 1
V ern
d uct
Ġre port
Ġp oly
ĠS pring
12 8
ven ue
m ark
U t
ST R
Ġsh ortstop
al ysis
iv ing
Ġautom atic
str ate
Se a
For um
ĠSpr ings
ĠM useum
p op
12 2
AT L
ly mp
ĠCl ub
11 4
s ide
Met eor
ars ing
J on
ri ver
olph in
ĠP ar
D ig
ing ular
R B
Ġs ite
ĠJ ack
ĠD E
s ch
v al
B irmingham
G elding
il ar
2 10
C ons
d ale
N ame
197 7
Col orado
CO M
ĠP ol
ent o
t ext
end er
IT A
T om
11 6
ach e
ĠR O
ĠD el
ĠM ary
A cc
Ġf unction
ĠR ELE
st one
ĠU p
46 0
unch ed
ĠA venue
ĠL ee
eph en
m all
ip s
E ffective
o om
197 9
ĠA lex
ĠE m
ĠE ag
r ay
u ther
13 0
M ac
Meteor ology
l ike
R M
Sp ain
13 5
S G
Ġim age
he im
qu ired
ad ge
OL OG
ab bit
11 8
ĠA b
SA X
Ġro ad
N ational
ro ved
R iver
os ph
M ed
Mont real
ount ain
ĠRELE ASE
B ug
Ġb ased
Ġspecif ic
Ġf amily
ĠC ON
H am
ain ing
B ill
La unched
19 12
M IL
V eter
ĠBro ok
ony m
oci ated
TRE BOL
HO D
Ġtop ic
M F
ĠC ent
ph y
ĠF r
l a
Sc ott
m et
20 2
am s
Ġad d
ĠP arsing
TE X
id ge
C arl
e h
ot or
Ġprovid ed
Ġf actor
P age
ĠS ingle
ĠMark et
C LE
ol t
E A
st it
ang u
op her
l ington
12 4
ab ility
ĠCol lege
Ġf r
ĠAnd erson
20 3
Ch ina
ĠI nt
air s
ĠF in
B y
ver t
H P
ĠB ANK
ĠR h
Ch ecked
ĠTh omas
Geor ge
is ter
Par is
Ġre ad
ĠCorp oration
ĠTE CHN
ester ly
ĠN J
12 7
u an
Ġapplication s
Ġinclud e
Ġm et
ĠJ ones
ĠI m
ar on
R ILL
ĠF und
anc y
def ect
Ġh igh
raz il
19 2
ĠC OL
ĠTech n
ourn al
b ell
Ar t
Ġan y
z a
Th omas
ĠM ad
ant ic
Ġrules i
em ic
arri ors
D I
17 5
16 0
Ġprovid es
um an
l ib
ĠG o
ater ial
ET HOD
E urope
ĠPro f
S K
let ed
at ers
With drawn
ol f
P re
Ġsign al
Ġ z
O lymp
Ġs urface
ĠY ORK
ĠJ ose
p s
14 7
AL E
App roved
19 08
ida e
ru ction
als o
ak es
Ġdevelop ers
S alt
12 9
Mary land
o form
G H
6 00
ical ly
re a
Ġp ar
Ġpre c
c pp
ed s
le ction
ri pt
ĠTECHN OLOG
ĠMich ael
Ġd om
Ġn o
, "
12 6
P eter
ir us
Ġwee k
m ed
ĠM ur
ther lands
B ook
Ġ em
ist rict
ĠR adi
ĠC ap
25 00
R yan
197 5
ĠP at
EN D
in son
ĠR ap
em y
Veter ans
Ġd uring
LIN E
ĠP ort
ĠF ROM
Ġr un
or ld
) )
ro ke
D ET
em ory
Th ree
C ard
11 7
Ġo pen
i as
app ing
ĠS al
pl ic
T it
ĠSY STE
uc ation
e el
L i
onf irm
Ġh ow
ĠR ow
pr int
ĠF lor
if fer
ah a
ul a
Ġm ess
ĠD irect
kl in
J o
P N
P F
he m
ran ch
Ġs e
ĠCo oper
P erson
GB R
ĠS ilver
ĠR ail
em s
ot s
ĠC ingular
ĠWh ite
p df
ĠS im
L P
14 5
O M
ĠHill s
al th
ĠB ill
ĠL ife
es a
197 4
L inux
Car bon
ed en
C at
ay s
ĠA s
en ch
ruct ure
Ġ ident
ĠL A
ĠRo bert
v is
overn ment
al c
end ed
M id
ess ions
ail y
D ou
ent ina
re tt
o on
CA L
ĠS E
ĠT exas
k er
20 7
Declar ation
od d
eric a
197 2
P res
I VE
196 6
Ġre m
K evin
ĠP ASSED
P ER
ĠT o
Ġmethod s
ĠJun e
A H
Ġin vention
r pm
A ction
B ull
om in
ram ento
Q C
IN E
ĠEag les
Ġmonth s
W ater
t rans
ard s
ris on
ĠS erver
D ay
ĠB ur
St orm
he ad
ĠD rive
17 0
Ar g
1 19
A th
C U
os m
Ġl ight
V irginia
amp shire
E lect
W ill
ob al
Ġw e
b r
Ġpl ural
R ob
ĠB and
Rich mond
ri f
Ġb ack
c el
SD SM
ĠS ept
l oss
Ġs elect
ĠV irginia
ylv ania
F ul
ĠS ol
c y
15 2
os a
Ġsim ilar
197 1
S ystem
4 00
d ated
C amb
O ver
Ġs erver
W O
se y
F F
aract er
3 04
ust om
ĠJul y
m ar
R abbit
ĠO N
owb oys
et on
enn a
en o
14 6
u y
Ġ ent
P enn
ĠC ons
s a
uc le
ĠM ass
Ġ also
ab out
et y
m y
E r
Ġ ar
ST ON
20 8
OR TH
V ictor
Mat thew
ĠPro t
ider ed
R ef
Pro v
Ġrel ocation
rom e
LA PS
v ariant
in ce
Oak land
Test Case
In ter
itt ee
ĠD avis
Ġp ass
R Y
13 9
ot o
ĠR ob
a ction
SIGN ING
S S
Ġh ave
W ind
ĠD ep
per ty
St eve
ell a
M ON
D D
ĠW orth
IN S
Ġplural ity
17 4
oc ument
Turn er
16 5
P o
St roke
H ard
P acific
u is
P oints
ĠD ATES
ver age
Ġs uch
Ġn on
ist s
ĠD ocket
ĠR D
s en
i ous
R US
ĠManag ement
S im
Ġy our
ĠD ownload
ĠM usic
e er
Ġis oform
ord an
b oard
ĠT im
19 56
ĠC al
D ocket
ĠOn ly
ut ter
pl ain
U P
ĠB en
ak ota
v es
re at
ĠP al
ec e
d ogs
IC E
ĠAr ch
ch est
18 7
ĠUn der
18 8
Ġcomp onent
J ournal
c a
C B
16 1
ĠC entral
ĠC ourt
al f
ĠUn ion
n in
l ess
13 1
ĠG round
T ION
14 2
14 1
b e
o id
ĠE P
N O
le g
18 5
urs or
ĠC om
ĠH a
B OS
B razil
ĠRap ids
ĠB all
ers ey
p ool
18 1
enn is
fr ont
Ġre view
aid ers
197 0
ĠApr il
CH I
ĠH ealth
ew is
Ġd ep
W R
B U
b ased
Ġth an
ING TON
ĠT own
Ne therlands
Sh arks
O AK
Comp leted
s ylvania
ord er
ol ic
l ins
ĠL inks
ĠW e
ac ob
Gre g
Ġc or
av er
ĠTest ed
us an
um p
IL LE
R em
ect rum
17 8
ĠG old
itz er
Tig ers
F red
if ication
el ly
iv ision
ale igh
R P
Sac ramento
se a
ĠO ut
Ġs ource
02 1
46 3
Buff alo
L ake
Vern o
m it
13 7
Ġg roup
EN S
M ax
ak a
S a
ab eth
er b
and on
th ony
k k
Ġw ork
R unning
ly wood
Ġs ide
LE CT
err or
I Z
S old
l ad
Gre at
Ġhe alth
" -
ill age
ĠA F
Ġd irect
13 8
erc ial
C ommun
er a
b ab
ount ed
eng th
ent ial
as c
V AN
B o
H igh
Ġa vailable
196 8
pr ess
Ġsub strate
at on
X ML
uck y
13 6
ĠR uss
A ge
Ġc orner
C ode
v est
W arriors
Pan thers
L D
K ent
17 2
Ġsouth erly
ARI Z
ĠI A
WA IT
ĠT rans
Sw eden
ro y
Ġun der
ĠK n
ĠS l
ail s
19 67
Drag ons
ĠP rad
K ing
B I
Un i
K ar
ĠO l
OR T
j ar
rod ome
16 6
UN AT
on z
ion al
ĠW at
ind a
ĠK ernel
ĠH AM
en b
16 7
eg er
iv ed
idd le
14 9
ad d
P art
ra il
G old
13 3
R os
ar w
g om
Ġof f
S print
p le
og g
Ġth en
Ġm ult
ter ation
ab les
v ers
ac es
g ow
ĠMart in
LE Y
p ass
L AND
M C
ING S
13 2
ĠK Y
Car olina
T ri
Ġ our
ĠR el
Kn ights
Tit ans
ree k
W ait
r ich
O m
ĠSt ud
SE A
itu aries
yl er
I ES
AS T
R ES
ĠA t
ic ut
ĠOb ituaries
ar o
ĠL aw
oh s
47 6
19 1
t o
Ġ199 4
urn s
roc arb
ĠMur phy
Ġs ol
V ol
D olphin
st ring
L anc
s ur
gom ery
al ia
E ric
w w
th e
River front
Ġm aterial
D es
ip e
NY N
ĠSp ectrum
ou ld
ĠM iller
Ast rodome
18 3
Ġp r
as gow
Ġl icense
C owboys
ĠD akota
arr en
ĠAm erican
SD N
onnect icut
Br onc
rad e
ĠAn alysis
Bronc os
ĠE le
R ay
Ġass et
R aiders
iz abeth
38 6
A sh
is a
I owa
ost ers
ĠB ridge
C and
ĠM exico
B B
Ġt wo
iv irus
A F
b our
chest ra
P T
om y
in ter
onym ous
WC M
if t
if y
O per
ut t
ear s
J ason
ĠCol orado
S av
ĠP AT
ĠF orm
SF N
ĠD ev
47 7
ĠR od
Ġinter face
Ġb inding
re v
E els
O s
e ast
So ft
CA R
Ġc irc
anc ement
em a
om ing
ĠT rain
ev ille
H e
Bull dogs
Ġth ird
18 4
S k
or ed
ĠAG REE
ĠH ampshire
Ġd ist
ĠYou ng
47 0
M erc
N ick
Ġprec ursor
ĠAGREE MENT
ĠO TH
R aleigh
Ġc onc
oll ow
Ġele ment
Ġv is
Ġst ate
ri ption
ann el
ĠN etwork
ĠI D
t im
16 4
k o
ag ing
00 4
196 9
O z
ĠEd ition
M al
Ro osters
14 3
WAIT ING
D aily
Rabbit ohs
Ġd atabase
ent on
SE F
Pol and
Arg entina
inc eton
ĠO ne
-- -
ĠP ra
ec ut
ĠPrad esh
ĠCar bon
Ġp ack
MI CH
arg et
ost a
17 9
ATION AL
Dig te
Ġd iffer
em ph
ĠArt icle
ĠS upport
oc omp
C or
ar atus
ĠC ard
G ets
47 8
V I
he ap
Ġp ower
OR D
SL N
14 8
g y
S uper
18 2
L L
16 9
ir t
E W
Ġrel ated
am ed
19 4
Ġ5 5
in i
U p
man n
K ey
s burg
2 25
un der
qu er
B UR
R U
R h
sh all
ag en
F ire
ĠS k
ĠD en
16 8
S mith
Ġw as
at re
Ġ199 3
f olk
Ġo z
ist ory
Ġdom ain
ĠS and
az z
ORE G
Ġor g
C om
c k
ĠB ack
Mar t
rocarb ons
2 15
16 3
ĠR idge
en z
ĠM ed
ur b
or g
ĠAn n
ĠAF TER
ĠOTH ERS
C re
itzer land
ĠA vailable
ra ham
18 9
I ll
ech n
Cr eston
17 6
av el
LE C
an im
Ġup date
S ol
if er
17 7
Ir eland
op s
196 3
stone heap
Ġw he
ĠAm erica
K G
ĠM AR
et ts
i us
ch e
emph is
F it
ro gen
ĠCol umb
Ġd el
L ow
ĠRich ard
ic ip
Ġl i
: /
R S
roc k
St r
D ar
cast le
ĠMod ule
at ter
back s
G e
N I
Ġp osition
w h
H ay
G eneral
im it
p itcher
ce ed
el a
ĠM ob
Disc ontinuance
Col lege
Camb ridge
ĠHyd rocarbons
Uni Rule
her st
14 4
CHO OL
Cons idered
P O
i ary
Ġd ig
506 300
In ternal
17 1
ĠR I
ri es
ot al
Ġst art
Ġpl ay
2 20
I d
ĠGround s
T rans
3 09
ĠU t
ĠIntern ational
enn ess
ĠCh ester
ĠFor est
J ess
M ic
M apping
Ġm eas
37 50
ĠEd monton
ryst all
C onn
Ġ x
ind er
ĠF its
Rec ent
i h
Law rence
H el
1 199
ĠHe ights
D ub
Dan ish
Ġc o
Wh ite
ĠGeor ge
i rie
2 12
ĠV ersion
196 5
B ry
IT ED
it ial
ĠH am
ĠPr int
Ġass ociated
ĠCl ara
ud e
Ġdetermin ed
at in
ay ette
A verage
B D
Ġb ut
S i
uc son
c ed
g ary
6 34
196 4
emb ly
Ġserv ice
t est
ĠG ames
M un
Ġm emory
New s
W Y
j a
ĠG ro
ĠHAM AP
17 3
ay ne
196 0
ĠK S
Ġ3 3
ĠA VE
ĠF X
c omm
ar ge
ĠM E
g ium
ĠPet ers
19 3
id es
D j
ow ard
pe ed
R og
ĠAd ult
iv an
V M
ĠM ac
ĠThe atre
Olymp ic
osit ive
Y S
il y
ir k
45 8
P aw
RILL IC
Ġsimilar ity
Pol o
rig inal
Gl asgow
ĠEng land
ipp i
P RO
ĠC ast
t x
ĠT el
Fran klin
OR G
Ġmin utes
L ast
ĠD EV
Ġ6 0
T ools
Ġ8 0
Ġconfigur ed
l est
ch er
ĠU l
eb ec
Haw ks
ul ation
ĠA cc
L ong
Ġf iles
W ood
Ġthe ir
tt p
R adi
S ing
ĠCharl es
y cl
ar io
Ġm otion
enness ee
Ġev ent
a is
M ass
16 2
in ase
ĠM e
Ġw eb
Ġrep airs
In tern
46 4
ĠG e
G o
) ;
B il
uc ed
ĠGl ide
ĠC le
F orm
T ucson
ter pr
an i
ĠJan uary
N Z
Ġnorth erly
W ork
g et
qu ip
ĠC are
ach us
Rec ord
us c
ĠM ETHOD
is es
y er
S um
D L
ar ed
b ox
CY RILLIC
um ents
ĠB ranch
enc es
Ġo ption
ĠW ashington
18 6
p ond
iss ippi
Atl antic
T ype
Sw itzerland
at ory
ĠL TD
ĠN ot
quer que
aj or
A X
R C
ĠK it
or c
ack s
ĠServ ice
ett lement
yd ney
D em
U D
V ILLE
ĠA pplication
Ġc ell
ĠV ideo
BO STON
stit ute
av es
st ein
u querque
il a
B ur
A uthor
ar ry
Ġc ap
F air
18 90
C onc
72 20
Ġact ivity
Ġfor ce
n et
2 23
ER ICA
ĠM et
ĠMuseum s
ĠPro gram
H z
Ġwith out
S ocial
ĠS am
ish ed
L ittle
AN T
ĠMich igan
ĠC D
T ul
min ist
el f
L B
ĠI II
ĠM a
enn y
oft ware
Ġint egr
Charl es
angu age
rystall ine
K e
ul f
ĠF ury
ĠSc orp
ist or
Ut ah
ĠC r
Ful ton
An onymous
Ġe ffect
orp or
ĠM S
ann ing
achus etts
L ayout
ron ic
J osh
ull ivan
ro ad
Br ist
5 09
ER AL
ett a
S erv
ĠCan ada
A t
V i
ĠH adley
Ġdiffer ent
K A
3 05
ĠP res
Ad am
ĠB ull
s k
Ġapp aratus
M oss
Ġv ari
um e
ĠC osm
AM ED
unt u
ĠScorp ions
ĠSt rik
H S
Ġle vel
S n
ĠA ust
Ro ad
ĠE N
Bro wn
sp aper
Ġ ed
2 29
Ġf ace
Ġ i
ĠSept ember
O F
ĠPh il
Ġpro t
ĠO ak
oy d
3 03
D T
ĠV an
bour ne
Nor folk
B eth
d ies
Ġd r
AR E
Alb uquerque
v in
el son
ĠT e
pon se
Ġe asterly
Ġdef in
Ġreg ion
x x
il t
Se quence
ĠO ff
Cle an
CT OR
ib son
U AL
Ġr ed
P NA
v ard
M od
ĠO ld
L I
D a
ĠJ eff
Sc ot
W aters
ra ft
ĠPra irie
ĠArm ada
ul u
he y
Ġg o
Ġc ross
th a
ĠM ike
Ġ3 8
ĠMob ility
Ġper form
H enry
her ited
IC K
ĠJ ersey
Cal gary
New spaper
ĠEle ven
ĠC or
Ind y
ag er
uf act
2 11
Mont gomery
ĠColumb ia
Ġpro gram
ĠStrik ers
ĠFeb ruary
f c
ĠG ood
CON N
um n
b all
ĠL ab
ed y
Ġb usiness
gl as
erm ont
i que
ept ide
ĠCosm os
es ville
4 06
Ġv iew
ĠM y
ĠSc ott
D ur
ie f
ĠHol lywood
ĠSilver backs
C amp
UT E
B ran
im um
ĠD evelop
ĠRow dies
ĠRail Hawks
ĠRh ine
B eam
r or
ĠB adge
Ġd ec
Ġm ov
ĠB as
ph one
MM ER
ĠOct ober
ĠM ill
ch i
C ur
Ġout put
ĠB Y
E as
5 00000
sp ect
F und
ann ah
Ġin hib
lest ick
A f
umb a
quip ment
IN D
Gr ant
Ġ key
ĠR em
ag ue
ĠH old
ĠJ oseph
Bel gium
Ġh and
K at
le as
Ġp itcher
uther ford
Cand lestick
2 14
Ġelect rod
Pr inceton
Ġl ocation
ĠB ra
Spring field
t ain
z ech
il ities
ĠJack son
Ġwhe ther
id ase
Ġf t
St ephen
r en
ru z
erg y
G et
196 1
ĠEd ward
ĠS O
ĠAG ENT
ĠS uper
ON G
M o
Y ork
ell o
ĠL ine
Sen ate
ut o
R oute
ĠM ont
is k
B as
ĠB er
Specif ies
AT ED
Ġin c
R oy
s et
ĠW al
L iter
Ġind ic
W EST
a use
ĠC ITY
ol as
em p
ens ive
os ure
m at
k t
b ro
ĠC reek
m od
up date
Ġn etwork
Ill inois
Ġd esc
eg inn
Wait list
z ip
Ġin ch
ian o
Ġc ode
h ol
el t
ĠV I
ub untu
ĠP an
Un iversity
ĠN e
ĠDan iel
196 2
Ġdef ault
m m
ĠS ession
EL ESS
ĠMc C
ed es
ĠE LECT
onduct or
St ream
ount ry
SD HC
Ġp age
West ern
E U
ĠL ane
EV EN
d a
s y
Qu arter
A Y
B EL
i ro
Commun e
Ġf in
Ber lin
E state
Ġw al
ess or
E vent
e asterly
Y ou
ut ions
per t
ĠW IR
22 2
ire ction
ĠC onc
ICA L
iv id
Ġy rs
im ited
ĠW alk
ĠS ecurity
F all
per ature
ition s
Ġc are
M iller
one y
Br ad
ou ch
G U
ĠL ondon
ut ch
ĠD R
ĠM T
rid e
ĠA B
ock s
L ost
46 8
ĠA D
ov a
Ġh om
Ġst ud
terpr ise
Sh o
K al
V u
7 00
IG HT
w itch
10 11
ĠS eries
am on
MI A
P U
P C
anc el
T EL
ĠJ ud
og en
w orth
ĠM ov
L earn
et ic
ĠWIR ELESS
ĠA v
St even
C ity
H er
ĠArch ives
J ay
Hal ocomp
Halocomp ounds
M ER
Ġf eature
out dated
ĠP e
ac le
ĠE ll
is p
Z umba
NY A
B ig
k in
Ġus ers
:/ /
ĠSt andard
An a
John son
19 06
ryst al
ore a
G OLD
R om
ur ther
Mar c
ĠP alm
Ġst ars
or es
im a
S B
k m
Bran son
n es
Ġpro ject
ĠC ross
re ak
Ġp ath
Ġ est
pr es
st own
id th
ĠF ire
AR T
ann a
2 26
UN D
23 5
R ON
Ed monton
Ġex pl
William s
ON LINE
3 07
10 25
ĠComm ittee
k g
ĠR ef
ist a
D ab
) :
BA G
Ġ et
Cit iz
