{"<s>":0,"<pad>":1,"</s>":2,"<unk>":3,"<mask>":4,"!":5,"\"":6,"#":7,"$":8,"%":9,"&":10,"'":11,"(":12,")":13,"*":14,"+":15,",":16,"-":17,".":18,"/":19,"0":20,"1":21,"2":22,"3":23,"4":24,"5":25,"6":26,"7":27,"8":28,"9":29,":":30,";":31,"<":32,"=":33,">":34,"?":35,"@":36,"A":37,"B":38,"C":39,"D":40,"E":41,"F":42,"G":43,"H":44,"I":45,"J":46,"K":47,"L":48,"M":49,"N":50,"O":51,"P":52,"Q":53,"R":54,"S":55,"T":56,"U":57,"V":58,"W":59,"X":60,"Y":61,"Z":62,"[":63,"\\":64,"]":65,"^":66,"_":67,"`":68,"a":69,"b":70,"c":71,"d":72,"e":73,"f":74,"g":75,"h":76,"i":77,"j":78,"k":79,"l":80,"m":81,"n":82,"o":83,"p":84,"q":85,"r":86,"s":87,"t":88,"u":89,"v":90,"w":91,"x":92,"y":93,"z":94,"{":95,"|":96,"}":97,"~":98,"¡":99,"¢":100,"£":101,"¤":102,"¥":103,"¦":104,"§":105,"¨":106,"©":107,"ª":108,"«":109,"¬":110,"®":111,"¯":112,"°":113,"±":114,"²":115,"³":116,"´":117,"µ":118,"¶":119,"·":120,"¸":121,"¹":122,"º":123,"»":124,"¼":125,"½":126,"¾":127,"¿":128,"À":129,"Á":130,"Â":131,"Ã":132,"Ä":133,"Å":134,"Æ":135,"Ç":136,"È":137,"É":138,"Ê":139,"Ë":140,"Ì":141,"Í":142,"Î":143,"Ï":144,"Ð":145,"Ñ":146,"Ò":147,"Ó":148,"Ô":149,"Õ":150,"Ö":151,"×":152,"Ø":153,"Ù":154,"Ú":155,"Û":156,"Ü":157,"Ý":158,"Þ":159,"ß":160,"à":161,"á":162,"â":163,"ã":164,"ä":165,"å":166,"æ":167,"ç":168,"è":169,"é":170,"ê":171,"ë":172,"ì":173,"í":174,"î":175,"ï":176,"ð":177,"ñ":178,"ò":179,"ó":180,"ô":181,"õ":182,"ö":183,"÷":184,"ø":185,"ù":186,"ú":187,"û":188,"ü":189,"ý":190,"þ":191,"ÿ":192,"Ā":193,"ā":194,"Ă":195,"ă":196,"Ą":197,"ą":198,"Ć":199,"ć":200,"Ĉ":201,"ĉ":202,"Ċ":203,"ċ":204,"Č":205,"č":206,"Ď":207,"ď":208,"Đ":209,"đ":210,"Ē":211,"ē":212,"Ĕ":213,"ĕ":214,"Ė":215,"ė":216,"Ę":217,"ę":218,"Ě":219,"ě":220,"Ĝ":221,"ĝ":222,"Ğ":223,"ğ":224,"Ġ":225,"ġ":226,"Ģ":227,"ģ":228,"Ĥ":229,"ĥ":230,"Ħ":231,"ħ":232,"Ĩ":233,"ĩ":234,"Ī":235,"ī":236,"Ĭ":237,"ĭ":238,"Į":239,"į":240,"İ":241,"ı":242,"Ĳ":243,"ĳ":244,"Ĵ":245,"ĵ":246,"Ķ":247,"ķ":248,"ĸ":249,"Ĺ":250,"ĺ":251,"Ļ":252,"ļ":253,"Ľ":254,"ľ":255,"Ŀ":256,"ŀ":257,"Ł":258,"ł":259,"Ń":260,"20":261,"201":262,"er":263,"on":264,"in":265,"an":266,"at":267,"ar":268,"or":269,"en":270,"es":271,"\"\"":272,"ĠS":273,"Ġ1":274,"al":275,"th":276,"ed":277,"le":278,"ĠC":279,"as":280,"ic":281,"ay":282,"is":283,"el":284,"ĠA":285,"200":286,"19":287,"ou":288,"ĠM":289,"10":290,"re":291,"2015":292,"Ġ2":293,"it":294,"00":295,"ing":296,"il":297,"ro":298,"am":299,"ion":300,"11":301,"ĠP":302,"ct":303,"2012":304,"st":305,"ĠT":306,"ad":307,"ent":308,"2013":309,"ch":310,"12":311,"and":312,"om":313,"ĠF":314,"ĠB":315,"ol":316,"Ġf":317,"ĠSt":318,"Ġt":319,"ĠR":320,"ĠD":321,"Ġth":322,"ri":323,"et":324,"07":325,"ur":326,"Ġp":327,"un":328,"day":329,"2014":330,"ot":331,"Ġo":332,"06":333,"Ġ(":334,"05":335,"ĠN":336,"ul":337,"Ġs":338,"Ġthe":339,"04":340,"ĠW":341,"ĠL":342,"Ġc":343,"id":344,"08":345,"ate":346,"Ġa":347,"ĠI":348,"Ġof":349,"09":350,"2011":351,"Ġb":352,"ĠH":353,"03":354,"01":355,"02":356,"15":357,"Ġto":358,"18":359,"ep":360,"um":361,"ec":362,"ation":363,"Ġd":364,"13":365,"ac":366,"os":367,"14":368,"ĠG":369,"ĠJ":370,"ov":371,"Ġin":372,"he":373,"ĠE":374,"pr":375,"em":376,"30":377,"ĠO":378,"ir":379,"Ġ200":380,"Mar":381,"ig":382,"25":383,"ag":384,"ers":385,"17":386,"Ġ-":387,"us":388,"eb":389,"ew":390,"16":391,"24":392,"iv":393,"ow":394,"Ġand":395,"ab":396,"2010":397,"ly":398,"OR":399,"im":400,"23":401,"est":402,"Ġw":403,"Ġm":404,"27":405,"26":406,"29":407,"od":408,"ĠV":409,"Ġ19":410,"ia":411,"ear":412,"Ġ3":413,"IN":414,"ort":415,"ER":416,"28":417,"ap":418,"Ġv":419,"Apr":420,"22":421,"ex":422,"ce":423,"ON":424,"ess":425,"oc":426,"ut":427,"orm":428,"21":429,"Un":430,"ment":431,"av":432,"CA":433,"all":434,"ev":435,"ug":436,"ĠK":437,"ter":438,"nd":439,"ton":440,"ill":441,"AS":442,"Sep":443,".\"":444,"Ġn":445,"Ġl":446,"ell":447,"ber":448,"Oct":449,"199":450,"Ġ2015":451,"ke":452,"Ġ4":453,"St":454,"ant":455,"ect":456,"AN":457,"ES":458,"ity":459,"if":460,"Nov":461,"adi":462,"31":463,"son":464,"art":465,"iel":466,"Ġ5":467,"ist":468,"Ch":469,"op":470,"ra":471,"AT":472,"ich":473,"ine":474,"end":475,"ard":476,"Ġy":477,"out":478,"adium":479,"EN":480,"ran":481,"ĠStadium":482,"2009":483,"ont":484,"ip":485,"ff":486,"eg":487,"AR":488,"esday":489,"ack":490,"ub":491,"ield":492,"Ġ10":493,"Feb":494,"EL":495,"outh":496,"AL":497,"US":498,"ond":499,"ase":500,"Ġ15":501,"ĠY":502,"ord":503,"ass":504,"SI":505,"ie":506,"Ġ8":507,"New":508,"May":509,"ail":510,"ah":511,"ver":512,"ge":513,"RE":514,"Ġre":515,"ive":516,"Ġh":517,"ain":518,"Ġ7":519,"Ġyear":520,"ud":521,"ee":522,"Ġ12":523,"Ġfor":524,"rom":525,"Ġ6":526,"land":527,"CH":528,"nt":529,"ith":530,"AM":531,"ll":532,"Ġpro":533,"igh":534,"ille":535,"qu":536,"pl":537,"able":538,"are":539,"Ġ16":540,"omp":541,"our":542,"GN":543,"og":544,"IT":545,"ĠState":546,"Ġyears":547,"ark":548,"Ġon":549,"ast":550,"Ġ14":551,"form":552,"33":553,"ĠIn":554,"ob":555,"IL":556,"Aug":557,"Ġby":558,"50":559,"io":560,"Ġ9":561,"atch":562,"te":563,"NC":564,"Ġ18":565,"res":566,"Sp":567,"NY":568,"wn":569,"Dec":570,"Jan":571,"ust":572,"SIGN":573,"ak":574,"Jul":575,"Ġ13":576,"per":577,"Ġ11":578,"198":579,"ville":580,"Ġ23":581,"PA":582,"45":583,"Ġ20":584,"ork":585,"She":586,"ick":587,"ry":588,"Ġ17":589,"se":590,"ide":591,"age":592,"ame":593,"ited":594,"Ġg":595,"ary":596,"34":597,"ult":598,"ale":599,"ore":600,"uc":601,"isc":602,"Shea":603,"ĠTh":604,"Th":605,"oh":606,"Ġ07":607,"orth":608,"ĠUn":609,"46":610,"kl":611,"47":612,"Ġ2013":613,"Ġ21":614,"CO":615,"ĠU":616,"Ġis":617,"35":618,"ates":619,"TV":620,"FL":621,"Ġ2012":622,"ue":623,"urs":624,"otes":625,"ire":626,"ated":627,"Jun":628,"ial":629,"ED":630,"ach":631,"sh":632,"37":633,"man":634,"Ġ22":635,"ng":636,"ice":637,"ure":638,"ne":639,"ph":640,"ĠCh":641,"FR":642,"36":643,"ence":644,"ash":645,"Ġfrom":646,"ory":647,"MO":648,"Fl":649,"ons":650,"ian":651,"pp":652,"ies":653,"ull":654,"ley":655,"ĠMon":656,"48":657,"39":658,"LA":659,"TER":660,"2008":661,"Ġ2014":662,"Sat":663,"Sh":664,"ailable":665,"38":666,"RO":667,"In":668,"ree":669,"iz":670,"Ġ&":671,"TX":672,"riv":673,"iss":674,"49":675,"ood":676,"Al":677,"ost":678,"Sun":679,"..":680,"ET":681,"0000":682,"ib":683,"aw":684,"ts":685,"Ġan":686,"ount":687,"2007":688,"ok":689,"au":690,"ST":691,"32":692,"Am":693,"ern":694,"40":695,"ext":696,"uesday":697,"edn":698,"ina":699,"ens":700,"Ġst":701,"one":702,"The":703,"ednesday":704,"ursday":705,"rou":706,"Ġwith":707,"gh":708,"amp":709,"omm":710,"MI":711,"ember":712,"ile":713,"SIGNOR":714,"197":715,"ock":716,"ication":717,"Ġvot":718,"ome":719,"Ġare":720,"MA":721,"Ġ2009":722,"ĠThe":723,"riday":724,"ans":725,"ohn":726,")\"":727,"Ġat":728,"Watch":729,"Ġ199":730,"ask":731,"ĠStates":732,"ington":733,"Ġr":734,"OL":735,"Ġbase":736,"Ġ27":737,"Ġ26":738,"ĠAS":739,"ric":740,"ind":741,"ead":742,"IS":743,"ĠRo":744,"Ġ28":745,"Ġor":746,"ĠYork":747,"urday":748,"44":749,"ef":750,"ĠIN":751,"ru":752,"irst":753,"56":754,"ight":755,"ĠSen":756,"endment":757,"Ġ06":758,"Ġout":759,"Ġ30":760,"55":761,"Cl":762,"ther":763,"cl":764,"ĠMan":765,"ING":766,"Ġform":767,"orts":768,"Ġ0":769,"ish":770,"iam":771,"Ġ2011":772,"Col":773,"ual":774,"oma":775,"ENT":776,"Ġ29":777,"Ġex":778,"2006":779,"Watched":780,"own":781,"Ġ24":782,"51":783,"ele":784,"San":785,"ĠCar":786,"bur":787,"ator":788,"ĠCity":789,"ĠSun":790,"ĠSc":791,"57":792,"int":793,"ford":794,"USA":795,"Mon":796,"anc":797,"ace":798,"67":799,"41":800,"58":801,"enn":802,"ction":803,"South":804,"43":805,"rivate":806,"reet":807,"Ġbe":808,"Ġ2010":809,"LE":810,"CT":811,"ath":812,"Ġfield":813,"ĠTuesday":814,"Ġfirst":815,"99":816,"Ġ25":817,"ĠThursday":818,"ĠWednesday":819,"ĠPro":820,"pe":821,"Ġname":822,"tion":823,"fer":824,"ĠMonday":825,"ffect":826,"ĠCA":827,"Ġvs":828,"ox":829,"OH":830,"53":831,"att":832,"Mich":833,"urn":834,"ss":835,"59":836,"ĠStreet":837,"VA":838,"AME":839,"ĠMar":840,"cess":841,"FB":842,"ĠOF":843,"eth":844,"sp":845,"ahoma":846,"klahoma":847,"Ġ2008":848,"ĠSat":849,"by":850,"54":851,"osed":852,"IC":853,"exas":854,"iew":855,"ĠSunday":856,"IA":857,"up":858,"omb":859,"SU":860,"ĠAn":861,"oy":862,"Oklahoma":863,"ks":864,"ang":865,"act":866,"WA":867,"Gre":868,"Ġtext":869,"196":870,"Ġus":871,"ĠAd":872,"ĠPl":873,"Ġcomp":874,"ĠFriday":875,"Ġag":876,"Ġwh":877,"red":878,"NV":879,"ĠPark":880,"enter":881,"ite":882,"EST":883,"2005":884,"ann":885,"Ġformat":886,"ĠFree":887,"ical":888,"42":889,"wner":890,"ĠSaturday":891,"ĠUnited":892,"ft":893,"ĠAr":894,"Ġdate":895,"thor":896,"Ġ2007":897,"roll":898,"Pro":899,"Los":900,"old":901,"orn":902,"arl":903,"52":904,"ffective":905,"86":906,"ingle":907,"Ph":908,"ION":909,"inal":910,"Las":911,"ĠVeg":912,"Cle":913,"North":914,"ime":915,"Ad":916,"ĠCl":917,"FRAME":918,"UC":919,"UR":920,"Ġ08":921,"ouis":922,"REEL":923,"ASSIGNOR":924,"Br":925,"ID":926,"Ġle":927,"yst":928,"isb":929,"ational":930,"ress":931,"Texas":932,"An":933,"vailable":934,"ĠSh":935,"igan":936,"2004":937,"mouth":938,"plication":939,"ĠVegas":940,"ance":941,"avid":942,"Ġvoted":943,"inn":944,"ouse":945,"ject":946,"ane":947,"der":948,"ins":949,"Ar":950,"ester":951,"ign":952,"reg":953,"90":954,"ix":955,"ida":956,"UT":957,"ĠSp":958,"ĠField":959,"format":960,"way":961,"Ġprivate":962,"erv":963,"75":964,"ĠNotes":965,"ĠRoad":966,"Ġthat":967,"GA":968,"ĠInc":969,"ĠNo":970,"notes":971,"NA":972,"000":973,"isbn":974,"66":975,"ater":976,"ey":977,"lor":978,"ings":979,"econd":980,"pen":981,"Ġass":982,"ham":983,"rid":984,"ages":985,"Ġ31":986,"ayment":987,"als":988,"yl":989,"Ind":990,"ake":991,"ech":992,"ĠINC":993,"field":994,"ool":995,"Year":996,"Ġ2006":997,"ition":998,"MENT":999,"ied":1000,"ama":1001,"Ġcont":1002,"John":1003,"SC":1004,"ild":1005,"78":1006,"ris":1007,"ĠAm":1008,"ĠEffective":1009,"ong":1010,"ett":1011,"95":1012,"eter":1013,"ecif":1014,"OS":1015,"ral":1016,"ik":1017,"Se":1018,"artmouth":1019,"umb":1020,"Ro":1021,"United":1022,"ino":1023,"tt":1024,"ĠSA":1025,"ĠCO":1026,"TO":1027,"NE":1028,"ombin":1029,"Ġpayment":1030,"olina":1031,"ounty":1032,"Ġch":1033,"anta":1034,"onn":1035,"64":1036,"ystem":1037,"Ġ/":1038,"tern":1039,"round":1040,"evel":1041,"Ġfee":1042,"ous":1043,"ĠCo":1044,"PAY":1045,"West":1046,"PM":1047,"bert":1048,"ata":1049,"available":1050,"62":1051,"cc":1052,"Ġ09":1053,"Unavailable":1054,"FPAY":1055,"Michigan":1056,"Qu":1057,"itt":1058,"Ġval":1059,"Ġad":1060,"Bl":1061,"author":1062,"ier":1063,"Ġk":1064,"ĠManual":1065,".;":1066,"eal":1067,".,":1068,"over":1069,"LC":1070,"Win":1071,"ink":1072,"MS":1073,"Ġ03":1074,"Ġpm":1075,"David":1076,"min":1077,"rans":1078,"regon":1079,"65":1080,"clud":1081,"Ġball":1082,"77":1083,"ĠRep":1084,"lic":1085,"ĠBl":1086,"88":1087,"Owner":1088,"not":1089,"100":1090,"2003":1091,"Miss":1092,"ashington":1093,"ĠCounty":1094,"erson":1095,"79":1096,"EC":1097,"Ġam":1098,"Available":1099,"TN":1100,"ston":1101,"aper":1102,"ONE":1103,"eor":1104,"UN":1105,"ott":1106,"no":1107,"Spell":1108,"Aust":1109,"Act":1110,"formation":1111,"amil":1112,"ĠINTER":1113,"ames":1114,"68":1115,"ĠCol":1116,"2002":1117,"back":1118,"ĠSenate":1119,"ream":1120,"ions":1121,"yn":1122,"ĠZ":1123,"tl":1124,"ĠJun":1125,"Ġe":1126,"enc":1127,"und":1128,"ĠScroll":1129,"Oregon":1130,"Flor":1131,"Car":1132,"72":1133,"tein":1134,"ago":1135,"ada":1136,"70":1137,"ors":1138,"ower":1139,"Louis":1140,"az":1141,"ona":1142,"ĠAl":1143,"60":1144,"2000":1145,"ĠCarolina":1146,"69":1147,"Read":1148,"new":1149,"Port":1150,"Ġev":1151,"2001":1152,"ound":1153,"inc":1154,"Home":1155,"Ġ04":1156,"itch":1157,"RA":1158,"Ġago":1159,"ank":1160,"les":1161,"ike":1162,"Ġ01":1163,"ĠAug":1164,"irect":1165,"ĠJul":1166,"Ġ05":1167,"HI":1168,"Mult":1169,"ĠBe":1170,"Final":1171,"ode":1172,"Ġsh":1173,"ASS":1174,"Sc":1175,"Amendment":1176,"unn":1177,"Sports":1178,"burg":1179,"dress":1180,"ax":1181,"illiam":1182,"righ":1183,"ATION":1184,"Ġsp":1185,"air":1186,"ĠNY":1187,"98":1188,"ener":1189,"ngel":1190,"orp":1191,"rist":1192,"aylor":1193,"ĠAN":1194,"co":1195,"ert":1196,"MD":1197,"Ġ02":1198,"HA":1199,"ept":1200,"ĠINTEREST":1201,"Florida":1202,"ere":1203,"Full":1204,"SE":1205,"ari":1206,"ĠFran":1207,"Washington":1208,"Ġas":1209,"ental":1210,"ule":1211,"--":1212,"Ġinclud":1213,"RI":1214,"eam":1215,"iple":1216,"ĠEn":1217,"Men":1218,"hio":1219,"ara":1220,"ery":1221,"MM":1222,"ĠSch":1223,"mkl":1224,"rew":1225,"mklz":1226,"SD":1227,"76":1228,"ram":1229,"OK":1230,"OT":1231,"ORP":1232,"ĠST":1233,"80":1234,"Want":1235,"Ġpl":1236,"WI":1237,"ocation":1238,"Open":1239,"mson":1240,"NJ":1241,"Ġline":1242,"Ġsecond":1243,"rike":1244,"ĠAver":1245,"Green":1246,"ĠOct":1247,"erman":1248,"ĠNight":1249,"ĠJan":1250,"Ġinformation":1251,"ĠRe":1252,"icago":1253,"ondon":1254,"ose":1255,"DE":1256,"ĠIll":1257,"lex":1258,"ouri":1259,"ron":1260,"74":1261,"84":1262,"ĠFL":1263,"Ġun":1264,"85":1265,"ĠNov":1266,"ĠPRO":1267,"ĠLLC":1268,"onf":1269,"ESS":1270,"HO":1271,"ĠASSIGN":1272,"Fres":1273,"ĠDec":1274,"Louisville":1275,"rod":1276,"PI":1277,"uss":1278,"upp":1279,"rikeout":1280,"ody":1281,"ĠAverages":1282,"iron":1283,"ource":1284,"ĠMc":1285,"onsin":1286,"DONE":1287,"Ex":1288,"isconsin":1289,"ĠASSIGNMENT":1290,"alk":1291,"iver":1292,"onent":1293,"yd":1294,"its":1295,"itu":1296,"Shel":1297,"63":1298,"Co":1299,"Not":1300,"71":1301,"Clemson":1302,"ĠOr":1303,"AD":1304,"Fran":1305,"Stan":1306,"Chicago":1307,"strikeout":1308,"ets":1309,"abama":1310,"Ohio":1311,"eck":1312,"ĠNightly":1313,"alt":1314,"ĠPM":1315,"ai":1316,"ael":1317,"application":1318,"right":1319,"Ġall":1320,"LSU":1321,"Ed":1322,"On":1323,"),":1324,"rad":1325,"lo":1326,"ĠASSIGNOR":1327,"Multiple":1328,"83":1329,"ĠDO":1330,"ĠAngel":1331,"AZ":1332,"ĠDartmouth":1333,"viron":1334,"Wisconsin":1335,"vironment":1336,"ĠEd":1337,"GR":1338,"line":1339,"bs":1340,"idence":1341,"MP":1342,"ĠBro":1343,"ommun":1344,"Atl":1345,"ĠSenator":1346,"eric":1347,"73":1348,"MN":1349,"olog":1350,"TH":1351,"Ġ2005":1352,"...":1353,"ivers":1354,"itor":1355,"En":1356,"Missouri":1357,"ĠX":1358,"ĠJohn":1359,"Alabama":1360,"af":1361,"AND":1362,"ĠASSIGNORS":1363,"posed":1364,"Jack":1365,"ement":1366,"ĠMay":1367,"ys":1368,"ature":1369,"Ġcomput":1370,"ĠFeb":1371,"resent":1372,"Fri":1373,"Fresno":1374,"Shelby":1375,"els":1376,"ĠGu":1377,"port":1378,"87":1379,"Ġwhich":1380,"ars":1381,"rib":1382,"ĠPaper":1383,"omen":1384,"Ġtown":1385,"Ġ00":1386,"ony":1387,"AB":1388,"ring":1389,"IR":1390,"lin":1391,"Ġexper":1392,"Tot":1393,"ĠPA":1394,"oo":1395,"iami":1396,"Ġ[":1397,"isco":1398,"oss":1399,"arb":1400,"Male":1401,"ating":1402,"ior":1403,"ote":1404,"89":1405,"ics":1406,"Ins":1407,"ublic":1408,"let":1409,"UCLA":1410,"eland":1411,"any":1412,"ĠTX":1413,"ico":1414,"1999":1415,"vironmental":1416,"Ġcombin":1417,"Stanford":1418,"London":1419,"SA":1420,"Miami":1421,"ld":1422,"ute":1423,"ferred":1424,"Man":1425,"ĠAngeles":1426,"uck":1427,"her":1428,"ĠNorth":1429,"La":1430,"Ġres":1431,"ateg":1432,"BA":1433,"Gr":1434,"aster":1435,"Eng":1436,"ook":1437,"TE":1438,"onc":1439,"riz":1440,"ethod":1441,"eless":1442,"ĠApr":1443,"ows":1444,"Bro":1445,"ger":1446,"Loss":1447,"Baylor":1448,"Ġprotein":1449,"ETTER":1450,"vent":1451,"ĠMen":1452,"El":1453,"ĠTech":1454,"Ġsystem":1455,"ĠAM":1456,"Aub":1457,"Phil":1458,"ve":1459,"aul":1460,"81":1461,"June":1462,"wood":1463,"ype":1464,"ivity":1465,"Ġint":1466,"ĠLETTER":1467,"Ġexperim":1468,"pm":1469,"Ġcombination":1470,"inu":1471,"alif":1472,"ĠCenter":1473,"ĠPaperback":1474,"ĠCORP":1475,"rig":1476,"Ġinferred":1477,"82":1478,"ireless":1479,"Ġexperimental":1480,"96":1481,"MB":1482,"stream":1483,"Mov":1484,"err":1485,"Auburn":1486,"ĠFull":1487,"Charl":1488,"ĠFranc":1489,"pt":1490,"Ġevidence":1491,"Gl":1492,"ave":1493,"ĠFile":1494,"AP":1495,"Ġcl":1496,"HE":1497,"ĠAnd":1498,"oll":1499,"Ġpresent":1500,"emb":1501,"ular":1502,"Portland":1503,"ĠWatch":1504,"ĠSep":1505,"IF":1506,"UL":1507,"uccess":1508,"oin":1509,"Ġcomputational":1510,"ols":1511,"ĠMore":1512,"we":1513,"Ġsub":1514,"Ġwee":1515,"ALL":1516,"Dan":1517,"inois":1518,"apol":1519,"Ġproposed":1520,"ĠComp":1521,"arm":1522,"ĠNew":1523,"elect":1524,"DIS":1525,"yc":1526,"PAT":1527,"ĠTime":1528,"ner":1529,"Kn":1530,"Ġprov":1531,"And":1532,"ĠBr":1533,"1998":1534,"oice":1535,"ĠQu":1536,"ridge":1537,"Min":1538,"ĠWest":1539,"ald":1540,").":1541,"ĠIL":1542,"61":1543,"Can":1544,"GE":1545,"For":1546,"ayer":1547,"ĠBeach":1548,"March":1549,"erry":1550,"erm":1551,"eph":1552,"July":1553,"Ġnot":1554,"CC":1555,"VE":1556,"Ġone":1557,"Ġpart":1558,"Insitu":1559,"AK":1560,"Disc":1561,"ĠAddress":1562,"ene":1563,"Friday":1564,"ota":1565,"oct":1566,"Or":1567,"Ġrec":1568,"eng":1569,"Ġsc":1570,"ĠSP":1571,"Ġim":1572,"Ġcan":1573,"ME":1574,"Ġ*":1575,"1996":1576,"Success":1577,"ILL":1578,"KY":1579,"rizona":1580,"ise":1581,"ĠPh":1582,"upport":1583,"house":1584,"ases":1585,"ection":1586,"Tuesday":1587,"Ġph":1588,"ategory":1589,"ĠAPI":1590,"Wednesday":1591,"oe":1592,"Ġdata":1593,"Columb":1594,"Davidson":1595,"uild":1596,"Ġ#":1597,"Cell":1598,"97":1599,"pro":1600,"oat":1601,"1997":1602,"Thursday":1603,"Movie":1604,"bject":1605,"Sept":1606,"Ġde":1607,"DC":1608,"Fil":1609,"ison":1610,"mer":1611,"ana":1612,"500":1613,"ices":1614,"aint":1615,"Le":1616,"ĠFrancisco":1617,"ersh":1618,"shire":1619,"use":1620,"Cit":1621,"ITY":1622,"ird":1623,"Ġvalid":1624,"Fr":1625,"apolis":1626,"Mont":1627,"OVA":1628,"ler":1629,"This":1630,"uff":1631,"CE":1632,"ober":1633,"Ġ2004":1634,"Ġcenter":1635,"attle":1636,"Atlanta":1637,"ĠHigh":1638,"eros":1639,"Sw":1640,"ĠPart":1641,"ĠIs":1642,"Monday":1643,"ĠUT":1644,"ĠHill":1645,"amb":1646,"ĠWireless":1647,"arr":1648,"octet":1649,"All":1650,"Ġthis":1651,"ade":1652,"Ġrel":1653,"FC":1654,"Pl":1655,"CHED":1656,"SL":1657,"Flask":1658,"240":1659,"ĠSouth":1660,"Ġal":1661,"mith":1662,"92":1663,"ertion":1664,"ĠEx":1665,"ĠReports":1666,"adel":1667,"April":1668,"ado":1669,"row":1670,"umber":1671,"Ġac":1672,"ium":1673,"unt":1674,"aj":1675,"Ġleft":1676,"ĠWh":1677,"Ġwill":1678,"94":1679,"asters":1680,"93":1681,"ĠFor":1682,"PIT":1683,"CS":1684,"rap":1685,"DISPAT":1686,"Arizona":1687,"DISPATCHED":1688,"Direct":1689,"Ġ2003":1690,"ility":1691,"ural":1692,"que":1693,"PE":1694,"1995":1695,"ĠMA":1696,"Web":1697,"Ġassertion":1698,"erd":1699,"gan":1700,"Ġdis":1701,"ĠAct":1702,"urr":1703,"ermany":1704,"earch":1705,"91":1706,"Ġamendment":1707,"Ġhas":1708,"Ġspecif":1709,"eff":1710,"Rep":1711,"ki":1712,"Ġpre":1713,"task":1714,"ERS":1715,"ased":1716,"Comp":1717,"uary":1718,"Pol":1719,"ĠInd":1720,"VD":1721,"Ġright":1722,"Aeros":1723,"Den":1724,"So":1725,"lish":1726,"oston":1727,"ident":1728,"ward":1729,"ros":1730,"GB":1731,"ces":1732,"**":1733,"Ġmethod":1734,"Ġab":1735,"eta":1736,"PR":1737,"rive":1738,"Ġtrans":1739,"phia":1740,"esh":1741,"Aerosols":1742,"ba":1743,"Dr":1744,"udio":1745,"adelphia":1746,"aliforn":1747,"Ġup":1748,"ortst":1749,"Rec":1750,"reen":1751,"face":1752,"ecial":1753,"IG":1754,"ipp":1755,"ience":1756,"Ġvalidated":1757,"alifornia":1758,"FX":1759,"Ag":1760,"Thu":1761,"250":1762,"Norm":1763,"onst":1764,"ven":1765,"Mc":1766,"rian":1767,"ĠFood":1768,"ĠPlan":1769,"ĠIllinois":1770,"ansas":1771,"ĠNO":1772,"ents":1773,"chester":1774,"Tor":1775,"pplication":1776,"Closed":1777,"ĠLe":1778,"Ġacc":1779,"lement":1780,"ĠHard":1781,"ush":1782,"ideo":1783,"ĠPROGR":1784,"uct":1785,"roup":1786,"pring":1787,"PS":1788,"Geor":1789,"750":1790,"Fort":1791,"ĠAND":1792,"aska":1793,"NS":1794,"ĠCorp":1795,"IM":1796,"ĠServ":1797,"110":1798,"Ġdev":1799,"ney":1800,"lect":1801,"ortstop":1802,"From":1803,"Res":1804,"DB":1805,"eas":1806,"irm":1807,"rol":1808,"ations":1809,"ĠAss":1810,"Austin":1811,"Par":1812,"itoring":1813,"Ġprovid":1814,"ampton":1815,"ĠDoc":1816,"arg":1817,"me":1818,"ĠFl":1819,"Level":1820,"ouston":1821,"ership":1822,"ĠLa":1823,"Jackson":1824,"EV":1825,"Ġinter":1826,"Philadelphia":1827,"ĠPROGRESS":1828,"ELL":1829,"SO":1830,"Away":1831,"II":1832,"Robert":1833,"ative":1834,"155":1835,"Saturday":1836,"Greenhouse":1837,"Rich":1838,"ĠGases":1839,"ĠVol":1840,"2016":1841,"aly":1842,"onnect":1843,"ASSED":1844,"oth":1845,"Tue":1846,"ingham":1847,"oul":1848,"quest":1849,"erc":1850,"LIN":1851,"Ġground":1852,"Other":1853,"Ġhe":1854,"KS":1855,"mp":1856,"Wed":1857,"Boston":1858,"RIN":1859,"Ġday":1860,"Float":1861,"ena":1862,"ĠGl":1863,"Category":1864,"ĠCORPOR":1865,"Seattle":1866,"William":1867,"Ġ,":1868,"ĠView":1869,"ĠRes":1870,"emale":1871,"TA":1872,"ines":1873,"ĠDe":1874,"Masters":1875,"ĠVal":1876,"ocial":1877,"ICA":1878,"ble":1879,"oint":1880,"eview":1881,"bor":1882,"ITH":1883,"comp":1884,"ove":1885,"To":1886,"ĠGA":1887,"De":1888,"LAT":1889,"ano":1890,"ĠAg":1891,"win":1892,"ources":1893,"lands":1894,"ĠMonitoring":1895,"It":1896,"entral":1897,"Activity":1898,"yr":1899,"ology":1900,"ĠCORPORATION":1901,"ELE":1902,"allas":1903,"WC":1904,"ARI":1905,"usic":1906,"atic":1907,"Ġ2002":1908,"part":1909,"Nash":1910,"Normal":1911,"amilton":1912,"ommunication":1913,"Pr":1914,"evelop":1915,"ĠDB":1916,"atus":1917,"ĠKing":1918,"ĠWilliam":1919,"gin":1920,"ĠNE":1921,"Sen":1922,"key":1923,"Ġweeks":1924,"Germany":1925,"ĠBay":1926,"apan":1927,"DF":1928,"ones":1929,"Houston":1930,"eriz":1931,"Ne":1932,"Bar":1933,"Ġro":1934,"Int":1935,"rick":1936,"Mil":1937,"ruary":1938,"BO":1939,"Ġdot":1940,"ĠDC":1941,"ole":1942,"ĠYES":1943,"Ġgener":1944,"dy":1945,"ocket":1946,"Ġvoting":1947,"TON":1948,"SM":1949,"ĠDr":1950,"oci":1951,"lyn":1952,"ralia":1953,"Nashville":1954,"Ġnear":1955,"ica":1956,"Citi":1957,"uk":1958,"Sunday":1959,"ession":1960,"Ġsingle":1961,"ĠLake":1962,"ulture":1963,"Female":1964,"ĠCont":1965,"ĠRec":1966,"oly":1967,"Tr":1968,"ĠGuide":1969,"omas":1970,"Santa":1971,"dt":1972,"ORE":1973,"August":1974,"October":1975,"ues":1976,"amily":1977,"ĠFC":1978,"FA":1979,"December":1980,"ĠQ":1981,"ption":1982,"erver":1983,"ross":1984,"Mad":1985,"ĠBHA":1986,"OP":1987,"ASSIGNORS":1988,"ĠWt":1989,"ĠOH":1990,"rete":1991,"onfig":1992,"ĠPr":1993,"ĠSEC":1994,"ondo":1995,"iles":1996,"ĠDi":1997,"ebr":1998,"Ġ*\"":1999,"str":2000,"sc":2001,"November":2002,"onto":2003,"com":2004,"Michael":2005,"roc":2006,"ware":2007,"ma":2008,"fly":2009,"Re":2010,"None":2011,"cover":2012,"idd":2013,"app":2014,"CHN":2015,"eat":2016,"Bel":2017,"Canada":2018,"won":2019,"single":2020,"1993":2021,"Ġlbs":2022,"ĠPartn":2023,"arri":2024,"ures":2025,"1992":2026,"uilding":2027,"uro":2028,"rough":2029,"mon":2030,"Sal":2031,"ĠTr":2032,"obile":2033,"eld":2034,"obs":2035,"ĠAge":2036,"thly":2037,"etro":2038,"iversity":2039,"west":2040,"Dallas":2041,"HL":2042,"September":2043,"ights":2044,"1994":2045,"ider":2046,"erly":2047,"exico":2048,"tonio":2049,"erizon":2050,"154":2051,"som":2052,"Land":2053,"SF":2054,"Rule":2055,"ĠHardcover":2056,"ML":2057,"ĠAmendment":2058,"Northern":2059,"ibr":2060,"ury":2061,"Ġannot":2062,"play":2063,"107":2064,"Comm":2065,"Ġ35":2066,"ict":2067,"Filly":2068,"Hamilton":2069,"osh":2070,"Ġincludes":2071,"Combin":2072,"VER":2073,"ruct":2074,"CL":2075,"ified":2076,"erican":2077,"ient":2078,"ty":2079,"Ġannotation":2080,"1988":2081,"of":2082,"mond":2083,"ĠPower":2084,"MIN":2085,"ebraska":2086,"ĠMI":2087,"Condo":2088,"irgin":2089,"owf":2090,"alled":2091,"ired":2092,"uring":2093,"Ġcom":2094,"eston":2095,"ebody":2096,"uke":2097,"uch":2098,"Combined":2099,"ĠEnvironmental":2100,"Ġj":2101,"ĠMich":2102,"ĠPartnership":2103,"walk":2104,"000000":2105,"ĠSpecial":2106,"ground":2107,"ats":2108,"somebody":2109,"Discrete":2110,"Ġinst":2111,"ĠAG":2112,"rain":2113,"Ġmod":2114,"00000":2115,"Ġu":2116,"Ġsouth":2117,"Rel":2118,"kins":2119,"ava":2120,"Har":2121,"Totals":2122,"ĠSM":2123,"UCF":2124,"riculture":2125,"wowf":2126,"wowfie":2127,"ĠWITH":2128,"RAN":2129,"ref":2130,"ĠLouis":2131,"ĠMark":2132,"January":2133,"Ġabout":2134,"ego":2135,"erg":2136,"106":2137,"Ġhh":2138,"Ġport":2139,"kn":2140,"ĠOwner":2141,"ampa":2142,"ision":2143,"itz":2144,"Indian":2145,"Gu":2146,"ĠEl":2147,"iff":2148,"orado":2149,"Sch":2150,"DA":2151,"de":2152,"BC":2153,"Japan":2154,"apt":2155,"PH":2156,"As":2157,"Ġlink":2158,"ette":2159,"Brook":2160,"ency":2161,"ĠUS":2162,"work":2163,"ania":2164,"icle":2165,"ĠAntonio":2166,"111":2167,"Ġvalue":2168,"Mary":2169,"CK":2170,"Toronto":2171,"OW":2172,"Nor":2173,"Ġper":2174,"Ma":2175,"ENE":2176,"ĠHouse":2177,"ĠOn":2178,"eve":2179,"BER":2180,"1990":2181,"ason":2182,"Dartmouth":2183,"Private":2184,"1989":2185,"Australia":2186,"Wh":2187,"ml":2188,"300":2189,"Knox":2190,"bon":2191,"ocal":2192,"utom":2193,"COL":2194,"Minn":2195,"na":2196,"ĠOper":2197,"Funn":2198,"India":2199,"Ġvote":2200,"ĠAf":2201,"Nebraska":2202,"ĠSmith":2203,"Ġact":2204,"ycow":2205,"Funnycow":2206,"Ġdevice":2207,"1991":2208,"ĠGr":2209,"ific":2210,"irginia":2211,"reed":2212,"Monthly":2213,"ternal":2214,"ĠTE":2215,"yan":2216,"Denver":2217,"Christ":2218,"ities":2219,"Directory":2220,"ecur":2221,"ense":2222,"Chris":2223,"Be":2224,"Ġdba":2225,"iller":2226,"ontinu":2227,"iter":2228,"td":2229,"MAN":2230,"ĠHe":2231,"jp":2232,"ARD":2233,"Bus":2234,"burgh":2235,"Amdt":2236,"Ġapp":2237,"illa":2238,"Reading":2239,"Ġlayer":2240,"Ġbeen":2241,"Jeff":2242,"ĠTest":2243,"ĠWomen":2244,"Ġmember":2245,"alls":2246,"istan":2247,"Alex":2248,"ASE":2249,"uper":2250,"put":2251,"ĠHar":2252,"Ġnorth":2253,"ommunications":2254,"Ġtime":2255,"Active":2256,"lege":2257,"ĠAll":2258,"302":2259,"ĠCH":2260,"oints":2261,"Kansas":2262,"Ġvoice":2263,"kee":2264,"Cellco":2265,"gram":2266,"ati":2267,"Ġ:":2268,"ling":2269,"veland":2270,"1909":2271,"101":2272,"ka":2273,"evin":2274,"James":2275,"Mike":2276,"ved":2277,"OG":2278,"fr":2279,"iness":2280,"oz":2281,"ĠHol":2282,"rica":2283,"HT":2284,"eed":2285,"ez":2286,"Ġit":2287,"SP":2288,"dom":2289,"Em":2290,"Sl":2291,"otte":2292,"Ġsources":2293,"date":2294,"ĠHall":2295,"Ġset":2296,"ouble":2297,"ĠSchool":2298,"Ġ3240":2299,"REG":2300,"Saint":2301,"urrent":2302,"Total":2303,"ĠSource":2304,"Ġ+":2305,"Pet":2306,"Ġdef":2307,"Ġelect":2308,"raph":2309,"ution":2310,"206":2311,"ĠManually":2312,"Ġmon":2313,"AU":2314,"unning":2315,"yle":2316,"LATIN":2317,"Ġen":2318,"Single":2319,"even":2320,"rie":2321,"ĠTeam":2322,"1987":2323,"NH":2324,"ĠBuilding":2325,"oard":2326,"ounds":2327,"125":2328,"Ġ2000":2329,"ĠII":2330,"DVD":2331,"aid":2332,"ĠVerizon":2333,"oft":2334,"ĠMor":2335,"TI":2336,"oel":2337,"Review":2338,"uz":2339,"ĠEng":2340,"ORN":2341,"ĠTO":2342,"UM":2343,"Ġind":2344,"ung":2345,"otion":2346,"ĠComm":2347,"EF":2348,"KB":2349,"Sr":2350,"aff":2351,"Ġdisc":2352,"TY":2353,"PL":2354,"image":2355,"1984":2356,"ĠSw":2357,"specif":2358,"Public":2359,"esota":2360,"ait":2361,"Ġcol":2362,"Agriculture":2363,"lar":2364,"esc":2365,"ĠRed":2366,"ĠDame":2367,"Ġreg":2368,"FRA":2369,"gia":2370,"arks":2371,"ij":2372,"NM":2373,"ersion":2374,"Ġapplication":2375,"??":2376,"ract":2377,"ANK":2378,"Relocation":2379,"Ast":2380,"ĠPDB":2381,"SW":2382,"etwork":2383,"ĠCOMP":2384,"known":2385,"Adult":2386,"view":2387,"String":2388,"sport":2389,"ilver":2390,"ĠSMALL":2391,"ĠJobs":2392,"ĠServices":2393,"ĠAL":2394,"bury":2395,"English":2396,"ely":2397,"Ted":2398,"ough":2399,"sw":2400,"App":2401,"Ġprocess":2402,"Ġevidencei":2403,"ĠSC":2404,"Mor":2405,"Ġother":2406,"Mark":2407,"ife":2408,"ĠDiego":2409,"ĠReform":2410,"Ġmin":2411,"MT":2412,"1986":2413,"Notre":2414,"ĠBar":2415,"Jacksonville":2416,"HC":2417,"ĠCamp":2418,"component":2419,"uel":2420,"ĠTN":2421,"113":2422,"ky":2423,"ĠuM":2424,"ĠMain":2425,"Cleveland":2426,"utes":2427,"oper":2428,"AC":2429,"Hal":2430,"lost":2431,"Women":2432,"Ġnumber":2433,"SR":2434,"irc":2435,"igned":2436,"ids":2437,"CD":2438,"Is":2439,"Ġthrough":2440,"1911":2441,"oot":2442,"ffic":2443,"ission":2444,"ero":2445,"Ġfl":2446,"Ġend":2447,"France":2448,"Per":2449,"ĠRiver":2450,"209":2451,"ND":2452,"ĠNC":2453,"ĠRead":2454,"Colt":2455,"den":2456,"Ġused":2457,"alm":2458,"ween":2459,"ording":2460,"ean":2461,"urface":2462,"LOS":2463,"ĠDay":2464,"February":2465,"ĠWA":2466,"Team":2467,"ĠJr":2468,"bl":2469,"rey":2470,"ules":2471,"CON":2472,"ĠWeb":2473,"ĠCommunications":2474,"Ġaccess":2475,"Reg":2476,"Environmental":2477,"Ġ2001":2478,"AA":2479,"**)":2480,"ĠBell":2481,"ĠBrown":2482,"ibrary":2483,"Ġlist":2484,"amin":2485,"unch":2486,"Val":2487,"itts":2488,"Bob":2489,"Brian":2490,"Cal":2491,"Def":2492,"Ġ1998":2493,"ĠCat":2494,"150":2495,"Wil":2496,"Ġfile":2497,"unction":2498,"osition":2499,"ĠThis":2500,"Ġbet":2501,"ĠManag":2502,"PITAL":2503,"Tampa":2504,"ĠOR":2505,"fl":2506,"ĠPet":2507,"ĠPaul":2508,"raz":2509,"ourn":2510,"oun":2511,"ĠQuick":2512,"andy":2513,"ĠNOT":2514,"Ġnew":2515,"1910":2516,"Ġtype":2517,"Columbus":2518,"Ġscience":2519,"urope":2520,"dra":2521,"avis":2522,"Ġant":2523,"104":2524,"180":2525,"Ġmay":2526,"Jr":2527,"Ġsign":2528,"Ġdrive":2529,"ĠMO":2530,"LAN":2531,"oen":2532,"GEL":2533,"acing":2534,"ria":2535,"Ġ1999":2536,"ux":2537,"ealth":2538,"ĠClass":2539,"ugh":2540,"Ġusing":2541,"Haw":2542,"ration":2543,"ĠChrist":2544,"ĠSECUR":2545,"ĠPAR":2546,"oln":2547,"load":2548,"ĠSocial":2549,"atab":2550,"Ġret":2551,"ains":2552,"ein":2553,"PASSED":2554,"ization":2555,"agn":2556,"Mr":2557,"Ann":2558,"ĠLow":2559,"BAL":2560,"Ġtest":2561,"Ġserv":2562,"Del":2563,"Ġrequest":2564,"ĠSECURITY":2565,"AG":2566,"120":2567,"gl":2568,"Red":2569,"itcher":2570,"Ġsupport":2571,"bit":2572,"CAN":2573,"Alb":2574,"MAR":2575,"awa":2576,"STE":2577,"xide":2578,"ander":2579,"Ġdays":2580,"ethane":2581,"ĠCAPITAL":2582,"Brooklyn":2583,"Manchester":2584,"Ġdevelop":2585,"ĠFOR":2586,"PG":2587,"Met":2588,"tr":2589,"Ġwhen":2590,"Jim":2591,"MIT":2592,"ants":2593,"def":2594,"Ġtop":2595,"imore":2596,"Mobile":2597,"ae":2598,"ĠBank":2599,"123":2600,"Columbia":2601,"ĠUTC":2602,"ĠCompany":2603,"KE":2604,"No":2605,"oys":2606,"LO":2607,"Ġonly":2608,"Ġaddress":2609,"Ġagreed":2610,"ĠOperator":2611,"Minnesota":2612,"BY":2613,"REE":2614,"second":2615,"ĠAfrica":2616,"ster":2617,"edia":2618,"ĠANGEL":2619,"ĠMart":2620,"ather":2621,"etermin":2622,"Pan":2623,"With":2624,"LY":2625,"ONSC":2626,"BR":2627,"eet":2628,"Ġ100":2629,"ONSCENE":2630,"altimore":2631,"IFORN":2632,"TR":2633,"FOR":2634,"DR":2635,"Teddy":2636,"rik":2637,"ĠANGELES":2638,"ĠPCS":2639,"deb":2640,"shortstop":2641,"Ac":2642,"ĠProject":2643,"andard":2644,"ital":2645,"Charlotte":2646,"End":2647,"erdale":2648,"olph":2649,"Ġleast":2650,"IFORNIA":2651,"uderdale":2652,"gen":2653,"Ġcons":2654,"ĠYou":2655,"Ġbetween":2656,"oor":2657,"151":2658,"HAR":2659,"JR":2660,"Dick":2661,"Ir":2662,"irl":2663,"leans":2664,"...\"":2665,"Ab":2666,"ontinuance":2667,"CY":2668,"Paul":2669,"ible":2670,"onfigur":2671,"PK":2672,"pon":2673,"EX":2674,"Ev":2675,"uthor":2676,"ryst":2677,"ser":2678,"Sam":2679,"ells":2680,"Ġmore":2681,"GER":2682,"ĠValley":2683,"Ġbl":2684,"ords":2685,"atabase":2686,"ĠCAL":2687,"Story":2688,"Ass":2689,"ese":2690,"121":2691,"Ġuse":2692,"ĠSY":2693,"lando":2694,"ĠIt":2695,"Minne":2696,"Ġautom":2697,"Mat":2698,"Ġinto":2699,"ĠAir":2700,"ĠLtd":2701,"OLD":2702,"cast":2703,"rop":2704,"ĠCon":2705,"PDF":2706,"Cr":2707,"han":2708,"wo":2709,"enh":2710,"Italy":2711,"Mel":2712,"ĠPASS":2713,"wau":2714,"ĠAc":2715,"ĠUniversity":2716,"Daniel":2717,"ĠBlack":2718,"specified":2719,"ĠNV":2720,"190":2721,"Pak":2722,"ecurity":2723,"Ġobject":2724,"Video":2725,"ĠCan":2726,"state":2727,"eptor":2728,"ĠSe":2729,"ĠAve":2730,"Pitts":2731,"IE":2732,"ault":2733,"berg":2734,"list":2735,"ange":2736,"umm":2737,"gz":2738,"ĠAZ":2739,"BM":2740,"ANY":2741,"1985":2742,"SON":2743,"monton":2744,"IP":2745,"Ġwater":2746,"Ber":2747,"Ġrece":2748,"Sub":2749,"ura":2750,"ĠMo":2751,"Im":2752,"GO":2753,"arc":2754,"waukee":2755,"REMI":2756,"Fin":2757,"ĠSpr":2758,"159":2759,"Baltimore":2760,"ites":2761,"ĠAR":2762,"CR":2763,"ittle":2764,"Spring":2765,"real":2766,"ĠCalifornia":2767,"Ġ1997":2768,"Ġdet":2769,"for":2770,"led":2771,"asterly":2772,"Ġ50":2773,"Black":2774,"Central":2775,"thers":2776,"iet":2777,"ĠUSA":2778,"ales":2779,"ĠRock":2780,"ecked":2781,"Russ":2782,"quence":2783,"ĠOrleans":2784,"useum":2785,"Real":2786,"vel":2787,"Pat":2788,"iction":2789,"ĠCharl":2790,"Stalled":2791,"Ġsim":2792,"ĠGreen":2793,"yp":2794,"Busch":2795,"etroit":2796,"OD":2797,"ĠArm":2798,"Ben":2799,"off":2800,"actor":2801,"owa":2802,"Madison":2803,"oud":2804,"ĠDID":2805,"rem":2806,"ills":2807,"Minneapolis":2808,"unspecified":2809,"earn":2810,"ference":2811,"105":2812,"rigley":2813,".)":2814,"oenix":2815,"Ret":2816,"aving":2817,"AV":2818,"ĠStudio":2819,"Ant":2820,"Don":2821,"Wrigley":2822,"arn":2823,"Ġuser":2824,"ĠMD":2825,"ship":2826,"aract":2827,"Ġcomm":2828,"California":2829,"Tig":2830,"East":2831,"hk":2832,"Ġ40":2833,"drawn":2834,"Orlando":2835,"df":2836,"ument":2837,"ita":2838,"ĠBel":2839,"inux":2840,"urt":2841,"1982":2842,"ĠDan":2843,"Case":2844,"ouver":2845,"NEM":2846,"Ġqu":2847,"Replic":2848,"ownload":2849,"incoln":2850,"Replicate":2851,"ments":2852,"TS":2853,"ĠMod":2854,"Cont":2855,"amm":2856,"EE":2857,"Ġaccording":2858,"Ġ201":2859,"incinn":2860,"Ġele":2861,"ĠKingdom":2862,"icense":2863,"incinnati":2864,"Dro":2865,"England":2866,"1980":2867,"oad":2868,"DU":2869,"TT":2870,"ĠWind":2871,"Add":2872,"const":2873,"Milwaukee":2874,"tar":2875,"ĠSta":2876,"ĠMat":2877,"ancouver":2878,"ĠMin":2879,"ourt":2880,"ĠEast":2881,"ola":2882,"Pittsburgh":2883,"inger":2884,"wich":2885,"205":2886,"rim":2887,"ATES":2888,"alo":2889,"ĠGeor":2890,"BL":2891,"esign":2892,"Opp":2893,"eder":2894,"thew":2895,"OU":2896,"Methane":2897,"oseph":2898,"Ġallows":2899,"Ġexp":2900,"ize":2901,"iana":2902,"WAS":2903,"Detroit":2904,"jpeg":2905,"Sar":2906,"Ġcontrol":2907,"partment":2908,"005":2909,"Pakistan":2910,"ĠArt":2911,"irmingham":2912,"oph":2913,"inding":2914,"acific":2915,"overn":2916,"PP":2917,"hib":2918,"Tim":2919,"ĠWay":2920,"CM":2921,"gar":2922,"Dod":2923,"Mexico":2924,"Ġgenerated":2925,"ĠTele":2926,"CHA":2927,"urg":2928,"Georgia":2929,"oration":2930,"aven":2931,"ĠSan":2932,"Declar":2933,"Hour":2934,"Test":2935,"ĠJohnson":2936,"Ġcompr":2937,"ĠWI":2938,"ĠRepublic":2939,"Ġconfigur":2940,"Object":2941,"Lar":2942,"aps":2943,"eneral":2944,"Cincinnati":2945,"204":2946,"Prot":2947,"oga":2948,"TD":2949,"urch":2950,"108":2951,"ĠJames":2952,"Sac":2953,"lean":2954,"eq":2955,"pped":2956,"112":2957,"Opponent":2958,"ĠMiss":2959,"ness":2960,"ĠWilliams":2961,"ĠCALIFORNIA":2962,"Tem":2963,"ape":2964,"ogs":2965,"Ġyou":2966,"Ġ>":2967,"Non":2968,"ĠNEW":2969,"Apartment":2970,"ĠFalls":2971,"ĠOf":2972,"109":2973,"Ġman":2974,"ĠDavid":2975,"ret":2976,"Ġclass":2977,"ism":2978,"arter":2979,"Ġportion":2980,"raw":2981,"ĠLibrary":2982,"Joe":2983,"acc":2984,"ym":2985,"HER":2986,"RED":2987,"Ġdisplay":2988,"Ġif":2989,"Hourly":2990,"adley":2991,"ariant":2992,"Ġ$":2993,"102":2994,"ictor":2995,"ising":2996,"ĠHighway":2997,"Class":2998,"QU":2999,"rd":3000,"Date":3001,"ribute":3002,"ek":3003,"Ġconnect":3004,"103":3005,"rs":3006,"read":3007,"Duke":3008,"Ott":3009,"ĠRich":3010,"Richard":3011,"ĠAnch":3012,"195":3013,"Ġover":3014,"uction":3015,"Ġoper":3016,"Hol":3017,"Phoenix":3018,"ĠCOMPANY":3019,"ever":3020,"NEW":3021,"Ġphone":3022,"HOU":3023,"ĠIsland":3024,"Indianapolis":3025,"well":3026,"American":3027,"ioxide":3028,"eries":3029,"ATE":3030,"Ġincluding":3031,"Ġfil":3032,"con":3033,"ĠGroup":3034,"Out":3035,"uf":3036,"ha":3037,"rict":3038,"owb":3039,"ransport":3040,"ension":3041,"ixed":3042,"Rock":3043,"Dropped":3044,"Law":3045,"ĠAugust":3046,"ĠSU":3047,"CP":3048,"Ġfly":3049,"Ken":3050,"ĠVA":3051,"1983":3052,"GL":3053,"PHI":3054,"ayout":3055,"ools":3056,"ORK":3057,"Vancouver":3058,"Ġwhere":3059,"CIN":3060,"153":3061,"Ġ1996":3062,"orner":3063,"Cam":3064,"boro":3065,"ally":3066,"ĠCT":3067,"Turn":3068,"inks":3069,"Matt":3070,"vention":3071,"ĠRacing":3072,"Ġmonth":3073,"331":3074,"Java":3075,"Ġtr":3076,"ancial":3077,"ala":3078,"SY":3079,"Frank":3080,"uth":3081,"elle":3082,"WV":3083,"115":3084,"Ġ45":3085,"enry":3086,"Ġrep":3087,"olk":3088,"ending":3089,"orage":3090,"SAN":3091,"usiness":3092,"ustin":3093,"ĠSystem":3094,"Ġ1995":3095,"lete":3096,"ĠDioxide":3097,"ĠWil":3098,"ĠOK":3099,"ua":3100,"aries":3101,"Ġ2016":3102,"TPE":3103,"acy":3104,"Senior":3105,"Off":3106,"ality":3107,"Vote":3108,"Grand":3109,"ograph":3110,"rum":3111,"ĠPer":3112,"ĠAncheta":3113,"Oak":3114,"1250":3115,"ĠUni":3116,"Johnoel":3117,"Ġreceptor":3118,"Watching":3119,"Ġatt":3120,"uit":3121,"099":3122,"ROM":3123,"range":3124,"ien":3125,"ĠVote":3126,"ĠShe":3127,"ĠReg":3128,"Ġspecified":3129,"pha":3130,"453":3131,"BOL":3132,"onduct":3133,"AUS":3134,"031":3135,"Ġdo":3136,"Mare":3137,"Drag":3138,"ĠLauderdale":3139,"ANA":3140,"ĠIntern":3141,"ĠOb":3142,"ny":3143,"ealand":3144,"Junior":3145,"ysis":3146,"1978":3147,"ives":3148,"CHO":3149,"Ġdetermin":3150,"third":3151,"TOR":3152,"ora":3153,"Ġcurrent":3154,"ylv":3155,"eature":3156,"md":3157,"ĠZealand":3158,"ized":3159,"ms":3160,"ope":3161,"CI":3162,"Ġhaving":3163,"atural":3164,"BE":3165,"aker":3166,"Con":3167,"Specif":3168,"VT":3169,"1976":3170,"Unknown":3171,"158":3172,"TRE":3173,"SH":3174,"ĠHyd":3175,"egr":3176,"ĠVoice":3177,"157":3178,"ta":3179,"ya":3180,"cont":3181,"Free":3182,"athan":3183,"Ġdouble":3184,"eman":3185,"140":3186,"ĠUniProt":3187,"och":3188,"ĠUniProtKB":3189,"506":3190,"GC":3191,"Ġeach":3192,"osit":3193,"ours":3194,"Andrew":3195,"tra":3196,"ĠInter":3197,"arbara":3198,"Ġrules":3199,"Dis":3200,"We":3201,"Ġunit":3202,"156":3203,"rip":3204,"rence":3205,"oute":3206,"ĠWood":3207,"elding":3208,"Ġcre":3209,"FT":3210,"iqu":3211,"ĠMarch":3212,"ample":3213,"oke":3214,"ĠRE":3215,"ernel":3216,"Ġcon":3217,"FI":3218,"Hon":3219,"ĠMN":3220,"active":3221,"Music":3222,"State":3223,"Dev":3224,"UK":3225,"Ottawa":3226,"Dodger":3227,"Buff":3228,"USC":3229,"ĠTHE":3230,"Lincoln":3231,"anda":3232,"fo":3233,"ĠRivers":3234,"FP":3235,"Ġext":3236,"134":3237,"1973":3238,"ĠAnt":3239,"ĠRd":3240,"1981":3241,"Vern":3242,"duct":3243,"Ġreport":3244,"Ġpoly":3245,"ĠSpring":3246,"128":3247,"venue":3248,"mark":3249,"Ut":3250,"STR":3251,"Ġshortstop":3252,"alysis":3253,"iving":3254,"Ġautomatic":3255,"strate":3256,"Sea":3257,"Forum":3258,"ĠSprings":3259,"ĠMuseum":3260,"pop":3261,"122":3262,"ATL":3263,"lymp":3264,"ĠClub":3265,"114":3266,"side":3267,"Meteor":3268,"arsing":3269,"Jon":3270,"river":3271,"olphin":3272,"ĠPar":3273,"Dig":3274,"ingular":3275,"RB":3276,"Ġsite":3277,"ĠJack":3278,"ĠDE":3279,"sch":3280,"val":3281,"Birmingham":3282,"Gelding":3283,"ilar":3284,"210":3285,"Cons":3286,"dale":3287,"Name":3288,"1977":3289,"Colorado":3290,"COM":3291,"ĠPol":3292,"ento":3293,"text":3294,"ender":3295,"ITA":3296,"Tom":3297,"116":3298,"ache":3299,"ĠRO":3300,"ĠDel":3301,"ĠMary":3302,"Acc":3303,"Ġfunction":3304,"ĠRELE":3305,"stone":3306,"ĠUp":3307,"460":3308,"unched":3309,"ĠAvenue":3310,"ĠLee":3311,"ephen":3312,"mall":3313,"ips":3314,"Effective":3315,"oom":3316,"1979":3317,"ĠAlex":3318,"ĠEm":3319,"ĠEag":3320,"ray":3321,"uther":3322,"130":3323,"Mac":3324,"Meteorology":3325,"like":3326,"RM":3327,"Spain":3328,"135":3329,"SG":3330,"Ġimage":3331,"heim":3332,"quired":3333,"adge":3334,"OLOG":3335,"abbit":3336,"118":3337,"ĠAb":3338,"SAX":3339,"Ġroad":3340,"National":3341,"roved":3342,"River":3343,"osph":3344,"Med":3345,"Montreal":3346,"ountain":3347,"ĠRELEASE":3348,"Bug":3349,"Ġbased":3350,"Ġspecific":3351,"Ġfamily":3352,"ĠCON":3353,"Ham":3354,"aining":3355,"Bill":3356,"Launched":3357,"1912":3358,"MIL":3359,"Veter":3360,"ĠBrook":3361,"onym":3362,"ociated":3363,"TREBOL":3364,"HOD":3365,"Ġtopic":3366,"MF":3367,"ĠCent":3368,"phy":3369,"ĠFr":3370,"la":3371,"Scott":3372,"met":3373,"202":3374,"ams":3375,"Ġadd":3376,"ĠParsing":3377,"TEX":3378,"idge":3379,"Carl":3380,"eh":3381,"otor":3382,"Ġprovided":3383,"Ġfactor":3384,"Page":3385,"ĠSingle":3386,"ĠMarket":3387,"CLE":3388,"olt":3389,"EA":3390,"stit":3391,"angu":3392,"opher":3393,"lington":3394,"124":3395,"ability":3396,"ĠCollege":3397,"Ġfr":3398,"ĠAnderson":3399,"203":3400,"China":3401,"ĠInt":3402,"airs":3403,"ĠFin":3404,"By":3405,"vert":3406,"HP":3407,"ĠBANK":3408,"ĠRh":3409,"Checked":3410,"ĠThomas":3411,"George":3412,"ister":3413,"Paris":3414,"Ġread":3415,"ĠCorporation":3416,"ĠTECHN":3417,"esterly":3418,"ĠNJ":3419,"127":3420,"uan":3421,"Ġapplications":3422,"Ġinclude":3423,"Ġmet":3424,"ĠJones":3425,"ĠIm":3426,"aron":3427,"RILL":3428,"ĠFund":3429,"ancy":3430,"defect":3431,"Ġhigh":3432,"razil":3433,"192":3434,"ĠCOL":3435,"ĠTechn":3436,"ournal":3437,"bell":3438,"Art":3439,"Ġany":3440,"za":3441,"Thomas":3442,"ĠMad":3443,"antic":3444,"Ġrulesi":3445,"emic":3446,"arriors":3447,"DI":3448,"175":3449,"160":3450,"Ġprovides":3451,"uman":3452,"lib":3453,"ĠGo":3454,"aterial":3455,"ETHOD":3456,"Europe":3457,"ĠProf":3458,"SK":3459,"leted":3460,"aters":3461,"Withdrawn":3462,"olf":3463,"Pre":3464,"Ġsignal":3465,"Ġz":3466,"Olymp":3467,"Ġsurface":3468,"ĠYORK":3469,"ĠJose":3470,"ps":3471,"147":3472,"ALE":3473,"Approved":3474,"1908":3475,"idae":3476,"ruction":3477,"also":3478,"akes":3479,"Ġdevelopers":3480,"Salt":3481,"129":3482,"Maryland":3483,"oform":3484,"GH":3485,"600":3486,"ically":3487,"rea":3488,"Ġpar":3489,"Ġprec":3490,"cpp":3491,"eds":3492,"lection":3493,"ript":3494,"ĠTECHNOLOG":3495,"ĠMichael":3496,"Ġdom":3497,"Ġno":3498,",\"":3499,"126":3500,"Peter":3501,"irus":3502,"Ġweek":3503,"med":3504,"ĠMur":3505,"therlands":3506,"Book":3507,"Ġem":3508,"istrict":3509,"ĠRadi":3510,"ĠCap":3511,"2500":3512,"Ryan":3513,"1975":3514,"ĠPat":3515,"END":3516,"inson":3517,"ĠRap":3518,"emy":3519,"Veterans":3520,"Ġduring":3521,"LINE":3522,"ĠPort":3523,"ĠFROM":3524,"Ġrun":3525,"orld":3526,"))":3527,"roke":3528,"DET":3529,"emory":3530,"Three":3531,"Card":3532,"117":3533,"Ġopen":3534,"ias":3535,"apping":3536,"ĠSal":3537,"plic":3538,"Tit":3539,"ĠSYSTE":3540,"ucation":3541,"eel":3542,"Li":3543,"onfirm":3544,"Ġhow":3545,"ĠRow":3546,"print":3547,"ĠFlor":3548,"iffer":3549,"aha":3550,"ula":3551,"Ġmess":3552,"ĠDirect":3553,"klin":3554,"Jo":3555,"PN":3556,"PF":3557,"hem":3558,"ranch":3559,"Ġse":3560,"ĠCooper":3561,"Person":3562,"GBR":3563,"ĠSilver":3564,"ĠRail":3565,"ems":3566,"ots":3567,"ĠCingular":3568,"ĠWhite":3569,"pdf":3570,"ĠSim":3571,"LP":3572,"145":3573,"OM":3574,"ĠHills":3575,"alth":3576,"ĠBill":3577,"ĠLife":3578,"esa":3579,"1974":3580,"Linux":3581,"Carbon":3582,"eden":3583,"Cat":3584,"ays":3585,"ĠAs":3586,"ench":3587,"ructure":3588,"Ġident":3589,"ĠLA":3590,"ĠRobert":3591,"vis":3592,"overnment":3593,"alc":3594,"ended":3595,"Mid":3596,"essions":3597,"aily":3598,"Dou":3599,"entina":3600,"rett":3601,"oon":3602,"CAL":3603,"ĠSE":3604,"ĠTexas":3605,"ker":3606,"207":3607,"Declaration":3608,"odd":3609,"erica":3610,"1972":3611,"Pres":3612,"IVE":3613,"1966":3614,"Ġrem":3615,"Kevin":3616,"ĠPASSED":3617,"PER":3618,"ĠTo":3619,"Ġmethods":3620,"ĠJune":3621,"AH":3622,"Ġinvention":3623,"rpm":3624,"Action":3625,"Bull":3626,"omin":3627,"ramento":3628,"QC":3629,"INE":3630,"ĠEagles":3631,"Ġmonths":3632,"Water":3633,"trans":3634,"ards":3635,"rison":3636,"ĠServer":3637,"Day":3638,"ĠBur":3639,"Storm":3640,"head":3641,"ĠDrive":3642,"170":3643,"Arg":3644,"119":3645,"Ath":3646,"CU":3647,"osm":3648,"Ġlight":3649,"Virginia":3650,"ampshire":3651,"Elect":3652,"Will":3653,"obal":3654,"Ġwe":3655,"br":3656,"Ġplural":3657,"Rob":3658,"ĠBand":3659,"Richmond":3660,"rif":3661,"Ġback":3662,"cel":3663,"SDSM":3664,"ĠSept":3665,"loss":3666,"Ġselect":3667,"ĠVirginia":3668,"ylvania":3669,"Ful":3670,"ĠSol":3671,"cy":3672,"152":3673,"osa":3674,"Ġsimilar":3675,"1971":3676,"System":3677,"400":3678,"dated":3679,"Camb":3680,"Over":3681,"Ġserver":3682,"WO":3683,"sey":3684,"FF":3685,"aracter":3686,"304":3687,"ustom":3688,"ĠJuly":3689,"mar":3690,"Rabbit":3691,"ĠON":3692,"owboys":3693,"eton":3694,"enna":3695,"eno":3696,"146":3697,"uy":3698,"Ġent":3699,"Penn":3700,"ĠCons":3701,"sa":3702,"ucle":3703,"ĠMass":3704,"Ġalso":3705,"about":3706,"ety":3707,"my":3708,"Er":3709,"Ġar":3710,"STON":3711,"208":3712,"ORTH":3713,"Victor":3714,"Matthew":3715,"ĠProt":3716,"idered":3717,"Ref":3718,"Prov":3719,"Ġrelocation":3720,"rome":3721,"LAPS":3722,"variant":3723,"ince":3724,"Oakland":3725,"TestCase":3726,"Inter":3727,"ittee":3728,"ĠDavis":3729,"Ġpass":3730,"RY":3731,"139":3732,"oto":3733,"ĠRob":3734,"action":3735,"SIGNING":3736,"SS":3737,"Ġhave":3738,"Wind":3739,"ĠDep":3740,"perty":3741,"Steve":3742,"ella":3743,"MON":3744,"DD":3745,"ĠWorth":3746,"INS":3747,"Ġplurality":3748,"174":3749,"ocument":3750,"Turner":3751,"165":3752,"Po":3753,"Stroke":3754,"Hard":3755,"Pacific":3756,"uis":3757,"Points":3758,"ĠDATES":3759,"verage":3760,"Ġsuch":3761,"Ġnon":3762,"ists":3763,"ĠDocket":3764,"ĠRD":3765,"sen":3766,"ious":3767,"RUS":3768,"ĠManagement":3769,"Sim":3770,"Ġyour":3771,"ĠDownload":3772,"ĠMusic":3773,"eer":3774,"Ġisoform":3775,"ordan":3776,"board":3777,"ĠTim":3778,"1956":3779,"ĠCal":3780,"Docket":3781,"ĠOnly":3782,"utter":3783,"plain":3784,"UP":3785,"ĠBen":3786,"akota":3787,"ves":3788,"reat":3789,"ĠPal":3790,"ece":3791,"dogs":3792,"ICE":3793,"ĠArch":3794,"chest":3795,"187":3796,"ĠUnder":3797,"188":3798,"Ġcomponent":3799,"Journal":3800,"ca":3801,"CB":3802,"161":3803,"ĠCentral":3804,"ĠCourt":3805,"alf":3806,"ĠUnion":3807,"nin":3808,"less":3809,"131":3810,"ĠGround":3811,"TION":3812,"142":3813,"141":3814,"be":3815,"oid":3816,"ĠEP":3817,"NO":3818,"leg":3819,"185":3820,"ursor":3821,"ĠCom":3822,"ĠHa":3823,"BOS":3824,"Brazil":3825,"ĠRapids":3826,"ĠBall":3827,"ersey":3828,"pool":3829,"181":3830,"ennis":3831,"front":3832,"Ġreview":3833,"aiders":3834,"1970":3835,"ĠApril":3836,"CHI":3837,"ĠHealth":3838,"ewis":3839,"Ġdep":3840,"WR":3841,"BU":3842,"based":3843,"Ġthan":3844,"INGTON":3845,"ĠTown":3846,"Netherlands":3847,"Sharks":3848,"OAK":3849,"Completed":3850,"sylvania":3851,"order":3852,"olic":3853,"lins":3854,"ĠLinks":3855,"ĠWe":3856,"acob":3857,"Greg":3858,"Ġcor":3859,"aver":3860,"ĠTested":3861,"usan":3862,"ump":3863,"ILLE":3864,"Rem":3865,"ectrum":3866,"178":3867,"ĠGold":3868,"itzer":3869,"Tigers":3870,"Fred":3871,"ification":3872,"elly":3873,"ivision":3874,"aleigh":3875,"RP":3876,"Sacramento":3877,"sea":3878,"ĠOut":3879,"Ġsource":3880,"021":3881,"463":3882,"Buffalo":3883,"Lake":3884,"Verno":3885,"mit":3886,"137":3887,"Ġgroup":3888,"ENS":3889,"Max":3890,"aka":3891,"Sa":3892,"abeth":3893,"erb":3894,"andon":3895,"thony":3896,"kk":3897,"Ġwork":3898,"Running":3899,"lywood":3900,"Ġside":3901,"LECT":3902,"error":3903,"IZ":3904,"Sold":3905,"lad":3906,"Great":3907,"Ġhealth":3908,"\"-":3909,"illage":3910,"ĠAF":3911,"Ġdirect":3912,"138":3913,"ercial":3914,"Commun":3915,"era":3916,"bab":3917,"ounted":3918,"ength":3919,"ential":3920,"asc":3921,"VAN":3922,"Bo":3923,"High":3924,"Ġavailable":3925,"1968":3926,"press":3927,"Ġsubstrate":3928,"aton":3929,"XML":3930,"ucky":3931,"136":3932,"ĠRuss":3933,"Age":3934,"Ġcorner":3935,"Code":3936,"vest":3937,"Warriors":3938,"Panthers":3939,"LD":3940,"Kent":3941,"172":3942,"Ġsoutherly":3943,"ARIZ":3944,"ĠIA":3945,"WAIT":3946,"ĠTrans":3947,"Sweden":3948,"roy":3949,"Ġunder":3950,"ĠKn":3951,"ĠSl":3952,"ails":3953,"1967":3954,"Dragons":3955,"ĠPrad":3956,"King":3957,"BI":3958,"Uni":3959,"Kar":3960,"ĠOl":3961,"ORT":3962,"jar":3963,"rodome":3964,"166":3965,"UNAT":3966,"onz":3967,"ional":3968,"ĠWat":3969,"inda":3970,"ĠKernel":3971,"ĠHAM":3972,"enb":3973,"167":3974,"eger":3975,"ived":3976,"iddle":3977,"149":3978,"add":3979,"Part":3980,"rail":3981,"Gold":3982,"133":3983,"Ros":3984,"arw":3985,"gom":3986,"Ġoff":3987,"Sprint":3988,"ple":3989,"ogg":3990,"Ġthen":3991,"Ġmult":3992,"teration":3993,"ables":3994,"vers":3995,"aces":3996,"gow":3997,"ĠMartin":3998,"LEY":3999,"pass":4000,"LAND":4001,"MC":4002,"INGS":4003,"132":4004,"ĠKY":4005,"Carolina":4006,"Tri":4007,"Ġour":4008,"ĠRel":4009,"Knights":4010,"Titans":4011,"reek":4012,"Wait":4013,"rich":4014,"Om":4015,"ĠStud":4016,"SEA":4017,"ituaries":4018,"yler":4019,"IES":4020,"AST":4021,"RES":4022,"ĠAt":4023,"icut":4024,"ĠObituaries":4025,"aro":4026,"ĠLaw":4027,"ohs":4028,"476":4029,"191":4030,"to":4031,"Ġ1994":4032,"urns":4033,"rocarb":4034,"ĠMurphy":4035,"Ġsol":4036,"Vol":4037,"Dolphin":4038,"string":4039,"Lanc":4040,"sur":4041,"gomery":4042,"alia":4043,"Eric":4044,"ww":4045,"the":4046,"Riverfront":4047,"Ġmaterial":4048,"Des":4049,"ipe":4050,"NYN":4051,"ĠSpectrum":4052,"ould":4053,"ĠMiller":4054,"Astrodome":4055,"183":4056,"Ġpr":4057,"asgow":4058,"Ġlicense":4059,"Cowboys":4060,"ĠDakota":4061,"arren":4062,"ĠAmerican":4063,"SDN":4064,"onnecticut":4065,"Bronc":4066,"rade":4067,"ĠAnalysis":4068,"Broncos":4069,"ĠEle":4070,"Ray":4071,"Ġasset":4072,"Raiders":4073,"izabeth":4074,"386":4075,"Ash":4076,"isa":4077,"Iowa":4078,"osters":4079,"ĠBridge":4080,"Cand":4081,"ĠMexico":4082,"BB":4083,"Ġtwo":4084,"ivirus":4085,"AF":4086,"bour":4087,"chestra":4088,"PT":4089,"omy":4090,"inter":4091,"onymous":4092,"WCM":4093,"ift":4094,"ify":4095,"Oper":4096,"utt":4097,"ears":4098,"Jason":4099,"ĠColorado":4100,"Sav":4101,"ĠPAT":4102,"ĠForm":4103,"SFN":4104,"ĠDev":4105,"477":4106,"ĠRod":4107,"Ġinterface":4108,"Ġbinding":4109,"rev":4110,"Eels":4111,"Os":4112,"east":4113,"Soft":4114,"CAR":4115,"Ġcirc":4116,"ancement":4117,"ema":4118,"oming":4119,"ĠTrain":4120,"eville":4121,"He":4122,"Bulldogs":4123,"Ġthird":4124,"184":4125,"Sk":4126,"ored":4127,"ĠAGREE":4128,"ĠHampshire":4129,"Ġdist":4130,"ĠYoung":4131,"470":4132,"Merc":4133,"Nick":4134,"Ġprecursor":4135,"ĠAGREEMENT":4136,"ĠOTH":4137,"Raleigh":4138,"Ġconc":4139,"ollow":4140,"Ġelement":4141,"Ġvis":4142,"Ġstate":4143,"ription":4144,"annel":4145,"ĠNetwork":4146,"ĠID":4147,"tim":4148,"164":4149,"ko":4150,"aging":4151,"004":4152,"1969":4153,"Oz":4154,"ĠEdition":4155,"Mal":4156,"Roosters":4157,"143":4158,"WAITING":4159,"Daily":4160,"Rabbitohs":4161,"Ġdatabase":4162,"enton":4163,"SEF":4164,"Poland":4165,"Argentina":4166,"inceton":4167,"ĠOne":4168,"---":4169,"ĠPra":4170,"ecut":4171,"ĠPradesh":4172,"ĠCarbon":4173,"Ġpack":4174,"MICH":4175,"arget":4176,"osta":4177,"179":4178,"ATIONAL":4179,"Digte":4180,"Ġdiffer":4181,"emph":4182,"ĠArticle":4183,"ĠSupport":4184,"ocomp":4185,"Cor":4186,"aratus":4187,"ĠCard":4188,"Gets":4189,"478":4190,"VI":4191,"heap":4192,"Ġpower":4193,"ORD":4194,"SLN":4195,"148":4196,"gy":4197,"Super":4198,"182":4199,"LL":4200,"169":4201,"irt":4202,"EW":4203,"Ġrelated":4204,"amed":4205,"194":4206,"Ġ55":4207,"ini":4208,"Up":4209,"mann":4210,"Key":4211,"sburg":4212,"225":4213,"under":4214,"quer":4215,"BUR":4216,"RU":4217,"Rh":4218,"shall":4219,"agen":4220,"Fire":4221,"ĠSk":4222,"ĠDen":4223,"168":4224,"Smith":4225,"Ġwas":4226,"atre":4227,"Ġ1993":4228,"folk":4229,"Ġoz":4230,"istory":4231,"Ġdomain":4232,"ĠSand":4233,"azz":4234,"OREG":4235,"Ġorg":4236,"Com":4237,"ck":4238,"ĠBack":4239,"Mart":4240,"rocarbons":4241,"215":4242,"163":4243,"ĠRidge":4244,"enz":4245,"ĠMed":4246,"urb":4247,"org":4248,"ĠAnn":4249,"ĠAFTER":4250,"ĠOTHERS":4251,"Cre":4252,"itzerland":4253,"ĠAvailable":4254,"raham":4255,"189":4256,"Ill":4257,"echn":4258,"Creston":4259,"176":4260,"avel":4261,"LEC":4262,"anim":4263,"Ġupdate":4264,"Sol":4265,"ifer":4266,"177":4267,"Ireland":4268,"ops":4269,"1963":4270,"stoneheap":4271,"Ġwhe":4272,"ĠAmerica":4273,"KG":4274,"ĠMAR":4275,"etts":4276,"ius":4277,"che":4278,"emphis":4279,"Fit":4280,"rogen":4281,"ĠColumb":4282,"Ġdel":4283,"Low":4284,"ĠRichard":4285,"icip":4286,"Ġli":4287,":/":4288,"RS":4289,"rock":4290,"Str":4291,"Dar":4292,"castle":4293,"ĠModule":4294,"atter":4295,"backs":4296,"Ge":4297,"NI":4298,"Ġposition":4299,"wh":4300,"Hay":4301,"General":4302,"imit":4303,"pitcher":4304,"ceed":4305,"ela":4306,"ĠMob":4307,"Discontinuance":4308,"College":4309,"Cambridge":4310,"ĠHydrocarbons":4311,"UniRule":4312,"herst":4313,"144":4314,"CHOOL":4315,"Considered":4316,"PO":4317,"iary":4318,"Ġdig":4319,"506300":4320,"Internal":4321,"171":4322,"ĠRI":4323,"ries":4324,"otal":4325,"Ġstart":4326,"Ġplay":4327,"220":4328,"Id":4329,"ĠGrounds":4330,"Trans":4331,"309":4332,"ĠUt":4333,"ĠInternational":4334,"enness":4335,"ĠChester":4336,"ĠForest":4337,"Jess":4338,"Mic":4339,"Mapping":4340,"Ġmeas":4341,"3750":4342,"ĠEdmonton":4343,"rystall":4344,"Conn":4345,"Ġx":4346,"inder":4347,"ĠFits":4348,"Recent":4349,"ih":4350,"Lawrence":4351,"Hel":4352,"1199":4353,"ĠHeights":4354,"Dub":4355,"Danish":4356,"Ġco":4357,"White":4358,"ĠGeorge":4359,"irie":4360,"212":4361,"ĠVersion":4362,"1965":4363,"Bry":4364,"ITED":4365,"itial":4366,"ĠHam":4367,"ĠPrint":4368,"Ġassociated":4369,"ĠClara":4370,"ude":4371,"Ġdetermined":4372,"atin":4373,"ayette":4374,"Average":4375,"BD":4376,"Ġbut":4377,"Si":4378,"ucson":4379,"ced":4380,"gary":4381,"634":4382,"1964":4383,"embly":4384,"Ġservice":4385,"test":4386,"ĠGames":4387,"Mun":4388,"Ġmemory":4389,"News":4390,"WY":4391,"ja":4392,"ĠGro":4393,"ĠHAMAP":4394,"173":4395,"ayne":4396,"1960":4397,"ĠKS":4398,"Ġ33":4399,"ĠAVE":4400,"ĠFX":4401,"comm":4402,"arge":4403,"ĠME":4404,"gium":4405,"ĠPeters":4406,"193":4407,"ides":4408,"Dj":4409,"oward":4410,"peed":4411,"Rog":4412,"ĠAdult":4413,"ivan":4414,"VM":4415,"ĠMac":4416,"ĠTheatre":4417,"Olympic":4418,"ositive":4419,"YS":4420,"ily":4421,"irk":4422,"458":4423,"Paw":4424,"RILLIC":4425,"Ġsimilarity":4426,"Polo":4427,"riginal":4428,"Glasgow":4429,"ĠEngland":4430,"ippi":4431,"PRO":4432,"ĠCast":4433,"tx":4434,"ĠTel":4435,"Franklin":4436,"ORG":4437,"Ġminutes":4438,"Last":4439,"ĠDEV":4440,"Ġ60":4441,"Tools":4442,"Ġ80":4443,"Ġconfigured":4444,"lest":4445,"cher":4446,"ĠUl":4447,"ebec":4448,"Hawks":4449,"ulation":4450,"ĠAcc":4451,"Long":4452,"Ġfiles":4453,"Wood":4454,"Ġtheir":4455,"ttp":4456,"Radi":4457,"Sing":4458,"ĠCharles":4459,"ycl":4460,"ario":4461,"Ġmotion":4462,"ennessee":4463,"Ġevent":4464,"ais":4465,"Mass":4466,"162":4467,"inase":4468,"ĠMe":4469,"Ġweb":4470,"Ġrepairs":4471,"Intern":4472,"464":4473,"ĠGe":4474,"Go":4475,");":4476,"Bil":4477,"uced":4478,"ĠGlide":4479,"ĠCle":4480,"Form":4481,"Tucson":4482,"terpr":4483,"ani":4484,"ĠJanuary":4485,"NZ":4486,"Ġnortherly":4487,"Work":4488,"get":4489,"quip":4490,"ĠCare":4491,"achus":4492,"Record":4493,"usc":4494,"ĠMETHOD":4495,"ises":4496,"yer":4497,"Sum":4498,"DL":4499,"ared":4500,"box":4501,"CYRILLIC":4502,"uments":4503,"ĠBranch":4504,"ences":4505,"Ġoption":4506,"ĠWashington":4507,"186":4508,"pond":4509,"issippi":4510,"Atlantic":4511,"Type":4512,"Switzerland":4513,"atory":4514,"ĠLTD":4515,"ĠNot":4516,"querque":4517,"ajor":4518,"AX":4519,"RC":4520,"ĠKit":4521,"orc":4522,"acks":4523,"ĠService":4524,"ettlement":4525,"ydney":4526,"Dem":4527,"UD":4528,"VILLE":4529,"ĠApplication":4530,"Ġcell":4531,"ĠVideo":4532,"BOSTON":4533,"stitute":4534,"aves":4535,"stein":4536,"uquerque":4537,"ila":4538,"Bur":4539,"Author":4540,"arry":4541,"Ġcap":4542,"Fair":4543,"1890":4544,"Conc":4545,"7220":4546,"Ġactivity":4547,"Ġforce":4548,"net":4549,"223":4550,"ERICA":4551,"ĠMet":4552,"ĠMuseums":4553,"ĠProgram":4554,"Hz":4555,"Ġwithout":4556,"Social":4557,"ĠSam":4558,"ished":4559,"Little":4560,"ANT":4561,"ĠMichigan":4562,"ĠCD":4563,"Tul":4564,"minist":4565,"elf":4566,"LB":4567,"ĠIII":4568,"ĠMa":4569,"enny":4570,"oftware":4571,"Ġintegr":4572,"Charles":4573,"anguage":4574,"rystalline":4575,"Ke":4576,"ulf":4577,"ĠFury":4578,"ĠScorp":4579,"istor":4580,"Utah":4581,"ĠCr":4582,"Fulton":4583,"Anonymous":4584,"Ġeffect":4585,"orpor":4586,"ĠMS":4587,"anning":4588,"achusetts":4589,"Layout":4590,"ronic":4591,"Josh":4592,"ullivan":4593,"road":4594,"Brist":4595,"509":4596,"ERAL":4597,"etta":4598,"Serv":4599,"ĠCanada":4600,"At":4601,"Vi":4602,"ĠHadley":4603,"Ġdifferent":4604,"KA":4605,"305":4606,"ĠPres":4607,"Adam":4608,"ĠBull":4609,"sk":4610,"Ġapparatus":4611,"Moss":4612,"Ġvari":4613,"ume":4614,"ĠCosm":4615,"AMED":4616,"untu":4617,"ĠScorpions":4618,"ĠStrik":4619,"HS":4620,"Ġlevel":4621,"Sn":4622,"ĠAust":4623,"Road":4624,"ĠEN":4625,"Brown":4626,"spaper":4627,"Ġed":4628,"229":4629,"Ġface":4630,"Ġi":4631,"ĠSeptember":4632,"OF":4633,"ĠPhil":4634,"Ġprot":4635,"ĠOak":4636,"oyd":4637,"303":4638,"DT":4639,"ĠVan":4640,"bourne":4641,"Norfolk":4642,"Beth":4643,"dies":4644,"Ġdr":4645,"ARE":4646,"Albuquerque":4647,"vin":4648,"elson":4649,"ĠTe":4650,"ponse":4651,"Ġeasterly":4652,"Ġdefin":4653,"Ġregion":4654,"xx":4655,"ilt":4656,"Sequence":4657,"ĠOff":4658,"Clean":4659,"CTOR":4660,"ibson":4661,"UAL":4662,"Ġred":4663,"PNA":4664,"vard":4665,"Mod":4666,"ĠOld":4667,"LI":4668,"Da":4669,"ĠJeff":4670,"Scot":4671,"Waters":4672,"raft":4673,"ĠPrairie":4674,"ĠArmada":4675,"ulu":4676,"hey":4677,"Ġgo":4678,"Ġcross":4679,"tha":4680,"ĠMike":4681,"Ġ38":4682,"ĠMobility":4683,"Ġperform":4684,"Henry":4685,"herited":4686,"ICK":4687,"ĠJersey":4688,"Calgary":4689,"Newspaper":4690,"ĠEleven":4691,"ĠCor":4692,"Indy":4693,"ager":4694,"ufact":4695,"211":4696,"Montgomery":4697,"ĠColumbia":4698,"Ġprogram":4699,"ĠStrikers":4700,"ĠFebruary":4701,"fc":4702,"ĠGood":4703,"CONN":4704,"umn":4705,"ball":4706,"ĠLab":4707,"edy":4708,"Ġbusiness":4709,"glas":4710,"ermont":4711,"ique":4712,"eptide":4713,"ĠCosmos":4714,"esville":4715,"406":4716,"Ġview":4717,"ĠMy":4718,"ĠScott":4719,"Dur":4720,"ief":4721,"ĠHollywood":4722,"ĠSilverbacks":4723,"Camp":4724,"UTE":4725,"Bran":4726,"imum":4727,"ĠDevelop":4728,"ĠRowdies":4729,"ĠRailHawks":4730,"ĠRhine":4731,"Beam":4732,"ror":4733,"ĠBadge":4734,"Ġdec":4735,"Ġmov":4736,"ĠBas":4737,"phone":4738,"MMER":4739,"ĠOctober":4740,"ĠMill":4741,"chi":4742,"Cur":4743,"Ġoutput":4744,"ĠBY":4745,"Eas":4746,"500000":4747,"spect":4748,"Fund":4749,"annah":4750,"Ġinhib":4751,"lestick":4752,"Af":4753,"umba":4754,"quipment":4755,"IND":4756,"Grant":4757,"Ġkey":4758,"ĠRem":4759,"ague":4760,"ĠHold":4761,"ĠJoseph":4762,"Belgium":4763,"Ġhand":4764,"Kat":4765,"leas":4766,"Ġpitcher":4767,"utherford":4768,"Candlestick":4769,"214":4770,"Ġelectrod":4771,"Princeton":4772,"Ġlocation":4773,"ĠBra":4774,"Springfield":4775,"tain":4776,"zech":4777,"ilities":4778,"ĠJackson":4779,"Ġwhether":4780,"idase":4781,"Ġft":4782,"Stephen":4783,"ren":4784,"ruz":4785,"ergy":4786,"Get":4787,"1961":4788,"ĠEdward":4789,"ĠSO":4790,"ĠAGENT":4791,"ĠSuper":4792,"ONG":4793,"Mo":4794,"York":4795,"ello":4796,"ĠLine":4797,"Senate":4798,"uto":4799,"Route":4800,"ĠMont":4801,"isk":4802,"Bas":4803,"ĠBer":4804,"Specifies":4805,"ATED":4806,"Ġinc":4807,"Roy":4808,"set":4809,"ĠWal":4810,"Liter":4811,"Ġindic":4812,"WEST":4813,"ause":4814,"ĠCITY":4815,"olas":4816,"emp":4817,"ensive":4818,"osure":4819,"mat":4820,"kt":4821,"bro":4822,"ĠCreek":4823,"mod":4824,"update":4825,"Ġnetwork":4826,"Illinois":4827,"Ġdesc":4828,"eginn":4829,"Waitlist":4830,"zip":4831,"Ġinch":4832,"iano":4833,"Ġcode":4834,"hol":4835,"elt":4836,"ĠVI":4837,"ubuntu":4838,"ĠPan":4839,"University":4840,"ĠNe":4841,"ĠDaniel":4842,"1962":4843,"Ġdefault":4844,"mm":4845,"ĠSession":4846,"ELESS":4847,"ĠMcC":4848,"edes":4849,"ĠELECT":4850,"onductor":4851,"Stream":4852,"ountry":4853,"SDHC":4854,"Ġpage":4855,"Western":4856,"EU":4857,"ĠLane":4858,"EVEN":4859,"da":4860,"sy":4861,"Quarter":4862,"AY":4863,"BEL":4864,"iro":4865,"Commune":4866,"Ġfin":4867,"Berlin":4868,"Estate":4869,"Ġwal":4870,"essor":4871,"Event":4872,"easterly":4873,"You":4874,"utions":4875,"pert":4876,"ĠWIR":4877,"222":4878,"irection":4879,"ĠConc":4880,"ICAL":4881,"ivid":4882,"Ġyrs":4883,"imited":4884,"ĠWalk":4885,"ĠSecurity":4886,"Fall":4887,"perature":4888,"itions":4889,"Ġcare":4890,"Miller":4891,"oney":4892,"Brad":4893,"ouch":4894,"GU":4895,"ĠLondon":4896,"utch":4897,"ĠDR":4898,"ĠMT":4899,"ride":4900,"ĠAB":4901,"ocks":4902,"Lost":4903,"468":4904,"ĠAD":4905,"ova":4906,"Ġhom":4907,"Ġstud":4908,"terprise":4909,"Sho":4910,"Kal":4911,"Vu":4912,"700":4913,"IGHT":4914,"witch":4915,"1011":4916,"ĠSeries":4917,"amon":4918,"MIA":4919,"PU":4920,"PC":4921,"ancel":4922,"TEL":4923,"ĠJud":4924,"ogen":4925,"worth":4926,"ĠMov":4927,"Learn":4928,"etic":4929,"ĠWIRELESS":4930,"ĠAv":4931,"Steven":4932,"City":4933,"Her":4934,"ĠArchives":4935,"Jay":4936,"Halocomp":4937,"Halocompounds":4938,"MER":4939,"Ġfeature":4940,"outdated":4941,"ĠPe":4942,"acle":4943,"ĠEll":4944,"isp":4945,"Zumba":4946,"NYA":4947,"Big":4948,"kin":4949,"Ġusers":4950,"://":4951,"ĠStandard":4952,"Ana":4953,"Johnson":4954,"1906":4955,"rystal":4956,"orea":4957,"GOLD":4958,"Rom":4959,"urther":4960,"Marc":4961,"ĠPalm":4962,"Ġstars":4963,"ores":4964,"ima":4965,"SB":4966,"km":4967,"Branson":4968,"nes":4969,"Ġproject":4970,"ĠCross":4971,"reak":4972,"Ġpath":4973,"Ġest":4974,"pres":4975,"stown":4976,"idth":4977,"ĠFire":4978,"ART":4979,"anna":4980,"226":4981,"UND":4982,"235":4983,"RON":4984,"Edmonton":4985,"Ġexpl":4986,"Williams":4987,"ONLINE":4988,"307":4989,"1025":4990,"ĠCommittee":4991,"kg":4992,"ĠRef":4993,"ista":4994,"Dab":4995,"):":4996,"BAG":4997,"Ġet":4998,"Citiz":4999}